<unk>	0
<s>	0
</s>	0
<pad>	0
我们	-0
▁这	-1
▁我	-2
一个	-3
▁我们	-4
他们	-5
可以	-6
▁但	-7
▁在	-8
这个	-9
▁你	-10
就是	-11
什么	-12
因为	-13
这些	-14
▁而	-15
如果	-16
▁所	-17
没有	-18
▁他们	-19
现在	-20
▁那	-21
▁它	-22
知道	-23
问题	-24
▁所以	-25
的人	-26
不是	-27
▁这是	-28
自己	-29
▁因为	-30
世界	-31
▁当	-32
▁但是	-33
非常	-34
开始	-35
这样	-36
▁他	-37
一些	-38
的时	-39
▁是	-40
我的	-41
需要	-42
▁如果	-43
看到	-44
可能	-45
然后	-46
00	-47
▁有	-48
的是	-49
你们	-50
--	-51
▁不	-52
一种	-53
已经	-54
很多	-55
工作	-56
我们的	-57
人们	-58
东西	-59
▁然后	-60
▁并	-61
的事	-62
的时候	-63
▁“	-64
它们	-65
认为	-66
▁也	-67
——	-68
▁就	-69
所有	-70
发现	-71
▁这些	-72
那些	-73
▁现在	-74
或者	-75
发生	-76
研究	-77
▁这个	-78
大的	-79
一样	-80
国家	-81
不同	-82
到了	-83
孩子	-84
如何	-85
生活	-86
。”	-87
其他	-88
重要	-89
还有	-90
的一	-91
▁和	-92
大家	-93
▁一	-94
地方	-95
你的	-96
起来	-97
美国	-98
通过	-99
▁对	-100
这是	-101
这种	-102
▁她	-103
改变	-104
都是	-105
好的	-106
告诉	-107
▁以	-108
部分	-109
..	-110
能够	-111
设计	-112
方式	-113
任何	-114
▁从	-115
人的	-116
为什么	-117
中的	-118
▁让	-119
▁来	-120
使用	-121
关于	-122
人类	-123
只是	-124
这里	-125
故事	-126
系统	-127
▁而且	-128
▁一个	-129
不会	-130
事实	-131
怎么	-132
时间	-133
▁最	-134
进行	-135
应该	-136
一下	-137
希望	-138
技术	-139
觉得	-140
一起	-141
因此	-142
社会	-143
数据	-144
科学	-145
是一个	-146
必须	-147
来的	-148
上的	-149
来说	-150
成为	-151
他们的	-152
实际	-153
▁它们	-154
这样的	-155
自己的	-156
这一	-157
不能	-158
正在	-159
个人	-160
信息	-161
还是	-162
一次	-163
的事情	-164
到的	-165
▁我想	-166
▁因此	-167
创造	-168
方法	-169
样的	-170
生物	-171
▁并且	-172
今天	-173
真的	-174
▁比	-175
▁如果你	-176
我想	-177
的东西	-178
▁每	-179
▁或者	-180
喜欢	-181
公司	-182
完全	-183
发展	-184
做的	-185
存在	-186
新的	-187
谢谢	-188
▁那么	-189
同时	-190
甚至	-191
了一个	-192
20	-193
▁就是	-194
了一	-195
生命	-196
那个	-197
这么	-198
更多	-199
之后	-200
▁其	-201
▁大	-202
影响	-203
▁我的	-204
解决	-205
▁这就是	-206
事实上	-207
他的	-208
作为	-209
帮助	-210
实际上	-211
真正	-212
经济	-213
决定	-214
的问题	-215
情况	-216
为了	-217
▁第	-218
▁都	-219
选择	-220
城市	-221
结果	-222
,“	-223
了解	-224
简单	-225
:“	-226
也是	-227
意识	-228
机器	-229
有一个	-230
的地方	-231
▁还有	-232
实验	-233
过去	-234
如此	-235
大脑	-236
想法	-237
▁你们	-238
得到	-239
不同的	-240
相信	-241
看看	-242
两个	-243
是在	-244
时候	-245
那里	-246
许多	-247
动物	-248
组织	-249
一直	-250
事情	-251
19	-252
仅仅	-253
照片	-254
过程	-255
环境	-256
▁以及	-257
之前	-258
整个	-259
政府	-260
性的	-261
只有	-262
感觉	-263
项目	-264
产生	-265
变得	-266
年前	-267
就会	-268
原因	-269
?”	-270
拥有	-271
不知道	-272
想象	-273
细胞	-274
▁的	-275
想要	-276
▁--	-277
方面	-278
10	-279
来自	-280
艺术	-281
地球	-282
之间	-283
下来	-284
的话	-285
于是	-286
朋友	-287
无法	-288
全球	-289
之一	-290
自然	-291
▁你可以	-292
▁或	-293
出来	-294
理解	-295
一点	-296
建筑	-297
er	-298
能力	-299
例子	-300
我在	-301
▁谢谢	-302
网络	-303
展示	-304
变化	-305
▁去	-306
找到	-307
提供	-308
教育	-309
▁可以	-310
里的	-311
变成	-312
那么	-313
它的	-314
学习	-315
▁用	-316
是什么	-317
运动	-318
▁比如	-319
▁人们	-320
▁好	-321
对于	-322
成功	-323
▁于是	-324
并不	-325
▁当然	-326
是个	-327
▁把	-328
200	-329
an	-330
关系	-331
学生	-332
行为	-333
基本	-334
▁事实上	-335
非洲	-336
音乐	-337
意思	-338
计算	-339
▁要	-340
有一	-341
▁这种	-342
▁我们的	-343
基因	-344
学家	-345
如果你	-346
的方式	-347
思考	-348
科技	-349
▁这样	-350
是一	-351
电脑	-352
学校	-353
经历	-354
▁那些	-355
美元	-356
▁会	-357
出现	-358
历史	-359
声音	-360
空间	-361
让我	-362
▁将	-363
安全	-364
意味	-365
女性	-366
意义	-367
▁就像	-368
控制	-369
身体	-370
▁没有	-371
游戏	-372
机会	-373
件事	-374
怎样	-375
的一个	-376
50	-377
有趣	-378
演讲	-379
的时间	-380
未来	-381
利用	-382
各种	-383
就像	-384
另一个	-385
建立	-386
令人	-387
以及	-388
▁很	-389
世纪	-390
让我们	-391
▁与	-392
特别	-393
意味着	-394
复杂	-395
完成	-396
最后	-397
我们可以	-398
其实	-399
印度	-400
是否	-401
健康	-402
所有的	-403
▁(	-404
其中	-405
在一起	-406
制造	-407
▁这里	-408
尝试	-409
感到	-410
文化	-411
有些	-412
确实	-413
多少	-414
有人	-415
▁我们可以	-416
医生	-417
当时	-418
主义	-419
保护	-420
说的	-421
重要的	-422
宇宙	-423
▁我认为	-424
做了	-425
参与	-426
年的	-427
▁♫	-428
意识到	-429
我们在	-430
把它	-431
进入	-432
▁正	-433
几个	-434
活动	-435
▁所以我	-436
合作	-437
目标	-438
神经	-439
语言	-440
▁即	-441
获得	-442
食物	-443
多数	-444
继续	-445
计划	-446
地区	-447
小时	-448
▁为什么	-449
中国	-450
将会	-451
注意	-452
电影	-453
另一	-454
▁通过	-455
接受	-456
你可以	-457
另外	-458
政治	-459
第一	-460
▁不过	-461
ar	-462
也许	-463
有的	-464
中心	-465
联系	-466
才能	-467
解释	-468
世界上	-469
家庭	-470
所以	-471
模式	-472
▁而是	-473
▁我在	-474
▁只	-475
更加	-476
努力	-477
叫做	-478
大学	-479
看起来	-480
▁这是一个	-481
作用	-482
市场	-483
疾病	-484
▁同时	-485
年轻	-486
小的	-487
▁但我	-488
▁到	-489
ED	-490
in	-491
几乎	-492
治疗	-493
然而	-494
重新	-495
价值	-496
工具	-497
三个	-498
000	-499
量的	-500
首先	-501
▁如果我们	-502
领域	-503
实现	-504
回到	-505
数字	-506
”。	-507
出了	-508
on	-509
▁接	-510
是我们	-511
我要	-512
现实	-513
▁非常	-514
生产	-515
里面	-516
十分	-517
▁然而	-518
处理	-519
死亡	-520
曾经	-521
社区	-522
看到的	-523
并不是	-524
讨论	-525
年代	-526
同样	-527
机器人	-528
包括	-529
反应	-530
就能	-531
答案	-532
30	-533
作品	-534
▁所以我们	-535
▁再	-536
▁被	-537
关注	-538
观察	-539
▁对于	-540
就可以	-541
TED	-542
挑战	-543
孩子们	-544
▁更	-545
感谢	-546
持续	-547
分享	-548
太阳	-549
都会	-550
过的	-551
▁还	-552
她的	-553
容易	-554
都有	-555
更多的	-556
一定	-557
▁你会	-558
是我	-559
自由	-560
产品	-561
百万	-562
▁最后	-563
▁也许	-564
▁当我	-565
分钟	-566
▁实际上	-567
相当	-568
▁能	-569
有点	-570
结构	-571
服务	-572
出的	-573
准备	-574
区域	-575
成的	-576
有了	-577
▁无	-578
认识	-579
视频	-580
超过	-581
不可	-582
在这里	-583
▁甚至	-584
制作	-585
在这	-586
▁像	-587
某种	-588
力量	-589
带来	-590
观众	-591
显示	-592
汽车	-593
色的	-594
▁为	-595
主要	-596
的故事	-597
行动	-598
▁让我们	-599
兴趣	-600
我说	-601
资源	-602
15	-603
唯一	-604
总是	-605
代表	-606
▁可	-607
根本	-608
的大	-609
....	-610
直到	-611
▁当你	-612
程度	-613
那样	-614
明白	-615
模型	-616
巨大的	-617
战争	-618
去了	-619
支持	-620
真实	-621
发生了	-622
可能会	-623
这个问题	-624
考虑	-625
类似	-626
当然	-627
观点	-628
的方法	-629
增长	-630
寻找	-631
分子	-632
比较	-633
▁也就是	-634
精神	-635
不到	-636
越来	-637
理论	-638
发明	-639
病毒	-640
▁看	-641
女孩	-642
电话	-643
第二	-644
越来越	-645
自我	-646
科学家	-647
虽然	-648
▁我们在	-649
基础	-650
多的	-651
知识	-652
目前	-653
都在	-654
力的	-655
工程	-656
海洋	-657
是因为	-658
纽约	-659
能源	-660
不断	-661
成了	-662
化的	-663
一个人	-664
每个	-665
办法	-666
通常	-667
的小	-668
的人们	-669
上面	-670
结束	-671
尽管	-672
概念	-673
▁其实	-674
的工作	-675
▁关于	-676
▁使	-677
机构	-678
同样的	-679
很多人	-680
她们	-681
病人	-682
每个人	-683
但是	-684
听到	-685
▁S	-686
”,	-687
在一个	-688
以前	-689
▁我们需要	-690
有关	-691
最终	-692
投资	-693
▁所有	-694
并且	-695
母亲	-696
▁C	-697
身上	-698
记录	-699
做出	-700
愿意	-701
一切	-702
离开	-703
传统	-704
▁说	-705
哪里	-706
一位	-707
仅仅是	-708
▁如	-709
第一次	-710
计算机	-711
▁那就是	-712
材料	-713
第一个	-714
en	-715
测试	-716
百分	-717
做到	-718
手机	-719
记得	-720
▁不是	-721
▁其中	-722
清楚	-723
100	-724
别人	-725
大概	-726
媒体	-727
用的	-728
角度	-729
▁作为	-730
错误	-731
图片	-732
速度	-733
▁今天	-734
也不	-735
NA	-736
▁给	-737
受到	-738
▁为了	-739
医疗	-740
得不	-741
▁当我们	-742
移动	-743
名字	-744
物质	-745
关键	-746
充满	-747
就在	-748
世界的	-749
英国	-750
仍然	-751
男人	-752
▁他说	-753
实验室	-754
等等	-755
▁B	-756
定的	-757
▁由	-758
谈论	-759
一天	-760
当你	-761
有个	-762
回答	-763
导致	-764
这就是	-765
试图	-766
▁大家	-767
你会	-768
每天	-769
领导	-770
有很多	-771
女人	-772
有效	-773
le	-774
父母	-775
面对	-776
而言	-777
父亲	-778
证明	-779
大约	-780
应用	-781
正确	-782
飞行	-783
后来	-784
在这个	-785
的世界	-786
相关	-787
设备	-788
并没有	-789
电视	-790
管理	-791
保持	-792
很好	-793
数学	-794
大多数	-795
增加	-796
我不	-797
直接	-798
一样的	-799
我们所	-800
植物	-801
人口	-802
足够	-803
连接	-804
▁我不	-805
是如何	-806
▁"	-807
下的	-808
也会	-809
至少	-810
简单的	-811
看见	-812
电子	-813
做什么	-814
在我	-815
内容	-816
建造	-817
想到	-818
不可能	-819
了我	-820
交流	-821
12	-822
物种	-823
十年	-824
探索	-825
气候	-826
▁我说	-827
例如	-828
老师	-829
我认为	-830
具有	-831
而且	-832
真正的	-833
or	-834
共同	-835
我是	-836
更好	-837
本身	-838
你知道	-839
民主	-840
物理	-841
放在	-842
现象	-843
▁首先	-844
利亚	-845
达到	-846
随着	-847
18	-848
创新	-849
用来	-850
减少	-851
儿童	-852
时代	-853
方向	-854
的情况	-855
永远	-856
给你们	-857
让人	-858
▁而不是	-859
给我	-860
范围	-861
▁第二	-862
40	-863
也有	-864
到底	-865
功能	-866
互联	-867
药物	-868
企业	-869
团队	-870
看着	-871
表现	-872
的一部分	-873
。“	-874
▁当时	-875
之间的	-876
进化	-877
▁一些	-878
的原因	-879
▁A	-880
▁M	-881
网站	-882
最大的	-883
某些	-884
能量	-885
▁我是	-886
危险	-887
形式	-888
癌症	-889
▁我要	-890
▁因为我们	-891
明显	-892
子的	-893
突然	-894
是一种	-895
一张	-896
一步	-897
者的	-898
我会	-899
了这个	-900
告诉你	-901
上去	-902
体的	-903
▁让我	-904
▁我觉得	-905
▁想	-906
刚刚	-907
快乐	-908
面的	-909
我就	-910
基本上	-911
分析	-912
很难	-913
很有	-914
人员	-915
会有	-916
困难	-917
来看	-918
经常	-919
其它	-920
欧洲	-921
60	-922
周围	-923
开发	-924
斯坦	-925
ic	-926
以后	-927
规模	-928
飞机	-929
坐在	-930
数量	-931
不要	-932
公共	-933
▁你的	-934
▁已经	-935
商业	-936
▁尽管	-937
▁但我们	-938
百分之	-939
▁有些	-940
型的	-941
让你	-942
▁我会	-943
▁即使	-944
互联网	-945
严重	-946
难以	-947
▁下	-948
位置	-949
心理	-950
▁虽然	-951
▁因为我	-952
各位	-953
方案	-954
不再	-955
11	-956
告诉我	-957
相同	-958
▁你知道	-959
个月	-960
梦想	-961
▁除	-962
地图	-963
地的	-964
有着	-965
尼亚	-966
调查	-967
消息	-968
预测	-969
加入	-970
手术	-971
程序	-972
表达	-973
给你	-974
如果我们	-975
DNA	-976
▁在我	-977
当我	-978
过来	-979
最好的	-980
▁美国	-981
拍摄	-982
根据	-983
▁能够	-984
其他的	-985
大部分	-986
...	-987
更好的	-988
对我	-989
要求	-990
记忆	-991
担心	-992
全世界	-993
▁他们的	-994
肯定	-995
上帝	-996
在于	-997
收入	-998
也可以	-999
发生在	-1000
体验	-1001
▁可能	-1002
来到	-1003
那种	-1004
▁请	-1005
▁直到	-1006
事物	-1007
行的	-1008
▁那是	-1009
el	-1010
传播	-1011
眼睛	-1012
妈妈	-1013
at	-1014
确定	-1015
▁结果	-1016
我们需要	-1017
▁却	-1018
只能	-1019
国际	-1020
▁它是	-1021
任务	-1022
状态	-1023
过去的	-1024
▁-	-1025
形成	-1026
现代	-1027
石油	-1028
过程中	-1029
经过	-1030
一年	-1031
参加	-1032
最近	-1033
人类的	-1034
似乎	-1035
暴力	-1036
系列	-1037
住在	-1038
化学	-1039
定义	-1040
称为	-1041
▁还是	-1042
生活在	-1043
从来	-1044
提高	-1045
其他人	-1046
这一点	-1047
医院	-1048
面临	-1049
所有人	-1050
问题是	-1051
它是	-1052
样子	-1053
它们的	-1054
it	-1055
感受	-1056
经验	-1057
▁都是	-1058
▁”	-1059
平均	-1060
法律	-1061
25	-1062
描述	-1063
目的	-1064
软件	-1065
国家的	-1066
有什么	-1067
你在	-1068
思想	-1069
▁我知道	-1070
宗教	-1071
一段	-1072
道德	-1073
正常	-1074
出来的	-1075
多么	-1076
值得	-1077
尤其	-1078
收集	-1079
比如	-1080
相互	-1081
试着	-1082
▁只有	-1083
好像	-1084
生存	-1085
生的	-1086
▁在这个	-1087
事件	-1088
子里	-1089
带着	-1090
阶段	-1091
一条	-1092
信号	-1093
长的	-1094
▁我希望	-1095
▁例如	-1096
感兴趣	-1097
风险	-1098
▁但是我	-1099
和我	-1100
发生的	-1101
is	-1102
▁无论	-1103
全部	-1104
是很	-1105
奇怪	-1106
聪明	-1107
你能	-1108
本书	-1109
标准	-1110
发现了	-1111
幸福	-1112
了我们	-1113
▁—	-1114
训练	-1115
的孩子	-1116
新闻	-1117
普通	-1118
▁人	-1119
因素	-1120
不需要	-1121
很快	-1122
房间	-1123
我们要	-1124
效果	-1125
完美	-1126
试验	-1127
说过	-1128
▁做	-1129
生态	-1130
行星	-1131
我们有	-1132
▁但这	-1133
里斯	-1134
80	-1135
失败	-1136
革命	-1137
我们能	-1138
▁♪	-1139
意思是	-1140
打开	-1141
专家	-1142
不仅	-1143
后的	-1144
这张	-1145
回来	-1146
自身	-1147
看到了	-1148
森林	-1149
表演	-1150
▁一种	-1151
▁又	-1152
以为	-1153
图像	-1154
美丽	-1155
得到了	-1156
是有	-1157
兴奋	-1158
吸引	-1159
恐怖	-1160
糟糕	-1161
▁接着	-1162
水平	-1163
每一个	-1164
我所	-1165
用于	-1166
我们就	-1167
▁假	-1168
不过	-1169
恐惧	-1170
问题的	-1171
好了	-1172
在那	-1173
了很多	-1174
当我们	-1175
妇女	-1176
星期	-1177
▁我们要	-1178
会议	-1179
绝对	-1180
都不	-1181
▁我们有	-1182
显然	-1183
介绍	-1184
政策	-1185
上了	-1186
消失	-1187
▁只是	-1188
的研究	-1189
英尺	-1190
都知道	-1191
一只	-1192
下去	-1193
高的	-1194
鼓掌	-1195
告诉我们	-1196
重要的是	-1197
al	-1198
▁J	-1199
▁R	-1200
不起	-1201
视觉	-1202
oo	-1203
是的	-1204
▁如何	-1205
的最	-1206
需求	-1207
的一切	-1208
▁他的	-1209
是怎么	-1210
句话	-1211
心的	-1212
这项	-1213
危机	-1214
这是一个	-1215
am	-1216
创作	-1217
时的	-1218
运作	-1219
▁很多	-1220
两种	-1221
开放	-1222
神奇	-1223
表明	-1224
▁D	-1225
允许	-1226
某个	-1227
结合	-1228
说明	-1229
▁另外	-1230
▁我也	-1231
,”	-1232
基于	-1233
伟大的	-1234
改变了	-1235
以来	-1236
星球	-1237
都能	-1238
几年	-1239
成本	-1240
▁它的	-1241
▁P	-1242
不错	-1243
▁那个	-1244
一名	-1245
中间	-1246
责任	-1247
进步	-1248
很重要	-1249
▁我们必须	-1250
es	-1251
▁我可以	-1252
细菌	-1253
复杂的	-1254
权利	-1255
男孩	-1256
或许	-1257
▁开始	-1258
70	-1259
90	-1260
先生	-1261
边的	-1262
会说	-1263
▁看看	-1264
不多	-1265
▁这就	-1266
艺术家	-1267
▁她们	-1268
到达	-1269
一件	-1270
心脏	-1271
距离	-1272
运用	-1273
接触	-1274
这样做	-1275
空气	-1276
▁不管	-1277
▁但是我们	-1278
的数据	-1279
种族	-1280
医学	-1281
正是	-1282
可能是	-1283
▁我们也	-1284
土地	-1285
平等	-1286
的生活	-1287
真是	-1288
花费	-1289
之为	-1290
类的	-1291
动作	-1292
一般	-1293
投入	-1294
些什么	-1295
女士	-1296
英里	-1297
站在	-1298
▁或是	-1299
处于	-1300
联合	-1301
▁最终	-1302
的信息	-1303
这么做	-1304
▁我们会	-1305
有多	-1306
消费	-1307
il	-1308
幸运	-1309
智慧	-1310
▁人类	-1311
称之为	-1312
给我们	-1313
给大家	-1314
▁T	-1315
▁没	-1316
感染	-1317
的想法	-1318
▁克	-1319
动的	-1320
压力	-1321
工业	-1322
▁19	-1323
有一些	-1324
▁相	-1325
特殊	-1326
规则	-1327
▁只要	-1328
▁G	-1329
提出	-1330
不得不	-1331
很好的	-1332
去做	-1333
男性	-1334
未来的	-1335
▁因为他们	-1336
▁你能	-1337
▁正如	-1338
没有人	-1339
都可以	-1340
▁这是个	-1341
办公	-1342
婴儿	-1343
监狱	-1344
▁我们现在	-1345
▁跟	-1346
▁我们还	-1347
不用	-1348
同事	-1349
状况	-1350
在我们	-1351
之中	-1352
当地	-1353
西方	-1354
转变	-1355
体系	-1356
取得	-1357
让他们	-1358
▁我们能	-1359
建议	-1360
威胁	-1361
或是	-1362
痛苦	-1363
角色	-1364
二十	-1365
银行	-1366
降低	-1367
工作的	-1368
一直在	-1369
公民	-1370
条件	-1371
表面	-1372
ac	-1373
我可以	-1374
的照片	-1375
彼此	-1376
形状	-1377
每年	-1378
艾滋	-1379
表示	-1380
装置	-1381
这一切	-1382
告诉你们	-1383
害怕	-1384
情绪	-1385
我也	-1386
了一些	-1387
▁自	-1388
从未	-1389
总统	-1390
晚上	-1391
的那	-1392
▁那时	-1393
设计的	-1394
期的	-1395
在那里	-1396
▁非常感谢	-1397
思维	-1398
这些人	-1399
ou	-1400
很大	-1401
专业	-1402
对吧	-1403
那时	-1404
▁之后	-1405
大量的	-1406
别的	-1407
动力	-1408
小孩	-1409
属于	-1410
高兴	-1411
找到了	-1412
生命的	-1413
▁我们就	-1414
房子	-1415
所在	-1416
讲述	-1417
▁好吧	-1418
世界各	-1419
......	-1420
刚才	-1421
学会	-1422
▁我就	-1423
使得	-1424
出去	-1425
把它们	-1426
▁然后我们	-1427
▁1	-1428
回家	-1429
疯狂	-1430
见的	-1431
学的	-1432
▁来自	-1433
年轻人	-1434
这件事	-1435
as	-1436
▁这是我	-1437
内部	-1438
患者	-1439
是最	-1440
▁后来	-1441
是非常	-1442
出生	-1443
避免	-1444
其中的	-1445
的能力	-1446
还没有	-1447
大量	-1448
很大的	-1449
情况下	-1450
积极	-1451
适应	-1452
我觉得	-1453
交通	-1454
他人	-1455
保证	-1456
博物	-1457
爱的	-1458
和平	-1459
是不	-1460
职业	-1461
▁包括	-1462
▁在这	-1463
对话	-1464
蛋白	-1465
▁想象	-1466
博物馆	-1467
的影响	-1468
名的	-1469
质量	-1470
还在	-1471
还要	-1472
颜色	-1473
对此	-1474
独立	-1475
冲突	-1476
可怕	-1477
塑料	-1478
下来的	-1479
地球上	-1480
▁两	-1481
你所	-1482
屏幕	-1483
得到的	-1484
▁上	-1485
你要	-1486
基金	-1487
阿拉	-1488
变成了	-1489
差不多	-1490
的国家	-1491
不想	-1492
有可能	-1493
美国人	-1494
▁L	-1495
当中	-1496
毫无	-1497
知的	-1498
组成	-1499
▁或许	-1500
价格	-1501
停止	-1502
限制	-1503
互相	-1504
快速	-1505
设计师	-1506
关心	-1507
我能	-1508
测量	-1509
他们在	-1510
有趣的	-1511
垃圾	-1512
竞争	-1513
资金	-1514
阅读	-1515
▁这一	-1516
▁需要	-1517
▁然后我	-1518
四个	-1519
文章	-1520
可以看到	-1521
家伙	-1522
广告	-1523
▁总	-1524
儿子	-1525
杂志	-1526
et	-1527
之外	-1528
只要	-1529
相似	-1530
把这些	-1531
失去	-1532
操作	-1533
氧化	-1534
警察	-1535
生活中	-1536
的结果	-1537
▁这样的	-1538
哪些	-1539
证据	-1540
▁任何	-1541
巨大	-1542
看来	-1543
绿色	-1544
而不是	-1545
不在	-1546
信任	-1547
度的	-1548
排放	-1549
▁尤其	-1550
他说	-1551
太空	-1552
花了	-1553
▁而这	-1554
也没有	-1555
什么是	-1556
分之一	-1557
▁我们已经	-1558
太多	-1559
过了	-1560
造成	-1561
程度上	-1562
行业	-1563
下降	-1564
信仰	-1565
▁我很	-1566
▁多	-1567
时刻	-1568
负责	-1569
▁K	-1570
▁有人	-1571
智能	-1572
比亚	-1573
的确	-1574
设施	-1575
逐渐	-1576
邀请	-1577
漂亮	-1578
听起来	-1579
年龄	-1580
引起	-1581
破坏	-1582
集中	-1583
都没有	-1584
▁我们将	-1585
家人	-1586
理由	-1587
的主	-1588
用了	-1589
你们的	-1590
情感	-1591
接近	-1592
那是	-1593
给他们	-1594
▁他们会	-1595
成长	-1596
▁几	-1597
发表	-1598
教授	-1599
本质	-1600
▁如今	-1601
▁每个	-1602
▁第一	-1603
注意到	-1604
并非	-1605
火星	-1606
利益	-1607
呼吸	-1608
很棒	-1609
模拟	-1610
你就	-1611
实在	-1612
武器	-1613
阻止	-1614
▁特别	-1615
▁那里	-1616
怎么样	-1617
的事物	-1618
▁此	-1619
千万	-1620
女儿	-1621
背景	-1622
带来的	-1623
▁接下来	-1624
▁这不是	-1625
▁现在我们	-1626
拯救	-1627
珊瑚	-1628
疫苗	-1629
神经元	-1630
社交	-1631
统计	-1632
▁从而	-1633
办公室	-1634
工程师	-1635
的声音	-1636
这样一个	-1637
我们会	-1638
▁比如说	-1639
▁我们知道	-1640
一场	-1641
你是	-1642
课程	-1643
同情	-1644
时期	-1645
是由	-1646
物体	-1647
财富	-1648
部门	-1649
年里	-1650
可能性	-1651
习惯	-1652
燃料	-1653
生长	-1654
面前	-1655
生活的	-1656
之处	-1657
结论	-1658
▁而我	-1659
正确的	-1660
惊讶	-1661
放弃	-1662
老鼠	-1663
鼓励	-1664
▁如果我	-1665
互动	-1666
差异	-1667
的新	-1668
身份	-1669
常常	-1670
所谓	-1671
放到	-1672
记住	-1673
爆炸	-1674
re	-1675
成员	-1676
对我们	-1677
有多少	-1678
仔细	-1679
假设	-1680
思议	-1681
才是	-1682
搜索	-1683
▁大约	-1684
日本	-1685
遇到	-1686
▁——	-1687
▁我相信	-1688
犯罪	-1689
▁是的	-1690
可以在	-1691
没有任何	-1692
一代	-1693
恢复	-1694
特的	-1695
▁我开始	-1696
平衡	-1697
来源	-1698
亿美元	-1699
把这个	-1700
的例子	-1701
一项	-1702
不了	-1703
都很	-1704
存在的	-1705
卫生	-1706
承认	-1707
马上	-1708
▁这也是	-1709
上升	-1710
了这	-1711
即使	-1712
摄影	-1713
我们现在	-1714
家里	-1715
岁的	-1716
报道	-1717
改善	-1718
文字	-1719
温度	-1720
猩猩	-1721
所做的	-1722
公开	-1723
来了	-1724
群体	-1725
诊断	-1726
太阳能	-1727
▁因为它	-1728
英语	-1729
认知	-1730
那儿	-1731
长大	-1732
我来说	-1733
旅行	-1734
产生的	-1735
公园	-1736
学院	-1737
▁正在	-1738
成功的	-1739
像是	-1740
理念	-1741
谷歌	-1742
!”	-1743
▁加	-1744
再次	-1745
循环	-1746
文明	-1747
演奏	-1748
而是	-1749
蚂蚁	-1750
▁我不知道	-1751
▁H	-1752
依赖	-1753
建设	-1754
的环境	-1755
我们已经	-1756
包含	-1757
原始	-1758
多样	-1759
终于	-1760
贫穷	-1761
资本	-1762
▁小	-1763
同意	-1764
培养	-1765
想想	-1766
报告	-1767
比赛	-1768
看待	-1769
500	-1770
▁大概	-1771
▁我将	-1772
必要	-1773
成果	-1774
▁目前	-1775
▁另一个	-1776
做的事情	-1777
om	-1778
享受	-1779
卫星	-1780
打算	-1781
成为了	-1782
免费	-1783
发生了什么	-1784
原则	-1785
富汗	-1786
熟悉	-1787
路上	-1788
▁我还	-1789
人们的	-1790
我知道	-1791
阿富汗	-1792
各个	-1793
坚持	-1794
见过	-1795
针对	-1796
艾滋病	-1797
会在	-1798
好吧	-1799
食品	-1800
二氧化	-1801
ad	-1802
是从	-1803
网上	-1804
观念	-1805
▁200	-1806
一家	-1807
下面	-1808
式的	-1809
贫困	-1810
▁20	-1811
▁同样	-1812
▁好的	-1813
也就是	-1814
在美国	-1815
扫描	-1816
星系	-1817
运行	-1818
重复	-1819
的力量	-1820
▁而我们	-1821
年后	-1822
谈谈	-1823
▁整个	-1824
▁这意味着	-1825
▁2	-1826
▁向	-1827
交易	-1828
障碍	-1829
▁许多	-1830
真实的	-1831
人民	-1832
体内	-1833
看法	-1834
说话	-1835
▁完全	-1836
是不是	-1837
来自于	-1838
ed	-1839
消耗	-1840
究竟	-1841
驾驶	-1842
的社会	-1843
这个世界	-1844
▁你可以看到	-1845
发出	-1846
外的	-1847
安德	-1848
咖啡	-1849
检测	-1850
污染	-1851
确保	-1852
节目	-1853
面包	-1854
▁就在	-1855
▁这张	-1856
%。	-1857
博士	-1858
左右	-1859
年来	-1860
拉克	-1861
▁所有的	-1862
▁谁	-1863
斯特	-1864
电池	-1865
走进	-1866
采取	-1867
▁但在	-1868
之所以	-1869
我们对	-1870
今年	-1871
做得	-1872
对的	-1873
找出	-1874
至于	-1875
不仅仅是	-1876
不可思议	-1877
16	-1878
一块	-1879
不管	-1880
位于	-1881
了这些	-1882
二氧化碳	-1883
▁3	-1884
气候变化	-1885
器官	-1886
巴西	-1887
置信	-1888
喜欢的	-1889
看上去	-1890
创建	-1891
早上	-1892
核心	-1893
满足	-1894
部的	-1895
出现在	-1896
的过程	-1897
▁是一个	-1898
作为一个	-1899
14	-1900
妻子	-1901
资料	-1902
▁世界	-1903
▁进行	-1904
下一个	-1905
帮助我们	-1906
▁谢谢大家	-1907
he	-1908
农业	-1909
往往	-1910
成就	-1911
笑声	-1912
▁第一个	-1913
会被	-1914
元素	-1915
好处	-1916
第三	-1917
相同的	-1918
os	-1919
反对	-1920
性恋	-1921
超级	-1922
▁三	-1923
理想	-1924
细节	-1925
身边	-1926
那样的	-1927
我们必须	-1928
是这样的	-1929
攻击	-1930
无论	-1931
而已	-1932
贡献	-1933
发展中	-1934
的感觉	-1935
▁他们在	-1936
▁是因为	-1937
创意	-1938
工厂	-1939
了我的	-1940
会发生	-1941
▁在我们	-1942
复制	-1943
比例	-1944
▁于是我	-1945
也能	-1946
十亿	-1947
使用的	-1948
这儿	-1949
▁F	-1950
▁马	-1951
上万	-1952
有所	-1953
附近	-1954
▁几乎	-1955
打印	-1956
深入	-1957
肿瘤	-1958
▁我和	-1959
▁我对	-1960
▁每个人	-1961
▁我们发现	-1962
▁全	-1963
居住	-1964
得以	-1965
德国	-1966
援助	-1967
漫画	-1968
阿拉伯	-1969
人在	-1970
展现	-1971
沟通	-1972
▁也是	-1973
变革	-1974
对待	-1975
存在于	-1976
难以置信	-1977
权力	-1978
秘密	-1979
美好	-1980
问我	-1981
变得更	-1982
进一步	-1983
区别	-1984
成千	-1985
自动	-1986
英雄	-1987
获取	-1988
ter	-1989
▁她说	-1990
▁我现在	-1991
这些东西	-1992
层面	-1993
皮肤	-1994
罗斯	-1995
话题	-1996
追求	-1997
▁不要	-1998
▁你就	-1999
可持续	-2000
接下来	-2001
ch	-2002
伦敦	-2003
提到	-2004
检查	-2005
的水	-2006
让它	-2007
一个小	-2008
什么呢	-2009
几个月	-2010
微生物	-2011
也在	-2012
制度	-2013
我很	-2014
特征	-2015
方面的	-2016
原子	-2017
如今	-2018
妙的	-2019
昆虫	-2020
约翰	-2021
组合	-2022
▁有时	-2023
▁由于	-2024
另一种	-2025
蛋白质	-2026
▁高	-2027
伤害	-2028
依然	-2029
普遍	-2030
灭绝	-2031
美金	-2032
除了	-2033
做的是	-2034
▁嗯	-2035
一半	-2036
克斯	-2037
平台	-2038
彻底	-2039
摄像	-2040
毕业	-2041
激励	-2042
自行	-2043
▁希望	-2044
准确	-2045
在座	-2046
者们	-2047
▁通常	-2048
这个词	-2049
,"	-2050
将要	-2051
的技术	-2052
成为一个	-2053
看到的是	-2054
▁也就是说	-2055
ol	-2056
日常	-2057
由于	-2058
▁研究	-2059
怎么做	-2060
迅速	-2061
的一些	-2062
说的是	-2063
17	-2064
ot	-2065
▁举	-2066
▁随	-2067
相反	-2068
相机	-2069
虚拟	-2070
邮件	-2071
▁使用	-2072
范围内	-2073
人生	-2074
这次	-2075
▁创造	-2076
怎样的	-2077
需要的	-2078
▁有一个	-2079
▁新	-2080
慢慢	-2081
提醒	-2082
用户	-2083
给予	-2084
我想要	-2085
联合国	-2086
不够	-2087
个体	-2088
完整	-2089
很长	-2090
得多	-2091
现场	-2092
见到	-2093
和其他	-2094
所有这些	-2095
下了	-2096
兄弟	-2097
密码	-2098
态度	-2099
性别	-2100
恐龙	-2101
机制	-2102
购买	-2103
▁除了	-2104
一部分	-2105
强大的	-2106
我们是	-2107
内心	-2108
原理	-2109
广泛	-2110
我对	-2111
穿过	-2112
说法	-2113
途径	-2114
▁每天	-2115
出现了	-2116
足够的	-2117
ha	-2118
员工	-2119
案例	-2120
灾难	-2121
的地	-2122
的高	-2123
▁我从	-2124
▁我们都	-2125
▁或者是	-2126
us	-2127
▁E	-2128
丰富	-2129
后面	-2130
收到	-2131
衣服	-2132
释放	-2133
任何人	-2134
▁这是我们	-2135
▁海	-2136
旅程	-2137
早期	-2138
爸爸	-2139
翻译	-2140
这类	-2141
进去	-2142
这是个	-2143
13	-2144
图书	-2145
法国	-2146
流行	-2147
这条	-2148
▁假如	-2149
基因组	-2150
的设计	-2151
2000	-2152
▁并不是	-2153
怀疑	-2154
▁你要	-2155
很容易	-2156
我有	-2157
蓝色	-2158
趋势	-2159
为止	-2160
极端	-2161
公司的	-2162
等待	-2163
▁全球	-2164
▁它会	-2165
他们会	-2166
现在的	-2167
▁基本上	-2168
岁的时候	-2169
▁W	-2170
期间	-2171
有意思	-2172
▁他们说	-2173
从来没有	-2174
成千上万	-2175
他在	-2176
公众	-2177
州的	-2178
技能	-2179
给了	-2180
蜜蜂	-2181
错了	-2182
▁一旦	-2183
不仅仅	-2184
另外一个	-2185
ra	-2186
中有	-2187
期待	-2188
金融	-2189
▁可是	-2190
的人生	-2191
真的是	-2192
▁有时候	-2193
利的	-2194
浪费	-2195
▁不仅	-2196
▁什么	-2197
▁看到	-2198
▁换	-2199
写的	-2200
博客	-2201
掌握	-2202
主义者	-2203
历史上	-2204
的发展	-2205
一群	-2206
优秀	-2207
墨西	-2208
热情	-2209
看不	-2210
简直	-2211
辩论	-2212
还能	-2213
黑人	-2214
墨西哥	-2215
▁我当时	-2216
解决方案	-2217
刺激	-2218
在你	-2219
欢迎	-2220
输入	-2221
重点	-2222
孩子的	-2223
生物学	-2224
开心	-2225
执行	-2226
拒绝	-2227
走了	-2228
选举	-2229
一些人	-2230
个小时	-2231
▁我的意思是	-2232
分布	-2233
启发	-2234
强烈	-2235
机械	-2236
没人	-2237
▁他是	-2238
▁我有	-2239
▁至少	-2240
系统的	-2241
认识到	-2242
▁反	-2243
从事	-2244
199	-2245
▁另一	-2246
同性恋	-2247
我们都	-2248
这个项目	-2249
5%	-2250
不太	-2251
判断	-2252
最好	-2253
相对	-2254
记者	-2255
黑暗	-2256
▁克里斯	-2257
▁在这里	-2258
便宜	-2259
取决	-2260
应对	-2261
按照	-2262
走到	-2263
部落	-2264
▁不同	-2265
做的事	-2266
各种各	-2267
的人口	-2268
▁我们对	-2269
发挥	-2270
很少	-2271
缺乏	-2272
▁但它	-2273
的时刻	-2274
的机会	-2275
▁大多数	-2276
非常重要	-2277
伊斯	-2278
名为	-2279
来做	-2280
聚集	-2281
能在	-2282
舞台	-2283
道路	-2284
难民	-2285
id	-2286
传递	-2287
激动	-2288
适合	-2289
麻烦	-2290
▁他在	-2291
也不会	-2292
来看看	-2293
错误的	-2294
世界各地	-2295
我们应该	-2296
一旦	-2297
去年	-2298
团体	-2299
播放	-2300
改革	-2301
进来	-2302
有些人	-2303
地说	-2304
报纸	-2305
苹果	-2306
出一个	-2307
感觉到	-2308
第二个	-2309
▁他们是	-2310
万人	-2311
你想	-2312
合理	-2313
走向	-2314
▁中国	-2315
▁她的	-2316
▁就会	-2317
一系列	-2318
我自己	-2319
?“	-2320
伊朗	-2321
具体	-2322
合适	-2323
就有	-2324
期望	-2325
画面	-2326
▁你看	-2327
呈现	-2328
幻灯	-2329
我将	-2330
版本	-2331
玩具	-2332
红色	-2333
面积	-2334
所谓的	-2335
有一天	-2336
相当于	-2337
军队	-2338
学到	-2339
曲线	-2340
脆弱	-2341
取决于	-2342
我开始	-2343
▁我发现	-2344
每个人都	-2345
24	-2346
做过	-2347
到处	-2348
寿命	-2349
恒星	-2350
血管	-2351
间的	-2352
伊拉克	-2353
是这样	-2354
没什么	-2355
不好	-2356
从中	-2357
回事	-2358
我和	-2359
望远	-2360
维持	-2361
采用	-2362
▁社会	-2363
伊斯兰	-2364
使我们	-2365
这不是	-2366
▁尤其是	-2367
▁N	-2368
▁年	-2369
一片	-2370
技巧	-2371
把这	-2372
涉及	-2373
粒子	-2374
▁好了	-2375
做一个	-2376
发展的	-2377
这么多	-2378
世界上最	-2379
▁天	-2380
▁才	-2381
做法	-2382
相比	-2383
▁才能	-2384
失去了	-2385
望远镜	-2386
的时代	-2387
黑猩猩	-2388
的情况下	-2389
出版	-2390
每次	-2391
潜水	-2392
我已经	-2393
▁我们不	-2394
渴望	-2395
用它	-2396
我们将	-2397
美国的	-2398
▁这就是为什么	-2399
哪个	-2400
极其	-2401
超越	-2402
隐藏	-2403
▁一直	-2404
他们是	-2405
可能的	-2406
在哪里	-2407
了吗	-2408
后果	-2409
士兵	-2410
旁边	-2411
海岸	-2412
袭击	-2413
遗传	-2414
顺便	-2415
▁根据	-2416
▁第三	-2417
今天的	-2418
我们不	-2419
对我来说	-2420
伟大	-2421
供应	-2422
手段	-2423
的学生	-2424
真的很	-2425
▁在一个	-2426
我还	-2427
有时	-2428
沙漠	-2429
评论	-2430
产生了	-2431
件事情	-2432
同一个	-2433
的速度	-2434
▁我喜欢	-2435
这些问题	-2436
▁于是我们	-2437
▁《	-2438
全国	-2439
古老	-2440
大众	-2441
大气	-2442
居民	-2443
设想	-2444
都要	-2445
个例子	-2446
1000	-2447
▁阿	-2448
乐观	-2449
同一	-2450
慈善	-2451
探测	-2452
色列	-2453
长期	-2454
只需要	-2455
想知道	-2456
一个问题	-2457
。"	-2458
则是	-2459
好奇	-2460
客户	-2461
接着	-2462
无线	-2463
标志	-2464
把他们	-2465
一份	-2466
对象	-2467
忘记	-2468
把我	-2469
斯林	-2470
演示	-2471
电力	-2472
症状	-2473
看了	-2474
稳定	-2475
调整	-2476
▁成为	-2477
创造力	-2478
那就是	-2479
农民	-2480
回去	-2481
字母	-2482
感知	-2483
混合	-2484
远的	-2485
逻辑	-2486
▁仅仅	-2487
了不起	-2488
应该是	-2489
有效的	-2490
穆斯林	-2491
开车	-2492
强大	-2493
物品	-2494
角落	-2495
震惊	-2496
到一个	-2497
发现的	-2498
主意	-2499
埃及	-2500
气体	-2501
起了	-2502
▁随着	-2503
如果我	-2504
惊人的	-2505
▁但他们	-2506
前面	-2507
受害	-2508
死了	-2509
着的	-2510
▁最近	-2511
▁突然	-2512
临床	-2513
代码	-2514
估计	-2515
图表	-2516
将来	-2517
闭症	-2518
基本的	-2519
美丽的	-2520
▁想象一下	-2521
不幸	-2522
提升	-2523
照顾	-2524
行走	-2525
说服	-2526
▁下面	-2527
段时间	-2528
让人们	-2529
▁在那里	-2530
这些数据	-2531
名叫	-2532
哪儿	-2533
得了	-2534
效率	-2535
深刻	-2536
覆盖	-2537
谈话	-2538
透明	-2539
ing	-2540
全新的	-2541
我们也	-2542
▁对我来说	-2543
▁我们应该	-2544
21	-2545
交谈	-2546
教学	-2547
毒品	-2548
边缘	-2549
这点	-2550
▁过去	-2551
不一样	-2552
动物的	-2553
所说的	-2554
注意力	-2555
的项目	-2556
自行车	-2557
更有	-2558
综合	-2559
致力	-2560
识别	-2561
在我的	-2562
告诉他们	-2563
▁放	-2564
▁爱	-2565
不停	-2566
共享	-2567
外面	-2568
富有	-2569
就要	-2570
死去	-2571
生意	-2572
▁是否	-2573
我希望	-2574
有没有	-2575
▁你需要	-2576
某种程度上	-2577
伙伴	-2578
启动	-2579
回应	-2580
左边	-2581
灵感	-2582
疑问	-2583
▁使得	-2584
唯一的	-2585
是关于	-2586
是我的	-2587
▁因为这	-2588
倾向	-2589
前进	-2590
发布	-2591
指数	-2592
最初	-2593
瞬间	-2594
紧张	-2595
纳米	-2596
规划	-2597
▁是在	-2598
的行为	-2599
▁我们把	-2600
ur	-2601
两年	-2602
会儿	-2603
的书	-2604
转化	-2605
都被	-2606
幻灯片	-2607
▁很多人	-2608
▁作为一个	-2609
▁这是一种	-2610
一生	-2611
寻常	-2612
穿着	-2613
策略	-2614
▁CA	-2615
▁一位	-2616
听说过	-2617
基金会	-2618
大脑的	-2619
▁这些人	-2620
一边	-2621
公平	-2622
印象	-2623
在的	-2624
尊重	-2625
洛杉	-2626
演员	-2627
重建	-2628
一件事	-2629
充满了	-2630
的事实	-2631
▁我是说	-2632
我们自己	-2633
依靠	-2634
带到	-2635
教堂	-2636
标记	-2637
艰难	-2638
邻居	-2639
领袖	-2640
▁这也	-2641
向你们	-2642
▁我们从	-2643
寻求	-2644
手指	-2645
象征	-2646
这位	-2647
▁发现	-2648
就开始	-2649
很简单	-2650
自然的	-2651
,000	-2652
▁因为在	-2653
▁让他们	-2654
大多数人	-2655
每一个人	-2656
▁I	-2657
投票	-2658
有机	-2659
特定	-2660
种植	-2661
街道	-2662
转移	-2663
▁其他	-2664
传统的	-2665
打电话	-2666
的概念	-2667
的重要	-2668
▁大部分	-2669
▁而这些	-2670
ay	-2671
不足	-2672
合法	-2673
影片	-2674
措施	-2675
赋予	-2676
▁大脑	-2677
▁观众	-2678
不只是	-2679
▁这是一	-2680
▁数	-2681
一刻	-2682
形态	-2683
愤怒	-2684
文件	-2685
着手	-2686
金属	-2687
▁叫做	-2688
?"	-2689
hr	-2690
一致	-2691
人工	-2692
华盛	-2693
将其	-2694
少年	-2695
斗争	-2696
▁提供	-2697
▁每年	-2698
▁而在	-2699
必须要	-2700
的生物	-2701
▁我们所	-2702
人士	-2703
动机	-2704
品牌	-2705
是你	-2706
重大	-2707
高中	-2708
▁政府	-2709
他们说	-2710
华盛顿	-2711
▁然后你	-2712
基础设施	-2713
主题	-2714
商品	-2715
很久	-2716
成年	-2717
效应	-2718
最大	-2719
创造了	-2720
的所有	-2721
的部分	-2722
类似的	-2723
致力于	-2724
▁这些都是	-2725
人和	-2726
奖励	-2727
强调	-2728
成立	-2729
改进	-2730
特性	-2731
直觉	-2732
看过	-2733
真相	-2734
送到	-2735
的第一	-2736
的角度	-2737
进行了	-2738
im	-2739
作家	-2740
决策	-2741
右边	-2742
围绕	-2743
教师	-2744
没法	-2745
活跃	-2746
移民	-2747
肌肉	-2748
说是	-2749
▁拥有	-2750
一开始	-2751
▁我们希望	-2752
发展中国家	-2753
ab	-2754
▁开	-2755
关联	-2756
去看	-2757
志愿	-2758
总结	-2759
意见	-2760
推动	-2761
样本	-2762
玩耍	-2763
结婚	-2764
了解到	-2765
完美的	-2766
小小的	-2767
▁「	-2768
传染	-2769
地上	-2770
无所	-2771
片段	-2772
▁在那	-2773
▁帮助	-2774
感受到	-2775
朋友们	-2776
相关的	-2777
▁在美国	-2778
ub	-2779
人群	-2780
奇迹	-2781
存活	-2782
算法	-2783
精确	-2784
血液	-2785
视角	-2786
建筑师	-2787
研究的	-2788
肯尼亚	-2789
事业	-2790
前的	-2791
化石	-2792
南非	-2793
符合	-2794
进展	-2795
安德森	-2796
知道的	-2797
▁,	-2798
两者	-2799
保留	-2800
子上	-2801
录像	-2802
衡量	-2803
怎么办	-2804
是怎样	-2805
▁但是在	-2806
▁这些是	-2807
没有什么	-2808
这个故事	-2809
iP	-2810
一台	-2811
抓住	-2812
无人	-2813
来讲	-2814
流感	-2815
轨道	-2816
还会	-2817
300	-2818
城市的	-2819
被称为	-2820
最重要的	-2821
得更	-2822
明确	-2823
本来	-2824
美洲	-2825
观看	-2826
非洲的	-2827
我们能够	-2828
专注	-2829
为何	-2830
便是	-2831
单词	-2832
所需	-2833
是谁	-2834
跟我	-2835
量子	-2836
销售	-2837
你自己	-2838
还可以	-2839
生态系统	-2840
在了	-2841
对方	-2842
展开	-2843
布鲁	-2844
承诺	-2845
抑郁	-2846
转换	-2847
阳光	-2848
▁我能	-2849
在这些	-2850
造成的	-2851
非常有	-2852
▁现在我	-2853
接下来的	-2854
▁我们正在	-2855
▁亚	-2856
分裂	-2857
律师	-2858
睡眠	-2859
谈到	-2860
费用	-2861
预防	-2862
ill	-2863
▁想想	-2864
和我们	-2865
大规模	-2866
对我说	-2867
的一点	-2868
的人类	-2869
部电影	-2870
ow	-2871
修复	-2872
意大	-2873
放大	-2874
村庄	-2875
背后	-2876
▁改变	-2877
一点点	-2878
因斯坦	-2879
图书馆	-2880
自闭症	-2881
▁当他们	-2882
▁我已经	-2883
就是这样	-2884
un	-2885
地位	-2886
培训	-2887
处在	-2888
差别	-2889
愿望	-2890
旋转	-2891
祖先	-2892
至今	-2893
gle	-2894
时间的	-2895
组织的	-2896
▁我记得	-2897
▁我们认为	-2898
eb	-2899
上有	-2900
地下	-2901
地点	-2902
打破	-2903
拿着	-2904
死于	-2905
混乱	-2906
环保	-2907
▁正是	-2908
▁自己	-2909
万美元	-2910
做一些	-2911
▁艾	-2912
专利	-2913
为此	-2914
之内	-2915
好事	-2916
它会	-2917
德里	-2918
犹太	-2919
给他	-2920
道理	-2921
像这样	-2922
特别的	-2923
社会的	-2924
让你们	-2925
▁我们想	-2926
▁特别是	-2927
人体	-2928
人物	-2929
像我	-2930
场景	-2931
宣传	-2932
损失	-2933
数的	-2934
私人	-2935
采访	-2936
难道	-2937
▁确实	-2938
以色列	-2939
年轻的	-2940
拥有的	-2941
的位置	-2942
什么时候	-2943
做些什么	-2944
仪器	-2945
优势	-2946
充分	-2947
尼日	-2948
忽略	-2949
流动	-2950
笔记	-2951
达尔	-2952
进了	-2953
世纪的	-2954
企业家	-2955
干细胞	-2956
很有趣	-2957
飞行器	-2958
一百	-2959
争论	-2960
加州	-2961
变的	-2962
听说	-2963
大型	-2964
才会	-2965
称作	-2966
严重的	-2967
更大的	-2968
特定的	-2969
▁因为你	-2970
▁它可以	-2971
再生	-2972
冒险	-2973
加速	-2974
即将	-2975
平方	-2976
情形	-2977
指出	-2978
提取	-2979
极了	-2980
神秘	-2981
陷入	-2982
高度	-2983
▁去年	-2984
地球的	-2985
技术的	-2986
提到的	-2987
非常的	-2988
▁看起来	-2989
▁该	-2990
不对	-2991
发射	-2992
岁时	-2993
应当	-2994
猴子	-2995
健康的	-2996
在这儿	-2997
▁你可能	-2998
▁我们是	-2999
▁我们用	-3000
▁我们开始	-3001
你可以看到	-3002
%,	-3003
夏天	-3004
多了	-3005
患有	-3006
摆脱	-3007
模仿	-3008
远远	-3009
金钱	-3010
400	-3011
为我们	-3012
的城市	-3013
组成的	-3014
▁世界上	-3015
▁我不是	-3016
▁这是在	-3017
▁你会发现	-3018
▁前	-3019
一遍	-3020
上学	-3021
专门	-3022
图案	-3023
将它	-3024
尔的	-3025
展览	-3026
正如	-3027
贵的	-3028
马拉	-3029
也不是	-3030
完成的	-3031
带来了	-3032
的关系	-3033
ia	-3034
▁哦	-3035
倾听	-3036
营养	-3037
难题	-3038
是一名	-3039
的这个	-3040
告诉大家	-3041
▁但是他们	-3042
45	-3043
ul	-3044
三十	-3045
成分	-3046
现状	-3047
精彩	-3048
听到的	-3049
因为我	-3050
我们如何	-3051
当作	-3052
改造	-3053
标签	-3054
突破	-3055
联邦	-3056
靠近	-3057
▁但你	-3058
▁应该	-3059
▁我把	-3060
多样性	-3061
的内容	-3062
许多人	-3063
那么多	-3064
▁因为他	-3065
其中一个	-3066
99	-3067
▁[	-3068
制定	-3069
地理	-3070
场的	-3071
大陆	-3072
热爱	-3073
着我	-3074
研发	-3075
这段	-3076
▁印度	-3077
不喜欢	-3078
大学的	-3079
我现在	-3080
这个人	-3081
▁你必须	-3082
ir	-3083
ob	-3084
五十	-3085
产业	-3086
公里	-3087
制的	-3088
引发	-3089
惊奇	-3090
扮演	-3091
符号	-3092
▁就能	-3093
▁显然	-3094
▁有着	-3095
价值观	-3096
此同时	-3097
oogle	-3098
▁在过去的	-3099
发电	-3100
年了	-3101
得很	-3102
拿到	-3103
整体	-3104
留下	-3105
空中	-3106
老年	-3107
还没	-3108
▁利用	-3109
其实是	-3110
大利亚	-3111
开始的	-3112
▁有些人	-3113
解决问题	-3114
不知	-3115
中最	-3116
五个	-3117
你有	-3118
加上	-3119
地面	-3120
大小	-3121
稍微	-3122
立刻	-3123
级的	-3124
▁10	-3125
▁事实	-3126
▁将会	-3127
▁顺便	-3128
的变化	-3129
美好的	-3130
▁所有这些	-3131
各种各样的	-3132
出发	-3133
合成	-3134
天然	-3135
屋顶	-3136
所能	-3137
秒钟	-3138
练习	-3139
致命	-3140
达成	-3141
---	-3142
▁真的	-3143
做这个	-3144
很多的	-3145
▁我想要	-3146
我们知道	-3147
▁先	-3148
▁水	-3149
争议	-3150
企鹅	-3151
作出	-3152
如同	-3153
短信	-3154
说到	-3155
预算	-3156
▁上面	-3157
句话说	-3158
宇宙的	-3159
这张照片	-3160
传感	-3161
头脑	-3162
对吗	-3163
层次	-3164
诞生	-3165
黑客	-3166
好消息	-3167
的空间	-3168
的那些	-3169
▁所以他们	-3170
ik	-3171
上千	-3172
分离	-3173
禁止	-3174
穿越	-3175
遭受	-3176
▁两个	-3177
受害者	-3178
学生们	-3179
尼日利亚	-3180
吃惊	-3181
商店	-3182
实施	-3183
少的	-3184
带有	-3185
平面	-3186
很小	-3187
氧气	-3188
▁建立	-3189
已经被	-3190
是为了	-3191
代价	-3192
保健	-3193
信念	-3194
几天	-3195
发光	-3196
回报	-3197
小说	-3198
工人	-3199
形象	-3200
手臂	-3201
追踪	-3202
▁除非	-3203
心脏病	-3204
▁问题是	-3205
层的	-3206
想的	-3207
掉了	-3208
班牙	-3209
看出	-3210
腐败	-3211
运输	-3212
都没	-3213
随机	-3214
▁经济	-3215
▁设计	-3216
你需要	-3217
展示了	-3218
看不到	-3219
获得了	-3220
西班牙	-3221
▁每一个	-3222
的问题是	-3223
给你们看	-3224
▁等	-3225
一小	-3226
中东	-3227
保存	-3228
家的	-3229
得出	-3230
敏感	-3231
构建	-3232
激情	-3233
点子	-3234
脑海	-3235
蚊子	-3236
规律	-3237
集体	-3238
高速	-3239
▁必须	-3240
发明了	-3241
完成了	-3242
是可以	-3243
是如此	-3244
死亡率	-3245
▁或者说	-3246
te	-3247
不久	-3248
了个	-3249
五年	-3250
加拿	-3251
我去	-3252
火箭	-3253
着迷	-3254
表情	-3255
意大利	-3256
著名的	-3257
我不知道	-3258
光线	-3259
动画	-3260
回顾	-3261
塑造	-3262
奇妙	-3263
想像	-3264
我最	-3265
承担	-3266
支付	-3267
激发	-3268
纪录	-3269
驱动	-3270
and	-3271
俄罗斯	-3272
别人的	-3273
原因是	-3274
特殊的	-3275
的一种	-3276
科医生	-3277
▁孩子们	-3278
一段时间	-3279
任何一个	-3280
在我们的	-3281
写作	-3282
开展	-3283
影像	-3284
教室	-3285
这场	-3286
雕塑	-3287
▁每次	-3288
安全的	-3289
的样子	-3290
的经济	-3291
这两个	-3292
做的就是	-3293
▁听	-3294
一辆	-3295
南极	-3296
意外	-3297
无限	-3298
潜力	-3299
移植	-3300
饮食	-3301
麦克	-3302
son	-3303
▁一切	-3304
奇怪的	-3305
非常非常	-3306
."	-3307
▁t	-3308
以下	-3309
尔夫	-3310
忽视	-3311
生理	-3312
的前	-3313
紧密	-3314
编辑	-3315
重视	-3316
▁真正	-3317
▁经过	-3318
▁超过	-3319
意义上	-3320
运动员	-3321
▁在这些	-3322
▁5	-3323
几百	-3324
变暖	-3325
回收	-3326
少数	-3327
形的	-3328
懂得	-3329
显著	-3330
最高	-3331
穷人	-3332
起源	-3333
▁变成	-3334
▁问题	-3335
意义的	-3336
的女性	-3337
为什么要	-3338
什么样的	-3339
免疫	-3340
国会	-3341
它在	-3342
感情	-3343
更为	-3344
沿着	-3345
玩笑	-3346
里有	-3347
▁主要	-3348
主义的	-3349
做到的	-3350
▁他们都	-3351
他们自己的	-3352
个性	-3353
也很	-3354
体会	-3355
北极	-3356
所未	-3357
指导	-3358
数以	-3359
格兰	-3360
民众	-3361
点击	-3362
论文	-3363
那天	-3364
▁你在	-3365
▁这项	-3366
▁重新	-3367
消费者	-3368
的观点	-3369
经历了	-3370
.5	-3371
▁四	-3372
分开	-3373
分配	-3374
定律	-3375
推广	-3376
构造	-3377
节奏	-3378
街上	-3379
首歌	-3380
▁科学	-3381
有时候	-3382
了我们的	-3383
发生的事情	-3384
使我	-3385
原本	-3386
发达	-3387
安装	-3388
定位	-3389
异常	-3390
当今	-3391
拉斯	-3392
景象	-3393
民族	-3394
注射	-3395
石头	-3396
繁殖	-3397
这只	-3398
▁女性	-3399
▁用来	-3400
不是吗	-3401
可以用	-3402
大家都	-3403
学到的	-3404
有能力	-3405
的工具	-3406
的经历	-3407
能看到	-3408
这里的	-3409
面临的	-3410
只是一个	-3411
ie	-3412
▁理	-3413
▁过	-3414
为你	-3415
之下	-3416
单位	-3417
原来	-3418
取代	-3419
对称	-3420
欣赏	-3421
每一	-3422
▁但是这	-3423
▁所以你	-3424
▁然后他	-3425
我的工作	-3426
▁您	-3427
单一	-3428
小组	-3429
扩大	-3430
毕竟	-3431
洞穴	-3432
清洁	-3433
评估	-3434
诊所	-3435
▁但他	-3436
不平等	-3437
传感器	-3438
当地的	-3439
的演讲	-3440
的话题	-3441
▁所以说	-3442
因为我们	-3443
SA	-3444
▁斯	-3445
促进	-3446
反映	-3447
探讨	-3448
教会	-3449
的呢	-3450
▁到了	-3451
不断地	-3452
很明显	-3453
有两个	-3454
看一下	-3455
达尔文	-3456
▁但是你	-3457
想象一下	-3458
▁因此我们	-3459
巴基	-3460
房屋	-3461
承受	-3462
解放	-3463
魔术	-3464
黑洞	-3465
▁不能	-3466
可怕的	-3467
有一种	-3468
疾病的	-3469
的公司	-3470
的数量	-3471
他们可以	-3472
▁其中一个	-3473
三维	-3474
吸收	-3475
尔斯	-3476
差距	-3477
延伸	-3478
替代	-3479
气球	-3480
礼物	-3481
融合	-3482
贝尔	-3483
▁我问	-3484
的动物	-3485
答案是	-3486
进行的	-3487
▁你就会	-3488
▁我今天	-3489
▁第二个	-3490
中的一个	-3491
物理学家	-3492
av	-3493
勇气	-3494
安排	-3495
引导	-3496
更高	-3497
鲨鱼	-3498
▁怎么	-3499
一定要	-3500
个国家	-3501
已经在	-3502
开始了	-3503
认为是	-3504
▁是我们	-3505
▁没有人	-3506
生物学家	-3507
▁太	-3508
受伤	-3509
可是	-3510
和你	-3511
国的	-3512
处的	-3513
局限	-3514
快的	-3515
探险	-3516
的外	-3517
药品	-3518
连续	-3519
198	-3520
▁不会	-3521
个人的	-3522
女性的	-3523
是一位	-3524
有机会	-3525
▁所以在	-3526
保险	-3527
姐妹	-3528
密度	-3529
感官	-3530
抽象	-3531
描绘	-3532
整合	-3533
杀死	-3534
满意	-3535
克里斯	-3536
在座的	-3537
或者是	-3538
更好地	-3539
▁长	-3540
不少	-3541
住了	-3542
农场	-3543
想过	-3544
爆发	-3545
盒子	-3546
种类	-3547
认同	-3548
讨厌	-3549
讲的	-3550
防止	-3551
这本书	-3552
▁我只是	-3553
巴基斯坦	-3554
与人	-3555
世上	-3556
停车	-3557
却是	-3558
哈佛	-3559
天文	-3560
头发	-3561
白人	-3562
统治	-3563
美的	-3564
腺癌	-3565
越多	-3566
跟踪	-3567
链接	-3568
频率	-3569
one	-3570
▁一起	-3571
▁里面	-3572
不应该	-3573
典型的	-3574
提供了	-3575
的未来	-3576
▁它们是	-3577
▁我需要	-3578
这个想法	-3579
▁既	-3580
不去	-3581
先进	-3582
学术	-3583
护士	-3584
温室	-3585
特点	-3586
观的	-3587
进程	-3588
镜头	-3589
▁不论	-3590
▁把它	-3591
创造出	-3592
志愿者	-3593
病人的	-3594
领导者	-3595
不是一个	-3596
▁然后他们	-3597
ma	-3598
▁外	-3599
信心	-3600
公正	-3601
内的	-3602
大楼	-3603
对比	-3604
微笑	-3605
恰恰	-3606
显微	-3607
种子	-3608
贫民	-3609
资助	-3610
▁我被	-3611
▁自然	-3612
▁这位	-3613
▁这对	-3614
他们所	-3615
成一个	-3616
我们从	-3617
我们还	-3618
政府的	-3619
的食物	-3620
离开了	-3621
起来的	-3622
运动的	-3623
▁有很多	-3624
▁我意识到	-3625
不安	-3626
亚洲	-3627
人都	-3628
去世	-3629
在一	-3630
我从	-3631
携带	-3632
染色	-3633
棒了	-3634
玩家	-3635
设置	-3636
这幅	-3637
▁假设	-3638
也许会	-3639
我没有	-3640
op	-3641
▁中	-3642
▁写	-3643
▁带	-3644
体现	-3645
天的	-3646
得知	-3647
战斗	-3648
指挥	-3649
老人	-3650
胜利	-3651
▁认为	-3652
十年代	-3653
在那儿	-3654
摄像机	-3655
消失了	-3656
▁换句话说	-3657
35	-3658
▁别	-3659
▁及	-3660
分之	-3661
固定	-3662
强的	-3663
性和	-3664
旧金	-3665
治愈	-3666
生素	-3667
祖母	-3668
而来	-3669
跨越	-3670
远离	-3671
马斯	-3672
ook	-3673
▁它能	-3674
▁无法	-3675
之前的	-3676
几年前	-3677
旧金山	-3678
的朋友	-3679
▁也可以	-3680
▁同样的	-3681
▁就可以	-3682
▁我一直	-3683
▁我们如何	-3684
乔治	-3685
坚信	-3686
天空	-3687
她说	-3688
对抗	-3689
日子	-3690
棒的	-3691
舒服	-3692
走出	-3693
阿尔	-3694
▁想要	-3695
▁找到	-3696
做到了	-3697
在你的	-3698
漂亮的	-3699
笔记本	-3700
变得更加	-3701
的是什么	-3702
非常感谢	-3703
▁他们可以	-3704
▁6	-3705
交互	-3706
保守	-3707
分辨	-3708
小心	-3709
推特	-3710
无聊	-3711
植入	-3712
残疾	-3713
火车	-3714
罪犯	-3715
▁回到	-3716
▁非洲	-3717
存在着	-3718
建筑物	-3719
用一个	-3720
▁我看到	-3721
▁有一天	-3722
▁这一切	-3723
一座	-3724
交换	-3725
仪式	-3726
军事	-3727
家长	-3728
推进	-3729
查德	-3730
编程	-3731
运转	-3732
骨头	-3733
You	-3734
▁笑声	-3735
停下来	-3736
就像是	-3737
形成的	-3738
▁在我的	-3739
▁所以这	-3740
▁如果他们	-3741
▁我们没有	-3742
▁我们能够	-3743
▁这就是我们	-3744
他是	-3745
众人	-3746
作业	-3747
各自	-3748
对你	-3749
广场	-3750
无关	-3751
更大	-3752
灵活	-3753
的海	-3754
精力	-3755
自杀	-3756
认真	-3757
让他	-3758
课堂	-3759
▁医生	-3760
▁它在	-3761
▁相反	-3762
当他们	-3763
青少年	-3764
hris	-3765
▁就好像	-3766
ig	-3767
协调	-3768
员会	-3769
墙上	-3770
就被	-3771
忘了	-3772
焦虑	-3773
瑞典	-3774
确信	-3775
风格	-3776
▁我曾	-3777
▁有趣	-3778
▁这次	-3779
地区的	-3780
学到了	-3781
尽可能	-3782
科学的	-3783
这么说	-3784
这些事情	-3785
▁但事实上	-3786
意味着什么	-3787
▁发	-3788
▁现	-3789
一大	-3790
亿人	-3791
分散	-3792
加哥	-3793
听过	-3794
是用	-3795
树木	-3796
水中	-3797
活着	-3798
ard	-3799
▁并不	-3800
▁曾经	-3801
▁进入	-3802
从一个	-3803
同情心	-3804
和一个	-3805
是这个	-3806
独特的	-3807
的名字	-3808
站起来	-3809
遇到了	-3810
▁同	-3811
举手	-3812
具备	-3813
分类	-3814
动态	-3815
史蒂	-3816
团结	-3817
家族	-3818
岩石	-3819
扩展	-3820
没错	-3821
法案	-3822
波士	-3823
繁荣	-3824
航空	-3825
退休	-3826
▁学习	-3827
▁我只	-3828
▁解决	-3829
就这样	-3830
▁我没有	-3831
做了一个	-3832
我们的生活	-3833
Google	-3834
保罗	-3835
哲学	-3836
宣布	-3837
帮我	-3838
干净	-3839
接收	-3840
方便	-3841
视为	-3842
赢得	-3843
▁令人	-3844
▁地球	-3845
▁都在	-3846
▁都有	-3847
之类的	-3848
古老的	-3849
大自然	-3850
将这些	-3851
想要的	-3852
的作品	-3853
的作用	-3854
▁我们看到	-3855
▁因	-3856
一句	-3857
不止	-3858
两倍	-3859
乐队	-3860
付出	-3861
单独	-3862
合物	-3863
是被	-3864
法则	-3865
疗法	-3866
自主	-3867
质疑	-3868
鱼类	-3869
▁都会	-3870
女士们	-3871
我相信	-3872
波士顿	-3873
的目标	-3874
的那个	-3875
身体的	-3876
进化的	-3877
▁以至于	-3878
▁我曾经	-3879
ag	-3880
听众	-3881
命运	-3882
法官	-3883
转向	-3884
非凡	-3885
黄金	-3886
ick	-3887
ube	-3888
▁有关	-3889
太阳系	-3890
宇宙中	-3891
我们想	-3892
创造一个	-3893
就是一个	-3894
经济学家	-3895
偏见	-3896
后代	-3897
孤独	-3898
戏剧	-3899
监控	-3900
美妙	-3901
至关	-3902
诗歌	-3903
隐私	-3904
餐厅	-3905
鸟类	-3906
你必须	-3907
我需要	-3908
的历史	-3909
的基础	-3910
一些东西	-3911
因为他们	-3912
▁但如果你	-3913
▁我们不能	-3914
▁这就是我	-3915
:”	-3916
▁已	-3917
▁打	-3918
▁问	-3919
作者	-3920
关闭	-3921
否则	-3922
深深	-3923
燃烧	-3924
赚钱	-3925
马逊	-3926
高效	-3927
150	-3928
▁那种	-3929
刚开始	-3930
因为它	-3931
工作者	-3932
星球上	-3933
有点像	-3934
环境中	-3935
的系统	-3936
▁但如果	-3937
▁几年前	-3938
▁4	-3939
▁真	-3940
你不	-3941
回忆	-3942
安静	-3943
拿出	-3944
激素	-3945
的路	-3946
编码	-3947
而易	-3948
边界	-3949
这两	-3950
▁相信	-3951
▁知道	-3952
▁这么	-3953
▁这儿	-3954
准备好	-3955
就不会	-3956
显微镜	-3957
有许多	-3958
本质上	-3959
▁TED	-3960
▁而这个	-3961
▁这里是	-3962
最后一个	-3963
越来越多	-3964
还有一个	-3965
▁9	-3966
▁二	-3967
▁罗	-3968
人性	-3969
传达	-3970
天才	-3971
心灵	-3972
掌控	-3973
斯的	-3974
框架	-3975
爱情	-3976
百科	-3977
网页	-3978
花园	-3979
采集	-3980
▁这时	-3981
幸的是	-3982
意识的	-3983
找到的	-3984
的就是	-3985
▁不仅仅是	-3986
▁它是一个	-3987
▁这是我的	-3988
ap	-3989
nd	-3990
一本	-3991
三角	-3992
不像	-3993
保障	-3994
含义	-3995
方的	-3996
炸弹	-3997
用在	-3998
自豪	-3999
讲话	-4000
身处	-4001
▁似乎	-4002
▁导致	-4003
▁感谢	-4004
▁我所	-4005
▁我来	-4006
▁生命	-4007
加拿大	-4008
着我们	-4009
▁它们的	-4010
三分之一	-4011
不可能的	-4012
▁你可能会	-4013
ip	-4014
▁O	-4015
▁仅	-4016
一想	-4017
一部	-4018
做好	-4019
出于	-4020
劳动	-4021
北部	-4022
巴马	-4023
强迫	-4024
有限	-4025
查看	-4026
椅子	-4027
热带	-4028
理性	-4029
睡觉	-4030
词汇	-4031
试试	-4032
野生	-4033
▁试图	-4034
▁音乐	-4035
人们在	-4036
你就会	-4037
完整的	-4038
普通的	-4039
正常的	-4040
类型的	-4041
我们发现	-4042
我们开始	-4043
的过程中	-4044
变得越来越	-4045
▁据	-4046
三种	-4047
久的	-4048
以外	-4049
众多	-4050
午餐	-4051
协议	-4052
告知	-4053
大会	-4054
将是	-4055
成像	-4056
战略	-4057
扩张	-4058
正义	-4059
水的	-4060
渐渐	-4061
理工	-4062
绝望	-4063
非法	-4064
art	-4065
创造的	-4066
大脑中	-4067
建立一个	-4068
科学家们	-4069
▁所以我想	-4070
75	-4071
:"	-4072
ey	-4073
um	-4074
一千	-4075
上来	-4076
伯特	-4077
印刷	-4078
多久	-4079
液体	-4080
规定	-4081
通讯	-4082
部件	-4083
顺利	-4084
优秀的	-4085
先生们	-4086
困难的	-4087
太棒了	-4088
想象的	-4089
我一直	-4090
把自己	-4091
▁我非常	-4092
▁有一些	-4093
实际上是	-4094
永远不会	-4095
▁你们知道	-4096
▁如果你想	-4097
▁主	-4098
▁光	-4099
三年	-4100
了的	-4101
以上	-4102
会是	-4103
体育	-4104
在线	-4105
序列	-4106
悲剧	-4107
抗议	-4108
经营	-4109
说了	-4110
▁一般	-4111
▁要么	-4112
信息的	-4113
出现的	-4114
和他们	-4115
和他的	-4116
对这个	-4117
的一面	-4118
第三个	-4119
糟糕的	-4120
给我的	-4121
现在我们	-4122
联系起来	-4123
▁举个例子	-4124
od	-4125
▁五	-4126
▁十	-4127
▁奥	-4128
事故	-4129
做些	-4130
克服	-4131
共和	-4132
前往	-4133
周期	-4134
圣诞	-4135
学者	-4136
尺寸	-4137
敌人	-4138
河流	-4139
眼镜	-4140
竟然	-4141
缺陷	-4142
脑袋	-4143
跟你	-4144
跟着	-4145
车的	-4146
重的	-4147
钢琴	-4148
飞船	-4149
▁有个	-4150
下一代	-4151
不错的	-4152
其它的	-4153
危险的	-4154
美元的	-4155
自身的	-4156
▁我是一个	-4157
▁每个人都	-4158
▁卡	-4159
▁本	-4160
双手	-4161
在想	-4162
惊人	-4163
感应	-4164
掌声	-4165
有两	-4166
消除	-4167
深处	-4168
的光	-4169
花粉	-4170
要去	-4171
见了	-4172
部位	-4173
部队	-4174
重量	-4175
▁此外	-4176
世界里	-4177
他人的	-4178
和你们	-4179
房间里	-4180
▁是关于	-4181
大家分享	-4182
。。	-4183
体制	-4184
作物	-4185
写了	-4186
多年	-4187
多种	-4188
天气	-4189
始终	-4190
拉丁	-4191
放进	-4192
整整	-4193
沉默	-4194
的几	-4195
自信	-4196
融入	-4197
证实	-4198
鼓舞	-4199
ian	-4200
中的一	-4201
事物的	-4202
屏幕上	-4203
展示的	-4204
把我们	-4205
时代的	-4206
的运动	-4207
▁就这样	-4208
▁哪	-4209
万个	-4210
为人	-4211
人心	-4212
令我	-4213
们的	-4214
利福	-4215
圣经	-4216
开了	-4217
板上	-4218
源于	-4219
组装	-4220
负担	-4221
走路	-4222
过于	-4223
雨林	-4224
顾客	-4225
▁了解	-4226
▁城市	-4227
你不能	-4228
倾向于	-4229
想象力	-4230
着一个	-4231
▁我必须	-4232
▁这只是	-4233
只有一个	-4234
▁那么我们	-4235
▁埃	-4236
两次	-4237
克林	-4238
加拉	-4239
向前	-4240
字典	-4241
心里	-4242
明天	-4243
是对	-4244
机遇	-4245
毁灭	-4246
生成	-4247
界面	-4248
白色	-4249
皮层	-4250
降落	-4251
▁在座	-4252
▁尝试	-4253
▁得到	-4254
▁有点	-4255
▁那就	-4256
不断的	-4257
世界中	-4258
张照片	-4259
领域的	-4260
▁在过去	-4261
心理学家	-4262
PS	-4263
▁受	-4264
▁叫	-4265
储存	-4266
区的	-4267
反复	-4268
天堂	-4269
形容	-4270
成熟	-4271
时报	-4272
月球	-4273
生人	-4274
聊天	-4275
街头	-4276
▁即便	-4277
▁看着	-4278
▁随后	-4279
前所未	-4280
实现的	-4281
指的是	-4282
让大家	-4283
▁你不能	-4284
我们没有	-4285
毫无疑问	-4286
▁。	-4287
▁起	-4288
不行	-4289
发送	-4290
国内	-4291
在他	-4292
场所	-4293
外星	-4294
大象	-4295
威尔	-4296
生日	-4297
的开	-4298
立即	-4299
英文	-4300
观测	-4301
▁如此	-4302
▁科技	-4303
创新的	-4304
回到了	-4305
我发现	-4306
我喜欢	-4307
的区域	-4308
的反应	-4309
类似于	-4310
说什么	-4311
▁他们有	-4312
▁这张照片	-4313
▁这是因为	-4314
DP	-4315
▁且	-4316
为我	-4317
使你	-4318
剩下	-4319
勇敢	-4320
反射	-4321
广播	-4322
度过	-4323
我被	-4324
有过	-4325
概率	-4326
美分	-4327
见证	-4328
遭遇	-4329
▁在你	-4330
▁在此	-4331
▁生物	-4332
个孩子	-4333
到一起	-4334
就没有	-4335
找不到	-4336
是多么	-4337
的人的	-4338
选择的	-4339
▁他们也	-4340
他们自己	-4341
并不知道	-4342
改变世界	-4343
还有很多	-4344
)。	-4345
22	-4346
ak	-4347
ve	-4348
乐趣	-4349
做成	-4350
南部	-4351
姆斯	-4352
学科	-4353
宝宝	-4354
干预	-4355
结尾	-4356
统一	-4357
阻碍	-4358
页面	-4359
鲸鱼	-4360
▁参与	-4361
干什么	-4362
形成了	-4363
明白了	-4364
的一天	-4365
聪明的	-4366
讲故事	-4367
跟你们	-4368
非常好	-4369
领导人	-4370
aceb	-4371
▁因此我	-4372
▁而现在	-4373
▁要知道	-4374
恐怖分子	-4375
acebook	-4376
▁8	-4377
▁若	-4378
区分	-4379
去过	-4380
司机	-4381
失望	-4382
意料	-4383
所说	-4384
正好	-4385
海底	-4386
独特	-4387
相连	-4388
福利	-4389
线上	-4390
联盟	-4391
荷兰	-4392
迈克	-4393
错的	-4394
随时	-4395
▁原因	-4396
不确定	-4397
用这个	-4398
的建筑	-4399
▁不幸的是	-4400
会发生什么	-4401
是什么样的	-4402
st	-4403
》,	-4404
仿佛	-4405
公路	-4406
变为	-4407
台上	-4408
困境	-4409
增强	-4410
完善	-4411
引用	-4412
的手	-4413
种种	-4414
窗户	-4415
舒适	-4416
设立	-4417
ell	-4418
▁政治	-4419
制作的	-4420
剩下的	-4421
又一次	-4422
它们是	-4423
我们把	-4424
有意义	-4425
物理学	-4426
现有的	-4427
自然界	-4428
任何东西	-4429
我们认为	-4430
世界各地的	-4431
▁成	-4432
上下	-4433
与众	-4434
乐器	-4435
争取	-4436
你看	-4437
哈拉	-4438
在此	-4439
实时	-4440
康复	-4441
我得	-4442
无比	-4443
月份	-4444
权威	-4445
构成	-4446
玩意	-4447
眼前	-4448
老板	-4449
足以	-4450
集团	-4451
首次	-4452
600	-4453
▁时间	-4454
▁网络	-4455
▁这在	-4456
在印度	-4457
最重要	-4458
的不同	-4459
篇文章	-4460
高尔夫	-4461
经济增长	-4462
▁重	-4463
共有	-4464
参观	-4465
向我	-4466
喜剧	-4467
四处	-4468
外交	-4469
巴黎	-4470
悲伤	-4471
收获	-4472
瑞士	-4473
货币	-4474
首诗	-4475
ber	-4476
▁30	-4477
▁数据	-4478
中心的	-4479
可以被	-4480
比如说	-4481
的主题	-4482
的形式	-4483
的方向	-4484
神奇的	-4485
蓝色的	-4486
谢谢你	-4487
hone	-4488
▁不仅仅	-4489
▁也不是	-4490
任何地方	-4491
资本主义	-4492
▁与此同时	-4493
难以置信的	-4494
非常重要的	-4495
解决这个问题	-4496
▁分	-4497
了它	-4498
产物	-4499
体重	-4500
刚果	-4501
可行	-4502
家乡	-4503
平常	-4504
折叠	-4505
排列	-4506
点的	-4507
算是	-4508
管道	-4509
类型	-4510
80%	-4511
▁50	-4512
▁基于	-4513
▁故事	-4514
他们就	-4515
微小的	-4516
成功了	-4517
根本上	-4518
的事件	-4519
绿色的	-4520
▁然后再	-4521
▁而且我	-4522
我们正在	-4523
▁男	-4524
传输	-4525
大了	-4526
我来	-4527
折磨	-4528
环绕	-4529
监视	-4530
绘画	-4531
聚会	-4532
计的	-4533
起的	-4534
轻松	-4535
▁一天	-4536
▁也有	-4537
▁当他	-4538
▁新的	-4539
▁没人	-4540
减少了	-4541
可行的	-4542
已经有	-4543
拍摄的	-4544
摄影师	-4545
系统中	-4546
▁但是它	-4547
▁但现在	-4548
▁并没有	-4549
▁然后在	-4550
其他地方	-4551
很有意思	-4552
这样的人	-4553
ah	-4554
▁布	-4555
。(	-4556
一幅	-4557
也没	-4558
借助	-4559
农村	-4560
几千	-4561
只会	-4562
困扰	-4563
媒介	-4564
年中	-4565
开启	-4566
某人	-4567
法庭	-4568
灯泡	-4569
留在	-4570
的说	-4571
神话	-4572
航天	-4573
跳舞	-4574
▁决定	-4575
▁这会	-4576
万年前	-4577
专注于	-4578
同时也	-4579
多少人	-4580
心理学	-4581
的结构	-4582
精神病	-4583
让自己	-4584
跟我说	-4585
这也是	-4586
适用于	-4587
▁我真的	-4588
一个例子	-4589
是我们的	-4590
休息	-4591
假如	-4592
偶然	-4593
变异	-4594
可爱	-4595
天花	-4596
好好	-4597
就不	-4598
帮忙	-4599
底部	-4600
本地	-4601
气味	-4602
清理	-4603
满了	-4604
独自	-4605
用水	-4606
纪念	-4607
罗马	-4608
这座	-4609
遍布	-4610
酒店	-4611
面部	-4612
革新	-4613
man	-4614
▁以便	-4615
▁关键	-4616
▁怎样	-4617
使用了	-4618
出来了	-4619
和我的	-4620
想一下	-4621
染色体	-4622
的另一	-4623
的存在	-4624
那时候	-4625
▁第一次	-4626
▁这里有	-4627
一个新的	-4628
一种新的	-4629
幸运的是	-4630
恐怖主义	-4631
我们不能	-4632
的人来说	-4633
的可能性	-4634
越来越多的	-4635
65	-4636
ff	-4637
▁噢	-4638
▁简	-4639
下午	-4640
何时	-4641
使命	-4642
创立	-4643
占据	-4644
地震	-4645
太平	-4646
年间	-4647
数码	-4648
最佳	-4649
机场	-4650
欲望	-4651
的钱	-4652
确认	-4653
营销	-4654
访问	-4655
评价	-4656
调节	-4657
▁不再	-4658
▁今年	-4659
▁他会	-4660
▁你得	-4661
▁宇宙	-4662
▁带着	-4663
▁并在	-4664
▁生活	-4665
▁继续	-4666
与我们	-4667
庞大的	-4668
抗生素	-4669
红色的	-4670
良好的	-4671
▁这里的	-4672
伊斯兰教	-4673
利福尼亚	-4674
▁因为这是	-4675
▁有趣的是	-4676
27	-4677
▁7	-4678
》。	-4679
一套	-4680
一把	-4681
下载	-4682
之类	-4683
乡村	-4684
做个	-4685
即兴	-4686
又是	-4687
含有	-4688
土耳	-4689
应的	-4690
很不	-4691
怀孕	-4692
打击	-4693
批评	-4694
抵抗	-4695
提议	-4696
收益	-4697
放入	-4698
有用	-4699
激进	-4700
过度	-4701
隔离	-4702
▁在他	-4703
▁用于	-4704
▁的确	-4705
▁英国	-4706
中国的	-4707
会怎样	-4708
做这些	-4709
土耳其	-4710
影响力	-4711
很可能	-4712
我还是	-4713
比我们	-4714
的地区	-4715
的基因	-4716
结束了	-4717
▁甚至是	-4718
▁那时候	-4719
世界上的	-4720
发生什么	-4721
oh	-4722
一周	-4723
公布	-4724
写着	-4725
口袋	-4726
可靠	-4727
多个	-4728
我都	-4729
拥抱	-4730
搭建	-4731
无数	-4732
水下	-4733
注入	-4734
经典	-4735
走上	-4736
▁它将	-4737
▁而你	-4738
一定会	-4739
但是我	-4740
六个月	-4741
数学家	-4742
明显的	-4743
是一件	-4744
更容易	-4745
给了我	-4746
▁顺便说	-4747
一个非常	-4748
年的时间	-4749
找到一个	-4750
▁V	-4751
▁于	-4752
▁拿	-4753
人数	-4754
例外	-4755
创业	-4756
创伤	-4757
到来	-4758
原型	-4759
图形	-4760
夜晚	-4761
巧克	-4762
我又	-4763
振奋	-4764
数千	-4765
服用	-4766
看的	-4767
碰到	-4768
童年	-4769
荣幸	-4770
诚实	-4771
▁你是	-4772
▁其次	-4773
▁未来	-4774
为他们	-4775
主要的	-4776
乳动物	-4777
亚马逊	-4778
代表着	-4779
向大家	-4780
她们的	-4781
的同时	-4782
的大小	-4783
的实验	-4784
的科学	-4785
的能量	-4786
英里的	-4787
遇到的	-4788
长时间	-4789
▁我不想	-4790
▁所以他	-4791
帮助他们	-4792
来到这里	-4793
爱因斯坦	-4794
给我们的	-4795
ck	-4796
▁则	-4797
▁女	-4798
▁特	-4799
一同	-4800
势力	-4801
匹配	-4802
句子	-4803
可见	-4804
喜爱	-4805
好玩	-4806
学位	-4807
对了	-4808
意的	-4809
我才	-4810
电路	-4811
的心	-4812
祖父	-4813
笑话	-4814
维护	-4815
▁国家	-4816
▁是由	-4817
了下来	-4818
全球化	-4819
对他们	-4820
教育的	-4821
研究中	-4822
2010	-4823
实验室里	-4824
所有人都	-4825
的重要性	-4826
这种方式	-4827
▁但是如果	-4828
▁在我们的	-4829
),	-4830
0.	-4831
▁手	-4832
▁时	-4833
代谢	-4834
六个	-4835
年级	-4836
微软	-4837
病的	-4838
约会	-4839
行了	-4840
视野	-4841
许可	-4842
醒来	-4843
风暴	-4844
▁到底	-4845
▁各种	-4846
▁平均	-4847
▁根本	-4848
▁男人	-4849
不会有	-4850
合适的	-4851
它可以	-4852
小时候	-4853
想到的	-4854
的土地	-4855
的意义	-4856
考虑到	-4857
3000	-4858
▁就像是	-4859
▁当时我	-4860
什么东西	-4861
你知道吗	-4862
这些信息	-4863
▁我们甚至	-4864
▁直	-4865
▁老	-4866
亲密	-4867
以往	-4868
优雅	-4869
协作	-4870
和他	-4871
国王	-4872
完了	-4873
尽量	-4874
引入	-4875
新鲜	-4876
是要	-4877
显得	-4878
演出	-4879
灯光	-4880
猜测	-4881
碎片	-4882
神圣	-4883
缩小	-4884
群岛	-4885
色彩	-4886
解答	-4887
认可	-4888
论者	-4889
说说	-4890
集合	-4891
90%	-4892
▁它也	-4893
▁相比	-4894
以一种	-4895
几分钟	-4896
几十年	-4897
受欢迎	-4898
可不是	-4899
对自己	-4900
小时的	-4901
年之后	-4902
必要的	-4903
接受了	-4904
显而易	-4905
的生命	-4906
科技的	-4907
▁是一种	-4908
最喜欢的	-4909
▁那是一个	-4910
完全不同的	-4911
ud	-4912
一根	-4913
上一	-4914
今晚	-4915
代替	-4916
众笑	-4917
依旧	-4918
决心	-4919
卡车	-4920
尼斯	-4921
工资	-4922
幻想	-4923
幻觉	-4924
感激	-4925
成人	-4926
撞击	-4927
文学	-4928
更快	-4929
深海	-4930
点是	-4931
爱好	-4932
用到	-4933
维基	-4934
缓慢	-4935
能否	-4936
能让	-4937
道的	-4938
部长	-4939
预期	-4940
▁寻找	-4941
▁工作	-4942
▁感觉	-4943
亲爱的	-4944
到这里	-4945
只是在	-4946
太平洋	-4947
就是在	-4948
常见的	-4949
数百万	-4950
的活动	-4951
的病人	-4952
5000	-4953
▁我不会	-4954
▁所以当	-4955
▁无论是	-4956
▁这个是	-4957
可以通过	-4958
有趣的是	-4959
看到这个	-4960
▁因为它们	-4961
iPhone	-4962
1.	-4963
一来	-4964
从而	-4965
外界	-4966
存储	-4967
实话	-4968
山脉	-4969
是吧	-4970
极度	-4971
格斯	-4972
桌子	-4973
的不	-4974
轮椅	-4975
通信	-4976
验证	-4977
黄色	-4978
GDP	-4979
▁18	-4980
▁一次	-4981
▁不用	-4982
▁制造	-4983
▁好像	-4984
▁自从	-4985
不是很	-4986
哲学家	-4987
文化的	-4988
生命中	-4989
的组织	-4990
的角色	-4991
证明了	-4992
选择了	-4993
▁我们得	-4994
▁我决定	-4995
一起工作	-4996
你们知道	-4997
的是一个	-4998
▁这个问题	-4999
某种意义上	-5000
▁但是如果你	-5001
化了	-5002
去找	-5003
司法	-5004
困惑	-5005
字体	-5006
干扰	-5007
情景	-5008
指标	-5009
活力	-5010
消灭	-5011
演化	-5012
看作	-5013
等于	-5014
诗人	-5015
购物	-5016
身为	-5017
还不	-5018
这份	-5019
▁15	-5020
▁你将	-5021
▁总是	-5022
▁是我	-5023
▁更加	-5024
会这样	-5025
保护区	-5026
免费的	-5027
增加了	-5028
实在是	-5029
巧克力	-5030
形式的	-5031
我应该	-5032
改变的	-5033
的人群	-5034
该如何	-5035
运作的	-5036
那个人	-5037
都不会	-5038
▁很明显	-5039
看到这些	-5040
这项技术	-5041
▁花	-5042
下一	-5043
九十	-5044
你将	-5045
依据	-5046
出售	-5047
去到	-5048
向你	-5049
基地	-5050
多元	-5051
实质	-5052
审视	-5053
生气	-5054
着陆	-5055
雄性	-5056
青年	-5057
顶端	-5058
▁不断	-5059
▁之前	-5060
▁你也	-5061
▁否则	-5062
不再是	-5063
史以来	-5064
极大的	-5065
的状态	-5066
研究所	-5067
稳定的	-5068
经历过	-5069
造成了	-5070
▁所有人	-5071
▁百分之	-5072
▁这两个	-5073
像这样的	-5074
化学物质	-5075
我自己的	-5076
有多少人	-5077
▁因为这些	-5078
▁如果你们	-5079
▁而且他们	-5080
"。	-5081
▁·	-5082
一看	-5083
不出	-5084
人权	-5085
你也	-5086
公交	-5087
几周	-5088
博拉	-5089
它能	-5090
宇航	-5091
录音	-5092
想着	-5093
把你	-5094
昂贵	-5095
枪鱼	-5096
游行	-5097
真理	-5098
确切	-5099
第四	-5100
精英	-5101
般的	-5102
要在	-5103
视力	-5104
运营	-5105
透过	-5106
顺序	-5107
额外	-5108
▁产生	-5109
▁对吧	-5110
▁很快	-5111
▁技术	-5112
▁是个	-5113
▁直接	-5114
一百万	-5115
学会了	-5116
的态度	-5117
而来的	-5118
音乐家	-5119
▁这一点	-5120
▁这并不是	-5121
23	-5122
th	-5123
上班	-5124
做点	-5125
地表	-5126
坏了	-5127
大卫	-5128
实体	-5129
帝国	-5130
常规	-5131
惊喜	-5132
我爱	-5133
扩散	-5134
拍照	-5135
拜访	-5136
数目	-5137
标题	-5138
棒球	-5139
激活	-5140
男子	-5141
的头	-5142
积累	-5143
被人	-5144
触摸	-5145
财政	-5146
随之	-5147
黑色	-5148
wit	-5149
▁但却	-5150
▁十分	-5151
▁唯一	-5152
▁我得	-5153
▁没错	-5154
▁这条	-5155
不到的	-5156
了他们	-5157
学校的	-5158
数据库	-5159
疯狂的	-5160
起作用	-5161
金枪鱼	-5162
▁什么是	-5163
▁当我在	-5164
你们可以	-5165
笔记本电脑	-5166
26	-5167
。」	-5168
一万	-5169
准则	-5170
将近	-5171
德拉	-5172
意图	-5173
捕食	-5174
教徒	-5175
无知	-5176
早晨	-5177
最有	-5178
此刻	-5179
海报	-5180
监管	-5181
考试	-5182
西洋	-5183
com	-5184
▁也会	-5185
▁你想	-5186
▁就算	-5187
▁毕竟	-5188
▁由此	-5189
▁那天	-5190
为自己	-5191
了所有	-5192
化合物	-5193
我们用	-5194
的中心	-5195
的使用	-5196
确实是	-5197
这是我	-5198
进入了	-5199
▁但这些	-5200
▁对我们	-5201
▁我甚至	-5202
▁这个人	-5203
是什么呢	-5204
生活方式	-5205
不可思议的	-5206
▁d	-5207
▁非	-5208
举办	-5209
于此	-5210
剧院	-5211
哥伦	-5212
失明	-5213
手里	-5214
捕鱼	-5215
推测	-5216
旅游	-5217
极为	-5218
极限	-5219
永恒	-5220
清单	-5221
特质	-5222
直升	-5223
脱离	-5224
苏联	-5225
萨斯	-5226
这会	-5227
ich	-5228
▁简单	-5229
▁这将	-5230
参与到	-5231
向我们	-5232
太多的	-5233
年前的	-5234
强烈的	-5235
的大脑	-5236
的核心	-5237
的模式	-5238
的资源	-5239
看不见	-5240
知道了	-5241
那里的	-5242
▁一个是	-5243
▁同时也	-5244
很长时间	-5245
觉得自己	-5246
这种情况	-5247
witter	-5248
RI	-5249
▁书	-5250
之上	-5251
内在	-5252
单纯	-5253
味道	-5254
哈顿	-5255
幸存	-5256
性质	-5257
教训	-5258
法院	-5259
绘制	-5260
街区	-5261
足球	-5262
那位	-5263
阶级	-5264
org	-5265
▁Al	-5266
▁你不	-5267
▁视频	-5268
▁这很	-5269
不停地	-5270
了一点	-5271
我之前	-5272
我必须	-5273
早期的	-5274
最后的	-5275
有一点	-5276
病毒的	-5277
的理解	-5278
问自己	-5279
▁他们把	-5280
▁你现在	-5281
▁全世界	-5282
▁让我来	-5283
纽约时报	-5284
绝大多数	-5285
需要一个	-5286
非常简单	-5287
▁这样我们	-5288
加利福尼亚	-5289
生活在一个	-5290
一无	-5291
不通	-5292
分解	-5293
可乐	-5294
四十	-5295
好吗	-5296
尔兰	-5297
年内	-5298
打交	-5299
抑制	-5300
指令	-5301
整理	-5302
方块	-5303
无处	-5304
最多	-5305
流程	-5306
温暖	-5307
激光	-5308
照明	-5309
版权	-5310
脑中	-5311
设定	-5312
谈判	-5313
资产	-5314
镜子	-5315
麻省	-5316
▁像是	-5317
▁我用	-5318
印度的	-5319
史蒂夫	-5320
大小的	-5321
对这些	-5322
曼哈顿	-5323
的一半	-5324
给自己	-5325
网络上	-5326
背后的	-5327
▁我不能	-5328
▁我们正	-5329
岁的孩子	-5330
之间的关系	-5331
▁巴	-5332
▁讲	-5333
上传	-5334
上网	-5335
严格	-5336
乐意	-5337
全身	-5338
典型	-5339
小型	-5340
尾巴	-5341
开源	-5342
息地	-5343
想起	-5344
撒谎	-5345
来临	-5346
歌曲	-5347
每周	-5348
浪漫	-5349
紧急	-5350
英寸	-5351
读者	-5352
20%	-5353
▁告诉	-5354
你可能	-5355
围绕着	-5356
我今天	-5357
提供的	-5358
潜在的	-5359
环境的	-5360
的人民	-5361
的价值	-5362
纽约市	-5363
美妙的	-5364
起来了	-5365
▁他们不	-5366
一些事情	-5367
为什么不	-5368
你会发现	-5369
所看到的	-5370
没有一个	-5371
▁出	-5372
▁安	-5373
主导	-5374
了他	-5375
任意	-5376
大大	-5377
她在	-5378
官员	-5379
害的	-5380
尼克	-5381
岁了	-5382
微型	-5383
界限	-5384
而不	-5385
请求	-5386
负面	-5387
超市	-5388
这边	-5389
面上	-5390
197	-5391
一无所	-5392
大问题	-5393
学校里	-5394
家公司	-5395
成功地	-5396
我正在	-5397
打印机	-5398
探测器	-5399
的图片	-5400
的效果	-5401
研究了	-5402
是一样的	-5403
▁你们可以	-5404
▁这是一张	-5405
EO	-5406
▁帕	-5407
▁越	-5408
▁近	-5409
一颗	-5410
上百	-5411
交配	-5412
你去	-5413
你得	-5414
像个	-5415
全力	-5416
写道	-5417
外部	-5418
室内	-5419
对手	-5420
床上	-5421
当成	-5422
想去	-5423
教导	-5424
核能	-5425
热的	-5426
特网	-5427
著名	-5428
说道	-5429
轨迹	-5430
餐馆	-5431
▁她在	-5432
▁我又	-5433
▁终于	-5434
三个月	-5435
乳腺癌	-5436
他们能	-5437
众人笑	-5438
你们能	-5439
俄比亚	-5440
做出的	-5441
决定了	-5442
到我们	-5443
听到了	-5444
周围的	-5445
开玩笑	-5446
我不能	-5447
排放量	-5448
收到了	-5449
独立的	-5450
用这些	-5451
的最后	-5452
还记得	-5453
都不是	-5454
▁而他们	-5455
准备好了	-5456
我们希望	-5457
▁但实际上	-5458
▁还有一个	-5459
▁这就意味着	-5460
Al	-5461
ri	-5462
▁买	-5463
人造	-5464
医师	-5465
国民	-5466
大海	-5467
它就	-5468
家园	-5469
居然	-5470
开关	-5471
搜寻	-5472
操控	-5473
救援	-5474
时常	-5475
案件	-5476
毫不	-5477
水里	-5478
的好	-5479
的长	-5480
等着	-5481
解读	-5482
酒吧	-5483
▁以此	-5484
▁你有	-5485
▁更多	-5486
▁获得	-5487
全球的	-5488
合理的	-5489
在他们	-5490
在未来	-5491
在过去	-5492
工作中	-5493
弄清楚	-5494
政治家	-5495
的事业	-5496
的产品	-5497
的意思	-5498
身上的	-5499
▁但我想	-5500
塞俄比亚	-5501
非常好的	-5502
▁如果你在	-5503
与之	-5504
事的	-5505
伦理	-5506
审查	-5507
对着	-5508
屋子	-5509
底下	-5510
心中	-5511
想说	-5512
把他	-5513
收藏	-5514
最为	-5515
朝鲜	-5516
沃尔	-5517
火山	-5518
火虫	-5519
生病	-5520
硬件	-5521
良好	-5522
血压	-5523
赞助	-5524
这就	-5525
那就	-5526
那边	-5527
▁一定	-5528
▁对此	-5529
▁难道	-5530
丰富的	-5531
参与者	-5532
发生过	-5533
居住在	-5534
撒哈拉	-5535
甚至是	-5536
的主要	-5537
的语言	-5538
社区的	-5539
NASA	-5540
电子游戏	-5541
聚在一起	-5542
为之	-5543
亲眼	-5544
他会	-5545
入侵	-5546
协会	-5547
发起	-5548
布朗	-5549
当下	-5550
根源	-5551
消极	-5552
短的	-5553
给出	-5554
表格	-5555
要做	-5556
读书	-5557
车辆	-5558
长达	-5559
han	-5560
▁不久	-5561
▁选择	-5562
▁面对	-5563
不存在	-5564
不是在	-5565
了一场	-5566
他们有	-5567
加入了	-5568
却没有	-5569
发出的	-5570
大约有	-5571
建筑的	-5572
是否能	-5573
是没有	-5574
的家庭	-5575
目标是	-5576
网站上	-5577
▁100	-5578
▁他们就	-5579
▁和我们	-5580
做了什么	-5581
就是我们	-5582
种不同的	-5583
这个过程	-5584
▁你可以在	-5585
向你们展示	-5586
联系在一起	-5587
if	-5588
ry	-5589
▁万	-5590
▁左	-5591
▁性	-5592
▁西	-5593
似的	-5594
但我	-5595
再来	-5596
包装	-5597
原料	-5598
头上	-5599
妹妹	-5600
导师	-5601
就业	-5602
年纪	-5603
很酷	-5604
意愿	-5605
截然	-5606
损伤	-5607
树林	-5608
永久	-5609
激烈	-5610
现今	-5611
群人	-5612
肢体	-5613
这片	-5614
▁只能	-5615
▁试着	-5616
了什么	-5617
了起来	-5618
伴随着	-5619
坏消息	-5620
大概是	-5621
把你的	-5622
把我的	-5623
样子的	-5624
的唯一	-5625
经济学	-5626
能做到	-5627
诸如此	-5628
诺贝尔	-5629
转化为	-5630
▁当人们	-5631
▁我父亲	-5632
全球变暖	-5633
几个小时	-5634
变成一个	-5635
目前为止	-5636
这个国家	-5637
▁而且我们	-5638
我们自己的	-5639
1%	-5640
▁查	-5641
▁电	-5642
▁离	-5643
▁走	-5644
▁转	-5645
主流	-5646
冲击	-5647
分成	-5648
厌恶	-5649
只需	-5650
同步	-5651
在做	-5652
地带	-5653
坦白	-5654
家具	-5655
手中	-5656
政客	-5657
数百	-5658
暗示	-5659
武装	-5660
用途	-5661
的电	-5662
目光	-5663
经理	-5664
▁孩子	-5665
▁比起	-5666
▁还要	-5667
了他的	-5668
反应堆	-5669
希格斯	-5670
建立了	-5671
很棒的	-5672
打交道	-5673
斯坦福	-5674
是通过	-5675
死亡的	-5676
的一位	-5677
的游戏	-5678
的看法	-5679
的网络	-5680
这些小	-5681
重大的	-5682
已经开始	-5683
精神疾病	-5684
解释一下	-5685
那个时候	-5686
▁你会看到	-5687
▁我们就会	-5688
▁我们就能	-5689
▁这个项目	-5690
▁这是我们的	-5691
一所	-5692
也就	-5693
公式	-5694
刚好	-5695
包围	-5696
吃的	-5697
名声	-5698
外线	-5699
大多	-5700
天赋	-5701
子和	-5702
尊严	-5703
情报	-5704
打造	-5705
洛克	-5706
短期	-5707
米的	-5708
脑部	-5709
装备	-5710
警告	-5711
谎言	-5712
▁海洋	-5713
一切都	-5714
上百万	-5715
了一下	-5716
了许多	-5717
劳动力	-5718
勒斯坦	-5719
医学院	-5720
在上面	-5721
大西洋	-5722
成年人	-5723
棒极了	-5724
的增长	-5725
的改变	-5726
的文化	-5727
第二天	-5728
艺术品	-5729
2008	-5730
你就可以	-5731
成为一名	-5732
温室气体	-5733
▁我们都知道	-5734
ev	-5735
ut	-5736
▁w	-5737
▁远	-5738
丧失	-5739
买到	-5740
亿个	-5741
共振	-5742
内战	-5743
十二	-5744
反抗	-5745
受益	-5746
含量	-5747
室里	-5748
市长	-5749
忍受	-5750
想出	-5751
手工	-5752
折纸	-5753
整天	-5754
斯卡	-5755
未知	-5756
比尔	-5757
特里	-5758
竞赛	-5759
缺少	-5760
者和	-5761
言论	-5762
遥远	-5763
随便	-5764
随意	-5765
马里	-5766
GPS	-5767
▁仍然	-5768
▁发展	-5769
▁变得	-5770
▁它有	-5771
▁约翰	-5772
▁艺术	-5773
一分钟	-5774
完全是	-5775
将他们	-5776
并不能	-5777
当时的	-5778
提出了	-5779
的时期	-5780
的选择	-5781
看着我	-5782
职业生	-5783
▁也没有	-5784
发达国家	-5785
对我们的	-5786
这个数字	-5787
▁我们就可以	-5788
IT	-5789
og	-5790
▁拉	-5791
▁曾	-5792
与我	-5793
主动	-5794
低的	-5795
北美	-5796
发育	-5797
土星	-5798
坏事	-5799
坐着	-5800
姐姐	-5801
带上	-5802
带领	-5803
开来	-5804
当做	-5805
往下	-5806
必然	-5807
拍的	-5808
挑选	-5809
新生	-5810
方说	-5811
星星	-5812
消防	-5813
终结	-5814
给她	-5815
西亚	-5816
要比	-5817
议题	-5818
讲讲	-5819
谋杀	-5820
鼠标	-5821
50%	-5822
▁Br	-5823
▁具有	-5824
▁声音	-5825
▁所谓	-5826
▁接受	-5827
▁显示	-5828
▁让人	-5829
一会儿	-5830
也一样	-5831
依赖于	-5832
到这个	-5833
副作用	-5834
告诉他	-5835
大气层	-5836
小女孩	-5837
德里克	-5838
无线电	-5839
的目的	-5840
2007	-5841
▁是不是	-5842
▁第三个	-5843
你自己的	-5844
全世界的	-5845
解决方法	-5846
麻省理工	-5847
Facebook	-5848
28	-5849
▁便	-5850
为例	-5851
信用	-5852
出口	-5853
品质	-5854
大战	-5855
好比	-5856
对它	-5857
尔德	-5858
废弃	-5859
引力	-5860
放射	-5861
明智	-5862
晚餐	-5863
某一	-5864
潜能	-5865
男女	-5866
画的	-5867
的总	-5868
维度	-5869
蚁群	-5870
越大	-5871
轻易	-5872
逃离	-5873
10%	-5874
ica	-5875
▁12	-5876
▁总之	-5877
▁我去	-5878
令人惊	-5879
你现在	-5880
做任何	-5881
可以说	-5882
在纽约	-5883
城市里	-5884
完全不	-5885
并不会	-5886
很小的	-5887
我决定	-5888
我是个	-5889
所需的	-5890
摄像头	-5891
有力的	-5892
没办法	-5893
真正地	-5894
类动物	-5895
细胞的	-5896
Tube	-5897
▁在这种	-5898
一个故事	-5899
电子邮件	-5900
的事情是	-5901
相互作用	-5902
▁他们认为	-5903
▁因为如果	-5904
▁我们只是	-5905
YouTube	-5906
▁各	-5907
▁杰	-5908
不上	-5909
之地	-5910
乌干	-5911
今日	-5912
半球	-5913
场合	-5914
声明	-5915
巨型	-5916
常见	-5917
所见	-5918
护理	-5919
早就	-5920
有益	-5921
本能	-5922
模块	-5923
死的	-5924
海水	-5925
牛奶	-5926
猜想	-5927
碰撞	-5928
给它	-5929
耐心	-5930
要么	-5931
课题	-5932
车上	-5933
运算	-5934
遭到	-5935
里约	-5936
银河	-5937
马克	-5938
▁从来	-5939
▁位于	-5940
▁放在	-5941
▁电脑	-5942
不过是	-5943
乌干达	-5944
人们会	-5945
从这个	-5946
原来的	-5947
和社会	-5948
学生的	-5949
它们在	-5950
我不会	-5951
的物种	-5952
这句话	-5953
额外的	-5954
▁不只是	-5955
▁发生在	-5956
哥伦比亚	-5957
很重要的	-5958
我不得不	-5959
的一件事	-5960
的时间里	-5961
神经系统	-5962
这些都是	-5963
这意味着	-5964
对我们来说	-5965
▁你们可以看到	-5966
▁啊	-5967
上方	-5968
使它	-5969
光的	-5970
包容	-5971
在乎	-5972
处境	-5973
字塔	-5974
季节	-5975
布什	-5976
很高	-5977
旧的	-5978
更深	-5979
理所	-5980
短片	-5981
衰老	-5982
要素	-5983
议会	-5984
这件	-5985
196	-5986
ent	-5987
▁事情	-5988
▁和我	-5989
▁教育	-5990
▁有了	-5991
▁让你	-5992
价值的	-5993
你已经	-5994
受到了	-5995
在非洲	-5996
失败了	-5997
奇妙的	-5998
小孩子	-5999
帮我们	-6000
最喜欢	-6001
最近的	-6002
来源于	-6003
的人数	-6004
的关键	-6005
的小孩	-6006
的理论	-6007
的疾病	-6008
目的是	-6009
研究生	-6010
社会中	-6011
解决了	-6012
让它们	-6013
金字塔	-6014
面对的	-6015
▁但同时	-6016
▁意味着	-6017
▁是什么	-6018
几个星期	-6019
我的朋友	-6020
正是我们	-6021
▁你也可以	-6022
▁我们想要	-6023
▁爱因斯坦	-6024
最重要的是	-6025
▁更重要的是	-6026
▁U	-6027
▁单	-6028
一组	-6029
上述	-6030
业务	-6031
两天	-6032
之心	-6033
交给	-6034
你好	-6035
列表	-6036
史上	-6037
向上	-6038
听见	-6039
唱歌	-6040
好莱	-6041
对付	-6042
情境	-6043
意志	-6044
战士	-6045
把手	-6046
指示	-6047
杀害	-6048
汽油	-6049
派对	-6050
深度	-6051
漂浮	-6052
立法	-6053
而非	-6054
脸书	-6055
见面	-6056
跑步	-6057
阴影	-6058
预料	-6059
ine	-6060
▁大卫	-6061
▁永远	-6062
了一条	-6063
决定的	-6064
坐下来	-6065
建立在	-6066
我而言	-6067
我说的	-6068
现实中	-6069
的一次	-6070
的人物	-6071
看这个	-6072
▁它们在	-6073
▁看上去	-6074
医疗保健	-6075
▁但是现在	-6076
▁你就可以	-6077
▁没有任何	-6078
▁这个故事	-6079
不同的方式	-6080
“。	-6081
▁试	-6082
三倍	-6083
力学	-6084
参考	-6085
发言	-6086
塞尔	-6087
市民	-6088
恐怕	-6089
旅途	-6090
更新	-6091
格林	-6092
玛丽	-6093
监测	-6094
直线	-6095
科研	-6096
规范	-6097
误解	-6098
财产	-6099
走过	-6100
路线	-6101
通道	-6102
问你	-6103
零件	-6104
震动	-6105
食用	-6106
▁但当	-6107
▁但那	-6108
▁再次	-6109
▁控制	-6110
▁自由	-6111
一个月	-6112
你怎么	-6113
做出了	-6114
制造的	-6115
取得了	-6116
导致了	-6117
小部分	-6118
工作了	-6119
数字化	-6120
涉及到	-6121
玩游戏	-6122
的功能	-6123
的发现	-6124
的帮助	-6125
的这些	-6126
语言的	-6127
质量的	-6128
问他们	-6129
非洲人	-6130
▁他们将	-6131
▁可能会	-6132
▁它们会	-6133
▁当然了	-6134
不可避免	-6135
完全不同	-6136
无处不在	-6137
看起来很	-6138
▁你能看到	-6139
▁我们通过	-6140
3%	-6141
ee	-6142
▁回	-6143
与你	-6144
业的	-6145
众所	-6146
假装	-6147
入了	-6148
关节	-6149
到我	-6150
号码	-6151
善于	-6152
因子	-6153
封闭	-6154
座椅	-6155
彼得	-6156
提琴	-6157
摩托	-6158
曲子	-6159
检验	-6160
殖民	-6161
水源	-6162
生殖	-6163
股票	-6164
脸上	-6165
讲座	-6166
迹象	-6167
降到	-6168
ion	-6169
▁并非	-6170
▁建造	-6171
▁影响	-6172
▁此时	-6173
▁老师	-6174
不愿意	-6175
共同的	-6176
复杂性	-6177
大概有	-6178
失败的	-6179
将它们	-6180
尝试着	-6181
我刚才	-6182
爱尔兰	-6183
的那样	-6184
的需求	-6185
解释了	-6186
过去了	-6187
这只是	-6188
面临着	-6189
▁听起来	-6190
▁和其他	-6191
▁并且在	-6192
▁结果是	-6193
再生能源	-6194
地球上的	-6195
得到一个	-6196
放在一起	-6197
机器人的	-6198
科学研究	-6199
▁他们需要	-6200
▁谢谢你们	-6201
▁Chris	-6202
二的	-6203
促使	-6204
做着	-6205
共识	-6206
加纳	-6207
医药	-6208
十五	-6209
地铁	-6210
塔利	-6211
它为	-6212
射线	-6213
延续	-6214
放松	-6215
替换	-6216
欧盟	-6217
死刑	-6218
滑雪	-6219
潜在	-6220
短暂	-6221
礼拜	-6222
竞选	-6223
花在	-6224
遇见	-6225
键盘	-6226
▁保护	-6227
▁做出	-6228
▁如同	-6229
▁那样	-6230
一个新	-6231
一般的	-6232
两个人	-6233
之一是	-6234
你是否	-6235
内心的	-6236
写了一	-6237
层面上	-6238
我们去	-6239
我当时	-6240
托马斯	-6241
的女人	-6242
的风险	-6243
第二次	-6244
自己是	-6245
达到了	-6246
▁人类的	-6247
▁我感到	-6248
▁计算机	-6249
令人兴奋	-6250
就是这个	-6251
整个世界	-6252
▁另一方面	-6253
▁另外一个	-6254
前所未有的	-6255
▁如果我们能	-6256
29	-6257
yn	-6258
万年	-6259
不如	-6260
代人	-6261
叫它	-6262
四周	-6263
大声	-6264
密切	-6265
帮你	-6266
强度	-6267
性格	-6268
性能	-6269
排除	-6270
教练	-6271
早的	-6272
构想	-6273
步行	-6274
每秒	-6275
种群	-6276
▁各位	-6277
▁它就	-6278
▁形成	-6279
▁很难	-6280
▁持续	-6281
▁观察	-6282
▁这幅	-6283
以上的	-6284
再一次	-6285
可以从	-6286
可以让	-6287
右边的	-6288
大型的	-6289
将会是	-6290
市中心	-6291
很喜欢	-6292
我只是	-6293
我非常	-6294
无人机	-6295
是完全	-6296
每天都	-6297
理查德	-6298
用它来	-6299
百上千	-6300
的现象	-6301
的细胞	-6302
的视频	-6303
磁共振	-6304
觉得这	-6305
超过了	-6306
那些人	-6307
那些在	-6308
▁他们想	-6309
▁但是他	-6310
▁你不会	-6311
▁我们被	-6312
▁更多的	-6313
▁答案是	-6314
▁过去的	-6315
▁那我们	-6316
我们无法	-6317
正在发生	-6318
生活中的	-6319
的方式来	-6320
结合起来	-6321
这个系统	-6322
这些照片	-6323
▁我不得不	-6324
▁所以现在	-6325
8%	-6326
ro	-6327
▁六	-6328
▁连	-6329
一间	-6330
不清	-6331
中产	-6332
买了	-6333
事儿	-6334
体积	-6335
助于	-6336
单元	-6337
名单	-6338
周末	-6339
周边	-6340
四种	-6341
场上	-6342
局的	-6343
当的	-6344
性地	-6345
我只	-6346
我把	-6347
战胜	-6348
手的	-6349
拿起	-6350
搜集	-6351
斯科	-6352
是以	-6353
景观	-6354
桌上	-6355
正式	-6356
由此	-6357
白天	-6358
的车	-6359
纸上	-6360
线索	-6361
脑子	-6362
预言	-6363
40%	-6364
▁建筑	-6365
▁很好	-6366
▁真是	-6367
▁记录	-6368
▁都能	-6369
人们对	-6370
众所周	-6371
可能有	-6372
我想到	-6373
理性的	-6374
的发生	-6375
结果是	-6376
获得的	-6377
▁一开始	-6378
▁他们被	-6379
▁但这是	-6380
▁你应该	-6381
▁因为她	-6382
▁我还是	-6383
▁真正的	-6384
▁这让我	-6385
▁那是在	-6386
了一系列	-6387
巴勒斯坦	-6388
很感兴趣	-6389
更多的人	-6390
看到一个	-6391
站在这里	-6392
这种方法	-6393
▁但我认为	-6394
▁如果没有	-6395
",	-6396
32	-6397
▁古	-6398
▁得	-6399
▁飞	-6400
万物	-6401
两周	-6402
中去	-6403
乳房	-6404
五千	-6405
候选	-6406
全面	-6407
几次	-6408
初期	-6409
十字	-6410
协助	-6411
历山	-6412
压缩	-6413
各地	-6414
味的	-6415
命令	-6416
哥哥	-6417
尼尔	-6418
所作	-6419
提问	-6420
智力	-6421
术语	-6422
极大	-6423
特兰	-6424
男士	-6425
相处	-6426
读到	-6427
辆车	-6428
边境	-6429
队员	-6430
顶部	-6431
首席	-6432
高级	-6433
all	-6434
ohn	-6435
▁以前	-6436
▁有的	-6437
一本书	-6438
之后的	-6439
历史的	-6440
回来了	-6441
处理器	-6442
很高兴	-6443
想一想	-6444
或者说	-6445
抑郁症	-6446
提出的	-6447
数量的	-6448
最高的	-6449
的价格	-6450
跟我们	-6451
还不够	-6452
项目的	-6453
▁大家都	-6454
▁我并不	-6455
▁我想说	-6456
▁把它们	-6457
▁现在你	-6458
公共空间	-6459
应用程序	-6460
我们看到	-6461
所有东西	-6462
的原因是	-6463
高尔夫球	-6464
▁他们没有	-6465
更重要的是	-6466
▁后	-6467
不大	-6468
以此	-6469
优先	-6470
供给	-6471
偶尔	-6472
及其	-6473
天哪	-6474
头的	-6475
官方	-6476
实用	-6477
封信	-6478
尊敬	-6479
尚未	-6480
已有	-6481
引领	-6482
效益	-6483
斯拉	-6484
权的	-6485
没能	-6486
点儿	-6487
社群	-6488
突变	-6489
追寻	-6490
避孕	-6491
那一	-6492
顾问	-6493
ind	-6494
▁国际	-6495
▁基因	-6496
▁她是	-6497
▁民主	-6498
▁现代	-6499
▁要是	-6500
▁让它	-6501
一定是	-6502
也不能	-6503
了解的	-6504
他们都	-6505
你没有	-6506
做不到	-6507
在很多	-6508
好奇心	-6509
对我的	-6510
弄明白	-6511
怎么说	-6512
想办法	-6513
我们又	-6514
最多的	-6515
环境下	-6516
的一生	-6517
的人都	-6518
的办法	-6519
的音乐	-6520
相似的	-6521
这方面	-6522
领导力	-6523
▁仅仅是	-6524
▁科学家	-6525
也是如此	-6526
外科医生	-6527
它是一个	-6528
有这样的	-6529
社交媒体	-6530
至关重要	-6531
这么做了	-6532
▁作为一名	-6533
▁在我看来	-6534
▁我有一个	-6535
做到这一点	-6536
pp	-6537
▁早	-6538
三明	-6539
不住	-6540
也被	-6541
从没	-6542
减轻	-6543
几何	-6544
卡片	-6545
同学	-6546
否认	-6547
回复	-6548
奋斗	-6549
奶奶	-6550
寄生	-6551
布拉	-6552
幼儿	-6553
延长	-6554
思路	-6555
方程	-6556
无穷	-6557
暂时	-6558
架构	-6559
测序	-6560
灰质	-6561
监禁	-6562
盲人	-6563
看得	-6564
西部	-6565
要花	-6566
车里	-6567
选项	-6568
里达	-6569
错觉	-6570
▁基本	-6571
▁我跟	-6572
▁欧洲	-6573
▁答案	-6574
什么的	-6575
你应该	-6576
包含了	-6577
帮助我	-6578
开始在	-6579
开放的	-6580
很清楚	-6581
想法是	-6582
用一种	-6583
的机器	-6584
的科技	-6585
经历的	-6586
而言之	-6587
自己在	-6588
被称作	-6589
还需要	-6590
重要性	-6591
飞行员	-6592
2009	-6593
▁其他的	-6594
不一样的	-6595
不幸的是	-6596
二十世纪	-6597
在过去的	-6598
开始思考	-6599
很有可能	-6600
▁因为这个	-6601
埃塞俄比亚	-6602
▁我们不知道	-6603
St	-6604
▁Y	-6605
不及	-6606
不论	-6607
亲自	-6608
介入	-6609
仍在	-6610
会上	-6611
低于	-6612
修建	-6613
修改	-6614
克拉	-6615
到你	-6616
危害	-6617
双方	-6618
反而	-6619
吃饭	-6620
多次	-6621
察觉	-6622
废物	-6623
开采	-6624
校园	-6625
汉堡	-6626
生育	-6627
病菌	-6628
知觉	-6629
节约	-6630
议员	-6631
讯息	-6632
通往	-6633
阴道	-6634
700	-6635
800	-6636
▁信息	-6637
▁公司	-6638
▁既然	-6639
▁是从	-6640
三明治	-6641
了一种	-6642
人口的	-6643
从来没	-6644
吸引力	-6645
在他的	-6646
地图上	-6647
太好了	-6648
我不想	-6649
接受的	-6650
文化中	-6651
方式来	-6652
更高的	-6653
有多大	-6654
玩意儿	-6655
的决定	-6656
种类的	-6657
结束后	-6658
行不通	-6659
长大的	-6660
▁And	-6661
▁不管是	-6662
▁他们能	-6663
▁我们先	-6664
▁然后把	-6665
为什么会	-6666
举个例子	-6667
另一方面	-6668
我的演讲	-6669
这个话题	-6670
这件事情	-6671
▁就是这个	-6672
HI	-6673
iv	-6674
产量	-6675
印第	-6676
孤儿	-6677
强制	-6678
当初	-6679
新兴	-6680
明星	-6681
显现	-6682
球员	-6683
电线	-6684
疯了	-6685
看成	-6686
硬币	-6687
结局	-6688
补充	-6689
设法	-6690
词语	-6691
说出	-6692
这也	-6693
这块	-6694
陆地	-6695
雨水	-6696
鞋子	-6697
风景	-6698
风能	-6699
ert	-6700
ran	-6701
▁代表	-6702
▁女人	-6703
▁学校	-6704
人心的	-6705
他们也	-6706
你就能	-6707
使用它	-6708
共同点	-6709
天然气	-6710
存在了	-6711
实现了	-6712
就是我	-6713
年时间	-6714
很奇怪	-6715
我不是	-6716
暗物质	-6717
最后一	-6718
服务器	-6719
每小时	-6720
的女孩	-6721
的电影	-6722
的社区	-6723
的能源	-6724
表现出	-6725
要做的	-6726
认为的	-6727
里面的	-6728
▁他们对	-6729
▁在他们	-6730
▁最大的	-6731
▁机器人	-6732
▁这就像	-6733
▁那里的	-6734
任何时候	-6735
对于我们	-6736
我的生活	-6737
治疗方法	-6738
理所当然	-6739
维基百科	-6740
成千上万的	-6741
我们的大脑	-6742
ug	-6743
▁个	-6744
▁取	-6745
▁哈	-6746
▁画	-6747
不受	-6748
二战	-6749
产素	-6750
吃了	-6751
对应	-6752
底层	-6753
得上	-6754
损害	-6755
普及	-6756
暴露	-6757
次的	-6758
正面	-6759
比我	-6760
的有	-6761
简化	-6762
肉眼	-6763
航行	-6764
要把	-6765
amp	-6766
▁他就	-6767
▁保持	-6768
▁制作	-6769
▁当今	-6770
▁某些	-6771
▁每当	-6772
▁汽车	-6773
▁等等	-6774
▁说到	-6775
印第安	-6776
我父亲	-6777
拥有了	-6778
故事的	-6779
是真的	-6780
条件下	-6781
来到了	-6782
深刻的	-6783
犹太人	-6784
理解的	-6785
的理念	-6786
给人们	-6787
舞台上	-6788
行为的	-6789
见过的	-6790
让这些	-6791
际关系	-6792
集中在	-6793
非政府	-6794
4000	-6795
▁下一个	-6796
▁不同的	-6797
▁你看到	-6798
▁很显然	-6799
▁我是个	-6800
▁是如何	-6801
▁这些都	-6802
▁这并不	-6803
与众不同	-6804
交通工具	-6805
他们没有	-6806
唯一一个	-6807
就是这么	-6808
所带来的	-6809
拉丁美洲	-6810
电视节目	-6811
的孩子们	-6812
精神分裂	-6813
这是一种	-6814
这是什么	-6815
▁所以我就	-6816
▁我们称之为	-6817
47	-6818
PA	-6819
▁地	-6820
▁按	-6821
▁超	-6822
一头	-6823
不着	-6824
乘客	-6825
了吧	-6826
代的	-6827
仿生	-6828
分数	-6829
前景	-6830
受过	-6831
古怪	-6832
启示	-6833
图画	-6834
在家	-6835
复活	-6836
客观	-6837
尽力	-6838
感恩	-6839
慈悲	-6840
我曾	-6841
投影	-6842
排序	-6843
文本	-6844
斯顿	-6845
方形	-6846
残酷	-6847
热量	-6848
特技	-6849
称呼	-6850
组建	-6851
能为	-6852
自私	-6853
节省	-6854
西兰	-6855
访谈	-6856
阶层	-6857
高达	-6858
120	-6859
ers	-6860
▁St	-6861
▁但也	-6862
▁但她	-6863
▁媒体	-6864
▁实际	-6865
▁家庭	-6866
▁往往	-6867
▁照片	-6868
为基础	-6869
会产生	-6870
具体的	-6871
可以是	-6872
我想说	-6873
更喜欢	-6874
有用的	-6875
来这里	-6876
核武器	-6877
直升机	-6878
罗里达	-6879
脑海中	-6880
自我的	-6881
苏格兰	-6882
见到了	-6883
转移到	-6884
▁DNA	-6885
▁不知道	-6886
▁但它们	-6887
▁另一种	-6888
▁和一个	-6889
▁地球上	-6890
▁而且它	-6891
▁许多人	-6892
你会看到	-6893
做了一些	-6894
工作人员	-6895
非常有趣	-6896
▁我并不是	-6897
▁我第一次	-6898
▁所以如果你	-6899
Twitter	-6900
··	-6901
▁找	-6902
▁约	-6903
▁进	-6904
两位	-6905
中所	-6906
主人	-6907
之旅	-6908
之路	-6909
乐团	-6910
人均	-6911
全是	-6912
养殖	-6913
冰箱	-6914
分别	-6915
创办	-6916
十万	-6917
培育	-6918
始于	-6919
射击	-6920
就算	-6921
引人	-6922
房里	-6923
拿走	-6924
持人	-6925
文献	-6926
演唱	-6927
演说	-6928
看似	-6929
穿上	-6930
线路	-6931
终极	-6932
融化	-6933
语音	-6934
适用	-6935
造就	-6936
重力	-6937
问道	-6938
250	-6939
▁一只	-6940
▁他被	-6941
▁允许	-6942
▁几年	-6943
▁坐在	-6944
▁我爱	-6945
▁比尔	-6946
▁注意	-6947
▁语言	-6948
▁达到	-6949
▁针对	-6950
一半的	-6951
固定的	-6952
大爆炸	-6953
奥巴马	-6954
女人的	-6955
年代的	-6956
建立起	-6957
新技术	-6958
转变为	-6959
这个小	-6960
▁不需要	-6961
▁可能是	-6962
▁女士们	-6963
▁让人们	-6964
兄弟姐妹	-6965
全球性的	-6966
各种各样	-6967
大部分人	-6968
我们人类	-6969
我们想要	-6970
我是一个	-6971
现在已经	-6972
的世界里	-6973
的大部分	-6974
看起来像	-6975
组成部分	-6976
该怎么办	-6977
野生动物	-6978
是一个非常	-6979
▁最重要的是	-6980
▁弗	-6981
一支	-6982
不必	-6983
两千	-6984
乐部	-6985
你从	-6986
分支	-6987
卡通	-6988
向下	-6989
听着	-6990
回了	-6991
图上	-6992
坐下	-6993
多德	-6994
大厅	-6995
失业	-6996
封面	-6997
尔特	-6998
带给	-6999
录制	-7000
得起	-7001
总值	-7002
恶心	-7003
提及	-7004
放置	-7005
是指	-7006
杀了	-7007
深远	-7008
理智	-7009
维亚	-7010
编织	-7011
草原	-7012
行驶	-7013
让她	-7014
转折	-7015
这台	-7016
通用	-7017
遗产	-7018
▁按照	-7019
▁提高	-7020
▁理解	-7021
▁经常	-7022
▁运用	-7023
▁这只	-7024
▁连接	-7025
一点儿	-7026
两件事	-7027
也同样	-7028
事实是	-7029
你想要	-7030
停车场	-7031
关键的	-7032
它们会	-7033
工作室	-7034
我真的	-7035
投资者	-7036
最初的	-7037
独一无	-7038
的家伙	-7039
的联系	-7040
空间的	-7041
简单地	-7042
联系的	-7043
花费了	-7044
英格兰	-7045
都是在	-7046
银河系	-7047
▁the	-7048
▁你也许	-7049
▁如果有	-7050
▁我们再	-7051
▁然后是	-7052
▁这件事	-7053
一个国家	-7054
一无所知	-7055
一系列的	-7056
其他国家	-7057
工业革命	-7058
显而易见	-7059
每个人的	-7060
统计数据	-7061
▁我们怎么	-7062
▁这样一来	-7063
到底是什么	-7064
em	-7065
▁某	-7066
。)	-7067
三天	-7068
不已	-7069
中被	-7070
交响	-7071
兰克	-7072
前提	-7073
十个	-7074
可不	-7075
命名	-7076
回头	-7077
回归	-7078
审判	-7079
对其	-7080
就此	-7081
恶化	-7082
接到	-7083
提示	-7084
教科	-7085
更像	-7086
更少	-7087
有毒	-7088
气泡	-7089
洗衣	-7090
电流	-7091
登上	-7092
磁场	-7093
简洁	-7094
肤色	-7095
行道	-7096
转动	-7097
输出	-7098
马丁	-7099
Mar	-7100
ack	-7101
har	-7102
▁努力	-7103
▁发生	-7104
▁学生	-7105
▁神经	-7106
▁记住	-7107
下一步	-7108
不仅是	-7109
个世纪	-7110
了出来	-7111
从这里	-7112
关注的	-7113
出色的	-7114
制造出	-7115
学习的	-7116
小行星	-7117
把所有	-7118
提一下	-7119
搞清楚	-7120
是否有	-7121
普通人	-7122
没有被	-7123
没问题	-7124
白色的	-7125
的男人	-7126
能够在	-7127
自由的	-7128
表面上	-7129
讲的是	-7130
马拉松	-7131
1960	-7132
avid	-7133
▁一个人	-7134
▁人们在	-7135
▁只需要	-7136
▁来自于	-7137
▁生活在	-7138
宗教信仰	-7139
我的同事	-7140
的机器人	-7141
研究人员	-7142
▁可以看到	-7143
▁幸运的是	-7144
▁我们将会	-7145
▁所以如果	-7146
▁所以这个	-7147
▁还有一些	-7148
是什么样子	-7149
▁我们可以看到	-7150
CA	-7151
业余	-7152
何处	-7153
兰经	-7154
在哪	-7155
在海	-7156
孩童	-7157
宝贝	-7158
岛上	-7159
异的	-7160
征服	-7161
怀特	-7162
总会	-7163
持有	-7164
搞笑	-7165
摩尔	-7166
无需	-7167
既然	-7168
早已	-7169
明年	-7170
率的	-7171
约束	-7172
致的	-7173
蛋糕	-7174
里克	-7175
问了	-7176
零和	-7177
70%	-7178
▁它被	-7179
▁我猜	-7180
▁确保	-7181
▁绝对	-7182
了一项	-7183
区域的	-7184
去了解	-7185
和你的	-7186
在那个	-7187
埃博拉	-7188
塔利班	-7189
就在于	-7190
应用到	-7191
是对的	-7192
生产力	-7193
的几率	-7194
的美国	-7195
设计了	-7196
这两种	-7197
这些是	-7198
黄色的	-7199
▁你怎么	-7200
刚刚开始	-7201
最基本的	-7202
给了我们	-7203
这部电影	-7204
采取行动	-7205
▁这个世界	-7206
▁这些东西	-7207
我们的孩子	-7208
▁这也是为什么	-7209
48	-7210
aw	-7211
▁心	-7212
▁恩	-7213
▁美	-7214
一层	-7215
不动	-7216
不良	-7217
书的	-7218
加强	-7219
加快	-7220
加热	-7221
又会	-7222
可视	-7223
夫妇	-7224
女子	-7225
子弹	-7226
小学	-7227
应付	-7228
庞大	-7229
当前	-7230
微博	-7231
总体	-7232
患上	-7233
提前	-7234
支出	-7235
故意	-7236
旅馆	-7237
月的	-7238
有利	-7239
来回	-7240
板球	-7241
此类	-7242
水果	-7243
滑板	-7244
病例	-7245
真空	-7246
科幻	-7247
空白	-7248
立场	-7249
营利	-7250
藏在	-7251
被迫	-7252
要用	-7253
说不	-7254
赢了	-7255
频繁	-7256
马达	-7257
魔法	-7258
▁一边	-7259
▁马克	-7260
低成本	-7261
你觉得	-7262
十年里	-7263
原始的	-7264
实际的	-7265
寻常的	-7266
就有了	-7267
市场的	-7268
帮助你	-7269
我们正	-7270
战争的	-7271
有一位	-7272
有效地	-7273
此之外	-7274
癌症的	-7275
的儿童	-7276
的学校	-7277
称它为	-7278
经济的	-7279
网络的	-7280
这里有	-7281
食物链	-7282
高科技	-7283
麦克风	-7284
▁他们还	-7285
▁而那些	-7286
▁这正是	-7287
一件事情	-7288
做得更好	-7289
到另一个	-7290
在我看来	-7291
我在这里	-7292
拥有一个	-7293
解决办法	-7294
这个东西	-7295
▁我在这里	-7296
▁我认为这	-7297
▁而是因为	-7298
可再生能源	-7299
1,	-7300
In	-7301
▁伊	-7302
▁传	-7303
」。	-7304
上说	-7305
不得	-7306
丢失	-7307
临时	-7308
举行	-7309
事务	-7310
从我	-7311
他就	-7312
出自	-7313
发了	-7314
听听	-7315
和她	-7316
圆形	-7317
声称	-7318
好多	-7319
家们	-7320
容忍	-7321
很像	-7322
想让	-7323
成效	-7324
把握	-7325
有很	-7326
机的	-7327
毁了	-7328
温和	-7329
灵长	-7330
电极	-7331
画画	-7332
留言	-7333
等同	-7334
聚焦	-7335
蒙特	-7336
跨国	-7337
过头	-7338
遥控	-7339
那条	-7340
音符	-7341
首要	-7342
▁25	-7343
▁共同	-7344
▁哪怕	-7345
▁当地	-7346
▁想像	-7347
▁我为	-7348
▁身体	-7349
会不会	-7350
你们都	-7351
全球性	-7352
发现在	-7353
合作的	-7354
外星人	-7355
已经是	-7356
希望的	-7357
我去了	-7358
放弃了	-7359
暴力的	-7360
最新的	-7361
机构的	-7362
来说是	-7363
演讲者	-7364
现实的	-7365
的成功	-7366
目的地	-7367
程度的	-7368
观察到	-7369
角度看	-7370
▁一方面	-7371
▁互联网	-7372
▁我以为	-7373
▁突然间	-7374
▁这其实	-7375
你知道的	-7376
发生的事	-7377
国家安全	-7378
墨西哥湾	-7379
怎样才能	-7380
有更多的	-7381
生产总值	-7382
这个地方	-7383
这样一种	-7384
erson	-7385
▁以及其他	-7386
▁但是这些	-7387
▁它是一种	-7388
▁在接下来的	-7389
▁如果我们可以	-7390
-3	-7391
33	-7392
▁七	-7393
▁八	-7394
▁贝	-7395
一堆	-7396
一对	-7397
一模	-7398
一路	-7399
两条	-7400
中文	-7401
举动	-7402
也要	-7403
书中	-7404
亚当	-7405
付诸	-7406
借口	-7407
发行	-7408
善良	-7409
器的	-7410
复兴	-7411
够了	-7412
宣称	-7413
必需	-7414
感动	-7415
愿景	-7416
戴着	-7417
托邦	-7418
无可	-7419
泡泡	-7420
消化	-7421
清醒	-7422
用作	-7423
用品	-7424
细微	-7425
置于	-7426
触及	-7427
资讯	-7428
车库	-7429
随后	-7430
骨架	-7431
195	-7432
▁也能	-7433
▁动物	-7434
▁至于	-7435
▁要求	-7436
不好的	-7437
你认为	-7438
变化的	-7439
可以把	-7440
可爱的	-7441
向他们	-7442
如此之	-7443
宇航员	-7444
开始做	-7445
引起了	-7446
很好地	-7447
总是在	-7448
成长的	-7449
提到了	-7450
数据的	-7451
是多少	-7452
熟悉的	-7453
癌细胞	-7454
的知识	-7455
积极的	-7456
能不能	-7457
▁199	-7458
▁之所以	-7459
▁但其实	-7460
▁因为那	-7461
▁就是说	-7462
▁那是我	-7463
一个朋友	-7464
中的一些	-7465
合作伙伴	-7466
有史以来	-7467
角度来看	-7468
谢谢大家	-7469
这样的事	-7470
▁我一直在	-7471
▁还有很多	-7472
▁顺便说一下	-7473
2%	-7474
▁北	-7475
▁教	-7476
一篇	-7477
一道	-7478
一面	-7479
不被	-7480
乐高	-7481
人为	-7482
人是	-7483
人道	-7484
作曲	-7485
你对	-7486
写下	-7487
分为	-7488
加以	-7489
动手	-7490
升级	-7491
发作	-7492
发的	-7493
同伴	-7494
呆在	-7495
城镇	-7496
太太	-7497
实地	-7498
实行	-7499
导演	-7500
就越	-7501
弟弟	-7502
我用	-7503
抵达	-7504
指责	-7505
授权	-7506
探究	-7507
接种	-7508
搬到	-7509
放下	-7510
明的	-7511
树上	-7512
此时	-7513
相遇	-7514
笔钱	-7515
累积	-7516
线条	-7517
经费	-7518
结核	-7519
船上	-7520
论点	-7521
都市	-7522
重塑	-7523
,20	-7524
les	-7525
▁为何	-7526
▁也不	-7527
▁他还	-7528
▁布鲁	-7529
▁我真	-7530
▁环境	-7531
▁站在	-7532
▁简直	-7533
▁西方	-7534
▁还能	-7535
为一个	-7536
也知道	-7537
也许是	-7538
产品的	-7539
你不会	-7540
出生的	-7541
在全球	-7542
接触到	-7543
是否会	-7544
是来自	-7545
显示了	-7546
男人的	-7547
百万人	-7548
的教育	-7549
的权利	-7550
科学和	-7551
第一步	-7552
纪录片	-7553
脑子里	-7554
这一个	-7555
这样说	-7556
▁但这个	-7557
▁你就能	-7558
▁即使是	-7559
▁在那个	-7560
▁好消息	-7561
▁有没有	-7562
▁然后就	-7563
▁现在是	-7564
▁这都是	-7565
从根本上	-7566
知道如何	-7567
这个概念	-7568
非常简单的	-7569
▁让我们看看	-7570
2.	-7571
▁卖	-7572
▁生	-7573
▁盖	-7574
专辑	-7575
中来	-7576
人才	-7577
仍旧	-7578
从前	-7579
八十	-7580
冰山	-7581
冷的	-7582
变了	-7583
和水	-7584
品种	-7585
唱片	-7586
多大	-7587
奥斯	-7588
强壮	-7589
当代	-7590
我没	-7591
排名	-7592
推出	-7593
推断	-7594
法的	-7595
焦点	-7596
疫情	-7597
诸如	-7598
财务	-7599
路径	-7600
远程	-7601
逐步	-7602
造出	-7603
▁为此	-7604
▁加上	-7605
▁当它	-7606
▁电子	-7607
▁纽约	-7608
▁这不	-7609
一个大	-7610
一定的	-7611
下面的	-7612
了一件	-7613
从哪里	-7614
以至于	-7615
共和党	-7616
到现在	-7617
参加了	-7618
发明的	-7619
名字是	-7620
回到家	-7621
因特网	-7622
在英国	-7623
就已经	-7624
工程学	-7625
是人类	-7626
来进行	-7627
每一天	-7628
给你的	-7629
解决的	-7630
迈克尔	-7631
附近的	-7632
▁事实是	-7633
▁但不是	-7634
▁你觉得	-7635
▁再一次	-7636
▁在这一	-7637
▁我们只	-7638
▁我总是	-7639
▁我正在	-7640
▁我看着	-7641
▁这对于	-7642
做什么呢	-7643
到我们的	-7644
变得更好	-7645
就像这样	-7646
我们今天	-7647
是怎样的	-7648
远的地方	-7649
▁你知道吗	-7650
▁我们相信	-7651
在座的各位	-7652
BM	-7653
▁s	-7654
▁米	-7655
▁路	-7656
▁黑	-7657
不信	-7658
不然	-7659
不该	-7660
从头	-7661
优化	-7662
克的	-7663
冰层	-7664
切的	-7665
卡尔	-7666
国防	-7667
在上	-7668
在地	-7669
在意	-7670
地在	-7671
坏的	-7672
外国	-7673
奇的	-7674
孤立	-7675
微小	-7676
感的	-7677
指向	-7678
洗手	-7679
状物	-7680
状的	-7681
短短	-7682
线的	-7683
苦难	-7684
货物	-7685
足的	-7686
难度	-7687
预计	-7688
首都	-7689
高峰	-7690
▁与其	-7691
▁人口	-7692
▁他把	-7693
▁到处	-7694
▁完成	-7695
▁展示	-7696
▁左边	-7697
▁讨论	-7698
一起来	-7699
中国人	-7700
什么样	-7701
传染病	-7702
先进的	-7703
十年前	-7704
回答说	-7705
好朋友	-7706
年开始	-7707
幸存者	-7708
建立的	-7709
感到很	-7710
昂贵的	-7711
有人说	-7712
样东西	-7713
演讲的	-7714
照相机	-7715
的一段	-7716
的形状	-7717
的挑战	-7718
相应的	-7719
看到它	-7720
要知道	-7721
重点是	-7722
长期的	-7723
降低了	-7724
2006	-7725
▁他是个	-7726
▁在座的	-7727
▁差不多	-7728
▁有一次	-7729
▁而这是	-7730
一个孩子	-7731
一样东西	-7732
临床试验	-7733
之一就是	-7734
什么地方	-7735
任何事情	-7736
你的身体	-7737
使用这些	-7738
其他人的	-7739
利用这些	-7740
参与其中	-7741
怎么可能	-7742
我意识到	-7743
所有人的	-7744
所需要的	-7745
诸如此类	-7746
还有一些	-7747
这些孩子	-7748
这是我的	-7749
▁你们可能	-7750
▁就是我们	-7751
可持续发展	-7752
,3	-7753
ne	-7754
▁红	-7755
▁达	-7756
五百	-7757
党派	-7758
全新	-7759
关乎	-7760
冷却	-7761
几种	-7762
出色	-7763
华尔	-7764
占领	-7765
又有	-7766
右手	-7767
图的	-7768
小镇	-7769
救助	-7770
是吗	-7771
智商	-7772
更长	-7773
朝着	-7774
残忍	-7775
毫米	-7776
牛顿	-7777
男生	-7778
直径	-7779
等到	-7780
等级	-7781
职责	-7782
船只	-7783
起点	-7784
越南	-7785
这将	-7786
高于	-7787
60%	-7788
911	-7789
ore	-7790
▁KB	-7791
▁一点	-7792
▁儿童	-7793
▁全部	-7794
▁收集	-7795
▁最初	-7796
▁石油	-7797
▁而当	-7798
为你们	-7799
了一份	-7800
些时候	-7801
人生的	-7802
从来不	-7803
准确的	-7804
历山大	-7805
在哪儿	-7806
增长的	-7807
完全的	-7808
对那些	-7809
就好像	-7810
就是个	-7811
的政治	-7812
的艺术	-7813
都不能	-7814
非常棒	-7815
▁Mar	-7816
▁但是当	-7817
▁它不是	-7818
▁我们和	-7819
▁我们说	-7820
了自己的	-7821
你看到的	-7822
做的一切	-7823
参与进来	-7824
怎么做呢	-7825
无论如何	-7826
有不同的	-7827
根本没有	-7828
▁我们一直	-7829
我们就可以	-7830
是很重要的	-7831
百分之九十	-7832
解决的问题	-7833
“,	-7834
▁:	-7835
▁X	-7836
▁m	-7837
▁麦	-7838
三次	-7839
买的	-7840
人人	-7841
人说	-7842
以南	-7843
伯格	-7844
伸出	-7845
假肢	-7846
制药	-7847
名人	-7848
名词	-7849
哪种	-7850
在她	-7851
大使	-7852
头痛	-7853
尺度	-7854
德克	-7855
懂的	-7856
批准	-7857
收缩	-7858
新型	-7859
无神	-7860
日益	-7861
最低	-7862
杀手	-7863
气的	-7864
注视	-7865
现有	-7866
要是	-7867
起到	-7868
越好	-7869
足迹	-7870
跑到	-7871
过后	-7872
过时	-7873
铁路	-7874
静止	-7875
顶尖	-7876
ley	-7877
▁不可	-7878
▁在于	-7879
▁太阳	-7880
▁带来	-7881
▁思考	-7882
▁数学	-7883
▁某种	-7884
▁游戏	-7885
▁而非	-7886
▁记得	-7887
了一切	-7888
了一张	-7889
你们会	-7890
像我们	-7891
分钟内	-7892
和其它	-7893
太多了	-7894
尤其是	-7895
屋子里	-7896
左边的	-7897
幼儿园	-7898
战争中	-7899
投入到	-7900
方法是	-7901
是一只	-7902
有一条	-7903
有点儿	-7904
构成的	-7905
每一位	-7906
毕业生	-7907
现在是	-7908
留下的	-7909
的任务	-7910
的来说	-7911
的现实	-7912
的答案	-7913
表面的	-7914
被发现	-7915
认真的	-7916
道德的	-7917
那些有	-7918
▁其实是	-7919
▁在他的	-7920
▁我们为	-7921
▁我们很	-7922
▁我感觉	-7923
▁第二天	-7924
▁这使得	-7925
▁那里有	-7926
介绍一下	-7927
佛罗里达	-7928
做了很多	-7929
展示一下	-7930
我们一直	-7931
所有的人	-7932
这么一个	-7933
重新定义	-7934
Chris	-7935
▁他们发现	-7936
▁他们正在	-7937
▁但是我想	-7938
▁我们真的	-7939
建立了一个	-7940
日常生活中	-7941
是什么意思	-7942
这样的事情	-7943
▁我们发现了	-7944
▁这就是我的	-7945
oy	-7946
一架	-7947
万亿	-7948
中期	-7949
举起	-7950
体型	-7951
倍的	-7952
充电	-7953
制品	-7954
前行	-7955
动脉	-7956
协同	-7957
却不	-7958
取出	-7959
受损	-7960
变形	-7961
圈子	-7962
在说	-7963
天使	-7964
实习	-7965
实说	-7966
对他	-7967
对照	-7968
巴拉	-7969
带走	-7970
平凡	-7971
开头	-7972
弹奏	-7973
得的	-7974
患病	-7975
所知	-7976
木头	-7977
村子	-7978
水母	-7979
特权	-7980
眼光	-7981
碰巧	-7982
紧紧	-7983
缺失	-7984
而出	-7985
职位	-7986
脉冲	-7987
花钱	-7988
落在	-7989
认出	-7990
读过	-7991
都将	-7992
重组	-7993
门口	-7994
飞过	-7995
马路	-7996
CEO	-7997
ang	-7998
▁公共	-7999
▁关注	-8000
▁哪些	-8001
▁支持	-8002
▁类似	-8003
主要是	-8004
南极洲	-8005
去理解	-8006
名字叫	-8007
和大家	-8008
在网上	-8009
如此的	-8010
导致的	-8011
工作时	-8012
快乐的	-8013
所以我	-8014
杰出的	-8015
活动的	-8016
流行病	-8017
的基本	-8018
的开始	-8019
的药物	-8020
立学校	-8021
结束时	-8022
综合征	-8023
能找到	-8024
转化成	-8025
这些事	-8026
难民营	-8027
----	-8028
1500	-8029
2004	-8030
2005	-8031
▁198	-8032
▁于是他	-8033
▁从一个	-8034
▁几个月	-8035
▁只不过	-8036
▁在很多	-8037
▁意思是	-8038
▁是为了	-8039
▁有一种	-8040
▁然后她	-8041
▁这样做	-8042
做这件事	-8043
创造力的	-8044
另外一种	-8045
我有一个	-8046
最伟大的	-8047
现实世界	-8048
的第一个	-8049
还有其他	-8050
这一问题	-8051
这些地方	-8052
阿拉伯语	-8053
▁所以这是	-8054
变成了一个	-8055
问题的答案	-8056
▁内	-8057
▁深	-8058
▁玩	-8059
▁绝	-8060
产出	-8061
低估	-8062
加密	-8063
升高	-8064
卡罗	-8065
即时	-8066
后期	-8067
呆症	-8068
四年	-8069
填充	-8070
墙壁	-8071
多巴	-8072
天啊	-8073
女权	-8074
安置	-8075
定了	-8076
心态	-8077
恰好	-8078
成一	-8079
找寻	-8080
时尚	-8081
有三	-8082
比这	-8083
水面	-8084
测验	-8085
海地	-8086
特律	-8087
直播	-8088
研制	-8089
窗口	-8090
线性	-8091
终点	-8092
考察	-8093
而被	-8094
能用	-8095
蒂芬	-8096
要有	-8097
言语	-8098
说起	-8099
诸位	-8100
质的	-8101
跟随	-8102
身于	-8103
这很	-8104
问他	-8105
雕像	-8106
飞到	-8107
”——	-8108
▁一条	-8109
▁你所	-8110
▁加入	-8111
▁听到	-8112
▁实验	-8113
▁我再	-8114
▁来到	-8115
▁至今	-8116
一生中	-8117
不舒服	-8118
与他人	-8119
与他们	-8120
两个月	-8121
事情的	-8122
做过的	-8123
关系的	-8124
几乎是	-8125
几年里	-8126
医院的	-8127
只是个	-8128
在家里	-8129
在里面	-8130
对不对	-8131
幸福的	-8132
影响了	-8133
我们得	-8134
扫描仪	-8135
把一个	-8136
控制的	-8137
数十亿	-8138
曼德拉	-8139
有关的	-8140
有兴趣	-8141
有多么	-8142
海洋的	-8143
的一项	-8144
的文章	-8145
的确是	-8146
的讨论	-8147
翻译成	-8148
脑海里	-8149
英尺的	-8150
赢得了	-8151
达到的	-8152
飞机上	-8153
▁这其中	-8154
▁这可能	-8155
▁这时候	-8156
一些问题	-8157
众所周知	-8158
化石燃料	-8159
大部分的	-8160
如果你想	-8161
对我而言	-8162
感到非常	-8163
改变我们	-8164
的环境中	-8165
这并不是	-8166
这样做了	-8167
这项工作	-8168
▁但是它们	-8169
▁但是这个	-8170
▁如果你是	-8171
▁如果你的	-8172
▁我们无法	-8173
我们的世界	-8174
是怎么回事	-8175
每个人都有	-8176
▁我认为这是	-8177
很长一段时间	-8178
ce	-8179
ph	-8180
中学	-8181
主张	-8182
买卖	-8183
人会	-8184
住房	-8185
像素	-8186
光明	-8187
出乎	-8188
可归	-8189
可笑	-8190
合同	-8191
听觉	-8192
国界	-8193
图中	-8194
地去	-8195
子女	-8196
实的	-8197
密集	-8198
山顶	-8199
平静	-8200
心情	-8201
我再	-8202
打个	-8203
易斯	-8204
来找	-8205
案子	-8206
横跨	-8207
照射	-8208
环节	-8209
细的	-8210
群落	-8211
触动	-8212
追随	-8213
随处	-8214
鲁士	-8215
30%	-8216
HIV	-8217
▁一年	-8218
▁个人	-8219
▁其它	-8220
▁具体	-8221
▁分享	-8222
▁刚刚	-8223
▁创新	-8224
▁处理	-8225
▁成功	-8226
▁我先	-8227
▁我叫	-8228
▁战争	-8229
▁掌声	-8230
▁某个	-8231
▁病人	-8232
▁那儿	-8233
不那么	-8234
乌托邦	-8235
件事是	-8236
使用者	-8237
听上去	-8238
基础上	-8239
多少钱	-8240
岁的人	-8241
我曾经	-8242
我看到	-8243
时期的	-8244
是一项	-8245
更重要	-8246
生产的	-8247
生存的	-8248
生物的	-8249
的人会	-8250
的出现	-8251
着我的	-8252
移动的	-8253
肯定会	-8254
肯定的	-8255
致命的	-8256
艺术的	-8257
让我来	-8258
说明了	-8259
进化论	-8260
2003	-8261
▁在未来	-8262
▁在非洲	-8263
▁我们让	-8264
▁我无法	-8265
▁联合国	-8266
了他们的	-8267
人们可以	-8268
人工智能	-8269
令人惊讶	-8270
以及其他	-8271
完全没有	-8272
并非如此	-8273
恐怖袭击	-8274
意识形态	-8275
有了一个	-8276
行动起来	-8277
这个目标	-8278
这个观点	-8279
这么做的	-8280
这样做的	-8281
▁他们只是	-8282
▁它们可以	-8283
▁我们把它	-8284
▁我的工作	-8285
▁现在我想	-8286
▁那是因为	-8287
▁重要的是	-8288
太阳能电池	-8289
我们的工作	-8290
结合在一起	-8291
非政府组织	-8292
▁乔	-8293
▁吃	-8294
▁建	-8295
▁快	-8296
▁装	-8297
」,	-8298
一人	-8299
上角	-8300
义务	-8301
之时	-8302
付钱	-8303
使人	-8304
信赖	-8305
光谱	-8306
入口	-8307
养活	-8308
加工	-8309
千年	-8310
卡路	-8311
历程	-8312
原油	-8313
和人	-8314
啦啦	-8315
土著	-8316
圣战	-8317
复合	-8318
夏威	-8319
大师	-8320
天生	-8321
女生	-8322
对立	-8323
属性	-8324
岛素	-8325
布莱	-8326
并未	-8327
战场	-8328
手提	-8329
才华	-8330
报导	-8331
族群	-8332
曾是	-8333
林肯	-8334
注重	-8335
犯错	-8336
疑惑	-8337
眼神	-8338
群众	-8339
菲利	-8340
要多	-8341
赛车	-8342
适宜	-8343
长久	-8344
隔绝	-8345
▁上帝	-8346
▁传统	-8347
▁你还	-8348
▁准备	-8349
▁刚才	-8350
▁别人	-8351
▁原来	-8352
▁反而	-8353
▁市场	-8354
▁我才	-8355
▁相当	-8356
▁系统	-8357
▁这场	-8358
▁这点	-8359
不同于	-8360
使他们	-8361
到那里	-8362
力量的	-8363
加起来	-8364
和那些	-8365
患者的	-8366
或其他	-8367
显示出	-8368
电视台	-8369
的时光	-8370
的材料	-8371
的来源	-8372
确定的	-8373
能力的	-8374
这东西	-8375
2011	-8376
▁Ste	-8377
▁一些人	-8378
▁他们从	-8379
▁其他人	-8380
▁可以说	-8381
▁存在于	-8382
▁我把它	-8383
▁我自己	-8384
▁甚至在	-8385
▁而是在	-8386
▁这可以	-8387
会怎么样	-8388
办公室里	-8389
可持续性	-8390
大规模的	-8391
智能手机	-8392
这个实验	-8393
连接起来	-8394
▁他们甚至	-8395
▁如果你能	-8396
▁它看起来	-8397
▁我们决定	-8398
了一段时间	-8399
42	-8400
Sh	-8401
七个	-8402
与其	-8403
仅有	-8404
仍有	-8405
你说	-8406
动词	-8407
原先	-8408
口号	-8409
古典	-8410
叫声	-8411
名言	-8412
吸烟	-8413
响应	-8414
地质	-8415
复苏	-8416
大幅	-8417
头部	-8418
它将	-8419
尽快	-8420
年到	-8421
度假	-8422
手上	-8423
抗争	-8424
推移	-8425
政权	-8426
施加	-8427
旁白	-8428
时光	-8429
服装	-8430
次数	-8431
歌手	-8432
比特	-8433
演变	-8434
的和	-8435
的画	-8436
粉丝	-8437
考验	-8438
要好	-8439
评级	-8440
读了	-8441
走来	-8442
辨别	-8443
这部	-8444
追逐	-8445
那年	-8446
黎巴	-8447
MIT	-8448
ord	-8449
▁我都	-8450
▁探索	-8451
▁这让	-8452
人民的	-8453
他们想	-8454
例来说	-8455
分之二	-8456
和美国	-8457
在其中	-8458
家可归	-8459
底特律	-8460
很快地	-8461
很长的	-8462
快速的	-8463
方式的	-8464
智慧的	-8465
未知的	-8466
物种的	-8467
生物体	-8468
电脑上	-8469
电视上	-8470
的一员	-8471
的一年	-8472
的经验	-8473
的非洲	-8474
监狱里	-8475
花时间	-8476
被告知	-8477
资源的	-8478
通常是	-8479
问题了	-8480
2001	-8481
▁他认为	-8482
▁在印度	-8483
▁我们又	-8484
不同的人	-8485
亿美元的	-8486
但是我们	-8487
很多事情	-8488
意义上的	-8489
我一直在	-8490
我所说的	-8491
我的父亲	-8492
更进一步	-8493
的一点是	-8494
的另一个	-8495
社交网络	-8496
被认为是	-8497
这个游戏	-8498
▁他们开始	-8499
▁我的父亲	-8500
▁毫无疑问	-8501
▁现在我要	-8502
▁这个想法	-8503
同样的事情	-8504
很大程度上	-8505
我们有一个	-8506
,「	-8507
6%	-8508
Ar	-8509
ct	-8510
ky	-8511
sh	-8512
▁车	-8513
使其	-8514
侵犯	-8515
修理	-8516
全都	-8517
占了	-8518
呆了	-8519
商人	-8520
地狱	-8521
大于	-8522
少了	-8523
局面	-8524
心智	-8525
息息	-8526
捕获	-8527
收音	-8528
效的	-8529
教的	-8530
斯加	-8531
暂停	-8532
样品	-8533
根除	-8534
比起	-8535
波斯	-8536
注定	-8537
片的	-8538
牛仔	-8539
物的	-8540
猜猜	-8541
病情	-8542
破碎	-8543
立方	-8544
继承	-8545
维尔	-8546
肯尼	-8547
能从	-8548
见解	-8549
话说	-8550
起诉	-8551
身后	-8552
连结	-8553
金森	-8554
问过	-8555
限于	-8556
除非	-8557
雇员	-8558
▁一名	-8559
▁三个	-8560
▁从中	-8561
▁他也	-8562
▁情况	-8563
▁电影	-8564
▁细胞	-8565
▁这真	-8566
下降了	-8567
个性化	-8568
了一只	-8569
五分钟	-8570
他们对	-8571
传播的	-8572
如何去	-8573
小男孩	-8574
应用于	-8575
建造的	-8576
影响到	-8577
忽略了	-8578
有三个	-8579
来完成	-8580
查尔斯	-8581
海洋中	-8582
电视机	-8583
的程度	-8584
碳排放	-8585
给那些	-8586
英国的	-8587
见到的	-8588
还不是	-8589
这里是	-8590
那么大	-8591
那以后	-8592
都已经	-8593
▁也不会	-8594
▁人们会	-8595
▁大量的	-8596
▁我应该	-8597
▁给我们	-8598
▁美国人	-8599
▁那时我	-8600
作为一名	-8601
像我一样	-8602
可以改变	-8603
商业模式	-8604
大脑皮层	-8605
如果他们	-8606
对他们的	-8607
就像一个	-8608
工作的人	-8609
年的时候	-8610
我们不会	-8611
我们还是	-8612
这些国家	-8613
量子力学	-8614
▁为什么呢	-8615
▁对于那些	-8616
▁就是这样	-8617
▁我们不会	-8618
▁我们今天	-8619
▁我们可能	-8620
▁我们并不	-8621
我们称之为	-8622
艺术博物馆	-8623
▁我们有一个	-8624
▁现在让我们	-8625
▁这里有一个	-8626
?」	-8627
CD	-8628
SP	-8629
▁p	-8630
▁亿	-8631
▁富	-8632
▁干	-8633
一副	-8634
一的	-8635
不懂	-8636
亮的	-8637
亲近	-8638
份子	-8639
伤心	-8640
余的	-8641
修正	-8642
做事	-8643
光是	-8644
克利	-8645
冲浪	-8646
去的	-8647
及时	-8648
发声	-8649
在大	-8650
坐标	-8651
塔斯	-8652
外科	-8653
大致	-8654
失调	-8655
头条	-8656
头骨	-8657
存的	-8658
它也	-8659
导航	-8660
市的	-8661
带入	-8662
影子	-8663
恶的	-8664
情节	-8665
所为	-8666
所处	-8667
打败	-8668
掉的	-8669
是无	-8670
歌唱	-8671
沙特	-8672
流浪	-8673
浮游	-8674
深的	-8675
游客	-8676
瑞克	-8677
用处	-8678
病症	-8679
的性	-8680
空的	-8681
立体	-8682
管用	-8683
行政	-8684
西斯	-8685
谁是	-8686
配合	-8687
雇主	-8688
音频	-8689
频道	-8690
Ste	-8691
ana	-8692
▁21	-8693
▁不知	-8694
▁亚当	-8695
▁会有	-8696
▁因而	-8697
▁就如	-8698
▁并把	-8699
▁当她	-8700
▁给予	-8701
▁警察	-8702
▁这段	-8703
▁这类	-8704
一个更	-8705
不相信	-8706
与其他	-8707
为大家	-8708
互动的	-8709
人与人	-8710
人性的	-8711
代表了	-8712
会导致	-8713
你们在	-8714
制造商	-8715
华尔街	-8716
变得很	-8717
口袋里	-8718
在世界	-8719
地发现	-8720
就是要	-8721
带到了	-8722
当然是	-8723
得不到	-8724
持续了	-8725
持续的	-8726
时间里	-8727
来解决	-8728
汽车的	-8729
现在在	-8730
用的是	-8731
留下了	-8732
的最佳	-8733
的领域	-8734
第一位	-8735
等同于	-8736
结构的	-8737
被认为	-8738
许许多	-8739
跟大家	-8740
身体里	-8741
运行的	-8742
▁你认为	-8743
▁在那些	-8744
▁它就会	-8745
▁相当于	-8746
▁这真是	-8747
▁首先是	-8748
了不起的	-8749
你的大脑	-8750
我们有了	-8751
核磁共振	-8752
注意到了	-8753
热带雨林	-8754
百分之一	-8755
的年轻人	-8756
给大家看	-8757
诺贝尔奖	-8758
这个事实	-8759
▁于是他们	-8760
我的意思是	-8761
至关重要的	-8762
▁但是我认为	-8763
BC	-8764
ta	-8765
▁乌	-8766
▁史	-8767
▁学	-8768
▁整	-8769
一月	-8770
上课	-8771
不算	-8772
中风	-8773
享有	-8774
亲身	-8775
会的	-8776
伤口	-8777
何种	-8778
前列	-8779
加油	-8780
南亚	-8781
南方	-8782
即便	-8783
友好	-8784
双胞	-8785
各国	-8786
同等	-8787
学金	-8788
它了	-8789
它有	-8790
开的	-8791
意想	-8792
担任	-8793
持久	-8794
提交	-8795
支架	-8796
散步	-8797
杀人	-8798
条约	-8799
概括	-8800
法规	-8801
活在	-8802
犯人	-8803
登陆	-8804
着它	-8805
福特	-8806
色情	-8807
节点	-8808
证书	-8809
迷人	-8810
逃避	-8811
那张	-8812
里士	-8813
钱的	-8814
长寿	-8815
间接	-8816
高潮	-8817
ast	-8818
▁BG	-8819
▁他想	-8820
▁充满	-8821
▁女孩	-8822
▁婴儿	-8823
▁打开	-8824
▁找出	-8825
▁谷歌	-8826
一个在	-8827
了解了	-8828
利比亚	-8829
半小时	-8830
另一只	-8831
因为他	-8832
女孩子	-8833
家里的	-8834
将我们	-8835
年以来	-8836
开发的	-8837
很不错	-8838
很好奇	-8839
得非常	-8840
我们和	-8841
所学校	-8842
是不可	-8843
是基于	-8844
有机体	-8845
朋友的	-8846
永恒的	-8847
清楚地	-8848
的不是	-8849
的自由	-8850
社区里	-8851
程序员	-8852
进入到	-8853
那一刻	-8854
那时起	-8855
都是由	-8856
银行家	-8857
1990	-8858
iPod	-8859
▁你将会	-8860
▁只要你	-8861
▁我去了	-8862
▁比方说	-8863
▁理查德	-8864
一点也不	-8865
与此同时	-8866
个不同的	-8867
你们可能	-8868
很有趣的	-8869
思维方式	-8870
我们就能	-8871
显示的是	-8872
▁他们已经	-8873
▁你只需要	-8874
▁你知道的	-8875
▁没有什么	-8876
▁这是关于	-8877
▁这种情况	-8878
他们的故事	-8879
很好的例子	-8880
感兴趣的是	-8881
我最喜欢的	-8882
有趣的事情	-8883
la	-8884
▁基	-8885
▁笑	-8886
▁萨	-8887
▁诺	-8888
不敢	-8889
不曾	-8890
为一	-8891
介意	-8892
传授	-8893
伯拉	-8894
便会	-8895
假的	-8896
储备	-8897
克兰	-8898
分校	-8899
创始	-8900
前例	-8901
变量	-8902
只用	-8903
同行	-8904
听了	-8905
奇特	-8906
容器	-8907
将在	-8908
尖叫	-8909
尽的	-8910
工艺	-8911
巧合	-8912
弹性	-8913
往前	-8914
忽然	-8915
急剧	-8916
拍了	-8917
指望	-8918
旁观	-8919
无助	-8920
时不	-8921
木材	-8922
枪支	-8923
歌剧	-8924
电动	-8925
看做	-8926
编写	-8927
能把	-8928
虚构	-8929
诸多	-8930
起床	-8931
身高	-8932
这颗	-8933
问到	-8934
雕刻	-8935
题目	-8936
鱼的	-8937
ess	-8938
ose	-8939
▁DH	-8940
▁Sh	-8941
▁减少	-8942
▁她会	-8943
▁安全	-8944
▁文化	-8945
▁机器	-8946
▁正好	-8947
▁组织	-8948
▁自我	-8949
▁让他	-8950
▁讲述	-8951
。。。	-8952
个月后	-8953
以前的	-8954
做了个	-8955
健康和	-8956
几百万	-8957
参与了	-8958
口可乐	-8959
另一边	-8960
告诉她	-8961
在中国	-8962
学院的	-8963
它不是	-8964
安德特	-8965
实实在	-8966
就会有	-8967
尽全力	-8968
广泛的	-8969
我们很	-8970
拿到了	-8971
收音机	-8972
教科书	-8973
有任何	-8974
有这种	-8975
清楚的	-8976
的一条	-8977
的地图	-8978
的最大	-8979
的蚂蚁	-8980
的高度	-8981
祖父母	-8982
结论是	-8983
综合症	-8984
脆弱的	-8985
范围的	-8986
过一个	-8987
音乐的	-8988
颜色的	-8989
▁你是否	-8990
▁假如你	-8991
▁取决于	-8992
▁就是在	-8993
▁我们才	-8994
▁我们来	-8995
▁把他们	-8996
▁是非常	-8997
一小部分	-8998
他们正在	-8999
他们需要	-9000
免疫系统	-9001
几个例子	-9002
和他们的	-9003
喜欢这个	-9004
四分之一	-9005
国家公园	-9006
尼安德特	-9007
很多东西	-9008
我们将会	-9009
我们真的	-9010
是正确的	-9011
是错误的	-9012
有很多人	-9013
某种方式	-9014
这些故事	-9015
都不知道	-9016
都有一个	-9017
▁他们想要	-9018
▁所有人都	-9019
中的很多人	-9020
什么都没有	-9021
成为了一个	-9022
撒哈拉以南	-9023
▁你可以想象	-9024
成千上万的人	-9025
37	-9026
ue	-9027
▁坐	-9028
▁至	-9029
一整	-9030
三点	-9031
与否	-9032
东部	-9033
两只	-9034
义肢	-9035
乘坐	-9036
人脑	-9037
传送	-9038
关掉	-9039
凯文	-9040
切断	-9041
刑事	-9042
去想	-9043
头顶	-9044
婚礼	-9045
字胡	-9046
尔蒙	-9047
岛的	-9048
已被	-9049
干的	-9050
建成	-9051
开创	-9052
形势	-9053
我真	-9054
承载	-9055
接纳	-9056
放慢	-9057
故障	-9058
暴风	-9059
有谁	-9060
木星	-9061
标识	-9062
校长	-9063
比率	-9064
水和	-9065
沙发	-9066
消亡	-9067
潮流	-9068
瓶子	-9069
磁铁	-9070
箱子	-9071
给人	-9072
美味	-9073
脚步	-9074
艰苦	-9075
著作	-9076
表述	-9077
野外	-9078
针头	-9079
面孔	-9080
25%	-9081
ins	-9082
lex	-9083
▁值得	-9084
▁历史	-9085
▁受到	-9086
▁实现	-9087
▁我与	-9088
▁究竟	-9089
▁给我	-9090
▁这与	-9091
▁造成	-9092
▁鼓励	-9093
上一个	-9094
上帝的	-9095
不公平	-9096
不容易	-9097
专业的	-9098
了一位	-9099
你们中	-9100
像一个	-9101
分辨率	-9102
去思考	-9103
去看看	-9104
可能在	-9105
合法的	-9106
和她的	-9107
因此而	-9108
多年的	-9109
奖学金	-9110
家庭的	-9111
我的手	-9112
描述的	-9113
无前例	-9114
某些人	-9115
理想的	-9116
的定义	-9117
的说法	-9118
的那种	-9119
看到我	-9120
纽约的	-9121
经济体	-9122
认为这	-9123
设计和	-9124
转换成	-9125
还是个	-9126
这么想	-9127
银行的	-9128
隐藏的	-9129
2050	-9130
▁就如同	-9131
▁我们与	-9132
▁有许多	-9133
▁而我的	-9134
▁谢谢你	-9135
▁这本书	-9136
一种方法	-9137
之处在于	-9138
互联网上	-9139
其中之一	-9140
变得非常	-9141
怎么回事	-9142
成百上千	-9143
日常生活	-9144
知道这个	-9145
神经细胞	-9146
花了很多	-9147
这么认为	-9148
都是这样	-9149
▁他们都是	-9150
▁但问题是	-9151
▁大多数人	-9152
▁大家知道	-9153
▁如果有人	-9154
▁我们是否	-9155
▁我很高兴	-9156
▁接下来的	-9157
▁最后一个	-9158
▁还有其他	-9159
▁这个过程	-9160
▁这是非常	-9161
▁除此之外	-9162
其中的一个	-9163
我们所做的	-9164
我们都知道	-9165
▁非常感谢大家	-9166
!“	-9167
Br	-9168
ld	-9169
▁g	-9170
▁公	-9171
▁圣	-9172
▁强	-9173
▁排	-9174
▁梅	-9175
一度	-9176
不见	-9177
书写	-9178
二维	-9179
从此	-9180
优点	-9181
体管	-9182
你把	-9183
侵入	-9184
六十	-9185
冲动	-9186
列举	-9187
前后	-9188
古代	-9189
吃掉	-9190
名称	-9191
大人	-9192
天主	-9193
它被	-9194
安娜	-9195
将军	-9196
布斯	-9197
平民	-9198
引进	-9199
性感	-9200
抗体	-9201
授予	-9202
探寻	-9203
支配	-9204
有种	-9205
本人	-9206
波罗	-9207
源自	-9208
熟练	-9209
爱上	-9210
真菌	-9211
突出	-9212
端的	-9213
经前	-9214
而又	-9215
艾米	-9216
苏丹	-9217
议程	-9218
超出	-9219
路德	-9220
迎接	-9221
还很	-9222
这事	-9223
避难	-9224
那只	-9225
钢铁	-9226
高等	-9227
黑帮	-9228
aul	-9229
iel	-9230
ram	-9231
▁40	-9232
▁60	-9233
▁以上	-9234
▁会在	-9235
▁商业	-9236
▁常常	-9237
▁生产	-9238
▁而他	-9239
▁而后	-9240
▁设想	-9241
▁说明	-9242
一些小	-9243
不清楚	-9244
会让你	-9245
便宜的	-9246
候选人	-9247
可以将	-9248
和一些	-9249
在地上	-9250
在那些	-9251
好主意	-9252
实在太	-9253
寄生虫	-9254
对你的	-9255
对称性	-9256
幸福感	-9257
当地人	-9258
很快就	-9259
快速地	-9260
我就想	-9261
拿出来	-9262
提高了	-9263
有效率	-9264
有超过	-9265
欧洲的	-9266
特别是	-9267
用这种	-9268
百分比	-9269
的图像	-9270
的宇宙	-9271
的支持	-9272
的死亡	-9273
的观众	-9274
的证据	-9275
知识和	-9276
空间里	-9277
能量的	-9278
诞生了	-9279
过这个	-9280
这是在	-9281
连接到	-9282
都非常	-9283
非凡的	-9284
▁他们要	-9285
▁你们的	-9286
▁在某些	-9287
▁如果是	-9288
▁我在想	-9289
▁我就是	-9290
▁我母亲	-9291
▁现在的	-9292
▁达尔文	-9293
▁这才是	-9294
几乎没有	-9295
到处都是	-9296
看看这个	-9297
联邦调查	-9298
里士多德	-9299
问题就是	-9300
▁他们不会	-9301
▁他们知道	-9302
▁我们不是	-9303
▁我想知道	-9304
▁所以这些	-9305
▁这个系统	-9306
▁因为我们的	-9307
▁我们不得不	-9308
是非常重要的	-9309
▁Anderson	-9310
BA	-9311
Em	-9312
ov	-9313
ux	-9314
▁日	-9315
▁读	-9316
▁靠	-9317
一提	-9318
一日	-9319
一首	-9320
下次	-9321
不不	-9322
之年	-9323
也将	-9324
亿的	-9325
他也	-9326
们在	-9327
价钱	-9328
停下	-9329
养育	-9330
化疗	-9331
单单	-9332
卖给	-9333
压迫	-9334
口气	-9335
可用	-9336
周五	-9337
大麻	-9338
天性	-9339
她是	-9340
好几	-9341
宣言	-9342
容纳	-9343
层楼	-9344
州立	-9345
常识	-9346
急诊	-9347
打了	-9348
批判	-9349
摄入	-9350
无形	-9351
早餐	-9352
时会	-9353
有力	-9354
林匹	-9355
标本	-9356
片断	-9357
的三	-9358
的公	-9359
看清	-9360
矿物	-9361
破解	-9362
积分	-9363
移到	-9364
空调	-9365
章节	-9366
精准	-9367
精子	-9368
组件	-9369
老化	-9370
而然	-9371
节能	-9372
衰退	-9373
西雅	-9374
触碰	-9375
资格	-9376
起步	-9377
越的	-9378
选票	-9379
阿姆	-9380
阿根	-9381
降雨	-9382
领先	-9383
魔力	-9384
ann	-9385
enn	-9386
▁一场	-9387
▁仿佛	-9388
▁在她	-9389
▁对了	-9390
▁帕特	-9391
▁开发	-9392
▁我刚	-9393
▁手机	-9394
▁提出	-9395
▁最好	-9396
▁比较	-9397
▁火星	-9398
▁穿过	-9399
▁红色	-9400
一个有	-9401
一句话	-9402
上世纪	-9403
也无法	-9404
也需要	-9405
亿人口	-9406
例子中	-9407
关心的	-9408
分钟的	-9409
十年的	-9410
去世了	-9411
和人类	-9412
因为你	-9413
基因的	-9414
媒体的	-9415
对不起	-9416
市场上	-9417
幸运的	-9418
当你在	-9419
当我在	-9420
技术和	-9421
新西兰	-9422
时间和	-9423
有一次	-9424
洗衣机	-9425
的政府	-9426
的数学	-9427
的理由	-9428
的电脑	-9429
空间中	-9430
脑细胞	-9431
观众笑	-9432
觉得很	-9433
超越了	-9434
遥远的	-9435
预测的	-9436
饮用水	-9437
▁出现在	-9438
▁当这些	-9439
▁我之前	-9440
▁把这些	-9441
▁自己的	-9442
▁都可以	-9443
也是这样	-9444
亚历山大	-9445
你能看到	-9446
做点什么	-9447
和我们的	-9448
在座各位	-9449
坐在那里	-9450
学习如何	-9451
它们可以	-9452
布鲁克林	-9453
很久以前	-9454
我和我的	-9455
我的想法	-9456
我的观点	-9457
无家可归	-9458
更多的钱	-9459
的美国人	-9460
社会问题	-9461
经济发展	-9462
考虑一下	-9463
高速公路	-9464
▁不仅如此	-9465
▁实际上是	-9466
▁对于我们	-9467
▁对我而言	-9468
▁尤其是在	-9469
▁这些问题	-9470
一次又一次	-9471
严重的问题	-9472
▁我们可以用	-9473
▁我们实际上	-9474
令人难以置信	-9475
回答这个问题	-9476
:「	-9477
IM	-9478
of	-9479
▁信	-9480
▁冰	-9481
▁格	-9482
▁风	-9483
下角	-9484
丹麦	-9485
乳腺	-9486
了呢	-9487
交往	-9488
侵略	-9489
假期	-9490
克隆	-9491
关怀	-9492
北方	-9493
十九	-9494
友善	-9495
哈根	-9496
回想	-9497
回路	-9498
图标	-9499
在内	-9500
天线	-9501
山羊	-9502
巴布	-9503
带回	-9504
座位	-9505
开着	-9506
往上	-9507
很低	-9508
成真	-9509
我刚	-9510
把钱	-9511
旋律	-9512
有权	-9513
极具	-9514
核弹	-9515
模样	-9516
海湾	-9517
液态	-9518
点燃	-9519
特拉	-9520
现金	-9521
理发	-9522
电台	-9523
社团	-9524
箭头	-9525
终身	-9526
获益	-9527
走动	-9528
金斯	-9529
闭上	-9530
霍华	-9531
▁到达	-9532
▁我没	-9533
▁日本	-9534
▁植物	-9535
▁法律	-9536
▁现今	-9537
▁现实	-9538
▁等待	-9539
▁而那	-9540
▁要比	-9541
▁这可	-9542
▁这太	-9543
▁部分	-9544
▁都被	-9545
一个叫	-9546
一个很	-9547
上面的	-9548
不会被	-9549
不相同	-9550
了整个	-9551
亚特兰	-9552
他们要	-9553
份工作	-9554
会出现	-9555
创造者	-9556
化学家	-9557
命名为	-9558
大城市	-9559
它已经	-9560
年以后	-9561
微不足	-9562
性行为	-9563
感染了	-9564
慢慢的	-9565
我并不	-9566
房子里	-9567
时间内	-9568
明确的	-9569
是十分	-9570
更像是	-9571
案例中	-9572
游戏中	-9573
演讲中	-9574
熟知的	-9575
的主意	-9576
的人说	-9577
的医疗	-9578
的危险	-9579
的平均	-9580
的状况	-9581
的边缘	-9582
看了看	-9583
神圣的	-9584
群体的	-9585
菲利普	-9586
负责任	-9587
都需要	-9588
食物的	-9589
驱动的	-9590
▁也许是	-9591
▁但是她	-9592
▁和一些	-9593
▁当你在	-9594
▁当它们	-9595
▁来帮助	-9596
▁每一次	-9597
▁然后又	-9598
▁这说明	-9599
▁那是个	-9600
一个人的	-9601
也是一样	-9602
你可能会	-9603
其他东西	-9604
恰恰相反	-9605
我们决定	-9606
有很大的	-9607
正在进行	-9608
没有办法	-9609
这样的话	-9610
都是如此	-9611
▁他们会说	-9612
▁我称之为	-9613
▁所以我的	-9614
▁无论如何	-9615
▁这是我在	-9616
为什么我们	-9617
精神分裂症	-9618
结束的时候	-9619
▁但如果我们	-9620
▁我们也可以	-9621
▁我希望你们	-9622
-2	-9623
AR	-9624
cy	-9625
▁抱	-9626
一封	-9627
上周	-9628
下雨	-9629
也门	-9630
了你	-9631
代之	-9632
会把	-9633
估算	-9634
伴随	-9635
使之	-9636
偏远	-9637
偷偷	-9638
全书	-9639
关爱	-9640
写信	-9641
前额	-9642
化和	-9643
去掉	-9644
去除	-9645
双腿	-9646
发觉	-9647
发音	-9648
古巴	-9649
吉他	-9650
吉尔	-9651
后院	-9652
在场	-9653
大堆	-9654
好人	-9655
如下	-9656
小了	-9657
差的	-9658
平时	-9659
废料	-9660
归功	-9661
当劳	-9662
得好	-9663
得通	-9664
微观	-9665
心想	-9666
思索	-9667
抽烟	-9668
拿来	-9669
捐助	-9670
无疑	-9671
星际	-9672
是件	-9673
普林	-9674
暴乱	-9675
更难	-9676
曾被	-9677
月亮	-9678
有幸	-9679
杀虫	-9680
杯子	-9681
杰克	-9682
检察	-9683
欢呼	-9684
流入	-9685
海军	-9686
爱人	-9687
球鞋	-9688
生来	-9689
画家	-9690
界的	-9691
的两	-9692
的的	-9693
眼中	-9694
着眼	-9695
离婚	-9696
简短	-9697
紧要	-9698
耗费	-9699
览器	-9700
费曼	-9701
运气	-9702
还未	-9703
远处	-9704
逃脱	-9705
里程	-9706
长度	-9707
问问	-9708
飞天	-9709
99%	-9710
RNA	-9711
ach	-9712
ott	-9713
▁BF	-9714
▁PM	-9715
▁中间	-9716
▁在它	-9717
▁我最	-9718
▁电话	-9719
▁计算	-9720
下来了	-9721
之外的	-9722
二十年	-9723
亿年前	-9724
从这些	-9725
以外的	-9726
会改变	-9727
去寻找	-9728
吉尼亚	-9729
和这些	-9730
喜爱的	-9731
在某些	-9732
当人们	-9733
影响的	-9734
得很好	-9735
打开了	-9736
搬到了	-9737
收入的	-9738
数以千	-9739
时间来	-9740
是他们	-9741
暗能量	-9742
本身的	-9743
机器的	-9744
的梦想	-9745
的模型	-9746
的比例	-9747
的设备	-9748
盒子里	-9749
看电视	-9750
神秘的	-9751
空气中	-9752
等一下	-9753
纽约客	-9754
肯尼迪	-9755
能得到	-9756
荷尔蒙	-9757
赛鲁士	-9758
身边的	-9759
过来的	-9760
还是会	-9761
还要多	-9762
预期的	-9763
魔术师	-9764
1950	-9765
2020	-9766
▁从这个	-9767
▁他们用	-9768
▁以一种	-9769
▁我个人	-9770
▁斯蒂芬	-9771
▁最好的	-9772
▁看到了	-9773
▁这样就	-9774
一个关于	-9775
世界大战	-9776
他们想要	-9777
基本上是	-9778
如果你们	-9779
实验室的	-9780
展示的是	-9781
我的故事	-9782
我的父母	-9783
我的身体	-9784
某个地方	-9785
这些技术	-9786
这方面的	-9787
▁你可以用	-9788
▁同时也是	-9789
▁我之所以	-9790
▁我们都是	-9791
▁所以当我	-9792
▁有多少人	-9793
▁科学家们	-9794
▁这个数字	-9795
创造了一个	-9796
和你们分享	-9797
我们所说的	-9798
▁我想说的是	-9799
▁这是另一个	-9800
世界上最大的	-9801
,1	-9802
4%	-9803
ET	-9804
pe	-9805
▁应	-9806
上海	-9807
下方	-9808
为他	-9809
主角	-9810
事先	-9811
二进	-9812
传承	-9813
作战	-9814
元件	-9815
克莱	-9816
共产	-9817
其为	-9818
反思	-9819
取了	-9820
只在	-9821
哥本	-9822
哪怕	-9823
四点	-9824
在外	-9825
坏人	-9826
堆积	-9827
声波	-9828
处方	-9829
开支	-9830
很短	-9831
微弱	-9832
总理	-9833
我该	-9834
手法	-9835
手表	-9836
找个	-9837
提起	-9838
无视	-9839
智利	-9840
曲的	-9841
标注	-9842
格尔	-9843
毒素	-9844
民权	-9845
没了	-9846
泰国	-9847
流量	-9848
火灾	-9849
王国	-9850
电磁	-9851
留给	-9852
病患	-9853
的我	-9854
私营	-9855
类比	-9856
花上	-9857
莎士	-9858
视线	-9859
认定	-9860
议院	-9861
费城	-9862
赞美	-9863
起飞	-9864
输送	-9865
这对	-9866
透露	-9867
避开	-9868
里亚	-9869
零售	-9870
饮料	-9871
驱使	-9872
Rob	-9873
The	-9874
ink	-9875
int	-9876
ith	-9877
ric	-9878
▁一件	-9879
▁他对	-9880
▁你说	-9881
▁参加	-9882
▁右边	-9883
▁名叫	-9884
▁我敢	-9885
▁父母	-9886
▁种族	-9887
▁证明	-9888
▁进化	-9889
一下子	-9890
下一次	-9891
不一定	-9892
也开始	-9893
事件的	-9894
保护的	-9895
八字胡	-9896
出这些	-9897
只不过	-9898
告诉过	-9899
和政治	-9900
和朋友	-9901
和科学	-9902
应该被	-9903
归功于	-9904
很高的	-9905
慢慢地	-9906
我刚刚	-9907
捕食者	-9908
是一场	-9909
是不够	-9910
是美国	-9911
显示的	-9912
有人在	-9913
来看待	-9914
来解释	-9915
某个人	-9916
每一次	-9917
的人性	-9918
的体验	-9919
的计划	-9920
看一看	-9921
看这些	-9922
让你的	-9923
跟他们	-9924
过很多	-9925
问题上	-9926
问题时	-9927
霍华德	-9928
黑暗中	-9929
edia	-9930
▁...	-9931
▁你们会	-9932
▁又或者	-9933
▁可以在	-9934
▁和那些	-9935
▁学生们	-9936
▁布鲁诺	-9937
▁我完全	-9938
▁我经常	-9939
▁我花了	-9940
▁所以它	-9941
▁未来的	-9942
▁然后说	-9943
▁而且这	-9944
中产阶级	-9945
令人惊奇	-9946
全球化的	-9947
和我一起	-9948
哥本哈根	-9949
在地球上	-9950
实在是太	-9951
德克萨斯	-9952
思考一下	-9953
我们对于	-9954
整个过程	-9955
莎士比亚	-9956
西班牙语	-9957
谢谢你们	-9958
这张图片	-9959
这种现象	-9960
非常大的	-9961
▁不管怎样	-9962
▁人们可以	-9963
▁并且我们	-9964
▁我们觉得	-9965
▁我们还有	-9966
▁我的父母	-9967
▁然后我说	-9968
▁而我们的	-9969
▁那个时候	-9970
ichard	-9971
▁因为如果你	-9972
▁我们不需要	-9973
在某种程度上	-9974
72	-9975
ix	-9976
iz	-9977
ly	-9978
▁另	-9979
▁希	-9980
▁里	-9981
。♫	-9982
上次	-9983
丽莎	-9984
从不	-9985
偏离	-9986
做饭	-9987
减缓	-9988
剧场	-9989
千个	-9990
半个	-9991
去买	-9992
双眼	-9993
受体	-9994
国旗	-9995
地里	-9996
壮大	-9997
多或	-9998
天后	-9999
孤单	-10000
学业	-10001
密的	-10002
就得	-10003
巴士	-10004
并没	-10005
急救	-10006
总和	-10007
我与	-10008
户外	-10009
无意	-10010
星盘	-10011
更糟	-10012
杂货	-10013
板块	-10014
梅隆	-10015
活到	-10016
流传	-10017
浮现	-10018
海里	-10019
游击	-10020
的吗	-10021
的脸	-10022
破产	-10023
稍后	-10024
笑了	-10025
策划	-10026
管子	-10027
纸片	-10028
美食	-10029
者是	-10030
腿上	-10031
自愿	-10032
自问	-10033
语法	-10034
调研	-10035
谈及	-10036
路口	-10037
过着	-10038
酒精	-10039
降临	-10040
面向	-10041
预先	-10042
鸡蛋	-10043
ash	-10044
osh	-10045
per	-10046
▁不像	-10047
▁多么	-10048
▁存在	-10049
▁对吗	-10050
▁将来	-10051
▁并将	-10052
▁旁白	-10053
三角形	-10054
不在乎	-10055
不怎么	-10056
不能再	-10057
也可能	-10058
仍然在	-10059
从我们	-10060
几秒钟	-10061
创造性	-10062
到这些	-10063
功能的	-10064
努力地	-10065
反过来	-10066
圣诞节	-10067
在这种	-10068
太阳的	-10069
奥林匹	-10070
已知的	-10071
忘记了	-10072
怎么会	-10073
我们最	-10074
我们该	-10075
报纸上	-10076
有不同	-10077
有哪些	-10078
有更多	-10079
标准的	-10080
水平的	-10081
水资源	-10082
流行的	-10083
理论上	-10084
男人们	-10085
的人在	-10086
的医生	-10087
的成本	-10088
的机构	-10089
的网站	-10090
的表现	-10091
绝对的	-10092
自然地	-10093
被我们	-10094
计划的	-10095
认识的	-10096
讨论的	-10097
设计出	-10098
课堂上	-10099
负责人	-10100
这三个	-10101
这部分	-10102
透明的	-10103
通过了	-10104
那是个	-10105
1980	-10106
▁即使在	-10107
▁原因是	-10108
▁在你的	-10109
▁它是由	-10110
▁安德森	-10111
▁我以前	-10112
▁我有个	-10113
▁有什么	-10114
▁然后用	-10115
▁还可以	-10116
一张照片	-10117
不好意思	-10118
也是一个	-10119
你们分享	-10120
使用这个	-10121
加州大学	-10122
天文学家	-10123
小的时候	-10124
息息相关	-10125
感兴趣的	-10126
所以我们	-10127
百分之十	-10128
的时间内	-10129
知道这些	-10130
艾滋病毒	-10131
西方国家	-10132
让我们的	-10133
让我感到	-10134
▁举例来说	-10135
▁告诉我们	-10136
▁因为人们	-10137
▁好消息是	-10138
▁我并没有	-10139
他们的生活	-10140
和大家分享	-10141
▁所以我决定	-10142
▁所以这就是	-10143
你们可以看到	-10144
是什么样子的	-10145
▁如果我们能够	-10146
,4	-10147
▁b	-10148
▁f	-10149
▁白	-10150
▁解	-10151
▁选	-10152
一杯	-10153
不愿	-10154
两点	-10155
了她	-10156
从小	-10157
便利	-10158
儿麻	-10159
写到	-10160
减速	-10161
制成	-10162
卡因	-10163
卡拉	-10164
却在	-10165
原创	-10166
变老	-10167
叶子	-10168
场地	-10169
多于	-10170
天体	-10171
夫人	-10172
字符	-10173
定居	-10174
实力	-10175
家中	-10176
容量	-10177
少于	-10178
尔曼	-10179
尼古	-10180
展望	-10181
山上	-10182
带了	-10183
彩票	-10184
情的	-10185
慢性	-10186
我做	-10187
推销	-10188
时机	-10189
是为	-10190
是他	-10191
曾说	-10192
服从	-10193
机率	-10194
杀掉	-10195
杰明	-10196
比你	-10197
比方	-10198
波动	-10199
派的	-10200
深信	-10201
清真	-10202
漫长	-10203
灰色	-10204
灾害	-10205
热门	-10206
版的	-10207
物件	-10208
电击	-10209
病房	-10210
的信	-10211
相应	-10212
等式	-10213
签名	-10214
纸张	-10215
罪行	-10216
聊聊	-10217
胡子	-10218
行程	-10219
谈一	-10220
轻微	-10221
这太	-10222
长远	-10223
非同	-10224
面团	-10225
▁不然	-10226
▁专门	-10227
▁也在	-10228
▁做了	-10229
▁哪里	-10230
▁就有	-10231
▁描述	-10232
▁肯定	-10233
▁能源	-10234
▁记者	-10235
一回事	-10236
一点的	-10237
万美金	-10238
不了解	-10239
也是个	-10240
了多少	-10241
仍然是	-10242
他们将	-10243
以来的	-10244
会变成	-10245
会议上	-10246
体现在	-10247
你看到	-10248
供应链	-10249
停止了	-10250
全面的	-10251
公交车	-10252
北部的	-10253
卡路里	-10254
历史中	-10255
另一半	-10256
多样化	-10257
实验中	-10258
小提琴	-10259
就会被	-10260
我妈妈	-10261
我想起	-10262
我无法	-10263
普遍的	-10264
有助于	-10265
杀虫剂	-10266
检察官	-10267
没关系	-10268
男性的	-10269
的安全	-10270
的市场	-10271
的路上	-10272
看出来	-10273
而代之	-10274
让世界	-10275
还不错	-10276
这样想	-10277
这首歌	-10278
迷人的	-10279
都无法	-10280
100%	-10281
2002	-10282
2012	-10283
▁主持人	-10284
▁他们所	-10285
▁他当时	-10286
▁伟大的	-10287
▁我最近	-10288
▁更好的	-10289
▁真的是	-10290
▁这需要	-10291
一模一样	-10292
令人吃惊	-10293
令人震惊	-10294
你也可以	-10295
史无前例	-10296
在自己的	-10297
如果没有	-10298
它看起来	-10299
完全可以	-10300
强有力的	-10301
我们怎么	-10302
无人驾驶	-10303
最后一次	-10304
看到一些	-10305
看看这些	-10306
研究这些	-10307
神经科学	-10308
第二人生	-10309
虚拟现实	-10310
让孩子们	-10311
这么简单	-10312
这些动物	-10313
▁今天我想	-10314
▁他是一个	-10315
▁你不需要	-10316
▁帮助我们	-10317
▁我不认为	-10318
▁我们确实	-10319
▁而是一个	-10320
▁而这就是	-10321
▁这些数据	-10322
改变我们的	-10323
这样的东西	-10324
重要的事情	-10325
▁你可以看见	-10326
▁大家都知道	-10327
的事情发生了	-10328
36	-10329
46	-10330
7%	-10331
ID	-10332
VD	-10333
▁极	-10334
▁科	-10335
▁顺	-10336
之久	-10337
代理	-10338
伙计	-10339
但却	-10340
住民	-10341
停在	-10342
养分	-10343
击败	-10344
助理	-10345
千米	-10346
取消	-10347
变性	-10348
商场	-10349
圆圈	-10350
坚定	-10351
外表	-10352
夫妻	-10353
奥尔	-10354
孕育	-10355
客厅	-10356
已知	-10357
店里	-10358
当他	-10359
彩色	-10360
得太	-10361
性欲	-10362
恶魔	-10363
我一	-10364
日期	-10365
是大	-10366
最难	-10367
有钱	-10368
杰出	-10369
树的	-10370
模特	-10371
欢乐	-10372
死后	-10373
每人	-10374
比利	-10375
水分	-10376
洛伊	-10377
特尔	-10378
狂热	-10379
生机	-10380
画像	-10381
相片	-10382
示威	-10383
积木	-10384
第五	-10385
类别	-10386
红杉	-10387
级别	-10388
罗德	-10389
舞者	-10390
藏着	-10391
试者	-10392
谷物	-10393
质数	-10394
载荷	-10395
透了	-10396
途中	-10397
造型	-10398
遗忘	-10399
邮箱	-10400
配偶	-10401
顶峰	-10402
LED	-10403
ant	-10404
ice	-10405
itt	-10406
rat	-10407
▁他将	-10408
▁喜欢	-10409
▁巴西	-10410
▁癌症	-10411
▁相互	-10412
▁绿色	-10413
▁表明	-10414
▁逐渐	-10415
一种新	-10416
不同意	-10417
两年前	-10418
为这个	-10419
体会到	-10420
你们所	-10421
你如何	-10422
几十亿	-10423
印度人	-10424
去那里	-10425
各地的	-10426
同事们	-10427
在学校	-10428
多大的	-10429
将这个	-10430
就知道	-10431
度过了	-10432
引起的	-10433
影响着	-10434
很快的	-10435
想法和	-10436
我们说	-10437
摩托车	-10438
有这个	-10439
朋友和	-10440
杂志上	-10441
极好的	-10442
正是我	-10443
母亲的	-10444
爱好者	-10445
的发明	-10446
的战争	-10447
的范围	-10448
的表面	-10449
相结合	-10450
研究员	-10451
研究者	-10452
罗伯特	-10453
莱斯特	-10454
还是在	-10455
还是有	-10456
那样做	-10457
隐藏在	-10458
高血压	-10459
John	-10460
▁一直到	-10461
▁但对于	-10462
▁你甚至	-10463
▁其中的	-10464
▁发生了	-10465
▁和他们	-10466
▁大自然	-10467
▁它只是	-10468
▁我妈妈	-10469
▁我突然	-10470
▁我说的	-10471
▁简单的	-10472
▁而且是	-10473
▁而这种	-10474
▁这将会	-10475
不是这样	-10476
世界银行	-10477
你可以在	-10478
到了一个	-10479
坐在一起	-10480
对自己的	-10481
就意味着	-10482
已经成为	-10483
所作所为	-10484
把它放在	-10485
数以百万	-10486
来看一下	-10487
海洋生物	-10488
百科全书	-10489
聪明的人	-10490
艺术作品	-10491
认为自己	-10492
这个领域	-10493
那么多的	-10494
需要的是	-10495
▁2000	-10496
▁他们觉得	-10497
▁当然还有	-10498
发生的一切	-10499
经前综合征	-10500
非常有趣的	-10501
▁某种程度上	-10502
发展中国家的	-10503
CO	-10504
Ge	-10505
az	-10506
du	-10507
▁借	-10508
▁占	-10509
▁尽	-10510
▁投	-10511
▁拍	-10512
▁未	-10513
▁维	-10514
▁翻	-10515
▁脑	-10516
▁谢	-10517
▁难	-10518
一眼	-10519
不自	-10520
世代	-10521
中了	-10522
会去	-10523
会很	-10524
传奇	-10525
伦斯	-10526
何方	-10527
你还	-10528
倒了	-10529
八个	-10530
分化	-10531
切地	-10532
利于	-10533
利比	-10534
到过	-10535
加贝	-10536
吸毒	-10537
四天	-10538
国外	-10539
土卫	-10540
塔尔	-10541
大事	-10542
大笑	-10543
密斯	-10544
尔顿	-10545
平的	-10546
待了	-10547
微妙	-10548
总共	-10549
总部	-10550
我为	-10551
打字	-10552
扔掉	-10553
振动	-10554
捐款	-10555
捐献	-10556
排队	-10557
收费	-10558
放映	-10559
救护	-10560
新加	-10561
无力	-10562
是说	-10563
曾在	-10564
村民	-10565
条例	-10566
枪击	-10567
格雷	-10568
民间	-10569
气温	-10570
流通	-10571
海上	-10572
清除	-10573
漫步	-10574
爬上	-10575
爬行	-10576
特效	-10577
王子	-10578
生了	-10579
用手	-10580
用过	-10581
画作	-10582
画出	-10583
留意	-10584
病原	-10585
皮质	-10586
盲目	-10587
眼球	-10588
研讨	-10589
程式	-10590
稍稍	-10591
税收	-10592
空洞	-10593
简易	-10594
素材	-10595
而去	-10596
耐克	-10597
肥料	-10598
能被	-10599
自从	-10600
血糖	-10601
被判	-10602
视网	-10603
谈的	-10604
迷失	-10605
逃跑	-10606
飞跃	-10607
est	-10608
ete	-10609
▁Ar	-10610
▁他叫	-10611
▁增加	-10612
▁宗教	-10613
▁德国	-10614
▁我向	-10615
▁整整	-10616
▁是有	-10617
▁治疗	-10618
▁谈论	-10619
▁还在	-10620
▁远远	-10621
不允许	-10622
习惯于	-10623
了一名	-10624
什么都	-10625
内部的	-10626
单一的	-10627
原住民	-10628
发生时	-10629
只有在	-10630
和文化	-10631
和经济	-10632
哪一个	-10633
回答是	-10634
国家都	-10635
地方的	-10636
大脑里	-10637
如何呢	-10638
尼西亚	-10639
怎么了	-10640
感应器	-10641
我们来	-10642
模式的	-10643
潜水器	-10644
点什么	-10645
然后再	-10646
物质的	-10647
生命体	-10648
的一家	-10649
的努力	-10650
的电话	-10651
相反的	-10652
视频中	-10653
谈一谈	-10654
谈到的	-10655
谈的是	-10656
转折点	-10657
这个是	-10658
这并不	-10659
这张图	-10660
部分是	-10661
▁一旦你	-10662
▁创造出	-10663
▁在全球	-10664
▁它们都	-10665
▁我是在	-10666
▁我试着	-10667
▁所谓的	-10668
▁有点像	-10669
▁美国的	-10670
▁这张图	-10671
了解这些	-10672
人的生活	-10673
告诉人们	-10674
和其他人	-10675
基地组织	-10676
多样性的	-10677
我们自身	-10678
把他们的	-10679
接下来要	-10680
无神论者	-10681
有自己的	-10682
的一个小	-10683
的时候了	-10684
美国政府	-10685
自然而然	-10686
那些我们	-10687
那是一个	-10688
重新设计	-10689
▁他们就会	-10690
▁他们希望	-10691
▁但这不是	-10692
▁我们一起	-10693
▁我们喜欢	-10694
▁我和我的	-10695
▁特别是在	-10696
▁这听起来	-10697
▁这项技术	-10698
人类历史上	-10699
我们的身体	-10700
独一无二的	-10701
给你们展示	-10702
▁为什么我们	-10703
▁对于我来说	-10704
▁我们可以在	-10705
▁我们来看看	-10706
▁所以我们可以	-10707
49	-10708
55	-10709
▁推	-10710
▁热	-10711
一团	-10712
上过	-10713
不但	-10714
东尼	-10715
乐于	-10716
乘以	-10717
人力	-10718
全职	-10719
公元	-10720
前沿	-10721
发动	-10722
吃一	-10723
吸入	-10724
和大	-10725
嘴里	-10726
固的	-10727
女王	-10728
定制	-10729
尽头	-10730
巴尔	-10731
巴斯	-10732
平行	-10733
年在	-10734
徒步	-10735
德尔	-10736
换个	-10737
改良	-10738
斯基	-10739
是啊	-10740
最快	-10741
本土	-10742
本科	-10743
杂耍	-10744
构思	-10745
某处	-10746
某天	-10747
次方	-10748
沉迷	-10749
沙子	-10750
活的	-10751
爱滋	-10752
用电	-10753
电网	-10754
的后	-10755
的歌	-10756
直立	-10757
眼的	-10758
睡着	-10759
立马	-10760
站着	-10761
纳税	-10762
聚变	-10763
芬奇	-10764
菜单	-10765
见识	-10766
讲了	-10767
话语	-10768
说他	-10769
说唱	-10770
贝拉	-10771
路撒	-10772
转身	-10773
这三	-10774
送上	-10775
造物	-10776
造的	-10777
那段	-10778
长得	-10779
闪光	-10780
降解	-10781
鸟儿	-10782
ike	-10783
ree	-10784
▁一张	-10785
▁从我	-10786
▁他用	-10787
▁但从	-10788
▁住在	-10789
▁医疗	-10790
▁妇女	-10791
▁彼此	-10792
▁很少	-10793
▁恐惧	-10794
▁晚上	-10795
▁测试	-10796
▁进而	-10797
▁采用	-10798
不明白	-10799
了那些	-10800
亚伯拉	-10801
人行道	-10802
什么事	-10803
仔细看	-10804
他们为	-10805
以下的	-10806
任何的	-10807
会成为	-10808
作用的	-10809
克林顿	-10810
公里的	-10811
准确地	-10812
出一些	-10813
动物园	-10814
去探索	-10815
可以做	-10816
和设计	-10817
和这个	-10818
城市中	-10819
多利亚	-10820
大约是	-10821
它就会	-10822
宝贵的	-10823
对它们	-10824
平等的	-10825
当中的	-10826
很兴奋	-10827
我们再	-10828
我就是	-10829
是由于	-10830
更安全	-10831
没那么	-10832
漫长的	-10833
现代的	-10834
的做法	-10835
的收入	-10836
知识的	-10837
第一批	-10838
管理员	-10839
管理局	-10840
索马里	-10841
老师们	-10842
老年人	-10843
自己说	-10844
规模的	-10845
责任感	-10846
进监狱	-10847
采用了	-10848
陷入了	-10849
非营利	-10850
驾驶员	-10851
▁不仅是	-10852
▁今天我	-10853
▁告诉我	-10854
▁在那儿	-10855
▁对不起	-10856
▁有人说	-10857
▁有多少	-10858
▁这一次	-10859
▁这是他	-10860
一直以来	-10861
专业人士	-10862
在一起的	-10863
很多地方	-10864
我们不是	-10865
我们这个	-10866
操作系统	-10867
是不够的	-10868
的那一刻	-10869
给你们讲	-10870
美国人的	-10871
观众笑声	-10872
足够多的	-10873
▁他告诉我	-10874
▁因为现在	-10875
▁尽管如此	-10876
▁当我们在	-10877
▁我们使用	-10878
▁我们拥有	-10879
▁我们经常	-10880
▁斯蒂芬尼	-10881
工作的时候	-10882
开始的时候	-10883
我们在这里	-10884
截然不同的	-10885
有意思的是	-10886
联邦调查局	-10887
解决问题的	-10888
▁所以我认为	-10889
▁但是如果我们	-10890
▁所以我们需要	-10891
An	-10892
Sc	-10893
ib	-10894
”(	-10895
▁‘	-10896
▁半	-10897
▁博	-10898
▁指	-10899
▁莫	-10900
七八	-10901
不变	-10902
不只	-10903
与生	-10904
人种	-10905
伙子	-10906
传到	-10907
体温	-10908
依照	-10909
光学	-10910
再说	-10911
冷战	-10912
出路	-10913
切实	-10914
切尔	-10915
加尔	-10916
助手	-10917
医保	-10918
千人	-10919
反正	-10920
发病	-10921
合并	-10922
向的	-10923
因果	-10924
国度	-10925
奥运	-10926
她会	-10927
学了	-10928
实例	-10929
对撞	-10930
市旗	-10931
布尔	-10932
快要	-10933
怀着	-10934
想在	-10935
我跟	-10936
我问	-10937
指的	-10938
普尔	-10939
更具	-10940
机能	-10941
治理	-10942
活生	-10943
清洗	-10944
电源	-10945
的了	-10946
的老	-10947
祖国	-10948
神的	-10949
答应	-10950
管制	-10951
而上	-10952
自发	-10953
致敬	-10954
船长	-10955
芬兰	-10956
虫的	-10957
言之	-10958
请你	-10959
通知	-10960
造影	-10961
量化	-10962
ens	-10963
ett	-10964
▁11	-10965
▁互相	-10966
▁人均	-10967
▁人的	-10968
▁健康	-10969
▁公民	-10970
▁发出	-10971
▁坦白	-10972
▁处于	-10973
▁多数	-10974
▁愿意	-10975
▁沿着	-10976
▁男性	-10977
▁社区	-10978
▁而不	-10979
▁蜜蜂	-10980
▁觉得	-10981
▁身为	-10982
▁避免	-10983
▁食物	-10984
一大堆	-10985
上大学	-10986
上来说	-10987
不停的	-10988
中找到	-10989
了一段	-10990
了两个	-10991
交流的	-10992
任何事	-10993
你所见	-10994
你能够	-10995
做成的	-10996
分子的	-10997
创始人	-10998
包括了	-10999
参与的	-11000
又一遍	-11001
声音的	-11002
富有的	-11003
对人类	-11004
对你们	-11005
局限于	-11006
岁大的	-11007
应用在	-11008
开始于	-11009
开始吧	-11010
弗兰克	-11011
很显然	-11012
得出的	-11013
得更好	-11014
我个人	-11015
房子的	-11016
显著的	-11017
最早的	-11018
有一半	-11019
有几个	-11020
植物的	-11021
民主党	-11022
沃尔玛	-11023
活动家	-11024
海平面	-11025
深深地	-11026
火星车	-11027
版本的	-11028
物体的	-11029
的事儿	-11030
的母亲	-11031
的消息	-11032
的颜色	-11033
相信我	-11034
着这个	-11035
西雅图	-11036
让别人	-11037
转变成	-11038
近距离	-11039
这一天	-11040
这么大	-11041
遗传学	-11042
都会有	-11043
非常大	-11044
非零和	-11045
音乐会	-11046
马斯克	-11047
黑色的	-11048
▁任何人	-11049
▁刚开始	-11050
▁变成了	-11051
▁在许多	-11052
▁如果在	-11053
▁我们给	-11054
▁我做了	-11055
▁或者在	-11056
▁找到了	-11057
▁来解决	-11058
▁第一种	-11059
▁而且在	-11060
▁说实话	-11061
▁这确实	-11062
▁那些在	-11063
一些关于	-11064
一开始就	-11065
一起合作	-11066
不确定性	-11067
他们就会	-11068
作为一种	-11069
你是一个	-11070
你的孩子	-11071
关注的是	-11072
十分之一	-11073
发现这些	-11074
因为这个	-11075
奇怪的是	-11076
并不需要	-11077
激动人心	-11078
给你一个	-11079
还不知道	-11080
还有什么	-11081
这个样子	-11082
这种感觉	-11083
▁于是我就	-11084
▁大家可以	-11085
▁我们能否	-11086
▁然后我就	-11087
▁第一个是	-11088
▁这也就是	-11089
▁这样的话	-11090
▁这里有个	-11091
与众不同的	-11092
之间的联系	-11093
大家都知道	-11094
▁我知道你们	-11095
▁所以我开始	-11096
,5	-11097
34	-11098
Am	-11099
af	-11100
ox	-11101
▁a	-11102
▁东	-11103
▁低	-11104
▁跳	-11105
一夜	-11106
不满	-11107
两百	-11108
伸展	-11109
位数	-11110
作了	-11111
促成	-11112
做爱	-11113
先驱	-11114
剧本	-11115
剧烈	-11116
号的	-11117
坚强	-11118
导弹	-11119
将被	-11120
布兰	-11121
念头	-11122
怪异	-11123
恰当	-11124
截肢	-11125
把戏	-11126
护者	-11127
拉登	-11128
按下	-11129
教义	-11130
整套	-11131
日的	-11132
普勒	-11133
最爱	-11134
机动	-11135
每月	-11136
流的	-11137
源头	-11138
特例	-11139
环形	-11140
电图	-11141
的可	-11142
目击	-11143
短缺	-11144
移除	-11145
空军	-11146
突触	-11147
等的	-11148
置疑	-11149
考古	-11150
花生	-11151
药片	-11152
菌丝	-11153
要问	-11154
记载	-11155
讲到	-11156
赞同	-11157
走在	-11158
边上	-11159
迷因	-11160
迷惑	-11161
道上	-11162
霍乱	-11163
颗粒	-11164
风力	-11165
马尔	-11166
end	-11167
mat	-11168
ory	-11169
▁80	-11170
▁Mc	-11171
▁TK	-11172
▁一群	-11173
▁农业	-11174
▁分析	-11175
▁加贝	-11176
▁只需	-11177
▁大型	-11178
▁它还	-11179
▁我可	-11180
▁我更	-11181
▁是被	-11182
▁有一	-11183
▁每周	-11184
▁电视	-11185
▁这两	-11186
▁这又	-11187
▁这和	-11188
▁这比	-11189
▁这跟	-11190
一方面	-11191
一直到	-11192
一群人	-11193
三十年	-11194
不能用	-11195
了超过	-11196
从我的	-11197
仔细地	-11198
他们被	-11199
以一个	-11200
会带来	-11201
伦敦的	-11202
使人们	-11203
信用卡	-11204
内在的	-11205
创建了	-11206
到你的	-11207
制造了	-11208
努力的	-11209
发表了	-11210
另一端	-11211
和工作	-11212
咖啡馆	-11213
天然的	-11214
它们能	-11215
安全套	-11216
帕金森	-11217
年以前	-11218
很复杂	-11219
我们做	-11220
我怎么	-11221
我总是	-11222
我感觉	-11223
我是说	-11224
或许会	-11225
找一个	-11226
更健康	-11227
有一张	-11228
来实现	-11229
来说明	-11230
某一天	-11231
椅子上	-11232
残疾人	-11233
的一名	-11234
的动作	-11235
的可能	-11236
的感受	-11237
的投资	-11238
的认识	-11239
的记忆	-11240
真是太	-11241
突然间	-11242
站出来	-11243
第一天	-11244
给一个	-11245
美国和	-11246
英尺高	-11247
街道上	-11248
说他们	-11249
那么的	-11250
音乐厅	-11251
领域中	-11252
飞行的	-11253
1998	-11254
2015	-11255
6000	-11256
inux	-11257
tube	-11258
▁一系列	-11259
▁你们中	-11260
▁在整个	-11261
▁在英国	-11262
▁如果他	-11263
▁如果说	-11264
▁已经被	-11265
▁应该是	-11266
▁我会说	-11267
▁我将要	-11268
▁我这里	-11269
▁给他们	-11270
▁能够在	-11271
▁这是由	-11272
一点都不	-11273
不是为了	-11274
也不知道	-11275
他们认为	-11276
做到这点	-11277
其他一些	-11278
千万美元	-11279
可以成为	-11280
可以说是	-11281
因为它们	-11282
处在一个	-11283
很多很多	-11284
惊讶的是	-11285
我们就会	-11286
我的意思	-11287
所拥有的	-11288
有一定的	-11289
的方式是	-11290
看不到的	-11291
研究中心	-11292
问题所在	-11293
阿姆斯特	-11294
10000	-11295
athan	-11296
▁为什么不	-11297
▁众所周知	-11298
▁你能想象	-11299
▁告诉他们	-11300
▁如果你把	-11301
▁就像我们	-11302
▁并且他们	-11303
▁我们尝试	-11304
▁我们通常	-11305
▁然后他说	-11306
▁这是一只	-11307
巨大的挑战	-11308
所有的东西	-11309
现实生活中	-11310
艾滋病病毒	-11311
这样的地方	-11312
都是一样的	-11313
面临的挑战	-11314
国内生产总值	-11315
▁我不知道你们	-11316
,2	-11317
MA	-11318
MT	-11319
ex	-11320
ht	-11321
▁丹	-11322
▁吉	-11323
▁家	-11324
▁流	-11325
▁莱	-11326
上是	-11327
上演	-11328
中部	-11329
产权	-11330
亲人	-11331
从业	-11332
他有	-11333
价的	-11334
但这	-11335
住的	-11336
停留	-11337
划分	-11338
制片	-11339
午饭	-11340
华丽	-11341
古希	-11342
向外	-11343
喜好	-11344
地平	-11345
境地	-11346
境界	-11347
大选	-11348
失落	-11349
失踪	-11350
展品	-11351
岁月	-11352
巴克	-11353
幻肢	-11354
广义	-11355
开会	-11356
开口	-11357
归属	-11358
德华	-11359
总量	-11360
所要	-11361
接口	-11362
推理	-11363
收购	-11364
政党	-11365
未曾	-11366
桌面	-11367
毒性	-11368
沉积	-11369
法语	-11370
清晨	-11371
照亮	-11372
牛肉	-11373
犯了	-11374
生死	-11375
症的	-11376
的反	-11377
着你	-11378
缓解	-11379
缩短	-11380
网球	-11381
翻转	-11382
背上	-11383
胜过	-11384
落后	-11385
蚁穴	-11386
被动	-11387
谁会	-11388
走的	-11389
越高	-11390
车子	-11391
运送	-11392
还多	-11393
适当	-11394
选手	-11395
速率	-11396
那场	-11397
部份	-11398
重重	-11399
镜片	-11400
问卷	-11401
队的	-11402
130	-11403
140	-11404
15%	-11405
Car	-11406
DVD	-11407
alk	-11408
ass	-11409
▁70	-11410
▁Ch	-11411
▁你对	-11412
▁像我	-11413
▁合作	-11414
▁我一	-11415
▁我正	-11416
▁投资	-11417
▁挑战	-11418
▁数字	-11419
▁是对	-11420
▁演讲	-11421
▁真实	-11422
▁穿着	-11423
▁能在	-11424
▁起初	-11425
▁阿尔	-11426
也非常	-11427
了一家	-11428
从没有	-11429
他自己	-11430
作品中	-11431
作曲家	-11432
全部的	-11433
制作了	-11434
医院里	-11435
即使是	-11436
去帮助	-11437
发展到	-11438
和孩子	-11439
多年前	-11440
多年来	-11441
多或少	-11442
小儿麻	-11443
就好了	-11444
层面的	-11445
居住的	-11446
微积分	-11447
思想的	-11448
思考的	-11449
所在的	-11450
才开始	-11451
更小的	-11452
最小的	-11453
有一只	-11454
有两种	-11455
服务于	-11456
然后说	-11457
的一张	-11458
的恐惧	-11459
的父亲	-11460
看见的	-11461
被诊断	-11462
让这个	-11463
许多的	-11464
请举手	-11465
迅速地	-11466
这一步	-11467
部分的	-11468
非常高	-11469
非暴力	-11470
麦当劳	-11471
▁你无法	-11472
▁发现了	-11473
▁因为当	-11474
▁在一些	-11475
▁在所有	-11476
▁它就是	-11477
▁它已经	-11478
▁想想看	-11479
▁我其实	-11480
▁我刚刚	-11481
▁本质上	-11482
▁致力于	-11483
▁越来越	-11484
▁这已经	-11485
一种方式	-11486
不同寻常	-11487
公共卫生	-11488
关于这个	-11489
创建一个	-11490
发现自己	-11491
同一时间	-11492
大家可以	-11493
奥林匹克	-11494
宇宙中的	-11495
就有一个	-11496
已经有了	-11497
建造一个	-11498
很多人都	-11499
我们可能	-11500
新的东西	-11501
早些时候	-11502
是什么样	-11503
每天都在	-11504
注意的是	-11505
生命中的	-11506
的基础上	-11507
社会进步	-11508
艺术家们	-11509
许许多多	-11510
首席执行	-11511
▁但我觉得	-11512
▁我看到了	-11513
他们的孩子	-11514
他们的工作	-11515
你所看到的	-11516
做些什么呢	-11517
我们的社会	-11518
生物多样性	-11519
聚集在一起	-11520
▁到目前为止	-11521
▁如果你想要	-11522
▁对我们来说	-11523
越来越多的人	-11524
▁在某种程度上	-11525
▁女士们先生们	-11526
,8	-11527
38	-11528
58	-11529
oc	-11530
▁刚	-11531
▁库	-11532
▁往	-11533
▁戴	-11534
▁游	-11535
▁遗	-11536
一会	-11537
不让	-11538
之道	-11539
云彩	-11540
亿年	-11541
今后	-11542
会计	-11543
传说	-11544
住所	-11545
养蜂	-11546
写出	-11547
出门	-11548
力和	-11549
十倍	-11550
升温	-11551
压抑	-11552
只想	-11553
叫我	-11554
同胞	-11555
后退	-11556
周年	-11557
增大	-11558
大洋	-11559
大洲	-11560
天真	-11561
太大	-11562
娜塔	-11563
实物	-11564
就好	-11565
屋里	-11566
巨人	-11567
平板	-11568
年半	-11569
开办	-11570
弱势	-11571
强加	-11572
当年	-11573
必定	-11574
恋爱	-11575
我正	-11576
手势	-11577
指南	-11578
握手	-11579
新奇	-11580
新星	-11581
明了	-11582
普拉	-11583
月经	-11584
权衡	-11585
架上	-11586
标语	-11587
核电	-11588
格拉	-11589
气象	-11590
水准	-11591
活性	-11592
点上	-11593
的门	-11594
直观	-11595
真主	-11596
精灵	-11597
纳州	-11598
绕着	-11599
网格	-11600
罪恶	-11601
耳机	-11602
联结	-11603
范例	-11604
菌落	-11605
补贴	-11606
装满	-11607
要从	-11608
解开	-11609
认证	-11610
讲台	-11611
误导	-11612
贝卡	-11613
越过	-11614
转到	-11615
转型	-11616
轻轻	-11617
辩护	-11618
进口	-11619
遍了	-11620
限的	-11621
,10	-11622
1.5	-11623
190	-11624
SPR	-11625
Wik	-11626
hah	-11627
▁to	-11628
▁从事	-11629
▁他有	-11630
▁保罗	-11631
▁周围	-11632
▁正常	-11633
▁母亲	-11634
▁财富	-11635
一些事	-11636
不稳定	-11637
世纪末	-11638
个体的	-11639
为人知	-11640
交响乐	-11641
人一样	-11642
人生中	-11643
人群中	-11644
他们去	-11645
付出的	-11646
但他们	-11647
做实验	-11648
允许我	-11649
共和国	-11650
关键是	-11651
再也不	-11652
决定要	-11653
到我的	-11654
制成的	-11655
医生们	-11656
十分钟	-11657
发动机	-11658
可卡因	-11659
吸引了	-11660
和技术	-11661
喜马拉	-11662
土地上	-11663
大学里	-11664
大气中	-11665
天花板	-11666
如何在	-11667
它就是	-11668
安全带	-11669
将来的	-11670
就行了	-11671
岁那年	-11672
已有的	-11673
希望能	-11674
带你们	-11675
平均值	-11676
恢复了	-11677
我就会	-11678
把他的	-11679
掌握了	-11680
方法来	-11681
无论是	-11682
是用来	-11683
是这么	-11684
更多人	-11685
曾说过	-11686
最基本	-11687
有创意	-11688
核聚变	-11689
污染物	-11690
注射器	-11691
游戏的	-11692
激动的	-11693
生之年	-11694
的合作	-11695
的广告	-11696
的建议	-11697
的标准	-11698
的精神	-11699
的费用	-11700
的身体	-11701
的途径	-11702
艰难的	-11703
计算出	-11704
让一个	-11705
路易斯	-11706
运动中	-11707
还有个	-11708
这一刻	-11709
长大了	-11710
阿波罗	-11711
2030	-11712
▁他可以	-11713
▁他就是	-11714
▁以色列	-11715
▁它没有	-11716
▁我来自	-11717
▁这是很	-11718
▁这简直	-11719
也是一种	-11720
他们能够	-11721
会有什么	-11722
住在一个	-11723
你的生活	-11724
喜马拉雅	-11725
大多数的	-11726
如果你在	-11727
就在这里	-11728
尽可能地	-11729
成为可能	-11730
成了一个	-11731
我们一起	-11732
摩尔定律	-11733
整个国家	-11734
是如此的	-11735
更重要的	-11736
有意义的	-11737
有意思的	-11738
段时间里	-11739
现在正在	-11740
的世界中	-11741
的大多数	-11742
研究表明	-11743
联邦政府	-11744
虚拟世界	-11745
这种想法	-11746
这种技术	-11747
通过这些	-11748
需要我们	-11749
非常困难	-11750
▁不是因为	-11751
▁人们开始	-11752
▁他们必须	-11753
▁以及他们	-11754
▁你也许会	-11755
▁因为它是	-11756
▁因为这样	-11757
▁在这样的	-11758
▁如果一个	-11759
▁我们不仅	-11760
▁我们人类	-11761
▁我们有了	-11762
▁我觉得这	-11763
▁所以它们	-11764
▁最重要的	-11765
▁有的时候	-11766
不同的地方	-11767
告诉我们的	-11768
尼安德特人	-11769
我们不知道	-11770
找到了一个	-11771
提供了一个	-11772
百分之二十	-11773
首席执行官	-11774
▁David	-11775
▁如果我们不	-11776
▁我们必须要	-11777
▁我们意识到	-11778
▁我们看到了	-11779
▁我们还需要	-11780
▁我们可以通过	-11781
3.	-11782
IP	-11783
▁树	-11784
▁算	-11785
一页	-11786
中年	-11787
临终	-11788
为主	-11789
举例	-11790
之家	-11791
事会	-11792
交汇	-11793
会从	-11794
会员	-11795
你我	-11796
偶像	-11797
全的	-11798
共事	-11799
冒着	-11800
写过	-11801
冷静	-11802
几率	-11803
切除	-11804
初始	-11805
剂量	-11806
功夫	-11807
动员	-11808
劳工	-11809
匹马	-11810
协力	-11811
器械	-11812
地产	-11813
块钱	-11814
坚硬	-11815
夜里	-11816
太过	-11817
太高	-11818
家务	-11819
小小	-11820
就说	-11821
幅画	-11822
建的	-11823
开朗	-11824
开设	-11825
强子	-11826
很远	-11827
性爱	-11828
我家	-11829
抗拒	-11830
有害	-11831
木偶	-11832
样式	-11833
每日	-11834
民意	-11835
汇聚	-11836
泰勒	-11837
狗狗	-11838
球的	-11839
登山	-11840
的热	-11841
看它	-11842
石器	-11843
秘鲁	-11844
竞技	-11845
索沃	-11846
纳德	-11847
被送	-11848
西藏	-11849
要点	-11850
要说	-11851
诚的	-11852
读取	-11853
起初	-11854
轮子	-11855
近期	-11856
这时	-11857
进攻	-11858
选了	-11859
重叠	-11860
重现	-11861
面试	-11862
预知	-11863
350	-11864
900	-11865
95%	-11866
IBM	-11867
her	-11868
ock	-11869
ust	-11870
▁你把	-11871
▁便是	-11872
▁去做	-11873
▁反对	-11874
▁大多	-11875
▁大量	-11876
▁将它	-11877
▁年轻	-11878
▁幸福	-11879
▁打印	-11880
▁欢迎	-11881
▁细菌	-11882
▁而它	-11883
▁行为	-11884
▁请看	-11885
▁这还	-11886
▁那你	-11887
▁长期	-11888
▁马上	-11889
一代的	-11890
一直都	-11891
不了的	-11892
不会再	-11893
二进制	-11894
今为止	-11895
他可以	-11896
会发现	-11897
会如何	-11898
出生在	-11899
利用它	-11900
到达了	-11901
占据了	-11902
各自的	-11903
和女人	-11904
圣保罗	-11905
塑料袋	-11906
增长率	-11907
处理的	-11908
大学生	-11909
女孩儿	-11910
很开心	-11911
急诊室	-11912
我就能	-11913
支持者	-11914
是一张	-11915
是好的	-11916
有影响	-11917
材料的	-11918
来控制	-11919
深远的	-11920
电脑的	-11921
的妇女	-11922
的新闻	-11923
的表情	-11924
的规模	-11925
相对论	-11926
真实性	-11927
科学界	-11928
突尼斯	-11929
精彩的	-11930
给你看	-11931
背景下	-11932
能为力	-11933
能源的	-11934
行得通	-11935
被用来	-11936
让我的	-11937
走出来	-11938
走过来	-11939
过来了	-11940
这些都	-11941
进行着	-11942
道路上	-11943
那么做	-11944
那些被	-11945
飞天车	-11946
1970	-11947
arry	-11948
eter	-11949
▁---	-11950
▁他正在	-11951
▁传统的	-11952
▁你们看	-11953
▁在中国	-11954
▁对他们	-11955
▁很容易	-11956
▁成为了	-11957
▁我从没	-11958
▁我们该	-11959
▁我尝试	-11960
▁我打算	-11961
▁有可能	-11962
▁相信我	-11963
▁还记得	-11964
▁这两种	-11965
▁这似乎	-11966
不是什么	-11967
不用担心	-11968
为什么呢	-11969
令人振奋	-11970
化学反应	-11971
印第安人	-11972
带给我们	-11973
意识到了	-11974
我们确实	-11975
我们都是	-11976
接受教育	-11977
教育系统	-11978
有很多的	-11979
根本无法	-11980
用自己的	-11981
科幻小说	-11982
角度来说	-11983
这个理论	-11984
都是一个	-11985
非常兴奋	-11986
RISPR	-11987
▁2005	-11988
▁2009	-11989
▁事实证明	-11990
▁如果这些	-11991
▁我们当时	-11992
▁我们总是	-11993
▁所以今天	-11994
▁所以当你	-11995
▁谢谢各位	-11996
▁这些就是	-11997
▁这是一件	-11998
▁这是一项	-11999
▁问题在于	-12000
不可避免的	-12001
今天的演讲	-12002
如果我们能	-12003
改变了我们	-12004
有什么关系	-12005
每个人都能	-12006
的一小部分	-12007
这样的问题	-12008
▁我认为我们	-12009
▁所以我们的	-12010
▁在这种情况下	-12011
▁让我们来看看	-12012
85	-12013
BI	-12014
ew	-12015
▁c	-12016
▁l	-12017
▁倒	-12018
▁右	-12019
▁塞	-12020
▁眼	-12021
▁经	-12022
▁苏	-12023
三百	-12024
下水	-12025
乐谱	-12026
他能	-12027
他还	-12028
会更	-12029
佛教	-12030
假说	-12031
充足	-12032
光了	-12033
冰岛	-12034
几位	-12035
别处	-12036
勒比	-12037
化身	-12038
十八	-12039
又说	-12040
向他	-12041
启蒙	-12042
和海	-12043
哈哈	-12044
四肢	-12045
在不	-12046
地形	-12047
地是	-12048
地板	-12049
奇异	-12050
奏效	-12051
好友	-12052
好看	-12053
导向	-12054
山的	-12055
差点	-12056
年底	-12057
废水	-12058
得分	-12059
德斯	-12060
性交	-12061
恶性	-12062
情愿	-12063
想把	-12064
感冒	-12065
战后	-12066
托姆	-12067
执法	-12068
护照	-12069
拜托	-12070
授粉	-12071
更能	-12072
水域	-12073
洛斯	-12074
流体	-12075
照料	-12076
环顾	-12077
用法	-12078
盟友	-12079
而死	-12080
能的	-12081
致癌	-12082
草图	-12083
被打	-12084
被捕	-12085
评分	-12086
说谎	-12087
谁能	-12088
谈起	-12089
走神	-12090
路程	-12091
转录	-12092
辨识	-12093
退出	-12094
选民	-12095
通向	-12096
造福	-12097
配方	-12098
酷的	-12099
附加	-12100
音响	-12101
音调	-12102
食堂	-12103
高层	-12104
ace	-12105
bed	-12106
our	-12107
▁Sp	-12108
▁不如	-12109
▁估计	-12110
▁但对	-12111
▁但要	-12112
▁全国	-12113
▁包含	-12114
▁埃及	-12115
▁埃隆	-12116
▁大学	-12117
▁将其	-12118
▁展现	-12119
▁拍摄	-12120
▁暴力	-12121
▁看来	-12122
▁自动	-12123
▁负责	-12124
下去了	-12125
不会是	-12126
了自己	-12127
二十几	-12128
令我们	-12129
会看到	-12130
低收入	-12131
体内的	-12132
做决定	-12133
出生于	-12134
分布在	-12135
十年后	-12136
去年的	-12137
发明家	-12138
受教育	-12139
可以为	-12140
后面的	-12141
启动了	-12142
回来的	-12143
回答道	-12144
地看到	-12145
宗教的	-12146
定义为	-12147
将自己	-12148
就是你	-12149
岁生日	-12150
工作和	-12151
年之前	-12152
年左右	-12153
应有的	-12154
当一个	-12155
彻底的	-12156
很有用	-12157
很聪明	-12158
怎么能	-12159
我感到	-12160
我所说	-12161
把那些	-12162
收到的	-12163
是时候	-12164
最棒的	-12165
有价值	-12166
杂货店	-12167
来改变	-12168
来结束	-12169
桌子上	-12170
正式的	-12171
每一种	-12172
民主的	-12173
活着的	-12174
火星上	-12175
痛苦的	-12176
的了解	-12177
的事是	-12178
的数字	-12179
的汽车	-12180
的空气	-12181
的质量	-12182
看到过	-12183
真正想	-12184
简短的	-12185
给别人	-12186
能做的	-12187
英国人	-12188
药物的	-12189
谈论的	-12190
起源于	-12191
过这些	-12192
运用到	-12193
这家伙	-12194
适当的	-12195
避难所	-12196
闻起来	-12197
项目中	-12198
1999	-12199
icha	-12200
orge	-12201
▁他已经	-12202
▁但最终	-12203
▁充满了	-12204
▁到现在	-12205
▁它叫做	-12206
▁巨大的	-12207
▁已经有	-12208
▁并且它	-12209
▁得到了	-12210
▁想一想	-12211
▁我认识	-12212
▁我那时	-12213
▁改变了	-12214
▁每一天	-12215
▁这个词	-12216
▁这也许	-12217
不是那么	-12218
亚特兰大	-12219
什么都不	-12220
仔细想想	-12221
做到这些	-12222
做的一个	-12223
其他地区	-12224
发挥作用	-12225
告诉我的	-12226
国家地理	-12227
在他们的	-12228
大脑中的	-12229
如此多的	-12230
对于那些	-12231
对自己说	-12232
我们是否	-12233
我第一次	-12234
所有事情	-12235
提醒我们	-12236
搜索结果	-12237
无关紧要	-12238
是一个很	-12239
没有得到	-12240
的时间和	-12241
给孩子们	-12242
观察到的	-12243
这一切都	-12244
这项研究	-12245
非洲国家	-12246
▁今天我要	-12247
▁从那时起	-12248
▁但我知道	-12249
▁你还可以	-12250
▁像这样的	-12251
▁因为我想	-12252
▁因为我的	-12253
▁如果你不	-12254
▁如果你去	-12255
▁它们都是	-12256
▁我的朋友	-12257
▁现在已经	-12258
▁现在这个	-12259
▁这是他们	-12260
▁那么现在	-12261
到目前为止	-12262
大部分时间	-12263
很大一部分	-12264
没有足够的	-12265
灵长类动物	-12266
自己的孩子	-12267
这个星球上	-12268
ipedia	-12269
▁当我第一次	-12270
▁我从来没有	-12271
▁所以我们在	-12272
▁而且我认为	-12273
我们可以看到	-12274
是如何工作的	-12275
▁这是一个非常	-12276
,7	-12277
31	-12278
95	-12279
AT	-12280
▁丽	-12281
▁少	-12282
▁抗	-12283
▁索	-12284
▁紧	-12285
▁行	-12286
一试	-12287
万的	-12288
与此	-12289
世了	-12290
世人	-12291
临界	-12292
主管	-12293
之多	-12294
五种	-12295
人家	-12296
会面	-12297
保卫	-12298
先前	-12299
光速	-12300
全美	-12301
养家	-12302
养老	-12303
内卢	-12304
减弱	-12305
切片	-12306
利他	-12307
前方	-12308
十几	-12309
参照	-12310
又能	-12311
口味	-12312
口音	-12313
合唱	-12314
国务	-12315
在最	-12316
基石	-12317
声的	-12318
外出	-12319
夜间	-12320
大奖	-12321
大街	-12322
奖项	-12323
女友	-12324
奶牛	-12325
宝石	-12326
客人	-12327
就很	-12328
就更	-12329
就跟	-12330
山谷	-12331
岩洞	-12332
州长	-12333
左手	-12334
巧妙	-12335
带动	-12336
席卷	-12337
平和	-12338
得主	-12339
想用	-12340
我猜	-12341
才有	-12342
抵制	-12343
散布	-12344
数值	-12345
无趣	-12346
时每	-12347
更小	-12348
机关	-12349
来过	-12350
根深	-12351
植被	-12352
水池	-12353
流失	-12354
满怀	-12355
点亮	-12356
特勒	-12357
玩乐	-12358
甚么	-12359
的上	-12360
的爱	-12361
知情	-12362
章鱼	-12363
米尔	-12364
粉色	-12365
绝佳	-12366
联络	-12367
肉类	-12368
草地	-12369
获胜	-12370
西西	-12371
触觉	-12372
评判	-12373
说来	-12374
贫富	-12375
越是	-12376
跨过	-12377
运河	-12378
这不	-12379
这首	-12380
退化	-12381
都说	-12382
随身	-12383
靠着	-12384
麻木	-12385
ift	-12386
ole	-12387
ony	-12388
pha	-12389
ton	-12390
▁Be	-12391
▁世上	-12392
▁乔治	-12393
▁人民	-12394
▁他从	-12395
▁你从	-12396
▁出现	-12397
▁在一	-12398
▁性别	-12399
▁拯救	-12400
▁男孩	-12401
▁看见	-12402
▁空气	-12403
▁管理	-12404
▁经历	-12405
▁走进	-12406
▁过了	-12407
▁这件	-12408
▁这座	-12409
▁黑人	-12410
一张纸	-12411
一旦你	-12412
不寻常	-12413
不能被	-12414
与这些	-12415
亿美金	-12416
他是个	-12417
你是谁	-12418
你的手	-12419
关闭了	-12420
农作物	-12421
准备的	-12422
出生时	-12423
北卡罗	-12424
却不是	-12425
去改变	-12426
反映了	-12427
发生着	-12428
取代了	-12429
台电脑	-12430
史密斯	-12431
吸引人	-12432
和教育	-12433
国家里	-12434
土地的	-12435
在场的	-12436
大家的	-12437
奇特的	-12438
好像是	-12439
娜塔莎	-12440
学家们	-12441
它没有	-12442
小时内	-12443
尝试去	-12444
层次的	-12445
必须的	-12446
我以前	-12447
我们与	-12448
打破了	-12449
提到过	-12450
搜索引	-12451
数据和	-12452
是相当	-12453
更少的	-12454
有这些	-12455
有问题	-12456
有非常	-12457
来帮助	-12458
来谈谈	-12459
正方形	-12460
比现在	-12461
法尼亚	-12462
活下来	-12463
热内卢	-12464
照片中	-12465
特有的	-12466
环境里	-12467
生成的	-12468
生长的	-12469
的大门	-12470
的巨大	-12471
的最好	-12472
的真正	-12473
的节目	-12474
的身份	-12475
研究院	-12476
破坏了	-12477
统计学	-12478
观察了	-12479
计算器	-12480
记录下	-12481
记忆的	-12482
设计者	-12483
这可能	-12484
这种事	-12485
避免的	-12486
那不是	-12487
1984	-12488
2500	-12489
iPad	-12490
▁一个在	-12491
▁一切都	-12492
▁他开始	-12493
▁但我也	-12494
▁你会说	-12495
▁你开始	-12496
▁你想要	-12497
▁再看看	-12498
▁可以让	-12499
▁史蒂夫	-12500
▁我想这	-12501
▁所以她	-12502
▁正因为	-12503
▁特斯拉	-12504
▁这是从	-12505
▁那么你	-12506
▁阿富汗	-12507
一个星期	-12508
你为什么	-12509
几个世纪	-12510
别的什么	-12511
加拿大的	-12512
博士学位	-12513
发生变化	-12514
可以帮助	-12515
可以让你	-12516
在这方面	-12517
如何使用	-12518
安全座椅	-12519
完成这个	-12520
对于一个	-12521
就变成了	-12522
尽可能的	-12523
并不存在	-12524
强子对撞	-12525
很快就会	-12526
我们只是	-12527
我就可以	-12528
放在一个	-12529
没有人会	-12530
的受害者	-12531
的方法是	-12532
第一件事	-12533
维多利亚	-12534
营养不良	-12535
这么多的	-12536
这是真的	-12537
通过一个	-12538
那个地方	-12539
那是什么	-12540
需要帮助	-12541
▁2008	-12542
▁世界上最	-12543
▁他们能够	-12544
▁你们现在	-12545
▁你可以从	-12546
▁总的来说	-12547
▁成为一个	-12548
▁我们自己	-12549
▁我们还是	-12550
▁我们首先	-12551
▁而且它们	-12552
▁让我们从	-12553
▁这个方法	-12554
▁这些孩子	-12555
▁这实际上	-12556
▁这看起来	-12557
▁这种方法	-12558
同样的问题	-12559
对于我来说	-12560
并不是一个	-12561
我们所有人	-12562
时间的推移	-12563
没有意识到	-12564
这样的一个	-12565
里约热内卢	-12566
▁我们一直在	-12567
▁我们所做的	-12568
▁这不是一个	-12569
▁这是我们在	-12570
▁顺便说一句	-12571
!"	-12572
59	-12573
AA	-12574
ER	-12575
FO	-12576
Ph	-12577
▁九	-12578
▁双	-12579
▁引	-12580
▁身	-12581
▁迪	-12582
一倍	-12583
一动	-12584
一类	-12585
三千	-12586
上而	-12587
不复	-12588
两张	-12589
中等	-12590
主席	-12591
主持	-12592
书本	-12593
书里	-12594
争辩	-12595
人文	-12596
人格	-12597
他要	-12598
修补	-12599
做为	-12600
做完	-12601
光照	-12602
兴起	-12603
养的	-12604
再做	-12605
单身	-12606
发给	-12607
变换	-12608
口头	-12609
吸取	-12610
哈德	-12611
喷射	-12612
嘴巴	-12613
地亚	-12614
墨水	-12615
大片	-12616
失控	-12617
奖金	-12618
富人	-12619
对她	-12620
小段	-12621
小额	-12622
尖端	-12623
带我	-12624
常态	-12625
干了	-12626
弗里	-12627
待在	-12628
心跳	-12629
快地	-12630
您的	-12631
我了	-12632
我可	-12633
把她	-12634
抵消	-12635
指引	-12636
放了	-12637
放回	-12638
断了	-12639
方达	-12640
更广	-12641
村里	-12642
汇集	-12643
没用	-12644
洞察	-12645
流向	-12646
片上	-12647
猎物	-12648
电邮	-12649
界线	-12650
益处	-12651
示范	-12652
种的	-12653
紧迫	-12654
老了	-12655
自尊	-12656
致死	-12657
航班	-12658
萨拉	-12659
虫子	-12660
被关	-12661
被困	-12662
警官	-12663
试过	-12664
走去	-12665
趋向	-12666
跳跃	-12667
迫使	-12668
迫切	-12669
通风	-12670
那片	-12671
错过	-12672
问她	-12673
预见	-12674
首相	-12675
首领	-12676
,30	-12677
ans	-12678
arr	-12679
ero	-12680
▁RM	-12681
▁一百	-12682
▁但最	-12683
▁复杂	-12684
▁她还	-12685
▁妈妈	-12686
▁寻求	-12687
▁新闻	-12688
▁普通	-12689
▁每一	-12690
▁移动	-12691
▁空间	-12692
▁穿越	-12693
▁花了	-12694
▁表现	-12695
▁解释	-12696
▁这片	-12697
▁释放	-12698
一瞬间	-12699
一致的	-12700
三百万	-12701
两分钟	-12702
中间的	-12703
他已经	-12704
他正在	-12705
会觉得	-12706
会议员	-12707
出一种	-12708
单独的	-12709
发表的	-12710
可见的	-12711
和服务	-12712
回过头	-12713
在工作	-12714
在欧洲	-12715
外太空	-12716
多么的	-12717
太大了	-12718
就像在	-12719
就能够	-12720
屋顶上	-12721
工业化	-12722
工作过	-12723
恰恰是	-12724
想到了	-12725
我如何	-12726
我母亲	-12727
我甚至	-12728
放进去	-12729
更糟糕	-12730
根深蒂	-12731
比以前	-12732
流动性	-12733
海洋里	-12734
消防员	-12735
潜意识	-12736
爱的人	-12737
生态圈	-12738
用我的	-12739
的人才	-12740
的创新	-12741
的团队	-12742
的大气	-12743
的思想	-12744
的治疗	-12745
的生产	-12746
的症状	-12747
目标的	-12748
称其为	-12749
精确的	-12750
结婚了	-12751
给它们	-12752
绝对是	-12753
网络中	-12754
节目的	-12755
请大家	-12756
谈到了	-12757
负面的	-12758
贫民区	-12759
贫穷的	-12760
超新星	-12761
轨道上	-12762
透明度	-12763
长大后	-12764
集中营	-12765
震惊了	-12766
▁人们对	-12767
▁今天的	-12768
▁你一定	-12769
▁你已经	-12770
▁你真的	-12771
▁做一个	-12772
▁再加上	-12773
▁历史上	-12774
▁可持续	-12775
▁同样地	-12776
▁因为有	-12777
▁如果把	-12778
▁没什么	-12779
▁直到我	-12780
▁而这一	-12781
▁艾滋病	-12782
▁被称为	-12783
▁让它们	-12784
▁请记住	-12785
▁这三个	-12786
中的一员	-12787
为我们的	-12788
人道主义	-12789
他自己的	-12790
值得我们	-12791
做好准备	-12792
出了一个	-12793
印象深刻	-12794
只是为了	-12795
可以实现	-12796
哈佛大学	-12797
大自然的	-12798
工程师们	-12799
市场营销	-12800
年的历史	-12801
很简单的	-12802
感到惊讶	-12803
我们拥有	-12804
我们甚至	-12805
我的母亲	-12806
改变了我	-12807
无能为力	-12808
是不同的	-12809
曾经说过	-12810
有趣的事	-12811
某些东西	-12812
流感病毒	-12813
电子设备	-12814
的情况是	-12815
的意思是	-12816
的环境下	-12817
的科学家	-12818
纳米比亚	-12819
说的那样	-12820
这个方向	-12821
这些想法	-12822
这座城市	-12823
▁但我们的	-12824
▁但是当我	-12825
▁你的大脑	-12826
▁如果我能	-12827
▁就像一个	-12828
▁我们也在	-12829
▁我是一名	-12830
▁所以你们	-12831
▁没有一个	-12832
▁看看这个	-12833
▁研究人员	-12834
▁而我认为	-12835
▁试想一下	-12836
亚里士多德	-12837
准备好了吗	-12838
在接下来的	-12839
就是这样的	-12840
巨大的影响	-12841
并没有什么	-12842
意想不到的	-12843
成立了一个	-12844
我们发现了	-12845
根本不知道	-12846
沙特阿拉伯	-12847
生态系统的	-12848
让我们看看	-12849
这个世界的	-12850
面临的问题	-12851
ichael	-12852
▁我们为什么	-12853
二氧化碳排放	-12854
发生了什么事	-12855
▁大家可以看到	-12856
39	-12857
44	-12858
68	-12859
MU	-12860
up	-12861
▁n	-12862
▁交	-12863
▁仍	-12864
▁供	-12865
▁南	-12866
▁头	-12867
▁提	-12868
▁法	-12869
▁狗	-12870
▁种	-12871
▁穿	-12872
一门	-12873
上台	-12874
不定	-12875
主权	-12876
主观	-12877
之人	-12878
乌云	-12879
争夺	-12880
五岁	-12881
产的	-12882
介于	-12883
会想	-12884
会让	-12885
传粉	-12886
位的	-12887
体上	-12888
你了	-12889
内瑞	-12890
军人	-12891
力气	-12892
动了	-12893
压制	-12894
叫作	-12895
可供	-12896
启迪	-12897
周后	-12898
喝酒	-12899
四岁	-12900
大国	-12901
大地	-12902
大赛	-12903
奥秘	-12904
学着	-12905
定期	-12906
宝贵	-12907
审美	-12908
害虫	-12909
家门	-12910
对外	-12911
就如	-12912
就行	-12913
峰值	-12914
市政	-12915
幼虫	-12916
开端	-12917
开销	-12918
弃了	-12919
弄清	-12920
归根	-12921
德的	-12922
惯例	-12923
想做	-12924
所欲	-12925
打扮	-12926
拼命	-12927
指控	-12928
搞定	-12929
敌意	-12930
无一	-12931
日光	-12932
是把	-12933
最先	-12934
最具	-12935
来吧	-12936
楼房	-12937
步入	-12938
比的	-12939
求救	-12940
汇款	-12941
污水	-12942
渴求	-12943
激起	-12944
照相	-12945
珍贵	-12946
瓦特	-12947
用药	-12948
由你	-12949
的内	-12950
省下	-12951
福德	-12952
站立	-12953
简历	-12954
精心	-12955
糖果	-12956
终止	-12957
维修	-12958
脸部	-12959
艰巨	-12960
药性	-12961
获利	-12962
行人	-12963
要走	-12964
解析	-12965
贝多	-12966
跟他	-12967
车站	-12968
转过	-12969
过得	-12970
这门	-12971
选的	-12972
那次	-12973
间断	-12974
雷德	-12975
高压	-12976
高温	-12977
黄蜂	-12978
And	-12979
Ver	-12980
ark	-12981
ity	-12982
”,“	-12983
”--	-12984
▁17	-12985
▁一样	-12986
▁从此	-12987
▁依然	-12988
▁数以	-12989
▁早期	-12990
▁死亡	-12991
▁病毒	-12992
▁缺乏	-12993
▁肿瘤	-12994
▁花费	-12995
▁蓝色	-12996
▁视觉	-12997
▁调查	-12998
▁这块	-12999
▁这才	-13000
▁邀请	-13001
一年前	-13002
万五千	-13003
不是个	-13004
不是说	-13005
也包括	-13006
也应该	-13007
争议的	-13008
五百万	-13009
人性化	-13010
他们不	-13011
但我们	-13012
使它们	-13013
内瑞拉	-13014
出版社	-13015
分之三	-13016
刺的是	-13017
十年来	-13018
原子弹	-13019
去参加	-13020
合作者	-13021
和别人	-13022
和政府	-13023
因为她	-13024
女朋友	-13025
孤儿院	-13026
实验的	-13027
将成为	-13028
就不能	-13029
带回家	-13030
当然了	-13031
意外的	-13032
成立了	-13033
我们只	-13034
我听到	-13035
把整个	-13036
控制器	-13037
教育和	-13038
无数的	-13039
是一家	-13040
曾经是	-13041
有名的	-13042
机会去	-13043
权力的	-13044
来研究	-13045
森林的	-13046
模型的	-13047
正在被	-13048
永久的	-13049
活动中	-13050
灭绝了	-13051
状态下	-13052
理解了	-13053
的人工	-13054
的女士	-13055
的对话	-13056
的观念	-13057
看作是	-13058
离我们	-13059
细小的	-13060
能改变	-13061
视觉化	-13062
还是很	-13063
都是有	-13064
▁一部分	-13065
▁下一步	-13066
▁为我们	-13067
▁于是她	-13068
▁其中有	-13069
▁剩下的	-13070
▁后来我	-13071
▁告诉你	-13072
▁和我的	-13073
▁大概有	-13074
▁大约有	-13075
▁如果它	-13076
▁它们有	-13077
▁就像你	-13078
▁并开始	-13079
▁我从未	-13080
▁换言之	-13081
▁而且你	-13082
▁而且还	-13083
▁艾瑞克	-13084
▁这真的	-13085
▁这里面	-13086
▁这非常	-13087
▁都没有	-13088
人们开始	-13089
他们已经	-13090
做出改变	-13091
出乎意料	-13092
可以用来	-13093
可口可乐	-13094
它的时候	-13095
就业机会	-13096
就开始了	-13097
就是一种	-13098
年轻女性	-13099
我们使用	-13100
我们做的	-13101
所造成的	-13102
把自己的	-13103
接受治疗	-13104
星球上的	-13105
是巨大的	-13106
没人知道	-13107
环境保护	-13108
相似之处	-13109
致命武器	-13110
运作方式	-13111
这一过程	-13112
这个方法	-13113
这么大的	-13114
这听起来	-13115
进行研究	-13116
▁一个非常	-13117
▁以及我们	-13118
▁到处都是	-13119
▁在他们的	-13120
▁我不是说	-13121
▁我不确定	-13122
▁我们也许	-13123
▁我们其实	-13124
▁我们的确	-13125
▁我发现了	-13126
▁气候变化	-13127
中的一些人	-13128
举一个例子	-13129
其中的一些	-13130
我从来没有	-13131
是因为我们	-13132
是最重要的	-13133
自己的生活	-13134
▁但是我们的	-13135
▁因为我知道	-13136
▁我们得到了	-13137
▁所以我们就	-13138
我们可以通过	-13139
是怎么做到的	-13140
▁我们生活在一个	-13141
Fl	-13142
OL	-13143
eg	-13144
ge	-13145
ok	-13146
▁事	-13147
▁欧	-13148
▁送	-13149
一共	-13150
下个	-13151
之于	-13152
了几	-13153
互助	-13154
他所	-13155
传媒	-13156
体外	-13157
信件	-13158
光滑	-13159
入狱	-13160
关上	-13161
减排	-13162
出席	-13163
则会	-13164
判决	-13165
医护	-13166
升起	-13167
半岛	-13168
协商	-13169
参数	-13170
双重	-13171
各类	-13172
周遭	-13173
商务	-13174
四百	-13175
在其	-13176
在新	-13177
坦诚	-13178
填满	-13179
大门	-13180
失聪	-13181
审核	-13182
将此	-13183
就把	-13184
展出	-13185
布置	-13186
带你	-13187
年时	-13188
幻象	-13189
建构	-13190
异议	-13191
当天	-13192
忘掉	-13193
快了	-13194
怪物	-13195
恰巧	-13196
抱着	-13197
排在	-13198
断裂	-13199
斯托	-13200
斯蒂	-13201
最新	-13202
有何	-13203
未被	-13204
末日	-13205
条路	-13206
格伦	-13207
每隔	-13208
波兰	-13209
献给	-13210
理会	-13211
的鱼	-13212
盘子	-13213
私有	-13214
第六	-13215
纳尔	-13216
罗毕	-13217
老的	-13218
而我	-13219
菲律	-13220
蒙大	-13221
蓝图	-13222
蜂群	-13223
要想	-13224
译者	-13225
课本	-13226
赖以	-13227
跳过	-13228
较为	-13229
过分	-13230
过多	-13231
还挺	-13232
进到	-13233
通话	-13234
遍及	-13235
都用	-13236
金星	-13237
长出	-13238
阴谋	-13239
附着	-13240
难过	-13241
香烟	-13242
160	-13243
Ted	-13244
rew	-13245
▁一家	-13246
▁一是	-13247
▁专家	-13248
▁二十	-13249
▁以下	-13250
▁伊朗	-13251
▁使其	-13252
▁医院	-13253
▁图片	-13254
▁开放	-13255
▁感到	-13256
▁放到	-13257
▁是你	-13258
▁本来	-13259
▁气候	-13260
▁测量	-13261
▁离开	-13262
▁第四	-13263
▁英语	-13264
▁走向	-13265
▁这份	-13266
▁远离	-13267
▁道德	-13268
▁飞机	-13269
一个个	-13270
一直是	-13271
一美元	-13272
不太好	-13273
不足以	-13274
丧失了	-13275
习惯了	-13276
了你的	-13277
他们还	-13278
会得到	-13279
传递给	-13280
伯克利	-13281
做很多	-13282
公路上	-13283
创作的	-13284
到底在	-13285
前面的	-13286
医生的	-13287
取得的	-13288
吃一惊	-13289
合成的	-13290
同意了	-13291
四个月	-13292
因如此	-13293
固有的	-13294
在一些	-13295
在自己	-13296
地面上	-13297
外面的	-13298
大使馆	-13299
天文学	-13300
失败者	-13301
孩子在	-13302
安全感	-13303
小型的	-13304
就变得	-13305
年后的	-13306
应用的	-13307
延伸到	-13308
很强的	-13309
心协力	-13310
我也是	-13311
接一个	-13312
教室里	-13313
文明的	-13314
时每刻	-13315
晨四点	-13316
曾经在	-13317
森林里	-13318
正面的	-13319
每个月	-13320
比这个	-13321
现在就	-13322
生产出	-13323
的区别	-13324
的场景	-13325
的年代	-13326
石油的	-13327
社会里	-13328
社区中	-13329
篇论文	-13330
给孩子	-13331
表达的	-13332
视而不	-13333
解释的	-13334
说的话	-13335
走出去	-13336
那一天	-13337
都必须	-13338
-2-3	-13339
bert	-13340
▁不得不	-13341
▁不论是	-13342
▁但当我	-13343
▁但我的	-13344
▁但没有	-13345
▁你们都	-13346
▁你如何	-13347
▁同性恋	-13348
▁在欧洲	-13349
▁在没有	-13350
▁大概是	-13351
▁它能够	-13352
▁就在那	-13353
▁当一个	-13354
▁得到的	-13355
▁我不再	-13356
▁我们便	-13357
▁我坚信	-13358
▁我看见	-13359
▁我确信	-13360
▁我确实	-13361
▁我终于	-13362
▁是那些	-13363
▁现在有	-13364
▁相对于	-13365
▁老实说	-13366
▁这表明	-13367
七十年代	-13368
上的问题	-13369
个这样的	-13370
人的生命	-13371
人际关系	-13372
健康状况	-13373
八十年代	-13374
公立学校	-13375
六十年代	-13376
其他事情	-13377
几个月前	-13378
创造一种	-13379
创造性的	-13380
到了这个	-13381
医疗服务	-13382
历史学家	-13383
去的地方	-13384
可以得到	-13385
告诉我说	-13386
团结起来	-13387
在网络上	-13388
就在那里	-13389
并不重要	-13390
弗吉尼亚	-13391
形成一个	-13392
很多时候	-13393
感受到了	-13394
成为一种	-13395
成为什么	-13396
我们所知	-13397
我们把它	-13398
我想要的	-13399
我的孩子	-13400
所产生的	-13401
是因为它	-13402
是多么的	-13403
有个问题	-13404
有些东西	-13405
有足够的	-13406
浮游生物	-13407
生物学的	-13408
的一份子	-13409
的是一种	-13410
精神上的	-13411
经历过的	-13412
联合起来	-13413
范围内的	-13414
设计一个	-13415
设计师们	-13416
阿拉斯加	-13417
随处可见	-13418
Linux	-13419
iftab	-13420
▁从那以后	-13421
▁但是当你	-13422
▁你看到的	-13423
▁因为当你	-13424
▁因此他们	-13425
▁如果人们	-13426
▁我很喜欢	-13427
▁我指的是	-13428
▁结果发现	-13429
▁而实际上	-13430
▁这个地方	-13431
▁这可不是	-13432
▁这样他们	-13433
不同类型的	-13434
与你们分享	-13435
与大家分享	-13436
人类基因组	-13437
他们的想法	-13438
发生了变化	-13439
国家安全局	-13440
我们看到的	-13441
是因为他们	-13442
显而易见的	-13443
最好的朋友	-13444
的生活方式	-13445
的角度来看	-13446
究竟是什么	-13447
给大家展示	-13448
重要的东西	-13449
▁但不幸的是	-13450
▁因为我觉得	-13451
解决这些问题	-13452
▁Google	-13453
▁为什么会这样	-13454
▁这就是我们的	-13455
Wikipedia	-13456
2:	-13457
9%	-13458
RA	-13459
Wh	-13460
ai	-13461
▁停	-13462
▁呼	-13463
▁图	-13464
▁威	-13465
▁帮	-13466
▁收	-13467
▁死	-13468
▁蓝	-13469
▁虽	-13470
▁象	-13471
七十	-13472
七年	-13473
二者	-13474
他把	-13475
会问	-13476
信徒	-13477
假定	-13478
先从	-13479
内基	-13480
冷漠	-13481
出一	-13482
初级	-13483
别无	-13484
前线	-13485
单个	-13486
历经	-13487
变动	-13488
同性	-13489
名义	-13490
听从	-13491
周前	-13492
和在	-13493
和小	-13494
啊啊	-13495
处女	-13496
复原	-13497
外来	-13498
女神	-13499
好象	-13500
它时	-13501
室外	-13502
宽容	-13503
尔巴	-13504
幸好	-13505
应急	-13506
式各	-13507
强暴	-13508
当局	-13509
很近	-13510
得越	-13511
快餐	-13512
急需	-13513
恒温	-13514
恶意	-13515
悲观	-13516
戏法	-13517
成品	-13518
手套	-13519
扔到	-13520
报复	-13521
招呼	-13522
散播	-13523
文艺	-13524
早在	-13525
时空	-13526
明亮	-13527
普查	-13528
景色	-13529
更低	-13530
本性	-13531
权益	-13532
条款	-13533
杰作	-13534
构架	-13535
标示	-13536
树叶	-13537
母语	-13538
沃森	-13539
海域	-13540
玩的	-13541
瓦解	-13542
甚少	-13543
用心	-13544
用这	-13545
电波	-13546
的冰	-13547
的纸	-13548
皮革	-13549
益于	-13550
眼里	-13551
知之	-13552
石灰	-13553
秒内	-13554
穿的	-13555
答复	-13556
算出	-13557
类人	-13558
网状	-13559
美人	-13560
耗尽	-13561
职场	-13562
肺部	-13563
背包	-13564
艾伦	-13565
营地	-13566
蜂鸟	-13567
解码	-13568
跨度	-13569
跳动	-13570
轴上	-13571
达的	-13572
迈出	-13573
运到	-13574
这可	-13575
这群	-13576
隐形	-13577
飞速	-13578
驱逐	-13579
默默	-13580
75%	-13581
eff	-13582
lan	-13583
old	-13584
ure	-13585
▁13	-13586
▁90	-13587
▁de	-13588
▁不到	-13589
▁会被	-13590
▁公开	-13591
▁内容	-13592
▁几天	-13593
▁创作	-13594
▁发表	-13595
▁哪个	-13596
▁投入	-13597
▁效果	-13598
▁此刻	-13599
▁表示	-13600
▁诺曼	-13601
▁金融	-13602
▁防止	-13603
一辆车	-13604
三个人	-13605
不同了	-13606
不过了	-13607
两百万	-13608
丽莎白	-13609
也是最	-13610
了她的	-13611
了很久	-13612
今年的	-13613
作品的	-13614
你无法	-13615
你真的	-13616
做不了	-13617
几个人	-13618
到底是	-13619
制作人	-13620
加勒比	-13621
去做的	-13622
及利亚	-13623
只是想	-13624
可视化	-13625
听过的	-13626
呈现出	-13627
在空中	-13628
地下室	-13629
地思考	-13630
增长了	-13631
女孩们	-13632
小时后	-13633
少量的	-13634
尝试过	-13635
年代末	-13636
建一个	-13637
很神奇	-13638
怎么去	-13639
怎样做	-13640
想象成	-13641
感觉很	-13642
成熟的	-13643
我确实	-13644
我能够	-13645
手机上	-13646
故事里	-13647
整体的	-13648
旁边的	-13649
日子里	-13650
是不会	-13651
最终会	-13652
有关于	-13653
有希望	-13654
有限的	-13655
核心的	-13656
根本不	-13657
根本就	-13658
每件事	-13659
活跃的	-13660
灵活性	-13661
父母的	-13662
留下来	-13663
病原体	-13664
的士兵	-13665
的大型	-13666
的情形	-13667
的温度	-13668
的画面	-13669
的行动	-13670
的那天	-13671
目前的	-13672
直接的	-13673
空间站	-13674
粒子的	-13675
而努力	-13676
血管增	-13677
被邀请	-13678
要开始	-13679
观点是	-13680
警察局	-13681
讲一下	-13682
这两者	-13683
连接体	-13684
透明化	-13685
都会被	-13686
随机的	-13687
非常小	-13688
高效的	-13689
Paul	-13690
▁197	-13691
▁不可能	-13692
▁与我们	-13693
▁产生了	-13694
▁你只能	-13695
▁唯一的	-13696
▁它是一	-13697
▁年轻人	-13698
▁建筑师	-13699
▁我只想	-13700
▁提供了	-13701
▁是时候	-13702
▁查尔斯	-13703
▁第二种	-13704
▁那不是	-13705
万亿美元	-13706
两个星期	-13707
个国家的	-13708
些什么呢	-13709
他们如何	-13710
他的名字	-13711
做出决定	-13712
充分利用	-13713
华盛顿特	-13714
同样的事	-13715
告诉你的	-13716
回顾一下	-13717
大吃一惊	-13718
孩子们的	-13719
家庭成员	-13720
年代中期	-13721
很多方面	-13722
怎么办呢	-13723
性工作者	-13724
感受到的	-13725
慈善机构	-13726
我为什么	-13727
我们才能	-13728
我们是在	-13729
我们还有	-13730
我的作品	-13731
或者其他	-13732
更美好的	-13733
用我们的	-13734
的地方是	-13735
的帮助下	-13736
的时候就	-13737
着我们的	-13738
竞争对手	-13739
绝大部分	-13740
自然选择	-13741
苹果公司	-13742
认为这是	-13743
越来越少	-13744
达成一致	-13745
过程中的	-13746
这个技术	-13747
这个演讲	-13748
那些没有	-13749
面部表情	-13750
高质量的	-13751
▁不可思议	-13752
▁他们不是	-13753
▁他们来自	-13754
▁以及如何	-13755
▁但当我们	-13756
▁但是没有	-13757
▁你可以把	-13758
▁你要知道	-13759
▁它实际上	-13760
▁我的母亲	-13761
▁这些照片	-13762
▁这是真的	-13763
一个简单的	-13764
一定程度上	-13765
之类的东西	-13766
人们的生活	-13767
你们看到的	-13768
各种不同的	-13769
向大家展示	-13770
展示给你们	-13771
强大的力量	-13772
我们不得不	-13773
我们的城市	-13774
改变世界的	-13775
的工作原理	-13776
解释为什么	-13777
▁于是我开始	-13778
▁但是实际上	-13779
▁你可以把它	-13780
▁如果你看看	-13781
▁如果我们想	-13782
▁然后我们就	-13783
▁越来越多的	-13784
▁这就是一个	-13785
▁这样我们就能	-13786
Ch	-13787
NG	-13788
SD	-13789
io	-13790
ps	-13791
▁作	-13792
▁千	-13793
▁常	-13794
▁抑	-13795
▁毛	-13796
▁鱼	-13797
三位	-13798
三到	-13799
上市	-13800
上空	-13801
下班	-13802
不做	-13803
不容	-13804
专用	-13805
世的	-13806
东非	-13807
中海	-13808
为她	-13809
为零	-13810
主体	-13811
之际	-13812
但你	-13813
但它	-13814
信条	-13815
光亮	-13816
光子	-13817
克罗	-13818
典范	-13819
兹勒	-13820
再到	-13821
切换	-13822
初步	-13823
利斯	-13824
刻意	-13825
加了	-13826
叫他	-13827
台湾	-13828
后续	-13829
听我	-13830
四倍	-13831
四轴	-13832
在有	-13833
在水	-13834
地利	-13835
坚固	-13836
埃尔	-13837
天上	-13838
审团	-13839
小事	-13840
局势	-13841
市区	-13842
年初	-13843
年起	-13844
并在	-13845
建模	-13846
弗朗	-13847
当它	-13848
待遇	-13849
心存	-13850
快感	-13851
想问	-13852
我已	-13853
或缺	-13854
手可	-13855
才智	-13856
找来	-13857
抱负	-13858
拉里	-13859
拍下	-13860
推向	-13861
携手	-13862
摆动	-13863
摸索	-13864
改编	-13865
放上	-13866
救生	-13867
教条	-13868
敢于	-13869
族人	-13870
旗子	-13871
日记	-13872
星体	-13873
晚期	-13874
最不	-13875
梅尔	-13876
泰坦	-13877
海外	-13878
深奥	-13879
环球	-13880
球队	-13881
的分	-13882
真诚	-13883
红酒	-13884
纳入	-13885
经受	-13886
缘故	-13887
缩写	-13888
缺点	-13889
置身	-13890
美德	-13891
老兵	-13892
老爸	-13893
背面	-13894
脚下	-13895
节拍	-13896
花糖	-13897
莫扎	-13898
落到	-13899
装上	-13900
装有	-13901
警卫	-13902
警报	-13903
警方	-13904
误会	-13905
请愿	-13906
负荷	-13907
走近	-13908
身受	-13909
迈向	-13910
近乎	-13911
进食	-13912
远古	-13913
金子	-13914
集成	-13915
音量	-13916
预示	-13917
食者	-13918
驾车	-13919
鲜花	-13920
默德	-13921
ETI	-13922
Jim	-13923
ive	-13924
oug	-13925
ows	-13926
ull	-13927
uot	-13928
▁Am	-13929
▁An	-13930
▁两种	-13931
▁他很	-13932
▁他要	-13933
▁传播	-13934
▁使它	-13935
▁再看	-13936
▁出于	-13937
▁反之	-13938
▁就要	-13939
▁就象	-13940
▁属于	-13941
▁彼得	-13942
▁快速	-13943
▁意识	-13944
▁我却	-13945
▁我这	-13946
▁手术	-13947
▁明天	-13948
▁是很	-13949
▁温度	-13950
▁用以	-13951
▁监狱	-13952
▁直至	-13953
▁确定	-13954
▁称为	-13955
▁结合	-13956
▁考虑	-13957
▁而她	-13958
▁表达	-13959
▁超级	-13960
▁那位	-13961
▁随之	-13962
一代人	-13963
三年前	-13964
不会在	-13965
不管是	-13966
中只有	-13967
之前就	-13968
了一半	-13969
他没有	-13970
体系的	-13971
你就是	-13972
俄克拉	-13973
公众的	-13974
分享的	-13975
动物们	-13976
原因的	-13977
又一个	-13978
反应是	-13979
发电机	-13980
古兰经	-13981
另一位	-13982
可以去	-13983
同一种	-13984
和印度	-13985
团体的	-13986
在它们	-13987
在这一	-13988
太空中	-13989
奥尔良	-13990
如果有	-13991
对环境	-13992
就这么	-13993
已成为	-13994
应该在	-13995
引人注	-13996
情况是	-13997
我将会	-13998
才可以	-13999
放一个	-14000
新型的	-14001
新想法	-14002
新生儿	-14003
是你的	-14004
更多地	-14005
更有效	-14006
有一千	-14007
有一定	-14008
本杰明	-14009
来决定	-14010
来学习	-14011
比其他	-14012
测量的	-14013
海岸线	-14014
的一样	-14015
的人员	-14016
的人均	-14017
的全部	-14018
的前提	-14019
的商业	-14020
的患者	-14021
的植物	-14022
的细节	-14023
的都是	-14024
看得到	-14025
知道它	-14026
研讨会	-14027
社会上	-14028
竞争者	-14029
给这些	-14030
肺结核	-14031
被人们	-14032
被用于	-14033
说一下	-14034
说出来	-14035
说实话	-14036
说过的	-14037
路撒冷	-14038
还有些	-14039
这幅图	-14040
适应性	-14041
通用的	-14042
都是从	-14043
里面有	-14044
集体的	-14045
黑暗的	-14046
1995	-14047
Alex	-14048
Emma	-14049
ames	-14050
▁500	-14051
▁Rob	-14052
▁不管你	-14053
▁也不能	-14054
▁也可能	-14055
▁他们只	-14056
▁他们很	-14057
▁但也许	-14058
▁但你们	-14059
▁你自己	-14060
▁使我们	-14061
▁俄罗斯	-14062
▁右边的	-14063
▁和他的	-14064
▁因此在	-14065
▁在这儿	-14066
▁如果这	-14067
▁它需要	-14068
▁就是把	-14069
▁意识到	-14070
▁我也不	-14071
▁我几乎	-14072
▁我听到	-14073
▁我想我	-14074
▁我马上	-14075
▁是他们	-14076
▁有两个	-14077
▁有意思	-14078
▁每当我	-14079
▁然后它	-14080
▁现在在	-14081
▁神经元	-14082
▁这个小	-14083
▁这些小	-14084
▁这可是	-14085
▁那么在	-14086
▁那么这	-14087
三分之二	-14088
世界人口	-14089
为基础的	-14090
他们知道	-14091
你的眼睛	-14092
使用它们	-14093
内心深处	-14094
别的地方	-14095
原始细胞	-14096
吃惊的是	-14097
吸引人的	-14098
国会议员	-14099
多长时间	-14100
实验室中	-14101
就可以了	-14102
并不只是	-14103
总结一下	-14104
想到的是	-14105
所发生的	-14106
提供一些	-14107
整个系统	-14108
文艺复兴	-14109
是最好的	-14110
普林斯顿	-14111
最高法院	-14112
有些事情	-14113
波斯尼亚	-14114
活生生的	-14115
的一句话	-14116
的一系列	-14117
看不见的	-14118
认识的人	-14119
证据表明	-14120
这个机会	-14121
这台机器	-14122
重新思考	-14123
问题在于	-14124
高等教育	-14125
▁1000	-14126
▁2010	-14127
▁John	-14128
▁为什么要	-14129
▁于是我想	-14130
▁他们通过	-14131
▁但是对于	-14132
▁你会得到	-14133
▁因为那些	-14134
▁如果这个	-14135
▁尼日利亚	-14136
▁我们过去	-14137
▁我最喜欢	-14138
▁所以我在	-14139
▁然后我想	-14140
▁目前为止	-14141
▁而事实上	-14142
▁还有就是	-14143
▁这些事情	-14144
▁这让我们	-14145
一个小小的	-14146
中的一部分	-14147
其他的东西	-14148
可以让我们	-14149
我们的文化	-14150
我们的祖先	-14151
所有的这些	-14152
的二氧化碳	-14153
的原因之一	-14154
跟大家分享	-14155
连接在一起	-14156
非常复杂的	-14157
▁于是我决定	-14158
▁我们不应该	-14159
▁我们之所以	-14160
▁那么为什么	-14161
花了很多时间	-14162
Youtube	-14163
▁因为如果我们	-14164
令人难以置信的	-14165
到底发生了什么	-14166
.”	-14167
2,	-14168
43	-14169
CT	-14170
uk	-14171
▁共	-14172
▁原	-14173
▁变	-14174
▁扎	-14175
▁玛	-14176
一声	-14177
一股	-14178
下车	-14179
两到	-14180
两组	-14181
个小	-14182
中立	-14183
为观	-14184
之力	-14185
乐园	-14186
买下	-14187
人与	-14188
亿万	-14189
仰望	-14190
会使	-14191
会场	-14192
会对	-14193
侧面	-14194
保姆	-14195
偏差	-14196
光年	-14197
光源	-14198
克鲁	-14199
入手	-14200
内亚	-14201
再去	-14202
写在	-14203
出名	-14204
出身	-14205
分工	-14206
制服	-14207
化为	-14208
印记	-14209
又不	-14210
及的	-14211
友情	-14212
同理	-14213
和它	-14214
品尝	-14215
哥白	-14216
喷气	-14217
固体	-14218
图象	-14219
在它	-14220
在用	-14221
坦率	-14222
基里	-14223
境内	-14224
多人	-14225
大力	-14226
大道	-14227
好转	-14228
对面	-14229
将我	-14230
将有	-14231
就象	-14232
左侧	-14233
平流	-14234
张力	-14235
得快	-14236
忙于	-14237
总数	-14238
意粉	-14239
感同	-14240
房车	-14241
打动	-14242
执政	-14243
摆弄	-14244
收养	-14245
日程	-14246
时装	-14247
最深	-14248
服刑	-14249
格式	-14250
水族	-14251
水流	-14252
洛因	-14253
潜入	-14254
爬到	-14255
犯的	-14256
班加	-14257
球场	-14258
登录	-14259
的原	-14260
直的	-14261
相近	-14262
看下	-14263
真人	-14264
知名	-14265
破裂	-14266
祝福	-14267
突发	-14268
粉碎	-14269
给自	-14270
网民	-14271
联网	-14272
能有	-14273
脏的	-14274
药剂	-14275
获奖	-14276
萨克	-14277
装着	-14278
要大	-14279
触发	-14280
论证	-14281
说吧	-14282
诺登	-14283
谈过	-14284
谋生	-14285
责备	-14286
走私	-14287
赶上	-14288
赶紧	-14289
车道	-14290
车鱼	-14291
还原	-14292
还得	-14293
这真	-14294
这间	-14295
连线	-14296
迷恋	-14297
送去	-14298
那块	-14299
都对	-14300
都想	-14301
配置	-14302
难忘	-14303
集会	-14304
雇用	-14305
零零	-14306
雷斯	-14307
黑白	-14308
180	-14309
2.5	-14310
ani	-14311
eil	-14312
iam	-14313
ist	-14314
ood	-14315
·11	-14316
▁享受	-14317
▁今晚	-14318
▁企业	-14319
▁借助	-14320
▁加拿	-14321
▁南非	-14322
▁压力	-14323
▁各个	-14324
▁女士	-14325
▁它与	-14326
▁它由	-14327
▁彻底	-14328
▁恐怕	-14329
▁才是	-14330
▁把我	-14331
▁是不	-14332
▁更有	-14333
▁正确	-14334
▁死于	-14335
▁渐渐	-14336
▁珊瑚	-14337
▁的人	-14338
▁要想	-14339
▁赋予	-14340
▁超越	-14341
▁距离	-14342
▁透过	-14343
▁重要	-14344
▁量子	-14345
一年的	-14346
不出来	-14347
今天要	-14348
众多的	-14349
会有人	-14350
作用于	-14351
你会说	-14352
保守派	-14353
几年中	-14354
分钟后	-14355
利用了	-14356
功能性	-14357
十一月	-14358
单纯的	-14359
南部的	-14360
去研究	-14361
受试者	-14362
台机器	-14363
史蒂芬	-14364
和女性	-14365
和科技	-14366
哥白尼	-14367
唯一能	-14368
喜欢它	-14369
喝咖啡	-14370
在街上	-14371
存活率	-14372
安装了	-14373
容易的	-14374
对一个	-14375
就如同	-14376
布莱恩	-14377
开放式	-14378
形状的	-14379
很多次	-14380
必须得	-14381
忍不住	-14382
我以为	-14383
我们为	-14384
我们却	-14385
我所知	-14386
我的心	-14387
我记得	-14388
抗抑郁	-14389
接着说	-14390
推特上	-14391
政客们	-14392
新事物	-14393
无限的	-14394
是错的	-14395
显示器	-14396
替代品	-14397
最快的	-14398
有一段	-14399
有关联	-14400
权利的	-14401
来创造	-14402
来说说	-14403
正处于	-14404
比以往	-14405
比方说	-14406
活下去	-14407
游世界	-14408
漫画家	-14409
潜水服	-14410
灭绝的	-14411
犯罪率	-14412
犹太教	-14413
现代化	-14414
电视剧	-14415
电路板	-14416
的人是	-14417
的传统	-14418
的信号	-14419
的情绪	-14420
的智慧	-14421
的标志	-14422
的水平	-14423
的解释	-14424
的距离	-14425
相对于	-14426
相对的	-14427
着眼于	-14428
知道他	-14429
私人的	-14430
组织和	-14431
绝妙的	-14432
自动化	-14433
自己去	-14434
观众席	-14435
请你们	-14436
谁知道	-14437
超出了	-14438
这条路	-14439
造物主	-14440
遥控器	-14441
那是我	-14442
都来自	-14443
颗恒星	-14444
1997	-14445
Bill	-14446
kype	-14447
▁一个叫	-14448
▁主要是	-14449
▁他们正	-14450
▁他没有	-14451
▁但后来	-14452
▁但是从	-14453
▁但是却	-14454
▁你只要	-14455
▁可以用	-14456
▁可以被	-14457
▁大约在	-14458
▁如果不	-14459
▁如果要	-14460
▁我们去	-14461
▁我只能	-14462
▁我就想	-14463
▁我就能	-14464
▁我常常	-14465
▁是通过	-14466
▁来看看	-14467
▁请注意	-14468
▁这不仅	-14469
▁这东西	-14470
▁这是你	-14471
▁那是一	-14472
一些例子	-14473
一种叫做	-14474
不是我的	-14475
世界和平	-14476
人类文明	-14477
仍然可以	-14478
住的地方	-14479
做了这个	-14480
动物身上	-14481
努力工作	-14482
在了一起	-14483
基础建设	-14484
宇宙飞船	-14485
希望你们	-14486
帮助人们	-14487
我们刚刚	-14488
我们相信	-14489
我们身边	-14490
我的一个	-14491
我的研究	-14492
找到答案	-14493
是在一个	-14494
有所作为	-14495
每天早上	-14496
生活质量	-14497
用他们的	-14498
百分之百	-14499
的方法来	-14500
看上去像	-14501
种族隔离	-14502
紧密相连	-14503
能让我们	-14504
还是一个	-14505
这个时代	-14506
这是我们	-14507
非洲大陆	-14508
David	-14509
▁世界各地	-14510
▁从来没有	-14511
▁但事实是	-14512
▁你不得不	-14513
▁你有没有	-14514
▁另一个是	-14515
▁只有一个	-14516
▁在全世界	-14517
▁想像一下	-14518
▁我们不想	-14519
▁我们做了	-14520
▁我们怎样	-14521
▁我们曾经	-14522
▁我现在要	-14523
▁我还记得	-14524
▁还有那些	-14525
▁这可能是	-14526
▁这很重要	-14527
不同的东西	-14528
不同的事情	-14529
了一个新的	-14530
告诉了我们	-14531
完全不知道	-14532
心脏病发作	-14533
我们的目标	-14534
我们还没有	-14535
正确的事情	-14536
激动人心的	-14537
的工作人员	-14538
简单的问题	-14539
给你们看看	-14540
自己的故事	-14541
自己的身体	-14542
这个世界上	-14543
▁于是我们就	-14544
▁但是当我们	-14545
▁你们都知道	-14546
▁你可以通过	-14547
▁我们可以从	-14548
▁我们可以把	-14549
▁我们并不是	-14550
▁我希望大家	-14551
▁所以我们要	-14552
▁每个人都有	-14553
▁所以我们必须	-14554
!」	-14555
41	-14556
?(	-14557
Ad	-14558
ST	-14559
”?	-14560
▁点	-14561
一圈	-14562
一款	-14563
万名	-14564
不利	-14565
不经	-14566
东欧	-14567
丢弃	-14568
两人	-14569
两极	-14570
也好	-14571
书亚	-14572
买加	-14573
事了	-14574
付费	-14575
以便	-14576
俄国	-14577
信服	-14578
免于	-14579
入到	-14580
共处	-14581
共生	-14582
再看	-14583
利安	-14584
升华	-14585
即可	-14586
原地	-14587
口语	-14588
同感	-14589
同龄	-14590
听闻	-14591
告别	-14592
周日	-14593
和新	-14594
和有	-14595
图景	-14596
在北	-14597
在小	-14598
地域	-14599
场面	-14600
塞拉	-14601
填补	-14602
外套	-14603
多余	-14604
子们	-14605
学过	-14606
导体	-14607
就想	-14608
带的	-14609
年我	-14610
归结	-14611
当选	-14612
心地	-14613
情人	-14614
我叫	-14615
我看	-14616
打猎	-14617
找回	-14618
捕猎	-14619
接管	-14620
推行	-14621
摇摆	-14622
故乡	-14623
效力	-14624
救济	-14625
教书	-14626
散发	-14627
斯尼	-14628
无止	-14629
无罪	-14630
是与	-14631
晚了	-14632
更换	-14633
最棒	-14634
条腿	-14635
查理	-14636
死者	-14637
残障	-14638
毁掉	-14639
比伦	-14640
毛病	-14641
河岸	-14642
活儿	-14643
活得	-14644
深受	-14645
深思	-14646
满是	-14647
热烈	-14648
片子	-14649
物资	-14650
球体	-14651
电信	-14652
登记	-14653
的中	-14654
的多	-14655
的美	-14656
监听	-14657
监护	-14658
直面	-14659
神父	-14660
离子	-14661
称的	-14662
窗外	-14663
等候	-14664
米洛	-14665
纳斯	-14666
罗尔	-14667
罗拉	-14668
翻倍	-14669
而成	-14670
股东	-14671
肺癌	-14672
药的	-14673
血流	-14674
血统	-14675
行事	-14676
视作	-14677
谓的	-14678
贴在	-14679
赞成	-14680
超人	-14681
软骨	-14682
进出	-14683
选出	-14684
通货	-14685
道具	-14686
那你	-14687
都行	-14688
采纳	-14689
链条	-14690
闪电	-14691
静态	-14692
顶上	-14693
顶级	-14694
领养	-14695
马萨	-14696
鲜明	-14697
MRI	-14698
ary	-14699
att	-14700
ius	-14701
off	-14702
▁24	-14703
▁不去	-14704
▁两者	-14705
▁人工	-14706
▁人生	-14707
▁他问	-14708
▁以致	-14709
▁再到	-14710
▁再来	-14711
▁和平	-14712
▁它比	-14713
▁年龄	-14714
▁我以	-14715
▁数量	-14716
▁是要	-14717
▁格林	-14718
▁模拟	-14719
▁能让	-14720
▁记忆	-14721
▁跨越	-14722
▁速度	-14723
一小时	-14724
一年半	-14725
一起去	-14726
不在于	-14727
严格的	-14728
中看到	-14729
为世界	-14730
为观止	-14731
了一座	-14732
了这种	-14733
会影响	-14734
伯利亚	-14735
体现了	-14736
信息和	-14737
偏头痛	-14738
做研究	-14739
儿童的	-14740
公司和	-14741
再看看	-14742
加州的	-14743
加油站	-14744
努力去	-14745
十年间	-14746
原子核	-14747
发展成	-14748
发短信	-14749
受到的	-14750
吃什么	-14751
在所有	-14752
在整个	-14753
地看着	-14754
复杂了	-14755
多一点	-14756
多的人	-14757
大街上	-14758
天生的	-14759
女人们	-14760
她已经	-14761
完全被	-14762
完完全	-14763
实时的	-14764
实现它	-14765
实质上	-14766
▁	-14767
的	-14768
,	-14769
我	-14770
。	-14771
是	-14772
们	-14773
一	-14774
这	-14775
在	-14776
个	-14777
有	-14778
了	-14779
不	-14780
人	-14781
你	-14782
他	-14783
到	-14784
以	-14785
为	-14786
来	-14787
就	-14788
些	-14789
会	-14790
能	-14791
上	-14792
可	-14793
大	-14794
要	-14795
时	-14796
那	-14797
它	-14798
和	-14799
生	-14800
所	-14801
中	-14802
么	-14803
如	-14804
说	-14805
看	-14806
想	-14807
现	-14808
里	-14809
很	-14810
多	-14811
样	-14812
对	-14813
用	-14814
过	-14815
0	-14816
地	-14817
但	-14818
因	-14819
也	-14820
而	-14821
事	-14822
都	-14823
?	-14824
发	-14825
家	-14826
得	-14827
于	-14828
种	-14829
后	-14830
做	-14831
年	-14832
自	-14833
当	-14834
子	-14835
学	-14836
成	-14837
“	-14838
实	-14839
作	-14840
出	-14841
然	-14842
”	-14843
去	-14844
方	-14845
果	-14846
下	-14847
好	-14848
没	-14849
开	-14850
:	-14851
最	-14852
经	-14853
同	-14854
之	-14855
-	-14856
国	-14857
着	-14858
物	-14859
还	-14860
分	-14861
道	-14862
什	-14863
其	-14864
知	-14865
从	-14866
问	-14867
行	-14868
动	-14869
常	-14870
意	-14871
让	-14872
并	-14873
1	-14874
面	-14875
者	-14876
法	-14877
非	-14878
起	-14879
更	-14880
变	-14881
.	-14882
力	-14883
性	-14884
机	-14885
只	-14886
把	-14887
被	-14888
正	-14889
间	-14890
题	-14891
天	-14892
前	-14893
—	-14894
关	-14895
世	-14896
小	-14897
情	-14898
工	-14899
体	-14900
数	-14901
理	-14902
将	-14903
像	-14904
点	-14905
或	-14906
她	-14907
进	-14908
重	-14909
感	-14910
比	-14911
e	-14912
界	-14913
全	-14914
美	-14915
a	-14916
化	-14917
相	-14918
解	-14919
给	-14920
此	-14921
何	-14922
信	-14923
新	-14924
定	-14925
需	-14926
2	-14927
部	-14928
真	-14929
、	-14930
西	-14931
心	-14932
本	-14933
每	-14934
始	-14935
己	-14936
候	-14937
使	-14938
与	-14939
无	-14940
电	-14941
度	-14942
认	-14943
系	-14944
且	-14945
应	-14946
活	-14947
计	-14948
已	-14949
通	-14950
类	-14951
明	-14952
量	-14953
制	-14954
特	-14955
造	-14956
公	-14957
式	-14958
i	-14959
第	-14960
加	-14961
o	-14962
斯	-14963
长	-14964
觉	-14965
接	-14966
次	-14967
设	-14968
结	-14969
手	-14970
东	-14971
r	-14972
孩	-14973
高	-14974
建	-14975
两	-14976
利	-14977
回	-14978
5	-14979
基	-14980
身	-14981
入	-14982
程	-14983
谢	-14984
术	-14985
合	-14986
女	-14987
话	-14988
论	-14989
n	-14990
表	-14991
代	-14992
许	-14993
科	-14994
球	-14995
件	-14996
位	-14997
目	-14998
展	-14999
提	-15000
几	-15001
片	-15002
主	-15003
受	-15004
外	-15005
图	-15006
教	-15007
产	-15008
任	-15009
放	-15010
业	-15011
器	-15012
完	-15013
脑	-15014
病	-15015
决	-15016
直	-15017
创	-15018
仅	-15019
水	-15020
统	-15021
改	-15022
技	-15023
观	-15024
内	-15025
向	-15026
再	-15027
及	-15028
儿	-15029
呢	-15030
研	-15031
带	-15032
十	-15033
究	-15034
确	-15035
别	-15036
试	-15037
三	-15038
告	-15039
够	-15040
思	-15041
处	-15042
区	-15043
场	-15044
怎	-15045
少	-15046
原	-15047
车	-15048
望	-15049
影	-15050
社	-15051
象	-15052
找	-15053
太	-15054
运	-15055
名	-15056
识	-15057
9	-15058
t	-15059
今	-15060
保	-15061
尔	-15062
该	-15063
色	-15064
网	-15065
克	-15066
由	-15067
至	-15068
3	-15069
平	-15070
市	-15071
品	-15072
据	-15073
万	-15074
听	-15075
组	-15076
l	-15077
见	-15078
讲	-15079
难	-15080
文	-15081
视	-15082
达	-15083
海	-15084
吗	-15085
头	-15086
存	-15087
验	-15088
政	-15089
另	-15090
音	-15091
才	-15092
命	-15093
等	-15094
期	-15095
单	-15096
星	-15097
乐	-15098
记	-15099
各	-15100
形	-15101
示	-15102
息	-15103
气	-15104
诉	-15105
义	-15106
拉	-15107
神	-15108
民	-15109
模	-15110
例	-15111
走	-15112
管	-15113
打	-15114
空	-15115
传	-15116
必	-15117
演	-15118
整	-15119
越	-15120
s	-15121
交	-15122
二	-15123
反	-15124
持	-15125
际	-15126
故	-15127
选	-15128
助	-15129
项	-15130
先	-15131
4	-15132
照	-15133
字	-15134
边	-15135
医	-15136
复	-15137
希	-15138
资	-15139
光	-15140
安	-15141
又	-15142
立	-15143
细	-15144
"	-15145
战	-15146
A	-15147
吧	-15148
员	-15149
流	-15150
百	-15151
爱	-15152
算	-15153
德	-15154
D	-15155
声	-15156
质	-15157
快	-15158
标	-15159
约	-15160
总	-15161
源	-15162
联	-15163
叫	-15164
亚	-15165
·	-15166
线	-15167
历	-15168
注	-15169
跟	-15170
未	-15171
测	-15172
金	-15173
英	-15174
条	-15175
谈	-15176
远	-15177
收	-15178
喜	-15179
具	-15180
型	-15181
帮	-15182
花	-15183
老	-15184
张	-15185
8	-15186
言	-15187
治	-15188
切	-15189
简	-15190
h	-15191
死	-15192
马	-15193
师	-15194
环	-15195
失	-15196
路	-15197
取	-15198
语	-15199
须	-15200
极	-15201
转	-15202
某	-15203
6	-15204
欢	-15205
书	-15206
显	-15207
考	-15208
离	-15209
导	-15210
司	-15211
白	-15212
奇	-15213
构	-15214
领	-15215
近	-15216
月	-15217
案	-15218
洲	-15219
口	-15220
u	-15221
响	-15222
食	-15223
段	-15224
飞	-15225
消	-15226
住	-15227
众	-15228
T	-15229
7	-15230
境	-15231
况	-15232
共	-15233
却	-15234
日	-15235
趣	-15236
写	-15237
强	-15238
步	-15239
料	-15240
元	-15241
士	-15242
城	-15243
错	-15244
!	-15245
刚	-15246
指	-15247
服	-15248
根	-15249
男	-15250
亲	-15251
续	-15252
d	-15253
效	-15254
哪	-15255
四	-15256
%	-15257
游	-15258
布	-15259
甚	-15260
功	-15261
集	-15262
S	-15263
岁	-15264
画	-15265
包	-15266
即	-15267
格	-15268
容	-15269
费	-15270
周	-15271
角	-15272
议	-15273
母	-15274
)	-15275
超	-15276
尼	-15277
曾	-15278
室	-15279
证	-15280
c	-15281
维	-15282
准	-15283
习	-15284
(	-15285
互	-15286
千	-15287
引	-15288
深	-15289
称	-15290
争	-15291
印	-15292
首	-15293
状	-15294
权	-15295
精	-15296
终	-15297
友	-15298
求	-15299
备	-15300
群	-15301
速	-15302
兴	-15303
值	-15304
便	-15305
参	-15306
域	-15307
济	-15308
C	-15309
供	-15310
育	-15311
价	-15312
m	-15313
择	-15314
巴	-15315
断	-15316
则	-15317
疗	-15318
概	-15319
E	-15320
似	-15321
层	-15322
随	-15323
调	-15324
拥	-15325
态	-15326
织	-15327
乎	-15328
否	-15329
钱	-15330
清	-15331
五	-15332
站	-15333
史	-15334
务	-15335
眼	-15336
置	-15337
答	-15338
风	-15339
请	-15340
增	-15341
护	-15342
装	-15343
易	-15344
控	-15345
规	-15346
底	-15347
♫	-15348
念	-15349
节	-15350
味	-15351
投	-15352
杂	-15353
激	-15354
微	-15355
预	-15356
报	-15357
足	-15358
满	-15359
症	-15360
房	-15361
亿	-15362
尽	-15363
艺	-15364
林	-15365
台	-15366
P	-15367
率	-15368
M	-15369
阿	-15370
干	-15371
黑	-15372
办	-15373
玩	-15374
致	-15375
获	-15376
令	-15377
拿	-15378
热	-15379
专	-15380
支	-15381
胞	-15382
队	-15383
门	-15384
围	-15385
绝	-15386
商	-15387
罗	-15388
府	-15389
假	-15390
刻	-15391
查	-15392
止	-15393
往	-15394
B	-15395
轻	-15396
笑	-15397
待	-15398
素	-15399
校	-15400
药	-15401
移	-15402
富	-15403
团	-15404
幸	-15405
险	-15406
惊	-15407
纪	-15408
愿	-15409
密	-15410
连	-15411
除	-15412
低	-15413
y	-15414
早	-15415
号	-15416
石	-15417
筑	-15418
朋	-15419
父	-15420
鱼	-15421
推	-15422
卡	-15423
录	-15424
戏	-15425
害	-15426
击	-15427
寻	-15428
半	-15429
络	-15430
院	-15431
读	-15432
巨	-15433
享	-15434
米	-15435
划	-15436
察	-15437
索	-15438
火	-15439
列	-15440
举	-15441
毒	-15442
买	-15443
差	-15444
排	-15445
突	-15446
健	-15447
停	-15448
坐	-15449
探	-15450
释	-15451
g	-15452
吃	-15453
兰	-15454
词	-15455
N	-15456
康	-15457
普	-15458
谁	-15459
恐	-15460
b	-15461
G	-15462
级	-15463
适	-15464
客	-15465
独	-15466
疾	-15467
拍	-15468
R	-15469
座	-15470
钟	-15471
落	-15472
土	-15473
广	-15474
份	-15475
博	-15476
;	-15477
讨	-15478
充	-15479
述	-15480
山	-15481
困	-15482
k	-15483
吸	-15484
智	-15485
较	-15486
油	-15487
景	-15488
降	-15489
养	-15490
块	-15491
摄	-15492
歌	-15493
穿	-15494
p	-15495
律	-15496
纳	-15497
庭	-15498
植	-15499
限	-15500
频	-15501
危	-15502
尝	-15503
宇	-15504
杀	-15505
伊	-15506
州	-15507
久	-15508
妈	-15509
福	-15510
伤	-15511
继	-15512
减	-15513
仍	-15514
阳	-15515
洋	-15516
掉	-15517
临	-15518
夫	-15519
南	-15520
留	-15521
革	-15522
射	-15523
采	-15524
啊	-15525
居	-15526
依	-15527
核	-15528
晚	-15529
短	-15530
》	-15531
《	-15532
播	-15533
染	-15534
威	-15535
亡	-15536
破	-15537
挑	-15538
宙	-15539
暴	-15540
I	-15541
严	-15542
积	-15543
坏	-15544
换	-15545
温	-15546
六	-15547
救	-15548
棒	-15549
序	-15550
压	-15551
掌	-15552
森	-15553
纸	-15554
异	-15555
卫	-15556
遇	-15557
哈	-15558
升	-15559
鼓	-15560
怕	-15561
板	-15562
树	-15563
血	-15564
犯	-15565
努	-15566
担	-15567
责	-15568
背	-15569
虑	-15570
监	-15571
肯	-15572
善	-15573
官	-15574
误	-15575
军	-15576
课	-15577
汽	-15578
益	-15579
括	-15580
材	-15581
承	-15582
族	-15583
波	-15584
束	-15585
触	-15586
描	-15587
势	-15588
古	-15589
靠	-15590
馆	-15591
皮	-15592
免	-15593
慢	-15594
码	-15595
灵	-15596
左	-15597
策	-15598
顿	-15599
患	-15600
L	-15601
癌	-15602
志	-15603
永	-15604
送	-15605
营	-15606
红	-15607
镜	-15608
农	-15609
北	-15610
局	-15611
抗	-15612
负	-15613
施	-15614
旅	-15615
倍	-15616
哥	-15617
句	-15618
童	-15619
剧	-15620
顶	-15621
紧	-15622
冰	-15623
欧	-15624
怪	-15625
舞	-15626
园	-15627
范	-15628
冲	-15629
坦	-15630
街	-15631
虫	-15632
纽	-15633
右	-15634
J	-15635
优	-15636
伦	-15637
唯	-15638
奥	-15639
痛	-15640
潜	-15641
艾	-15642
曲	-15643
菌	-15644
灯	-15645
户	-15646
键	-15647
初	-15648
丽	-15649
修	-15650
聚	-15651
媒	-15652
追	-15653
赛	-15654
虽	-15655
双	-15656
H	-15657
付	-15658
练	-15659
船	-15660
防	-15661
属	-15662
含	-15663
编	-15664
端	-15665
伯	-15666
疑	-15667
梦	-15668
败	-15669
贫	-15670
K	-15671
木	-15672
版	-15673
职	-15674
警	-15675
弹	-15676
软	-15677
输	-15678
般	-15679
企	-15680
塑	-15681
配	-15682
架	-15683
八	-15684
F	-15685
评	-15686
按	-15687
训	-15688
圣	-15689
亮	-15690
础	-15691
沙	-15692
介	-15693
励	-15694
诺	-15695
跳	-15696
盖	-15697
苦	-15698
华	-15699
跑	-15700
典	-15701
阶	-15702
卖	-15703
楚	-15704
罪	-15705
闻	-15706
缺	-15707
贝	-15708
遍	-15709
骨	-15710
恶	-15711
检	-15712
迷	-15713
均	-15714
尺	-15715
w	-15716
妙	-15717
伟	-15718
怀	-15719
坚	-15720
协	-15721
岛	-15722
启	-15723
塔	-15724
河	-15725
伙	-15726
征	-15727
暗	-15728
顾	-15729
略	-15730
穷	-15731
呼	-15732
牛	-15733
翻	-15734
七	-15735
洞	-15736
糟	-15737
帝	-15738
班	-15739
藏	-15740
融	-15741
倒	-15742
v	-15743
捕	-15744
酒	-15745
蓝	-15746
避	-15747
奋	-15748
肉	-15749
埃	-15750
碳	-15751
绿	-15752
混	-15753
O	-15754
忆	-15755
萨	-15756
餐	-15757
幅	-15758
店	-15759
笔	-15760
诗	-15761
遗	-15762
洛	-15763
脏	-15764
章	-15765
屋	-15766
旧	-15767
村	-15768
顺	-15769
幻	-15770
麻	-15771
渐	-15772
航	-15773
托	-15774
析	-15775
f	-15776
派	-15777
堂	-15778
氧	-15779
私	-15780
姆	-15781
距	-15782
狂	-15783
谷	-15784
奖	-15785
透	-15786
判	-15787
曼	-15788
隐	-15789
脚	-15790
零	-15791
弃	-15792
蛋	-15793
冷	-15794
塞	-15795
巧	-15796
折	-15797
迪	-15798
妇	-15799
♪	-15800
熟	-15801
财	-15802
秘	-15803
拟	-15804
醒	-15805
猩	-15806
迹	-15807
乱	-15808
诊	-15809
退	-15810
培	-15811
奏	-15812
婚	-15813
睡	-15814
秒	-15815
著	-15816
灭	-15817
竟	-15818
银	-15819
套	-15820
牙	-15821
夜	-15822
楼	-15823
脸	-15824
衡	-15825
牌	-15826
莱	-15827
款	-15828
阻	-15829
伴	-15830
占	-15831
毫	-15832
草	-15833
燃	-15834
宗	-15835
操	-15836
予	-15837
墙	-15838
弱	-15839
麦	-15840
祖	-15841
衣	-15842
弄	-15843
散	-15844
鲁	-15845
脱	-15846
针	-15847
尤	-15848
访	-15849
青	-15850
轮	-15851
漫	-15852
蜂	-15853
途	-15854
W	-15855
炸	-15856
授	-15857
鼠	-15858
疫	-15859
票	-15860
震	-15861
液	-15862
丝	-15863
幕	-15864
宝	-15865
狱	-15866
浪	-15867
爸	-15868
偏	-15869
竞	-15870
闭	-15871
野	-15872
扩	-15873
床	-15874
惧	-15875
「	-15876
」	-15877
唱	-15878
猜	-15879
忘	-15880
页	-15881
龙	-15882
九	-15883
逐	-15884
陆	-15885
倾	-15886
刺	-15887
沉	-15888
登	-15889
彩	-15890
圈	-15891
糕	-15892
恩	-15893
狗	-15894
销	-15895
鸟	-15896
爆	-15897
粉	-15898
勒	-15899
固	-15900
疯	-15901
估	-15902
宣	-15903
障	-15904
斗	-15905
静	-15906
哦	-15907
搜	-15908
懂	-15909
劳	-15910
缩	-15911
聪	-15912
雄	-15913
旦	-15914
睛	-15915
延	-15916
良	-15917
搞	-15918
径	-15919
盘	-15920
毛	-15921
雨	-15922
旁	-15923
仪	-15924
毕	-15925
蒂	-15926
瑞	-15927
繁	-15928
损	-15929
悲	-15930
迫	-15931
符	-15932
堆	-15933
您	-15934
耗	-15935
朗	-15936
黄	-15937
绕	-15938
辆	-15939
蚁	-15940
嗯	-15941
赖	-15942
献	-15943
虚	-15944
默	-15945
库	-15946
归	-15947
额	-15948
彼	-15949
抱	-15950
雷	-15951
杰	-15952
枪	-15953
漂	-15954
佛	-15955
袋	-15956
贵	-15957
滋	-15958
禁	-15959
苏	-15960
厂	-15961
屏	-15962
残	-15963
烈	-15964
急	-15965
执	-15966
武	-15967
聊	-15968
胜	-15969
腿	-15970
耳	-15971
礼	-15972
借	-15973
挥	-15974
恰	-15975
王	-15976
露	-15977
封	-15978
谓	-15979
乳	-15980
毁	-15981
糖	-15982
附	-15983
怖	-15984
松	-15985
铁	-15986
瓦	-15987
遭	-15988
载	-15989
辑	-15990
循	-15991
握	-15992
绍	-15993
货	-15994
吉	-15995
储	-15996
碰	-15997
龄	-15998
跨	-15999
颜	-16000
泡	-16001
购	-16002
隔	-16003
洗	-16004
绪	-16005
允	-16006
仿	-16007
篇	-16008
弗	-16009
箱	-16010
碍	-16011
魔	-16012
阅	-16013
滑	-16014
绘	-16015
摩	-16016
替	-16017
池	-16018
恋	-16019
审	-16020
桌	-16021
休	-16022
尾	-16023
批	-16024
援	-16025
剂	-16026
尊	-16027
撞	-16028
灾	-16029
婴	-16030
摆	-16031
殊	-16032
污	-16033
守	-16034
慧	-16035
粒	-16036
抓	-16037
稳	-16038
酷	-16039
裂	-16040
售	-16041
V	-16042
邮	-16043
乌	-16044
稍	-16045
仰	-16046
废	-16047
颗	-16048
忽	-16049
蒙	-16050
赢	-16051
驾	-16052
椅	-16053
驱	-16054
弟	-16055
俄	-16056
贴	-16057
驶	-16058
促	-16059
陷	-16060
链	-16061
惯	-16062
既	-16063
踪	-16064
荣	-16065
省	-16066
冒	-16067
肥	-16068
侵	-16069
兵	-16070
恒	-16071
胁	-16072
仔	-16073
鲜	-16074
奶	-16075
挺	-16076
签	-16077
•	-16078
扫	-16079
迎	-16080
丁	-16081
喝	-16082
朝	-16083
览	-16084
玛	-16085
攻	-16086
殖	-16087
旋	-16088
汇	-16089
诸	-16090
逃	-16091
副	-16092
午	-16093
厅	-16094
抽	-16095
圆	-16096
汗	-16097
赞	-16098
邀	-16099
雅	-16100
余	-16101
彻	-16102
碎	-16103
岸	-16104
x	-16105
宜	-16106
肢	-16107
译	-16108
股	-16109
烦	-16110
肤	-16111
妻	-16112
抑	-16113
香	-16114
沟	-16115
烧	-16116
珊	-16117
硬	-16118
磁	-16119
苗	-16120
浮	-16121
秀	-16122
慈	-16123
穆	-16124
菜	-16125
邦	-16126
伸	-16127
偶	-16128
丹	-16129
帕	-16130
辩	-16131
递	-16132
阴	-16133
圾	-16134
垃	-16135
墨	-16136
呆	-16137
缘	-16138
乡	-16139
扎	-16140
盛	-16141
剩	-16142
悉	-16143
乔	-16144
补	-16145
X	-16146
夏	-16147
覆	-16148
z	-16149
丰	-16150
云	-16151
涉	-16152
烟	-16153
若	-16154
姐	-16155
忙	-16156
妹	-16157
瓶	-16158
邻	-16159
孤	-16160
拜	-16161
蜜	-16162
雪	-16163
乘	-16164
凡	-16165
峰	-16166
桥	-16167
焦	-16168
爬	-16169
诞	-16170
沃	-16171
泛	-16172
鞋	-16173
叶	-16174
末	-16175
窗	-16176
敢	-16177
沿	-16178
轨	-16179
勇	-16180
荷	-16181
菲	-16182
U	-16183
党	-16184
戴	-16185
Y	-16186
暖	-16187
诚	-16188
抵	-16189
扰	-16190
拯	-16191
撒	-16192
猎	-16193
瑚	-16194
缓	-16195
讶	-16196
猫	-16197
趋	-16198
呈	-16199
灰	-16200
谱	-16201
饮	-16202
捐	-16203
徒	-16204
搭	-16205
乏	-16206
艰	-16207
雇	-16208
厌	-16209
胡	-16210
肿	-16211
尖	-16212
忍	-16213
琴	-16214
跃	-16215
敦	-16216
寿	-16217
杯	-16218
啦	-16219
讯	-16220
恢	-16221
纯	-16222
丧	-16223
兄	-16224
逊	-16225
盒	-16226
赋	-16227
偷	-16228
镇	-16229
岩	-16230
瘤	-16231
舒	-16232
饭	-16233
莫	-16234
洁	-16235
腺	-16236
脉	-16237
蚂	-16238
噢	-16239
钢	-16240
迈	-16241
欲	-16242
潮	-16243
拒	-16244
振	-16245
漠	-16246
赚	-16247
鸡	-16248
咖	-16249
啡	-16250
兹	-16251
搬	-16252
矿	-16253
昆	-16254
蚊	-16255
袭	-16256
酸	-16257
臂	-16258
敏	-16259
荒	-16260
肌	-16261
腐	-16262
雕	-16263
羊	-16264
翰	-16265
喷	-16266
席	-16267
愈	-16268
丢	-16269
佳	-16270
敌	-16271
寄	-16272
泰	-16273
怒	-16274
辨	-16275
贡	-16276
械	-16277
累	-16278
脊	-16279
措	-16280
谎	-16281
哲	-16282
迅	-16283
杉	-16284
映	-16285
[	-16286
摇	-16287
]	-16288
季	-16289
宽	-16290
渴	-16291
赶	-16292
叠	-16293
玻	-16294
磨	-16295
郁	-16296
鲨	-16297
耐	-16298
闪	-16299
堡	-16300
卷	-16301
甲	-16302
盟	-16303
刑	-16304
脆	-16305
孕	-16306
鲸	-16307
胶	-16308
霍	-16309
肺	-16310
娜	-16311
昂	-16312
犹	-16313
幼	-16314
摸	-16315
招	-16316
骗	-16317
庄	-16318
惑	-16319
尚	-16320
净	-16321
愤	-16322
芬	-16323
衰	-16324
刷	-16325
匹	-16326
眠	-16327
耍	-16328
侧	-16329
币	-16330
暂	-16331
汉	-16332
鹅	-16333
截	-16334
壁	-16335
旗	-16336
猴	-16337
轴	-16338
扔	-16339
袖	-16340
瞬	-16341
嘴	-16342
珍	-16343
箭	-16344
横	-16345
奴	-16346
寸	-16347
拼	-16348
晨	-16349
穴	-16350
梅	-16351
祝	-16352
孔	-16353
填	-16354
壮	-16355
框	-16356
欣	-16357
综	-16358
莎	-16359
谋	-16360
遥	-16361
盲	-16362
敬	-16363
豪	-16364
逻	-16365
湾	-16366
隆	-16367
扮	-16368
携	-16369
赏	-16370
凯	-16371
卢	-16372
庞	-16373
税	-16374
黎	-16375
‘	-16376
矛	-16377
苹	-16378
夺	-16379
