<unk>	0
<s>	0
</s>	0
<pad>	0
▁t	-0
▁th	-1
▁a	-2
in	-3
▁w	-4
▁the	-5
re	-6
▁o	-7
▁s	-8
at	-9
er	-10
nd	-11
ou	-12
▁c	-13
is	-14
it	-15
▁b	-16
ing	-17
▁m	-18
en	-19
▁h	-20
▁to	-21
on	-22
▁p	-23
▁f	-24
es	-25
an	-26
▁d	-27
▁of	-28
or	-29
ll	-30
▁in	-31
▁I	-32
▁and	-33
ed	-34
▁l	-35
ar	-36
▁that	-37
▁y	-38
om	-39
▁g	-40
as	-41
ic	-42
le	-43
▁you	-44
ve	-45
▁we	-46
al	-47
▁n	-48
▁wh	-49
ow	-50
▁e	-51
▁is	-52
us	-53
▁be	-54
ut	-55
▁A	-56
▁it	-57
ion	-58
ot	-59
et	-60
▁T	-61
▁re	-62
▁ha	-63
ent	-64
ct	-65
▁on	-66
ld	-67
ver	-68
ay	-69
id	-70
▁Th	-71
▁And	-72
se	-73
all	-74
im	-75
▁this	-76
st	-77
ro	-78
ig	-79
▁S	-80
ur	-81
▁st	-82
ly	-83
ere	-84
ch	-85
ke	-86
ce	-87
▁for	-88
if	-89
▁was	-90
ra	-91
▁W	-92
ir	-93
▁an	-94
▁do	-95
▁are	-96
ith	-97
op	-98
oo	-99
ally	-100
th	-101
am	-102
▁have	-103
▁with	-104
▁ab	-105
▁u	-106
▁they	-107
▁se	-108
▁k	-109
▁can	-110
▁mo	-111
ation	-112
▁B	-113
▁-	-114
▁as	-115
▁--	-116
out	-117
ht	-118
▁li	-119
▁so	-120
▁go	-121
▁wor	-122
▁what	-123
ad	-124
▁So	-125
▁com	-126
▁he	-127
ould	-128
very	-129
▁me	-130
ill	-131
▁at	-132
▁sh	-133
▁about	-134
▁ne	-135
ant	-136
▁not	-137
ter	-138
ge	-139
il	-140
ol	-141
ust	-142
ul	-143
▁all	-144
▁j	-145
ers	-146
▁ex	-147
▁fr	-148
▁The	-149
use	-150
▁ch	-151
▁som	-152
ight	-153
▁pro	-154
▁r	-155
▁my	-156
▁or	-157
▁de	-158
▁pe	-159
▁"	-160
▁there	-161
ear	-162
art	-163
ople	-164
um	-165
pp	-166
ck	-167
▁con	-168
ess	-169
▁We	-170
▁like	-171
ate	-172
ies	-173
ure	-174
▁It	-175
▁people	-176
ity	-177
▁one	-178
ive	-179
ca	-180
est	-181
▁ma	-182
▁N	-183
nt	-184
▁from	-185
ect	-186
▁kn	-187
ist	-188
ble	-189
▁but	-190
qu	-191
▁our	-192
ind	-193
▁out	-194
▁us	-195
▁al	-196
ink	-197
▁te	-198
▁just	-199
▁int	-200
▁know	-201
▁v	-202
rou	-203
un	-204
ook	-205
▁C	-206
▁H	-207
▁M	-208
cause	-209
▁thing	-210
▁them	-211
ide	-212
▁sp	-213
and	-214
os	-215
ie	-216
▁But	-217
▁see	-218
▁tr	-219
her	-220
▁these	-221
ort	-222
▁up	-223
▁who	-224
▁if	-225
▁very	-226
▁think	-227
▁get	-228
▁pl	-229
ci	-230
▁by	-231
ich	-232
el	-233
▁going	-234
▁Y	-235
ain	-236
▁some	-237
▁when	-238
one	-239
iv	-240
▁had	-241
▁1	-242
▁act	-243
▁more	-244
▁because	-245
▁your	-246
▁year	-247
em	-248
▁were	-249
▁would	-250
▁im	-251
og	-252
▁sa	-253
▁tim	-254
our	-255
ine	-256
00	-257
od	-258
▁their	-259
ment	-260
ame	-261
▁want	-262
▁look	-263
▁which	-264
▁how	-265
▁work	-266
▁ta	-267
ast	-268
▁su	-269
▁really	-270
▁comp	-271
ous	-272
iz	-273
ually	-274
▁Wh	-275
ard	-276
."	-277
ood	-278
▁O	-279
ack	-280
act	-281
gh	-282
▁en	-283
reat	-284
hing	-285
ap	-286
▁way	-287
ose	-288
▁E	-289
ore	-290
▁world	-291
▁le	-292
are	-293
▁time	-294
▁has	-295
ans	-296
▁here	-297
ther	-298
ag	-299
ab	-300
▁then	-301
▁per	-302
▁every	-303
▁This	-304
▁qu	-305
▁You	-306
▁P	-307
▁don	-308
▁exp	-309
ong	-310
▁could	-311
▁into	-312
▁man	-313
▁ev	-314
ions	-315
▁co	-316
▁actually	-317
▁will	-318
ace	-319
▁fe	-320
res	-321
▁say	-322
ild	-323
ence	-324
ud	-325
▁where	-326
▁D	-327
▁years	-328
▁G	-329
itt	-330
▁now	-331
▁ag	-332
age	-333
▁L	-334
▁did	-335
alk	-336
▁things	-337
▁other	-338
▁somet	-339
▁Now	-340
ff	-341
ach	-342
iff	-343
nder	-344
▁F	-345
▁They	-346
▁been	-347
▁In	-348
ical	-349
▁any	-350
▁make	-351
▁no	-352
▁diff	-353
▁cl	-354
ice	-355
▁happ	-356
▁than	-357
ip	-358
▁need	-359
so	-360
▁tw	-361
▁start	-362
▁un	-363
red	-364
▁pr	-365
▁right	-366
▁2	-367
irst	-368
ome	-369
▁part	-370
▁said	-371
▁over	-372
ree	-373
▁bu	-374
own	-375
▁something	-376
▁imp	-377
ry	-378
▁dis	-379
ign	-380
ia	-381
▁R	-382
▁po	-383
ite	-384
ory	-385
▁back	-386
pt	-387
uch	-388
orm	-389
ount	-390
round	-391
▁those	-392
▁much	-393
ife	-394
ens	-395
olog	-396
▁two	-397
▁got	-398
▁call	-399
▁chan	-400
▁first	-401
▁ar	-402
▁differe	-403
ib	-404
ater	-405
ass	-406
ell	-407
ound	-408
▁also	-409
sel	-410
▁ro	-411
▁kind	-412
▁lo	-413
▁new	-414
ep	-415
ittle	-416
cent	-417
▁lot	-418
▁little	-419
ue	-420
ac	-421
ght	-422
▁cont	-423
ult	-424
▁spe	-425
▁she	-426
▁talk	-427
ple	-428
way	-429
▁bet	-430
▁most	-431
▁That	-432
▁ac	-433
▁ph	-434
king	-435
ves	-436
ber	-437
vel	-438
▁only	-439
ody	-440
▁res	-441
ated	-442
ving	-443
ru	-444
▁under	-445
▁des	-446
▁life	-447
▁his	-448
able	-449
▁even	-450
▁day	-451
▁J	-452
rain	-453
ations	-454
co	-455
▁ad	-456
▁am	-457
▁sy	-458
▁hum	-459
▁take	-460
▁different	-461
▁her	-462
▁many	-463
ick	-464
lo	-465
ms	-466
ial	-467
ict	-468
ish	-469
other	-470
▁real	-471
rough	-472
int	-473
▁good	-474
ase	-475
ire	-476
du	-477
▁comm	-478
▁does	-479
ank	-480
▁around	-481
▁ide	-482
▁down	-483
▁There	-484
▁through	-485
▁What	-486
pe	-487
ents	-488
cess	-489
▁put	-490
ph	-491
urn	-492
▁U	-493
▁use	-494
▁pre	-495
▁show	-496
▁being	-497
▁tell	-498
▁♫	-499
▁off	-500
ark	-501
form	-502
▁He	-503
ors	-504
ade	-505
ible	-506
ress	-507
▁bl	-508
ak	-509
ary	-510
ether	-511
▁too	-512
▁same	-513
▁happen	-514
les	-515
▁thou	-516
▁em	-517
▁proble	-518
▁try	-519
ject	-520
ance	-521
ath	-522
▁inc	-523
ne	-524
xt	-525
chn	-526
▁sm	-527
ys	-528
wn	-529
▁fact	-530
▁count	-531
▁come	-532
▁br	-533
day	-534
he	-535
ang	-536
stem	-537
ful	-538
ars	-539
▁ra	-540
iver	-541
ual	-542
ord	-543
tern	-544
▁doing	-545
▁gen	-546
▁may	-547
ning	-548
▁big	-549
row	-550
▁find	-551
ool	-552
ile	-553
▁techn	-554
ces	-555
▁great	-556
ting	-557
per	-558
ric	-559
▁three	-560
▁human	-561
▁wr	-562
ved	-563
▁bec	-564
▁pers	-565
ower	-566
▁If	-567
▁sur	-568
▁tra	-569
ically	-570
▁percent	-571
ied	-572
ons	-573
▁dec	-574
▁build	-575
fter	-576
illion	-577
nds	-578
▁system	-579
body	-580
ology	-581
thing	-582
▁well	-583
▁app	-584
▁Ch	-585
be	-586
fore	-587
▁called	-588
▁let	-589
igh	-590
te	-591
self	-592
▁stud	-593
▁again	-594
▁gu	-595
▁quest	-596
▁inv	-597
▁exper	-598
▁sim	-599
cial	-600
▁made	-601
we	-602
▁child	-603
ition	-604
ities	-605
ious	-606
▁rem	-607
▁Well	-608
▁ind	-609
mer	-610
ics	-611
▁long	-612
ating	-613
▁own	-614
▁fl	-615
▁lear	-616
▁wom	-617
oss	-618
▁bel	-619
▁import	-620
▁should	-621
ize	-622
ew	-623
▁why	-624
▁sc	-625
▁K	-626
ren	-627
ates	-628
▁underst	-629
lic	-630
ub	-631
▁turn	-632
▁didn	-633
ian	-634
oc	-635
ty	-636
▁change	-637
erest	-638
▁feel	-639
▁after	-640
▁today	-641
ft	-642
▁started	-643
▁thought	-644
▁ask	-645
av	-646
▁hel	-647
▁Thank	-648
▁end	-649
000	-650
ction	-651
▁ob	-652
▁person	-653
▁idea	-654
▁mean	-655
▁important	-656
▁sci	-657
▁cour	-658
▁design	-659
▁last	-660
?"	-661
▁him	-662
con	-663
▁creat	-664
ail	-665
als	-666
▁Be	-667
▁interest	-668
▁bas	-669
▁help	-670
▁its	-671
▁play	-672
▁ins	-673
old	-674
▁inst	-675
▁brain	-676
▁sch	-677
▁exam	-678
ily	-679
ull	-680
▁rel	-681
▁better	-682
ution	-683
▁car	-684
gan	-685
▁understand	-686
▁went	-687
,000	-688
▁trans	-689
▁might	-690
ost	-691
▁3	-692
ough	-693
▁never	-694
▁before	-695
ists	-696
ise	-697
ility	-698
▁give	-699
▁cons	-700
▁problem	-701
▁another	-702
▁coll	-703
ular	-704
▁gra	-705
ave	-706
▁point	-707
▁bit	-708
und	-709
▁ke	-710
▁able	-711
▁St	-712
▁fam	-713
ese	-714
▁commun	-715
▁story	-716
▁belie	-717
▁course	-718
▁pol	-719
ob	-720
▁still	-721
▁few	-722
▁tog	-723
ros	-724
▁power	-725
▁produ	-726
▁together	-727
▁ent	-728
▁bo	-729
ven	-730
ert	-731
kes	-732
▁found	-733
▁inter	-734
ix	-735
▁plan	-736
▁rep	-737
▁next	-738
▁ago	-739
oth	-740
▁sol	-741
▁sl	-742
ng	-743
▁kid	-744
▁ele	-745
▁came	-746
▁mon	-747
ited	-748
erg	-749
alth	-750
▁place	-751
▁imag	-752
▁school	-753
▁dr	-754
▁sort	-755
velop	-756
atch	-757
▁mod	-758
▁num	-759
▁water	-760
▁high	-761
ween	-762
▁cr	-763
▁20	-764
▁19	-765
▁dat	-766
▁learn	-767
ness	-768
ather	-769
uc	-770
▁comple	-771
▁str	-772
ense	-773
▁used	-774
▁When	-775
ized	-776
▁between	-777
▁each	-778
▁ter	-779
ience	-780
read	-781
iss	-782
▁la	-783
▁question	-784
meric	-785
ward	-786
▁technology	-787
ork	-788
▁art	-789
arch	-790
,"	-791
ures	-792
▁rec	-793
▁ext	-794
▁10	-795
▁pat	-796
▁ser	-797
▁develop	-798
▁med	-799
▁met	-800
az	-801
▁att	-802
▁small	-803
▁data	-804
▁Af	-805
ets	-806
▁cre	-807
ways	-808
▁women	-809
▁fin	-810
▁old	-811
▁love	-812
▁looking	-813
ram	-814
▁example	-815
▁op	-816
▁Americ	-817
▁doesn	-818
ered	-819
▁care	-820
▁four	-821
cond	-822
ific	-823
▁grow	-824
▁partic	-825
ute	-826
▁eff	-827
ced	-828
▁wanted	-829
▁mom	-830
▁done	-831
▁Because	-832
cept	-833
iness	-834
▁light	-835
▁word	-836
ative	-837
▁ever	-838
ings	-839
ah	-840
▁How	-841
▁V	-842
▁min	-843
▁read	-844
▁comput	-845
pl	-846
▁cent	-847
formation	-848
▁move	-849
ably	-850
▁hard	-851
cy	-852
▁chang	-853
▁whole	-854
▁reas	-855
▁cell	-856
▁live	-857
▁stu	-858
▁far	-859
▁poss	-860
▁trying	-861
conom	-862
▁beh	-863
▁lar	-864
ross	-865
ands	-866
▁million	-867
oney	-868
▁always	-869
selves	-870
▁nat	-871
ger	-872
▁away	-873
ope	-874
▁bi	-875
ote	-876
▁ear	-877
▁less	-878
here	-879
ism	-880
ational	-881
▁cap	-882
▁children	-883
▁giv	-884
▁believe	-885
▁working	-886
▁ed	-887
▁Un	-888
▁5	-889
ments	-890
▁el	-891
..	-892
▁econom	-893
▁supp	-894
▁country	-895
ural	-896
▁gener	-897
ird	-898
▁resp	-899
cer	-900
▁bus	-901
▁sk	-902
▁Afric	-903
gin	-904
▁health	-905
ries	-906
▁book	-907
▁frie	-908
▁expl	-909
hip	-910
vers	-911
▁means	-912
▁sub	-913
ont	-914
▁As	-915
ruct	-916
▁information	-917
nect	-918
▁using	-919
▁pict	-920
▁project	-921
▁thinking	-922
▁cor	-923
▁fo	-924
led	-925
▁run	-926
▁anim	-927
▁took	-928
atter	-929
▁open	-930
▁home	-931
vern	-932
ident	-933
▁money	-934
▁space	-935
▁vis	-936
ital	-937
▁create	-938
▁hand	-939
▁inf	-940
▁five	-941
▁maybe	-942
▁organ	-943
▁everything	-944
▁4	-945
▁mus	-946
ks	-947
nce	-948
its	-949
▁process	-950
▁become	-951
▁cou	-952
ract	-953
ps	-954
▁lead	-955
▁compan	-956
aces	-957
▁pub	-958
air	-959
▁kids	-960
▁fut	-961
▁doll	-962
gg	-963
▁prob	-964
ues	-965
▁prog	-966
rib	-967
▁spec	-968
▁number	-969
▁second	-970
ond	-971
ten	-972
▁One	-973
▁walk	-974
▁sing	-975
▁reg	-976
▁mind	-977
alf	-978
ivers	-979
▁acc	-980
▁teach	-981
▁head	-982
aut	-983
iron	-984
ergy	-985
ouse	-986
▁getting	-987
ever	-988
iew	-989
▁eng	-990
▁left	-991
▁My	-992
▁best	-993
▁future	-994
▁govern	-995
▁form	-996
ories	-997
ines	-998
▁interesting	-999
▁enough	-1000
▁ca	-1001
ention	-1002
sw	-1003
▁war	-1004
iting	-1005
▁times	-1006
▁cle	-1007
▁conf	-1008
▁month	-1009
lob	-1010
▁pres	-1011
▁Ind	-1012
▁quite	-1013
▁comes	-1014
▁grou	-1015
▁happened	-1016
▁food	-1017
▁making	-1018
▁set	-1019
▁sense	-1020
▁social	-1021
▁talking	-1022
▁These	-1023
▁energy	-1024
▁fun	-1025
▁She	-1026
▁answ	-1027
ety	-1028
▁contro	-1029
▁building	-1030
ier	-1031
ertain	-1032
▁pass	-1033
▁dem	-1034
▁sign	-1035
▁told	-1036
pr	-1037
▁mark	-1038
imes	-1039
▁job	-1040
ately	-1041
▁probably	-1042
▁room	-1043
▁connect	-1044
ts	-1045
tty	-1046
▁phys	-1047
▁begin	-1048
▁cur	-1049
▁add	-1050
▁wee	-1051
▁moment	-1052
▁body	-1053
▁young	-1054
▁countries	-1055
▁stuff	-1056
▁without	-1057
ices	-1058
ient	-1059
reen	-1060
▁pop	-1061
irl	-1062
▁For	-1063
ember	-1064
▁men	-1065
▁reason	-1066
ner	-1067
▁env	-1068
▁model	-1069
▁keep	-1070
▁elect	-1071
ying	-1072
▁lives	-1073
ake	-1074
▁dist	-1075
▁Here	-1076
▁hist	-1077
▁opp	-1078
▁side	-1079
▁allow	-1080
▁pie	-1081
▁beaut	-1082
▁anything	-1083
▁coming	-1084
▁pretty	-1085
▁science	-1086
▁gr	-1087
▁dollars	-1088
▁else	-1089
▁such	-1090
▁family	-1091
▁soci	-1092
▁top	-1093
▁half	-1094
▁def	-1095
ogra	-1096
ortun	-1097
▁Is	-1098
lobal	-1099
▁prot	-1100
▁stop	-1101
me	-1102
▁saw	-1103
uring	-1104
▁No	-1105
most	-1106
▁New	-1107
▁business	-1108
▁An	-1109
ead	-1110
▁matter	-1111
ality	-1112
▁environ	-1113
▁Let	-1114
der	-1115
▁across	-1116
▁bad	-1117
▁eas	-1118
olution	-1119
▁wo	-1120
▁rese	-1121
ince	-1122
gs	-1123
idd	-1124
▁ty	-1125
▁later	-1126
▁makes	-1127
▁stand	-1128
kay	-1129
▁bring	-1130
▁seen	-1131
▁says	-1132
▁asked	-1133
▁hope	-1134
▁sound	-1135
ream	-1136
▁experience	-1137
ught	-1138
ior	-1139
lf	-1140
io	-1141
ided	-1142
▁cam	-1143
▁living	-1144
▁200	-1145
▁All	-1146
▁scient	-1147
▁hour	-1148
▁simple	-1149
▁educ	-1150
▁share	-1151
▁particular	-1152
▁fig	-1153
ime	-1154
▁ey	-1155
▁ways	-1156
▁mem	-1157
▁phot	-1158
▁having	-1159
ots	-1160
ective	-1161
▁Africa	-1162
▁case	-1163
▁goes	-1164
▁aut	-1165
▁Chin	-1166
▁det	-1167
▁cult	-1168
▁happens	-1169
▁sit	-1170
ken	-1171
arth	-1172
▁complete	-1173
▁fore	-1174
▁research	-1175
▁city	-1176
▁days	-1177
▁col	-1178
▁val	-1179
where	-1180
man	-1181
▁ref	-1182
ization	-1183
llow	-1184
▁equ	-1185
▁char	-1186
▁list	-1187
▁global	-1188
arr	-1189
allen	-1190
▁air	-1191
▁picture	-1192
▁planet	-1193
ott	-1194
▁thous	-1195
▁single	-1196
▁wonder	-1197
iter	-1198
▁almost	-1199
ready	-1200
▁computer	-1201
▁problems	-1202
less	-1203
ilt	-1204
orn	-1205
▁polit	-1206
▁watch	-1207
ash	-1208
▁level	-1209
▁inside	-1210
aps	-1211
arent	-1212
▁prof	-1213
▁six	-1214
▁loc	-1215
▁both	-1216
▁environment	-1217
▁bre	-1218
▁amaz	-1219
▁rest	-1220
ants	-1221
▁while	-1222
▁community	-1223
angu	-1224
▁rob	-1225
▁test	-1226
▁mach	-1227
ograph	-1228
▁billion	-1229
▁public	-1230
▁suc	-1231
ike	-1232
med	-1233
▁dise	-1234
▁Se	-1235
▁sure	-1236
▁already	-1237
▁certain	-1238
▁girl	-1239
▁Earth	-1240
uge	-1241
▁saying	-1242
▁nothing	-1243
▁remember	-1244
▁answer	-1245
▁looked	-1246
▁yet	-1247
osed	-1248
▁someone	-1249
▁possible	-1250
▁mor	-1251
▁hear	-1252
ins	-1253
ulation	-1254
ivid	-1255
unch	-1256
no	-1257
▁challen	-1258
ases	-1259
▁par	-1260
▁langu	-1261
▁control	-1262
▁gl	-1263
▁vide	-1264
ED	-1265
▁whether	-1266
▁once	-1267
▁pain	-1268
ange	-1269
oice	-1270
▁exc	-1271
▁age	-1272
ury	-1273
▁unt	-1274
▁within	-1275
itive	-1276
▁ass	-1277
▁music	-1278
▁ideas	-1279
▁contin	-1280
▁disco	-1281
▁myself	-1282
▁amazing	-1283
▁often	-1284
imate	-1285
▁basically	-1286
▁self	-1287
▁wrong	-1288
▁exact	-1289
▁history	-1290
side	-1291
▁iss	-1292
▁Al	-1293
▁guy	-1294
▁lab	-1295
work	-1296
▁mil	-1297
undred	-1298
▁wa	-1299
▁Why	-1300
▁dire	-1301
▁beautif	-1302
ield	-1303
▁true	-1304
▁looks	-1305
▁[	-1306
▁months	-1307
▁incred	-1308
▁cost	-1309
▁product	-1310
▁treat	-1311
▁imagine	-1312
▁kill	-1313
ters	-1314
▁dev	-1315
▁night	-1316
▁United	-1317
▁heard	-1318
▁entire	-1319
ages	-1320
▁heart	-1321
Wh	-1322
cle	-1323
ene	-1324
ware	-1325
▁mag	-1326
▁Intern	-1327
aterial	-1328
▁wasn	-1329
▁sw	-1330
lish	-1331
▁friends	-1332
▁hundred	-1333
▁individ	-1334
▁large	-1335
de	-1336
ling	-1337
▁adv	-1338
▁che	-1339
▁government	-1340
▁figure	-1341
▁15	-1342
ians	-1343
▁class	-1344
▁words	-1345
iverse	-1346
bers	-1347
uck	-1348
up	-1349
▁Or	-1350
utes	-1351
ivity	-1352
▁face	-1353
▁works	-1354
▁group	-1355
ired	-1356
ering	-1357
▁news	-1358
▁state	-1359
ives	-1360
▁order	-1361
▁cond	-1362
▁aff	-1363
▁30	-1364
▁full	-1365
▁fil	-1366
▁6	-1367
▁100	-1368
iddle	-1369
▁cells	-1370
▁beautiful	-1371
uro	-1372
ected	-1373
vious	-1374
▁TED	-1375
▁incre	-1376
eah	-1377
▁couple	-1378
▁individual	-1379
land	-1380
▁sec	-1381
▁until	-1382
▁result	-1383
▁net	-1384
▁must	-1385
▁built	-1386
▁ris	-1387
▁ret	-1388
get	-1389
▁50	-1390
▁appro	-1391
▁pay	-1392
▁material	-1393
outh	-1394
▁tre	-1395
▁fund	-1396
▁'	-1397
▁front	-1398
▁piece	-1399
▁vir	-1400
▁knew	-1401
▁law	-1402
ex	-1403
▁cra	-1404
▁follow	-1405
ock	-1406
aper	-1407
line	-1408
ustr	-1409
▁const	-1410
bs	-1411
▁name	-1412
▁past	-1413
▁view	-1414
▁States	-1415
▁object	-1416
▁Fr	-1417
▁z	-1418
▁isn	-1419
▁everybody	-1420
▁deep	-1421
▁places	-1422
▁quick	-1423
▁species	-1424
▁completely	-1425
▁decided	-1426
▁became	-1427
▁language	-1428
ush	-1429
▁di	-1430
omes	-1431
▁line	-1432
▁market	-1433
atic	-1434
▁land	-1435
▁tool	-1436
▁though	-1437
ien	-1438
▁learned	-1439
▁Internet	-1440
cing	-1441
ined	-1442
▁somebody	-1443
▁abs	-1444
▁cancer	-1445
▁terr	-1446
▁9	-1447
▁success	-1448
▁education	-1449
ental	-1450
▁stories	-1451
to	-1452
▁Every	-1453
▁experim	-1454
▁At	-1455
▁video	-1456
▁woman	-1457
▁taking	-1458
omet	-1459
▁study	-1460
ision	-1461
ron	-1462
ats	-1463
▁train	-1464
▁America	-1465
▁free	-1466
▁engine	-1467
▁happening	-1468
▁house	-1469
▁Do	-1470
gest	-1471
▁dra	-1472
▁sca	-1473
▁since	-1474
▁students	-1475
▁jo	-1476
▁invest	-1477
▁itself	-1478
ator	-1479
▁gets	-1480
▁exactly	-1481
br	-1482
▁struct	-1483
▁against	-1484
nov	-1485
aster	-1486
▁huge	-1487
▁deal	-1488
▁nature	-1489
▁society	-1490
▁spend	-1491
ane	-1492
rop	-1493
▁animals	-1494
▁ourselves	-1495
dd	-1496
▁dru	-1497
▁stre	-1498
▁pos	-1499
acter	-1500
▁av	-1501
▁questions	-1502
▁sometimes	-1503
▁themselves	-1504
end	-1505
▁mess	-1506
▁meet	-1507
ional	-1508
▁opportun	-1509
itting	-1510
ients	-1511
▁meas	-1512
▁kinds	-1513
▁7	-1514
▁ones	-1515
icult	-1516
▁close	-1517
ogn	-1518
▁universe	-1519
etic	-1520
▁mic	-1521
▁team	-1522
▁company	-1523
▁along	-1524
▁Some	-1525
ctor	-1526
▁8	-1527
▁turns	-1528
ability	-1529
▁dep	-1530
haps	-1531
ocus	-1532
ones	-1533
▁behav	-1534
▁created	-1535
lud	-1536
▁sex	-1537
thers	-1538
▁hours	-1539
▁mother	-1540
...	-1541
▁complex	-1542
ames	-1543
▁prov	-1544
▁worked	-1545
▁couldn	-1546
▁relations	-1547
sy	-1548
att	-1549
▁parent	-1550
▁minutes	-1551
▁mass	-1552
aw	-1553
▁hold	-1554
cc	-1555
iversity	-1556
▁India	-1557
urs	-1558
▁clear	-1559
▁pred	-1560
face	-1561
▁game	-1562
▁God	-1563
▁focus	-1564
▁disease	-1565
▁difficult	-1566
eg	-1567
▁Br	-1568
ium	-1569
▁exist	-1570
▁everyone	-1571
▁oce	-1572
▁wind	-1573
ming	-1574
▁Can	-1575
▁Then	-1576
▁OK	-1577
▁ill	-1578
▁rather	-1579
istic	-1580
▁least	-1581
ature	-1582
▁guys	-1583
▁program	-1584
ples	-1585
▁emp	-1586
▁black	-1587
illions	-1588
▁thousands	-1589
ee	-1590
▁liter	-1591
▁third	-1592
▁bott	-1593
▁innov	-1594
▁instead	-1595
▁others	-1596
ted	-1597
ination	-1598
▁won	-1599
▁arch	-1600
▁fly	-1601
▁mot	-1602
▁gave	-1603
▁jour	-1604
▁lots	-1605
▁miss	-1606
iqu	-1607
ibly	-1608
▁York	-1609
▁norm	-1610
iol	-1611
ented	-1612
▁Ar	-1613
▁early	-1614
▁happy	-1615
ither	-1616
▁speak	-1617
▁listen	-1618
ially	-1619
▁sens	-1620
▁rad	-1621
▁—	-1622
ale	-1623
▁var	-1624
▁field	-1625
cul	-1626
wards	-1627
▁aud	-1628
▁step	-1629
▁outside	-1630
▁math	-1631
▁taken	-1632
▁natural	-1633
orth	-1634
▁death	-1635
▁extra	-1636
▁amount	-1637
▁changed	-1638
▁simp	-1639
▁systems	-1640
▁difference	-1641
▁bab	-1642
▁pot	-1643
▁bro	-1644
▁leg	-1645
ential	-1646
▁fail	-1647
erv	-1648
aking	-1649
olved	-1650
▁cir	-1651
▁dig	-1652
▁recent	-1653
▁effect	-1654
not	-1655
ider	-1656
app	-1657
▁network	-1658
▁record	-1659
▁Euro	-1660
▁China	-1661
ared	-1662
utions	-1663
▁Pe	-1664
ological	-1665
▁interact	-1666
▁shap	-1667
▁relationship	-1668
▁da	-1669
▁American	-1670
▁middle	-1671
▁hy	-1672
▁colle	-1673
▁leave	-1674
uss	-1675
▁saf	-1676
▁support	-1677
▁learning	-1678
▁...	-1679
▁Okay	-1680
▁machine	-1681
▁ve	-1682
▁typ	-1683
▁Sh	-1684
▁lim	-1685
The	-1686
ased	-1687
vered	-1688
▁dream	-1689
▁ident	-1690
els	-1691
▁es	-1692
ully	-1693
▁oper	-1694
fect	-1695
ides	-1696
▁cut	-1697
▁cities	-1698
▁ant	-1699
▁turned	-1700
▁behind	-1701
era	-1702
▁seven	-1703
▁rev	-1704
elt	-1705
inary	-1706
▁red	-1707
▁hands	-1708
▁eyes	-1709
▁beginning	-1710
▁given	-1711
cious	-1712
olute	-1713
▁area	-1714
ret	-1715
iving	-1716
▁century	-1717
▁explain	-1718
▁yourself	-1719
▁pick	-1720
▁communic	-1721
▁short	-1722
▁takes	-1723
▁Europe	-1724
▁seeing	-1725
▁local	-1726
verage	-1727
rew	-1728
▁common	-1729
▁finally	-1730
▁sent	-1731
▁easy	-1732
▁Chr	-1733
▁reach	-1734
ges	-1735
▁del	-1736
▁low	-1737
▁perhaps	-1738
aring	-1739
▁green	-1740
▁On	-1741
▁needed	-1742
lock	-1743
gen	-1744
▁break	-1745
▁opt	-1746
▁access	-1747
▁Man	-1748
▁fre	-1749
▁sym	-1750
▁behavior	-1751
sych	-1752
▁terms	-1753
▁culture	-1754
▁population	-1755
year	-1756
▁began	-1757
▁fish	-1758
▁intell	-1759
▁moving	-1760
▁reality	-1761
inal	-1762
▁Eng	-1763
▁companies	-1764
ipp	-1765
itions	-1766
ison	-1767
▁father	-1768
▁during	-1769
▁pattern	-1770
▁realized	-1771
ney	-1772
▁To	-1773
astic	-1774
▁viol	-1775
▁super	-1776
▁Not	-1777
ove	-1778
reme	-1779
▁oil	-1780
▁tot	-1781
▁needs	-1782
▁simply	-1783
▁disc	-1784
▁stay	-1785
idence	-1786
▁impro	-1787
jor	-1788
▁12	-1789
itch	-1790
▁non	-1791
▁longer	-1792
ery	-1793
▁serv	-1794
▁image	-1795
▁powerful	-1796
▁emot	-1797
▁obvious	-1798
ern	-1799
ump	-1800
▁week	-1801
▁18	-1802
▁cannot	-1803
▁surv	-1804
▁trad	-1805
▁parts	-1806
▁tem	-1807
▁chem	-1808
▁friend	-1809
NA	-1810
▁occ	-1811
▁felt	-1812
▁famil	-1813
▁phone	-1814
▁paper	-1815
▁includ	-1816
▁wonderful	-1817
▁eight	-1818
▁absolute	-1819
itect	-1820
▁tried	-1821
▁repres	-1822
▁parents	-1823
ode	-1824
ised	-1825
▁psych	-1826
▁event	-1827
▁Just	-1828
▁perfect	-1829
▁size	-1830
▁perform	-1831
▁sun	-1832
▁major	-1833
gle	-1834
▁ge	-1835
hood	-1836
fully	-1837
▁insp	-1838
lease	-1839
ero	-1840
▁ess	-1841
▁special	-1842
ton	-1843
▁wall	-1844
▁grand	-1845
▁press	-1846
▁expect	-1847
▁arg	-1848
rought	-1849
ource	-1850
port	-1851
rodu	-1852
▁approach	-1853
ey	-1854
▁poor	-1855
▁media	-1856
▁whatever	-1857
▁pract	-1858
bo	-1859
▁♪	-1860
osp	-1861
▁priv	-1862
▁quickly	-1863
▁40	-1864
▁fall	-1865
▁blood	-1866
▁surpr	-1867
▁squ	-1868
ibility	-1869
▁feed	-1870
▁situ	-1871
Well	-1872
▁dark	-1873
▁spent	-1874
ony	-1875
▁emb	-1876
ources	-1877
▁People	-1878
▁buy	-1879
ged	-1880
ledge	-1881
▁economic	-1882
▁opportunity	-1883
crib	-1884
▁present	-1885
ising	-1886
▁robot	-1887
avor	-1888
ived	-1889
▁strong	-1890
▁interested	-1891
▁requ	-1892
▁enc	-1893
▁gone	-1894
▁weeks	-1895
ards	-1896
▁protect	-1897
▁humans	-1898
▁personal	-1899
ax	-1900
▁conv	-1901
▁yes	-1902
▁ground	-1903
▁scale	-1904
zy	-1905
ilar	-1906
▁ocean	-1907
▁direct	-1908
▁recogn	-1909
▁measure	-1910
▁architect	-1911
unt	-1912
▁ability	-1913
▁changes	-1914
▁political	-1915
▁key	-1916
oph	-1917
▁civ	-1918
▁near	-1919
▁fight	-1920
ift	-1921
▁risk	-1922
▁CA	-1923
▁Tw	-1924
▁growth	-1925
▁travel	-1926
▁sitting	-1927
▁known	-1928
▁eat	-1929
ators	-1930
▁fear	-1931
▁vers	-1932
izing	-1933
room	-1934
orld	-1935
bor	-1936
▁consum	-1937
▁blue	-1938
ouch	-1939
▁leaders	-1940
▁either	-1941
▁May	-1942
▁mult	-1943
▁Right	-1944
ains	-1945
▁sum	-1946
▁impact	-1947
▁predict	-1948
▁challenge	-1949
rent	-1950
▁extreme	-1951
▁dest	-1952
cially	-1953
oy	-1954
▁Our	-1955
▁lost	-1956
▁intern	-1957
▁shows	-1958
▁economy	-1959
▁morning	-1960
lt	-1961
oh	-1962
▁physical	-1963
▁technolog	-1964
ler	-1965
▁mov	-1966
▁obs	-1967
▁write	-1968
▁surface	-1969
▁cy	-1970
▁send	-1971
▁respons	-1972
urb	-1973
uth	-1974
▁ap	-1975
ills	-1976
▁climate	-1977
iny	-1978
▁DNA	-1979
anger	-1980
You	-1981
▁wouldn	-1982
▁cool	-1983
▁value	-1984
▁evolution	-1985
▁incredible	-1986
▁feet	-1987
▁democ	-1988
▁feeling	-1989
▁caus	-1990
▁white	-1991
▁structure	-1992
▁photograph	-1993
▁based	-1994
▁average	-1995
lect	-1996
ral	-1997
What	-1998
▁har	-1999
▁born	-2000
▁animal	-2001
▁cal	-2002
▁orig	-2003
▁areas	-2004
▁neigh	-2005
sh	-2006
▁win	-2007
▁brought	-2008
entially	-2009
▁fast	-2010
ateg	-2011
▁post	-2012
▁patients	-2013
ales	-2014
ument	-2015
▁comb	-2016
▁draw	-2017
▁nice	-2018
▁micro	-2019
amp	-2020
▁growing	-2021
ows	-2022
▁redu	-2023
▁hundreds	-2024
▁25	-2025
dden	-2026
▁mar	-2027
▁pull	-2028
▁anal	-2029
▁indust	-2030
▁numbers	-2031
oll	-2032
▁sudden	-2033
▁box	-2034
▁film	-2035
▁bottom	-2036
ule	-2037
▁soft	-2038
ustain	-2039
▁realize	-2040
ole	-2041
▁foot	-2042
▁scientists	-2043
erm	-2044
▁profess	-2045
chie	-2046
com	-2047
▁die	-2048
▁hor	-2049
▁bene	-2050
▁alone	-2051
▁attention	-2052
▁medic	-2053
▁wrote	-2054
▁literally	-2055
▁experiment	-2056
of	-2057
▁understanding	-2058
vent	-2059
▁slow	-2060
ression	-2061
cl	-2062
▁vol	-2063
▁images	-2064
eed	-2065
hor	-2066
▁pur	-2067
▁knowledge	-2068
ified	-2069
▁prin	-2070
▁ste	-2071
▁serious	-2072
ug	-2073
▁mole	-2074
▁deg	-2075
▁seems	-2076
▁starting	-2077
loy	-2078
▁color	-2079
ensive	-2080
▁technologies	-2081
ned	-2082
ored	-2083
▁sle	-2084
▁circ	-2085
▁Z	-2086
▁favor	-2087
ging	-2088
▁meaning	-2089
acy	-2090
▁main	-2091
ext	-2092
▁hosp	-2093
▁fundam	-2094
▁books	-2095
▁forward	-2096
▁running	-2097
▁text	-2098
▁prom	-2099
▁instit	-2100
cr	-2101
lu	-2102
▁ast	-2103
▁ball	-2104
▁South	-2105
▁miles	-2106
▁giving	-2107
▁movement	-2108
▁fac	-2109
▁stra	-2110
▁civil	-2111
▁tools	-2112
▁telling	-2113
▁millions	-2114
ny	-2115
▁World	-2116
ev	-2117
▁flo	-2118
▁sea	-2119
aged	-2120
▁spread	-2121
▁convers	-2122
eng	-2123
▁map	-2124
▁Yeah	-2125
▁dead	-2126
▁polic	-2127
▁development	-2128
▁developed	-2129
oose	-2130
▁rock	-2131
▁guess	-2132
iod	-2133
ption	-2134
▁similar	-2135
bon	-2136
▁crit	-2137
▁soon	-2138
▁online	-2139
▁describ	-2140
por	-2141
head	-2142
▁sho	-2143
▁road	-2144
▁collect	-2145
▁experien	-2146
ped	-2147
▁compet	-2148
oon	-2149
▁anyone	-2150
▁absolutely	-2151
▁path	-2152
▁audience	-2153
par	-2154
chan	-2155
▁vill	-2156
▁suff	-2157
▁force	-2158
▁issue	-2159
▁touch	-2160
▁achie	-2161
▁thank	-2162
▁center	-2163
▁talked	-2164
▁theory	-2165
ades	-2166
▁hot	-2167
▁depe	-2168
▁worth	-2169
▁intellig	-2170
▁fu	-2171
▁ice	-2172
ggest	-2173
▁sell	-2174
▁proper	-2175
by	-2176
bit	-2177
amed	-2178
iant	-2179
▁gives	-2180
▁trust	-2181
ilities	-2182
▁chance	-2183
▁forest	-2184
▁concept	-2185
▁hon	-2186
▁relig	-2187
▁stage	-2188
pecially	-2189
▁suggest	-2190
▁electric	-2191
omen	-2192
▁avail	-2193
▁tradition	-2194
▁sil	-2195
▁period	-2196
▁bra	-2197
racy	-2198
▁tele	-2199
▁fire	-2200
▁girls	-2201
▁arr	-2202
▁rul	-2203
▁issues	-2204
oud	-2205
▁sn	-2206
▁With	-2207
▁attack	-2208
▁visual	-2209
▁current	-2210
▁playing	-2211
▁sustain	-2212
ai	-2213
▁normal	-2214
▁subject	-2215
ique	-2216
▁showed	-2217
▁solution	-2218
▁vac	-2219
ances	-2220
▁English	-2221
Th	-2222
▁lif	-2223
▁solve	-2224
ished	-2225
▁cars	-2226
▁rate	-2227
▁truth	-2228
▁among	-2229
▁track	-2230
▁creating	-2231
▁industry	-2232
▁fem	-2233
▁camp	-2234
▁stat	-2235
▁type	-2236
▁recently	-2237
▁aren	-2238
▁react	-2239
ency	-2240
▁est	-2241
▁By	-2242
▁seem	-2243
▁benef	-2244
▁situation	-2245
asing	-2246
oices	-2247
ences	-2248
▁plant	-2249
▁modern	-2250
▁discovered	-2251
pect	-2252
iet	-2253
▁voice	-2254
asc	-2255
▁Goo	-2256
▁lay	-2257
▁developing	-2258
▁Am	-2259
ites	-2260
urity	-2261
▁capital	-2262
imens	-2263
▁prop	-2264
▁sever	-2265
▁asking	-2266
▁especially	-2267
▁innovation	-2268
▁reasons	-2269
▁resources	-2270
yond	-2271
▁knows	-2272
▁choice	-2273
phere	-2274
▁produce	-2275
▁available	-2276
▁conscious	-2277
ival	-2278
like	-2279
▁designed	-2280
itiz	-2281
▁ult	-2282
▁sold	-2283
▁tiny	-2284
▁er	-2285
▁arm	-2286
▁emerg	-2287
▁smart	-2288
apt	-2289
▁cop	-2290
▁save	-2291
▁evidence	-2292
iction	-2293
ify	-2294
▁becomes	-2295
▁computers	-2296
▁drive	-2297
▁eye	-2298
▁fur	-2299
▁imm	-2300
▁aw	-2301
▁haven	-2302
▁shape	-2303
▁mechan	-2304
▁patient	-2305
▁pictures	-2306
ung	-2307
▁clos	-2308
▁several	-2309
▁song	-2310
▁report	-2311
▁search	-2312
▁journey	-2313
▁changing	-2314
▁involved	-2315
▁Ph	-2316
arily	-2317
▁bigger	-2318
▁mathem	-2319
▁medical	-2320
▁transform	-2321
▁dom	-2322
abor	-2323
▁baby	-2324
assion	-2325
▁sleep	-2326
▁digital	-2327
lear	-2328
▁groups	-2329
▁generation	-2330
ister	-2331
ishing	-2332
▁table	-2333
▁likely	-2334
ik	-2335
▁danger	-2336
▁street	-2337
▁incredibly	-2338
▁Sp	-2339
▁199	-2340
▁Inst	-2341
▁Google	-2342
▁beyond	-2343
▁putting	-2344
ude	-2345
▁dou	-2346
▁poll	-2347
▁bar	-2348
▁Yes	-2349
▁safe	-2350
pid	-2351
pre	-2352
▁towards	-2353
▁din	-2354
▁sat	-2355
▁unf	-2356
▁First	-2357
▁lived	-2358
ma	-2359
fort	-2360
▁citiz	-2361
▁necess	-2362
▁Chinese	-2363
ns	-2364
▁flow	-2365
▁except	-2366
oms	-2367
▁De	-2368
istan	-2369
erence	-2370
wh	-2371
book	-2372
come	-2373
light	-2374
▁message	-2375
▁effective	-2376
▁basic	-2377
▁communities	-2378
▁60	-2379
rest	-2380
▁flu	-2381
oring	-2382
▁rain	-2383
▁solar	-2384
▁writing	-2385
▁extraord	-2386
▁fa	-2387
▁rece	-2388
▁bed	-2389
▁lea	-2390
▁died	-2391
▁mount	-2392
▁carbon	-2393
▁function	-2394
▁potential	-2395
▁ep	-2396
▁speed	-2397
lict	-2398
ously	-2399
▁breat	-2400
▁defin	-2401
▁mob	-2402
▁nine	-2403
▁201	-2404
▁stru	-2405
▁North	-2406
▁neighbor	-2407
ips	-2408
▁drug	-2409
▁drugs	-2410
▁fair	-2411
ires	-2412
▁Com	-2413
▁block	-2414
▁sounds	-2415
▁violence	-2416
▁clean	-2417
Oh	-2418
▁ce	-2419
▁device	-2420
▁Oh	-2421
▁bird	-2422
▁tend	-2423
▁games	-2424
▁schools	-2425
▁starts	-2426
ief	-2427
vert	-2428
ration	-2429
▁anybody	-2430
medi	-2431
▁software	-2432
50	-2433
uly	-2434
pped	-2435
▁national	-2436
▁character	-2437
▁Maybe	-2438
nam	-2439
▁After	-2440
▁activ	-2441
▁camera	-2442
▁screen	-2443
▁examples	-2444
▁log	-2445
igher	-2446
▁rules	-2447
▁Im	-2448
▁af	-2449
▁certainly	-2450
▁revolution	-2451
▁wish	-2452
▁rights	-2453
▁particularly	-2454
usion	-2455
▁office	-2456
▁biggest	-2457
ran	-2458
irth	-2459
ctors	-2460
▁bacter	-2461
▁princi	-2462
▁showing	-2463
▁walking	-2464
rast	-2465
▁neur	-2466
▁rich	-2467
▁action	-2468
▁account	-2469
idge	-2470
ressed	-2471
▁higher	-2472
▁return	-2473
▁general	-2474
▁particip	-2475
ask	-2476
▁code	-2477
ners	-2478
onse	-2479
▁boy	-2480
▁hit	-2481
▁nuc	-2482
▁okay	-2483
▁onto	-2484
umb	-2485
▁son	-2486
▁quality	-2487
▁neg	-2488
▁virt	-2489
▁moved	-2490
▁peace	-2491
oun	-2492
▁crazy	-2493
▁largest	-2494
▁Re	-2495
▁virus	-2496
▁door	-2497
▁ready	-2498
iar	-2499
view	-2500
▁cross	-2501
▁totally	-2502
ughter	-2503
▁compassion	-2504
▁scientific	-2505
une	-2506
▁adm	-2507
▁cause	-2508
tend	-2509
more	-2510
isions	-2511
▁movie	-2512
▁memory	-2513
▁creative	-2514
uit	-2515
antly	-2516
▁prim	-2517
▁exciting	-2518
how	-2519
oke	-2520
▁skin	-2521
▁materials	-2522
▁obviously	-2523
▁Of	-2524
ground	-2525
▁represent	-2526
▁ec	-2527
itary	-2528
▁effic	-2529
▁vision	-2530
▁further	-2531
▁div	-2532
▁fix	-2533
▁syn	-2534
ought	-2535
▁cris	-2536
▁Where	-2537
▁choose	-2538
▁threat	-2539
▁Pr	-2540
▁aware	-2541
▁meant	-2542
▁plants	-2543
▁response	-2544
▁pa	-2545
▁apart	-2546
▁wants	-2547
▁chemical	-2548
cient	-2549
▁diag	-2550
▁marr	-2551
▁Pro	-2552
▁dro	-2553
▁detail	-2554
▁results	-2555
▁favorite	-2556
▁fundamental	-2557
▁individuals	-2558
for	-2559
▁80	-2560
▁rele	-2561
licated	-2562
▁nobody	-2563
▁teachers	-2564
▁extremely	-2565
put	-2566
ores	-2567
▁prison	-2568
▁progress	-2569
▁push	-2570
▁birth	-2571
▁watching	-2572
eter	-2573
▁role	-2574
▁Bra	-2575
▁projects	-2576
▁grew	-2577
xy	-2578
nal	-2579
osphere	-2580
▁supposed	-2581
▁11	-2582
▁Who	-2583
verty	-2584
▁colleag	-2585
▁everywhere	-2586
▁led	-2587
iding	-2588
▁capt	-2589
▁context	-2590
▁passion	-2591
▁eventually	-2592
aur	-2593
▁Ge	-2594
▁link	-2595
▁named	-2596
▁introdu	-2597
▁student	-2598
▁happiness	-2599
ze	-2600
▁tar	-2601
▁meth	-2602
▁print	-2603
akes	-2604
▁carry	-2605
▁waste	-2606
▁African	-2607
▁gas	-2608
itten	-2609
pective	-2610
▁models	-2611
▁allowed	-2612
▁hospital	-2613
▁security	-2614
imp	-2615
ina	-2616
▁farm	-2617
▁adult	-2618
▁Most	-2619
iation	-2620
▁stick	-2621
▁worse	-2622
▁extraordinary	-2623
▁Cal	-2624
▁separ	-2625
▁objects	-2626
icle	-2627
▁Any	-2628
oming	-2629
▁Even	-2630
▁goal	-2631
ruction	-2632
▁immedi	-2633
▁connected	-2634
eth	-2635
▁pu	-2636
▁Tod	-2637
▁check	-2638
▁accept	-2639
▁notice	-2640
▁improve	-2641
▁consider	-2642
▁thousand	-2643
edom	-2644
▁conc	-2645
▁magn	-2646
▁tree	-2647
▁trees	-2648
▁faster	-2649
▁discover	-2650
lex	-2651
erve	-2652
▁fill	-2653
▁continue	-2654
▁buildings	-2655
odies	-2656
▁Brit	-2657
▁shown	-2658
▁tells	-2659
▁conflict	-2660
▁including	-2661
We	-2662
apan	-2663
▁jobs	-2664
▁terror	-2665
▁signific	-2666
▁mis	-2667
▁earl	-2668
▁positive	-2669
▁minds	-2670
▁16	-2671
▁Joh	-2672
▁War	-2673
▁bank	-2674
▁wife	-2675
▁bunch	-2676
▁cases	-2677
.,	-2678
anc	-2679
ids	-2680
ured	-2681
▁pen	-2682
▁spir	-2683
ossible	-2684
▁poverty	-2685
▁strateg	-2686
ana	-2687
▁clin	-2688
▁sequ	-2689
▁trial	-2690
▁taught	-2691
▁families	-2692
▁essentially	-2693
ims	-2694
▁Japan	-2695
ffic	-2696
▁deb	-2697
▁gal	-2698
▁depend	-2699
▁transl	-2700
▁discuss	-2701
conds	-2702
ission	-2703
▁assum	-2704
▁launch	-2705
mend	-2706
▁West	-2707
▁robots	-2708
rage	-2709
ulate	-2710
▁above	-2711
▁killed	-2712
▁increase	-2713
▁suddenly	-2714
ops	-2715
▁fra	-2716
▁village	-2717
bol	-2718
urban	-2719
▁late	-2720
▁graph	-2721
▁standing	-2722
▁democracy	-2723
▁somewhere	-2724
▁conversation	-2725
▁Today	-2726
▁finan	-2727
▁genes	-2728
▁doctor	-2729
▁14	-2730
▁labor	-2731
▁disapp	-2732
▁source	-2733
▁temper	-2734
▁collabor	-2735
▁decision	-2736
▁dam	-2737
▁mine	-2738
▁mist	-2739
▁allows	-2740
▁concer	-2741
▁wealth	-2742
ortunately	-2743
▁fing	-2744
▁influ	-2745
▁affect	-2746
▁college	-2747
▁medicine	-2748
ounds	-2749
▁card	-2750
▁appear	-2751
▁brains	-2752
▁finding	-2753
the	-2754
iers	-2755
iger	-2756
▁fant	-2757
▁Those	-2758
▁ended	-2759
▁truly	-2760
▁repl	-2761
▁Chris	-2762
▁police	-2763
▁remark	-2764
▁conditions	-2765
▁complicated	-2766
ech	-2767
▁17	-2768
cape	-2769
▁lose	-2770
▁excited	-2771
▁teacher	-2772
▁impossible	-2773
la	-2774
▁luck	-2775
▁crisis	-2776
▁larger	-2777
▁minute	-2778
izations	-2779
men	-2780
▁wait	-2781
▁achieve	-2782
▁activity	-2783
▁bom	-2784
▁older	-2785
▁sorts	-2786
▁mathemat	-2787
atory	-2788
▁webs	-2789
ror	-2790
ster	-2791
▁Don	-2792
ining	-2793
▁successful	-2794
▁Le	-2795
let	-2796
ued	-2797
▁fine	-2798
others	-2799
though	-2800
▁citizens	-2801
▁perspective	-2802
!"	-2803
▁blind	-2804
▁forms	-2805
▁Christ	-2806
▁indeed	-2807
▁manage	-2808
▁univers	-2809
ipt	-2810
rate	-2811
▁enj	-2812
▁cold	-2813
▁site	-2814
▁position	-2815
isms	-2816
rams	-2817
▁bur	-2818
▁kil	-2819
▁kept	-2820
▁pack	-2821
estern	-2822
▁lands	-2823
▁straight	-2824
▁dy	-2825
▁phen	-2826
▁pieces	-2827
▁publish	-2828
▁usually	-2829
rap	-2830
cise	-2831
fact	-2832
inct	-2833
useum	-2834
▁phil	-2835
▁star	-2836
inated	-2837
▁lower	-2838
▁port	-2839
▁corre	-2840
▁afford	-2841
▁products	-2842
mb	-2843
▁burn	-2844
▁fasc	-2845
nces	-2846
▁sky	-2847
▁Somet	-2848
▁stars	-2849
▁policy	-2850
▁nuclear	-2851
ama	-2852
▁cat	-2853
▁freedom	-2854
▁international	-2855
▁fram	-2856
▁points	-2857
▁anymore	-2858
▁mention	-2859
▁reading	-2860
▁bal	-2861
▁Look	-2862
▁wild	-2863
▁author	-2864
▁studies	-2865
▁traditional	-2866
urt	-2867
ring	-2868
▁contrib	-2869
▁Q	-2870
▁Are	-2871
▁series	-2872
▁specific	-2873
▁training	-2874
▁decisions	-2875
soci	-2876
▁Like	-2877
▁effort	-2878
▁TV	-2879
▁Car	-2880
▁purp	-2881
▁earth	-2882
▁throw	-2883
▁somehow	-2884
amm	-2885
▁cart	-2886
▁lines	-2887
▁service	-2888
onst	-2889
▁ign	-2890
▁swe	-2891
▁workers	-2892
▁military	-2893
▁organization	-2894
IV	-2895
▁doc	-2896
▁galax	-2897
▁beings	-2898
▁square	-2899
▁hop	-2900
▁heav	-2901
▁please	-2902
▁phenomen	-2903
▁electricity	-2904
time	-2905
▁jud	-2906
▁term	-2907
▁town	-2908
▁trick	-2909
▁distrib	-2910
▁massive	-2911
▁bacteria	-2912
▁solutions	-2913
ays	-2914
rad	-2915
▁Go	-2916
iven	-2917
sequ	-2918
▁alg	-2919
agine	-2920
▁loved	-2921
zz	-2922
rom	-2923
▁weren	-2924
▁smaller	-2925
enn	-2926
ugh	-2927
▁HIV	-2928
▁sou	-2929
▁upon	-2930
▁zero	-2931
▁moral	-2932
▁patterns	-2933
▁roll	-2934
▁enorm	-2935
▁prote	-2936
▁bodies	-2937
ologists	-2938
▁address	-2939
▁healthy	-2940
▁seconds	-2941
▁dangerous	-2942
No	-2943
▁Sw	-2944
▁198	-2945
ently	-2946
▁page	-2947
▁quant	-2948
imately	-2949
▁engage	-2950
▁region	-2951
▁biology	-2952
▁13	-2953
▁career	-2954
▁employ	-2955
▁unique	-2956
▁intelligence	-2957
▁21	-2958
▁Ab	-2959
epend	-2960
thern	-2961
▁sand	-2962
▁yeah	-2963
▁strugg	-2964
▁written	-2965
▁recognize	-2966
dom	-2967
▁oxy	-2968
aging	-2969
▁Afgh	-2970
▁alive	-2971
itation	-2972
▁actual	-2973
▁detect	-2974
▁provide	-2975
▁respond	-2976
▁becoming	-2977
▁machines	-2978
▁urban	-2979
▁remind	-2980
▁slight	-2981
▁architecture	-2982
eral	-2983
sect	-2984
▁thr	-2985
▁magic	-2986
▁secret	-2987
▁version	-2988
▁critical	-2989
▁Americans	-2990
▁treatment	-2991
fer	-2992
imb	-2993
▁cloud	-2994
▁skills	-2995
oint	-2996
▁board	-2997
▁forth	-2998
▁increasing	-2999
go	-3000
rab	-3001
▁price	-3002
▁private	-3003
▁Ag	-3004
ping	-3005
▁Act	-3006
▁whe	-3007
▁vacc	-3008
ashing	-3009
▁physics	-3010
▁waiting	-3011
▁dog	-3012
▁eth	-3013
▁sal	-3014
▁cook	-3015
▁willing	-3016
▁greatest	-3017
oid	-3018
▁store	-3019
▁worry	-3020
ustrial	-3021
▁content	-3022
▁earlier	-3023
▁strange	-3024
▁expensive	-3025
▁governments	-3026
▁neighborhood	-3027
▁web	-3028
▁Mars	-3029
▁shot	-3030
▁costs	-3031
▁famous	-3032
▁comfort	-3033
▁mental	-3034
▁anywhere	-3035
▁diseases	-3036
rum	-3037
erman	-3038
▁vict	-3039
▁molec	-3040
inating	-3041
▁Afghan	-3042
back	-3043
▁trou	-3044
▁drink	-3045
▁doctors	-3046
▁exh	-3047
ained	-3048
aries	-3049
▁desp	-3050
▁offic	-3051
▁choices	-3052
▁listening	-3053
aly	-3054
ceed	-3055
▁Mar	-3056
acity	-3057
erson	-3058
▁coun	-3059
▁jump	-3060
lebr	-3061
itude	-3062
▁laws	-3063
▁occur	-3064
▁spect	-3065
oles	-3066
ried	-3067
▁cover	-3068
▁match	-3069
▁determ	-3070
▁challenges	-3071
ball	-3072
iced	-3073
▁ann	-3074
▁rid	-3075
▁park	-3076
▁clearly	-3077
▁explore	-3078
▁greater	-3079
▁himself	-3080
▁institutions	-3081
iti	-3082
cies	-3083
▁cry	-3084
▁Which	-3085
▁method	-3086
▁mobile	-3087
▁walked	-3088
▁painting	-3089
▁direction	-3090
▁transport	-3091
oty	-3092
▁lad	-3093
▁catch	-3094
▁floor	-3095
▁weight	-3096
▁Another	-3097
▁Imagine	-3098
▁genetic	-3099
▁services	-3100
▁immediately	-3101
0,	-3102
ube	-3103
ables	-3104
atives	-3105
▁final	-3106
▁calcul	-3107
▁X	-3108
▁Ad	-3109
eless	-3110
▁City	-3111
▁East	-3112
▁cust	-3113
▁glass	-3114
▁throughout	-3115
resh	-3116
▁ran	-3117
orrow	-3118
▁apply	-3119
▁oppos	-3120
▁types	-3121
▁plastic	-3122
▁familiar	-3123
SA	-3124
ndom	-3125
▁pan	-3126
iling	-3127
▁gradu	-3128
▁decade	-3129
▁multip	-3130
▁driving	-3131
iest	-3132
▁fit	-3133
attle	-3134
▁optim	-3135
▁saving	-3136
▁humanity	-3137
ulf	-3138
▁Bl	-3139
rees	-3140
▁veh	-3141
▁celebr	-3142
▁University	-3143
airs	-3144
▁Ste	-3145
itted	-3146
▁email	-3147
▁levels	-3148
▁societ	-3149
▁pressure	-3150
▁financial	-3151
mic	-3152
▁atm	-3153
▁sam	-3154
▁Cent	-3155
▁crow	-3156
▁hero	-3157
istics	-3158
▁range	-3159
▁random	-3160
▁neurons	-3161
▁teaching	-3162
yr	-3163
met	-3164
▁Ex	-3165
▁fuel	-3166
▁helped	-3167
▁decades	-3168
▁environmental	-3169
uted	-3170
▁Har	-3171
▁autom	-3172
▁integ	-3173
▁income	-3174
▁meeting	-3175
▁website	-3176
▁programs	-3177
▁active	-3178
▁female	-3179
▁fantastic	-3180
▁ple	-3181
▁prep	-3182
▁broad	-3183
▁beauty	-3184
▁honest	-3185
▁values	-3186
atically	-3187
▁consequ	-3188
▁respect	-3189
▁terrible	-3190
orry	-3191
▁Isl	-3192
▁ord	-3193
▁legs	-3194
▁laugh	-3195
▁forget	-3196
▁90	-3197
▁hous	-3198
▁vari	-3199
▁ahead	-3200
▁encou	-3201
▁enjoy	-3202
▁interview	-3203
na	-3204
unk	-3205
▁Ken	-3206
▁surger	-3207
▁practice	-3208
iot	-3209
ises	-3210
▁male	-3211
rastruct	-3212
▁therefore	-3213
▁connection	-3214
▁production	-3215
ica	-3216
udd	-3217
ches	-3218
▁Mus	-3219
▁race	-3220
▁rise	-3221
▁spirit	-3222
▁popular	-3223
▁politics	-3224
▁engineering	-3225
▁Many	-3226
vision	-3227
▁German	-3228
▁decide	-3229
▁various	-3230
▁colleagues	-3231
▁Cl	-3232
cope	-3233
▁500	-3234
▁dram	-3235
▁worst	-3236
▁physic	-3237
bb	-3238
used	-3239
ystem	-3240
▁hair	-3241
▁following	-3242
ils	-3243
▁Two	-3244
▁motiv	-3245
▁nation	-3246
▁Western	-3247
▁effects	-3248
▁journal	-3249
▁although	-3250
▁standard	-3251
wise	-3252
antic	-3253
▁Second	-3254
▁stopped	-3255
▁remarkable	-3256
▁performance	-3257
pro	-3258
▁dynam	-3259
▁associ	-3260
▁useful	-3261
▁streets	-3262
▁daughter	-3263
▁invented	-3264
▁understood	-3265
▁consciousness	-3266
ec	-3267
ox	-3268
▁i	-3269
ondon	-3270
▁surround	-3271
itor	-3272
rated	-3273
ologist	-3274
▁shared	-3275
▁speech	-3276
▁enormous	-3277
▁instance	-3278
▁infrastruct	-3279
iles	-3280
▁tiss	-3281
▁London	-3282
▁destro	-3283
▁relative	-3284
▁atmosphere	-3285
zil	-3286
aign	-3287
load	-3288
prene	-3289
reprene	-3290
ement	-3291
ornia	-3292
▁weap	-3293
▁condition	-3294
▁collective	-3295
ios	-3296
▁70	-3297
▁base	-3298
▁uses	-3299
▁Calif	-3300
▁diagn	-3301
▁Brazil	-3302
▁babies	-3303
▁24	-3304
osing	-3305
▁drop	-3306
▁organizations	-3307
key	-3308
▁Per	-3309
ufact	-3310
▁John	-3311
ricult	-3312
▁flying	-3313
▁invent	-3314
▁mostly	-3315
▁mal	-3316
▁Cong	-3317
▁raise	-3318
▁whose	-3319
▁summer	-3320
itter	-3321
▁gent	-3322
▁surve	-3323
▁demonst	-3324
▁directly	-3325
▁relationships	-3326
▁Austr	-3327
▁Think	-3328
▁slide	-3329
▁supply	-3330
ervation	-3331
▁survive	-3332
▁California	-3333
▁temperature	-3334
raid	-3335
▁Sch	-3336
▁aid	-3337
▁nut	-3338
▁tax	-3339
inate	-3340
iring	-3341
▁Face	-3342
▁express	-3343
▁possibly	-3344
equ	-3345
pes	-3346
▁ban	-3347
▁scr	-3348
board	-3349
▁Your	-3350
▁total	-3351
▁altern	-3352
▁slightly	-3353
uct	-3354
▁sad	-3355
▁sus	-3356
▁yell	-3357
▁below	-3358
▁smell	-3359
▁afraid	-3360
▁artist	-3361
▁commer	-3362
▁states	-3363
▁symbol	-3364
▁Instead	-3365
▁creativity	-3366
olve	-3367
▁task	-3368
▁anyway	-3369
▁purpose	-3370
gy	-3371
ray	-3372
iate	-3373
▁His	-3374
▁scan	-3375
▁trade	-3376
▁belief	-3377
▁communicate	-3378
now	-3379
▁197	-3380
▁pig	-3381
anced	-3382
▁From	-3383
▁heat	-3384
▁sick	-3385
▁displ	-3386
▁radio	-3387
▁custom	-3388
▁reflect	-3389
▁capacity	-3390
▁societies	-3391
▁Afghanistan	-3392
iber	-3393
▁gene	-3394
▁tens	-3395
▁easily	-3396
ya	-3397
How	-3398
▁Dr	-3399
▁ir	-3400
▁mut	-3401
▁causes	-3402
▁electron	-3403
▁profound	-3404
▁television	-3405
▁legal	-3406
▁meters	-3407
▁switch	-3408
▁prevent	-3409
lications	-3410
▁manufact	-3411
▁entreprene	-3412
▁dad	-3413
arter	-3414
▁tremend	-3415
▁cultural	-3416
▁identity	-3417
▁infrastructure	-3418
yle	-3419
order	-3420
▁paid	-3421
▁speaking	-3422
Why	-3423
cks	-3424
vest	-3425
▁hus	-3426
▁doub	-3427
▁shark	-3428
▁insect	-3429
▁stress	-3430
▁members	-3431
▁biological	-3432
ky	-3433
cles	-3434
ened	-3435
water	-3436
▁loss	-3437
▁bought	-3438
▁agricult	-3439
yl	-3440
ira	-3441
nel	-3442
arian	-3443
▁swim	-3444
▁funny	-3445
▁gentle	-3446
▁philos	-3447
▁campaign	-3448
▁experiments	-3449
▁significant	-3450
0.	-3451
arm	-3452
band	-3453
▁300	-3454
▁hyd	-3455
▁mix	-3456
▁boys	-3457
cience	-3458
▁shock	-3459
▁dimens	-3460
▁sustainable	-3461
▁responsibility	-3462
▁Pl	-3463
▁et	-3464
uing	-3465
▁ang	-3466
▁rule	-3467
▁vast	-3468
▁central	-3469
▁National	-3470
▁experiences	-3471
af	-3472
wood	-3473
▁San	-3474
▁corner	-3475
▁Facebook	-3476
▁controll	-3477
5,	-3478
▁ut	-3479
oper	-3480
▁Dav	-3481
▁Arab	-3482
▁mamm	-3483
▁dying	-3484
▁twice	-3485
▁histor	-3486
▁played	-3487
▁answers	-3488
▁communication	-3489
It	-3490
▁196	-3491
▁mid	-3492
phone	-3493
▁dance	-3494
▁feels	-3495
▁visit	-3496
▁reduce	-3497
▁degrees	-3498
▁noticed	-3499
▁emotional	-3500
ancy	-3501
▁gun	-3502
▁broken	-3503
▁closer	-3504
▁mission	-3505
▁inspired	-3506
▁differently	-3507
ked	-3508
empt	-3509
rench	-3510
▁beat	-3511
▁highly	-3512
▁nearly	-3513
▁contact	-3514
▁markets	-3515
▁published	-3516
▁surprising	-3517
aling	-3518
ening	-3519
icles	-3520
▁microb	-3521
▁helping	-3522
▁networks	-3523
fr	-3524
raq	-3525
izes	-3526
oting	-3527
▁compon	-3528
▁expand	-3529
▁oxygen	-3530
▁target	-3531
▁window	-3532
▁devices	-3533
aced	-3534
cell	-3535
rupt	-3536
cules	-3537
▁gold	-3538
▁analy	-3539
▁liber	-3540
▁rapid	-3541
▁volunt	-3542
▁planets	-3543
amb	-3544
lies	-3545
▁lack	-3546
▁rare	-3547
anging	-3548
▁shift	-3549
▁seemed	-3550
▁mountain	-3551
▁original	-3552
▁hom	-3553
▁coff	-3554
▁forces	-3555
▁surgery	-3556
▁independ	-3557
edd	-3558
mon	-3559
adem	-3560
house	-3561
othes	-3562
▁wood	-3563
▁Great	-3564
▁habit	-3565
ception	-3566
▁spaces	-3567
▁evolved	-3568
▁produced	-3569
▁diversity	-3570
▁Te	-3571
▁ur	-3572
atell	-3573
night	-3574
▁crowd	-3575
▁lights	-3576
▁efficient	-3577
▁differences	-3578
win	-3579
▁Iraq	-3580
▁hole	-3581
▁reco	-3582
▁agree	-3583
▁brand	-3584
▁photo	-3585
▁Indian	-3586
▁dreams	-3587
▁gotten	-3588
▁passed	-3589
▁addition	-3590
anda	-3591
isco	-3592
▁ver	-3593
idden	-3594
▁Mich	-3595
▁fort	-3596
ashion	-3597
▁resist	-3598
▁iP	-3599
icon	-3600
orith	-3601
▁trip	-3602
▁bringing	-3603
ID	-3604
▁$	-3605
off	-3606
▁cru	-3607
▁Over	-3608
▁poet	-3609
▁1,000	-3610
▁attract	-3611
▁missing	-3612
▁religion	-3613
▁designers	-3614
▁scientist	-3615
reg	-3616
▁inj	-3617
▁hall	-3618
▁basis	-3619
▁birds	-3620
▁Thanks	-3621
▁demand	-3622
▁algorith	-3623
▁conference	-3624
edia	-3625
orge	-3626
term	-3627
▁blog	-3628
▁boat	-3629
▁none	-3630
▁plat	-3631
▁wire	-3632
▁weird	-3633
▁consid	-3634
▁eating	-3635
▁tun	-3636
▁join	-3637
▁wide	-3638
▁flight	-3639
▁satell	-3640
▁ancient	-3641
▁classroom	-3642
▁molecules	-3643
lim	-3644
▁oh	-3645
ander	-3646
ulner	-3647
▁Russ	-3648
▁host	-3649
icking	-3650
▁Austral	-3651
▁deliver	-3652
▁forever	-3653
▁knowing	-3654
▁trouble	-3655
▁spending	-3656
ears	-3657
reci	-3658
▁climb	-3659
▁museum	-3660
▁raised	-3661
▁complexity	-3662
ri	-3663
gth	-3664
ste	-3665
▁Par	-3666
rength	-3667
▁accom	-3668
▁rough	-3669
▁industrial	-3670
1,	-3671
hy	-3672
aul	-3673
ius	-3674
▁Sc	-3675
▁Again	-3676
▁aspect	-3677
▁creates	-3678
▁opposite	-3679
▁studying	-3680
▁structures	-3681
ef	-3682
val	-3683
▁Ro	-3684
▁fol	-3685
ording	-3686
▁hearing	-3687
cop	-3688
rael	-3689
▁hack	-3690
atures	-3691
artment	-3692
▁imagination	-3693
ees	-3694
rel	-3695
▁etc	-3696
▁fat	-3697
▁reb	-3698
cript	-3699
▁seas	-3700
▁fully	-3701
▁easier	-3702
▁strength	-3703
▁background	-3704
mp	-3705
exic	-3706
▁ske	-3707
▁tom	-3708
inist	-3709
▁trib	-3710
orders	-3711
▁lucky	-3712
▁10,000	-3713
▁sexual	-3714
▁matters	-3715
▁traffic	-3716
▁commercial	-3717
▁ultimately	-3718
▁possibility	-3719
ett	-3720
▁CO	-3721
▁core	-3722
▁rout	-3723
▁teen	-3724
▁Islam	-3725
▁genome	-3726
roud	-3727
▁cla	-3728
pping	-3729
▁crim	-3730
▁fold	-3731
ifying	-3732
▁coffee	-3733
▁failure	-3734
▁describe	-3735
▁opportunities	-3736
▁Mc	-3737
care	-3738
▁airpl	-3739
▁party	-3740
ography	-3741
▁correct	-3742
▁focused	-3743
▁moments	-3744
▁investment	-3745
▁tremendous	-3746
iam	-3747
irt	-3748
hand	-3749
ively	-3750
▁Char	-3751
▁Will	-3752
▁parad	-3753
▁vulner	-3754
▁However	-3755
▁turning	-3756
▁negative	-3757
▁Gu	-3758
rical	-3759
▁Iran	-3760
▁Take	-3761
▁shop	-3762
▁Mexic	-3763
▁brill	-3764
▁enter	-3765
▁giant	-3766
▁magaz	-3767
▁mouth	-3768
osystem	-3769
▁notion	-3770
▁despite	-3771
▁justice	-3772
▁partners	-3773
▁landscape	-3774
▁importantly	-3775
2,	-3776
ae	-3777
▁harm	-3778
▁held	-3779
▁infect	-3780
▁platform	-3781
▁hell	-3782
▁repe	-3783
aining	-3784
▁metap	-3785
▁proud	-3786
▁tough	-3787
▁virtual	-3788
▁1.	-3789
▁Con	-3790
▁forg	-3791
▁adapt	-3792
▁photos	-3793
▁kilomet	-3794
▁entirely	-3795
▁Ob	-3796
ipped	-3797
▁offer	-3798
▁therap	-3799
▁Actually	-3800
▁ecosystem	-3801
▁ing	-3802
▁bomb	-3803
▁dinos	-3804
▁benefits	-3805
▁Ed	-3806
ysis	-3807
▁Dar	-3808
ratic	-3809
▁Good	-3810
▁More	-3811
▁cred	-3812
▁puzz	-3813
▁stem	-3814
icians	-3815
▁accur	-3816
▁calls	-3817
▁advant	-3818
ulations	-3819
▁sharing	-3820
▁distance	-3821
▁emotions	-3822
▁necessarily	-3823
8,	-3824
gra	-3825
zen	-3826
gypt	-3827
ties	-3828
vere	-3829
▁Nor	-3830
based	-3831
ulated	-3832
▁David	-3833
mission	-3834
▁Israel	-3835
▁brings	-3836
▁artists	-3837
▁regular	-3838
▁Sometimes	-3839
9,	-3840
ager	-3841
▁fab	-3842
▁fro	-3843
▁stuck	-3844
▁bright	-3845
▁desert	-3846
▁fairly	-3847
▁opened	-3848
▁phones	-3849
▁yellow	-3850
▁brother	-3851
▁billions	-3852
IDS	-3853
▁bag	-3854
▁cand	-3855
▁subst	-3856
▁Middle	-3857
▁batter	-3858
▁particles	-3859
bert	-3860
edic	-3861
mark	-3862
▁alt	-3863
itely	-3864
▁reve	-3865
▁tast	-3866
▁Egypt	-3867
▁bound	-3868
▁attempt	-3869
▁figured	-3870
▁husband	-3871
▁suffering	-3872
cest	-3873
▁amb	-3874
▁nor	-3875
rogen	-3876
▁appreci	-3877
▁emotion	-3878
▁creatures	-3879
▁phenomenon	-3880
▁En	-3881
▁Mr	-3882
This	-3883
▁mos	-3884
▁cogn	-3885
▁mill	-3886
▁mort	-3887
▁seed	-3888
inally	-3889
▁epide	-3890
▁invis	-3891
▁river	-3892
▁walls	-3893
▁inform	-3894
▁Washing	-3895
▁destroy	-3896
▁require	-3897
▁shouldn	-3898
ibilities	-3899
▁necessary	-3900
do	-3901
my	-3902
eal	-3903
tle	-3904
reet	-3905
▁See	-3906
▁fle	-3907
▁mig	-3908
▁tor	-3909
celer	-3910
▁Asia	-3911
▁bridge	-3912
▁caught	-3913
▁Twitter	-3914
▁concent	-3915
▁foreign	-3916
▁typical	-3917
▁accident	-3918
▁elements	-3919
ada	-3920
aker	-3921
▁400	-3922
▁bud	-3923
▁tum	-3924
▁exer	-3925
▁cheap	-3926
▁maint	-3927
▁pleas	-3928
connect	-3929
▁ancest	-3930
▁charge	-3931
▁remote	-3932
▁argument	-3933
▁definition	-3934
▁leadership	-3935
7,	-3936
cra	-3937
▁Su	-3938
▁Kore	-3939
▁horr	-3940
▁helps	-3941
▁tissue	-3942
▁religious	-3943
▁Washington	-3944
vant	-3945
▁den	-3946
▁disp	-3947
▁north	-3948
▁sorry	-3949
▁breast	-3950
▁events	-3951
▁letter	-3952
▁stream	-3953
ifically	-3954
▁childhood	-3955
aff	-3956
▁Once	-3957
▁bone	-3958
▁flag	-3959
▁note	-3960
▁ship	-3961
idents	-3962
▁European	-3963
▁university	-3964
atr	-3965
ibr	-3966
ley	-3967
pan	-3968
iage	-3969
verse	-3970
ctions	-3971
▁faith	-3972
▁wheel	-3973
▁corpor	-3974
▁gender	-3975
▁pounds	-3976
▁fashion	-3977
▁holding	-3978
▁studied	-3979
▁succeed	-3980
▁influence	-3981
mit	-3982
roll	-3983
▁fresh	-3984
▁convin	-3985
▁deeply	-3986
▁lesson	-3987
▁responsible	-3988
▁1,	-3989
▁tit	-3990
▁poem	-3991
▁avoid	-3992
▁coast	-3993
▁indic	-3994
▁sport	-3995
▁adults	-3996
▁counter	-3997
▁leading	-3998
▁restaur	-3999
kn	-4000
aria	-4001
urch	-4002
▁Dan	-4003
▁egg	-4004
▁unc	-4005
▁wis	-4006
alled	-4007
▁bees	-4008
▁narr	-4009
dimens	-4010
▁Niger	-4011
▁newsp	-4012
▁cooper	-4013
▁failed	-4014
▁sister	-4015
▁volunte	-4016
▁believed	-4017
▁compared	-4018
▁previous	-4019
▁Web	-4020
▁Rich	-4021
▁bull	-4022
itable	-4023
uments	-4024
▁cycle	-4025
▁embra	-4026
▁heads	-4027
▁leads	-4028
▁degree	-4029
▁sector	-4030
▁signal	-4031
▁transp	-4032
▁farmers	-4033
▁brilliant	-4034
▁discovery	-4035
▁engineers	-4036
▁organisms	-4037
▁president	-4038
▁Me	-4039
▁Tr	-4040
▁Aud	-4041
▁ble	-4042
▁Bill	-4043
▁Park	-4044
▁agre	-4045
▁spot	-4046
▁French	-4047
▁balance	-4048
ification	-4049
▁fighting	-4050
▁majority	-4051
▁competition	-4052
▁fascinating	-4053
exp	-4054
rict	-4055
ulpt	-4056
▁opin	-4057
▁wear	-4058
▁bread	-4059
lection	-4060
▁colors	-4061
▁double	-4062
▁sculpt	-4063
▁document	-4064
▁strategy	-4065
▁construct	-4066
▁NA	-4067
ford	-4068
uman	-4069
▁und	-4070
istry	-4071
▁chick	-4072
▁frequ	-4073
▁quote	-4074
▁married	-4075
▁wearing	-4076
▁finished	-4077
▁joy	-4078
▁rot	-4079
▁shr	-4080
iable	-4081
▁adop	-4082
▁exch	-4083
elling	-4084
▁crime	-4085
▁equal	-4086
▁prost	-4087
issions	-4088
▁capable	-4089
▁managed	-4090
▁philosoph	-4091
▁unfortunately	-4092
lin	-4093
oses	-4094
thes	-4095
vity	-4096
▁hyp	-4097
▁smo	-4098
▁moon	-4099
▁shel	-4100
▁dollar	-4101
▁grandm	-4102
▁acceler	-4103
▁benefit	-4104
▁prototy	-4105
▁watched	-4106
▁otherwise	-4107
▁businesses	-4108
omy	-4109
uild	-4110
▁due	-4111
eared	-4112
throp	-4113
▁argue	-4114
▁mouse	-4115
▁belong	-4116
▁unlike	-4117
▁related	-4118
dimensional	-4119
inc	-4120
ses	-4121
ugg	-4122
▁Her	-4123
stein	-4124
▁tons	-4125
▁names	-4126
▁prior	-4127
▁closed	-4128
▁oceans	-4129
▁leaving	-4130
▁limited	-4131
▁everyday	-4132
▁Co	-4133
▁Ha	-4134
▁Ne	-4135
hold	-4136
oted	-4137
agers	-4138
▁pros	-4139
▁purs	-4140
▁tour	-4141
▁Franc	-4142
▁hidden	-4143
▁sequence	-4144
▁constantly	-4145
▁institution	-4146
athy	-4147
cked	-4148
pper	-4149
▁Gen	-4150
▁gard	-4151
▁hate	-4152
▁exhib	-4153
▁truck	-4154
▁British	-4155
▁surprise	-4156
uros	-4157
▁150	-4158
▁cos	-4159
▁Pres	-4160
▁grad	-4161
▁soil	-4162
▁faces	-4163
iration	-4164
▁concerned	-4165
▁professional	-4166
ij	-4167
wide	-4168
▁Big	-4169
▁Did	-4170
▁pet	-4171
▁Very	-4172
▁ment	-4173
▁lunch	-4174
▁motor	-4175
▁novel	-4176
▁steps	-4177
ruption	-4178
▁creation	-4179
▁followed	-4180
▁invisible	-4181
If	-4182
▁Col	-4183
▁gar	-4184
▁Paul	-4185
▁foss	-4186
▁iron	-4187
▁whom	-4188
▁categ	-4189
▁grown	-4190
▁paint	-4191
▁simpl	-4192
▁breath	-4193
▁master	-4194
▁element	-4195
▁normally	-4196
▁received	-4197
▁separate	-4198
IT	-4199
cil	-4200
▁gay	-4201
▁pun	-4202
lands	-4203
▁edge	-4204
▁moves	-4205
▁noise	-4206
▁expert	-4207
▁fellow	-4208
▁refuge	-4209
▁safety	-4210
▁trained	-4211
▁intellect	-4212
word	-4213
alley	-4214
apers	-4215
ength	-4216
illed	-4217
right	-4218
▁Bang	-4219
▁intu	-4220
▁king	-4221
▁folks	-4222
▁grass	-4223
▁plane	-4224
▁slowly	-4225
ographic	-4226
▁highest	-4227
▁described	-4228
▁perfectly	-4229
▁interaction	-4230
ux	-4231
▁Fl	-4232
▁Des	-4233
estic	-4234
force	-4235
itute	-4236
known	-4237
ulous	-4238
▁coal	-4239
▁frag	-4240
urally	-4241
▁astron	-4242
▁artific	-4243
▁invited	-4244
▁multiple	-4245
▁advantage	-4246
▁mentioned	-4247
▁kilometers	-4248
▁App	-4249
▁Gra	-4250
▁mir	-4251
▁Have	-4252
▁bear	-4253
▁mosqu	-4254
▁begins	-4255
▁exists	-4256
▁finger	-4257
▁leader	-4258
▁insight	-4259
ha	-4260
sec	-4261
▁roof	-4262
▁click	-4263
▁pages	-4264
oration	-4265
▁forced	-4266
▁motion	-4267
▁quantum	-4268
▁survival	-4269
▁Everybody	-4270
▁principles	-4271
irm	-4272
set	-4273
ume	-4274
enty	-4275
craft	-4276
▁Amaz	-4277
▁Each	-4278
▁anti	-4279
▁brief	-4280
▁homes	-4281
▁talks	-4282
▁attach	-4283
▁commit	-4284
▁replace	-4285
▁currently	-4286
▁consequences	-4287
mar	-4288
aked	-4289
cket	-4290
oman	-4291
▁fed	-4292
▁odd	-4293
uries	-4294
▁Does	-4295
▁fell	-4296
terday	-4297
▁reward	-4298
▁insects	-4299
▁weapons	-4300
▁metaphor	-4301
▁planning	-4302
▁cognitive	-4303
▁surprised	-4304
DP	-4305
oe	-4306
▁dry	-4307
essed	-4308
▁empt	-4309
ipping	-4310
▁harder	-4311
▁letters	-4312
▁precise	-4313
▁identify	-4314
▁launched	-4315
▁considered	-4316
ino	-4317
▁Sun	-4318
▁era	-4319
asion	-4320
▁Life	-4321
▁myth	-4322
forest	-4323
ushing	-4324
▁equip	-4325
▁inequ	-4326
▁shoes	-4327
▁stood	-4328
▁surge	-4329
vention	-4330
▁debate	-4331
▁paying	-4332
▁protein	-4333
▁feedback	-4334
▁magazine	-4335
lied	-4336
▁nan	-4337
▁tox	-4338
ublic	-4339
▁hasn	-4340
▁seat	-4341
▁movies	-4342
▁versus	-4343
▁compare	-4344
▁existence	-4345
▁mathematics	-4346
RI	-4347
Yes	-4348
ami	-4349
▁init	-4350
ancing	-4351
▁quiet	-4352
▁stock	-4353
▁dinner	-4354
▁extend	-4355
▁unless	-4356
▁Audience	-4357
▁seriously	-4358
▁civilization	-4359
anes	-4360
▁sla	-4361
▁Green	-4362
▁crash	-4363
▁eleph	-4364
▁inner	-4365
▁leaves	-4366
▁stupid	-4367
▁factory	-4368
▁signals	-4369
▁theater	-4370
▁associated	-4371
rete	-4372
▁pow	-4373
▁arms	-4374
▁band	-4375
▁exec	-4376
▁libr	-4377
▁nerv	-4378
▁nutr	-4379
ildren	-4380
▁camer	-4381
▁limit	-4382
lication	-4383
▁curious	-4384
▁Australia	-4385
▁depression	-4386
▁comfortable	-4387
▁generations	-4388
▁Three	-4389
▁south	-4390
▁spoke	-4391
▁desire	-4392
▁select	-4393
▁article	-4394
▁experts	-4395
▁investig	-4396
▁President	-4397
▁alternative	-4398
urd	-4399
▁cro	-4400
▁ves	-4401
▁King	-4402
▁load	-4403
▁scen	-4404
▁Would	-4405
▁scene	-4406
▁wisdom	-4407
▁worried	-4408
▁soldiers	-4409
anz	-4410
pet	-4411
uff	-4412
▁lie	-4413
▁tal	-4414
ortex	-4415
▁stim	-4416
▁chair	-4417
▁layer	-4418
▁lifet	-4419
▁saved	-4420
▁Mexico	-4421
▁battle	-4422
▁frustr	-4423
▁Germany	-4424
▁calling	-4425
▁equival	-4426
▁mothers	-4427
▁treated	-4428
▁operating	-4429
▁experienced	-4430
uous	-4431
▁GDP	-4432
▁org	-4433
▁wave	-4434
encies	-4435
▁Their	-4436
▁recon	-4437
▁circle	-4438
▁finish	-4439
▁micros	-4440
▁videos	-4441
▁England	-4442
▁drawing	-4443
▁contract	-4444
▁marriage	-4445
▁molecule	-4446
▁struggle	-4447
▁hopefully	-4448
▁processes	-4449
▁agriculture	-4450
icy	-4451
▁Rem	-4452
▁Res	-4453
anted	-4454
▁isol	-4455
▁weak	-4456
▁2,000	-4457
▁academ	-4458
▁circum	-4459
▁picked	-4460
▁illustr	-4461
▁testing	-4462
▁resource	-4463
▁equipment	-4464
▁principle	-4465
▁researchers	-4466
▁PM	-4467
▁Bas	-4468
▁gap	-4469
▁glo	-4470
place	-4471
▁abst	-4472
ensity	-4473
itness	-4474
▁daily	-4475
▁sympt	-4476
▁fields	-4477
▁incent	-4478
▁vessel	-4479
▁100,000	-4480
▁nervous	-4481
▁expected	-4482
▁galaxies	-4483
▁healthcare	-4484
ago	-4485
bel	-4486
▁El	-4487
iors	-4488
▁Red	-4489
iques	-4490
▁lies	-4491
▁puts	-4492
▁wake	-4493
▁wond	-4494
▁Times	-4495
▁filled	-4496
▁covered	-4497
▁partner	-4498
▁warming	-4499
ests	-4500
odes	-4501
esome	-4502
▁date	-4503
▁soph	-4504
acters	-4505
▁coral	-4506
▁risks	-4507
▁Darwin	-4508
▁toward	-4509
▁Richard	-4510
▁engineer	-4511
▁sentence	-4512
▁continent	-4513
▁characters	-4514
▁statistics	-4515
4,	-4516
ok	-4517
Hey	-4518
▁Sm	-4519
▁Rep	-4520
▁agg	-4521
▁spl	-4522
neath	-4523
▁hadn	-4524
▁tick	-4525
ession	-4526
lement	-4527
thetic	-4528
▁Kenya	-4529
▁round	-4530
▁fourth	-4531
▁gather	-4532
▁island	-4533
▁arrived	-4534
▁release	-4535
▁vehicle	-4536
▁designer	-4537
▁ordinary	-4538
▁emissions	-4539
▁connections	-4540
3,	-4541
gar	-4542
hab	-4543
▁35	-4544
apse	-4545
vard	-4546
▁MIT	-4547
▁Pal	-4548
▁ants	-4549
▁bits	-4550
▁hide	-4551
▁lawy	-4552
▁meat	-4553
▁shut	-4554
▁soul	-4555
▁vote	-4556
▁compl	-4557
▁rural	-4558
▁teles	-4559
▁autism	-4560
▁caused	-4561
▁damage	-4562
▁cameras	-4563
▁privile	-4564
▁weather	-4565
▁clinical	-4566
▁economics	-4567
▁Everything	-4568
▁consumption	-4569
That	-4570
roph	-4571
▁hun	-4572
▁row	-4573
olves	-4574
umber	-4575
▁lapt	-4576
▁rein	-4577
▁tall	-4578
▁warm	-4579
▁antib	-4580
osition	-4581
▁George	-4582
▁shapes	-4583
▁thinks	-4584
▁property	-4585
▁reaction	-4586
▁according	-4587
▁languages	-4588
▁artificial	-4589
▁importance	-4590
▁increasingly	-4591
ara	-4592
new	-4593
cale	-4594
down	-4595
▁flat	-4596
lation	-4597
▁colon	-4598
▁facts	-4599
▁users	-4600
▁voices	-4601
▁keeping	-4602
▁universal	-4603
▁equivalent	-4604
▁intelligent	-4605
▁transformation	-4606
add	-4607
▁ax	-4608
otic	-4609
▁illeg	-4610
▁reform	-4611
▁dealing	-4612
▁dynamic	-4613
▁organic	-4614
▁selling	-4615
▁setting	-4616
▁analysis	-4617
▁convinced	-4618
▁technical	-4619
▁entrepreneurs	-4620
▁possibilities	-4621
ato	-4622
car	-4623
▁CE	-4624
▁pil	-4625
akers	-4626
isher	-4627
▁AIDS	-4628
▁rates	-4629
▁feelings	-4630
▁distribution	-4631
alt	-4632
cend	-4633
irty	-4634
semb	-4635
▁Ein	-4636
▁dial	-4637
▁chain	-4638
▁concl	-4639
▁neuro	-4640
ressive	-4641
▁galaxy	-4642
▁losing	-4643
▁opening	-4644
▁victims	-4645
▁essential	-4646
▁organized	-4647
▁wondering	-4648
▁techniques	-4649
▁grandmother	-4650
cast	-4651
ocol	-4652
sing	-4653
▁cow	-4654
▁uns	-4655
▁blow	-4656
▁enem	-4657
▁qual	-4658
▁heavy	-4659
▁prove	-4660
▁neuros	-4661
▁factors	-4662
▁released	-4663
▁tomorrow	-4664
▁satellite	-4665
▁underneath	-4666
low	-4667
▁Je	-4668
▁dol	-4669
▁nar	-4670
print	-4671
▁driver	-4672
▁medium	-4673
▁symmet	-4674
▁players	-4675
▁station	-4676
▁airplane	-4677
▁criminal	-4678
▁requires	-4679
▁yesterday	-4680
.'	-4681
oot	-4682
mber	-4683
ogen	-4684
▁Bar	-4685
▁ends	-4686
▁valu	-4687
▁cards	-4688
▁estab	-4689
▁perce	-4690
▁sites	-4691
▁solid	-4692
▁explan	-4693
▁Harvard	-4694
▁display	-4695
▁illness	-4696
▁killing	-4697
▁promise	-4698
▁Francisco	-4699
▁movements	-4700
▁collection	-4701
▁dimensions	-4702
2.	-4703
au	-4704
zing	-4705
▁Gree	-4706
▁Last	-4707
▁tail	-4708
▁deeper	-4709
▁conduct	-4710
▁reprodu	-4711
▁variety	-4712
▁Japanese	-4713
▁messages	-4714
onym	-4715
uses	-4716
▁god	-4717
▁Ange	-4718
▁empty	-4719
▁signs	-4720
▁veget	-4721
▁houses	-4722
▁muscle	-4723
▁Einstein	-4724
▁whenever	-4725
▁chemicals	-4726
▁sophistic	-4727
▁represents	-4728
▁transition	-4729
▁construction	-4730
6,	-4731
▁Mo	-4732
frie	-4733
▁poo	-4734
itals	-4735
▁NASA	-4736
▁arts	-4737
▁gall	-4738
▁kick	-4739
▁shif	-4740
▁broke	-4741
▁dolph	-4742
▁infin	-4743
▁battery	-4744
▁radical	-4745
▁sources	-4746
▁entertain	-4747
▁management	-4748
gn	-4749
ym	-4750
van	-4751
aled	-4752
life	-4753
osis	-4754
▁Atl	-4755
▁Ben	-4756
▁Int	-4757
▁rat	-4758
erves	-4759
iency	-4760
▁2000	-4761
▁Swed	-4762
▁diet	-4763
▁hang	-4764
▁pure	-4765
▁claim	-4766
▁manip	-4767
▁toile	-4768
▁height	-4769
▁thoughts	-4770
▁designing	-4771
▁independent	-4772
hi	-4773
oom	-4774
zed	-4775
cipl	-4776
icip	-4777
▁Ant	-4778
▁tow	-4779
▁gain	-4780
▁gang	-4781
▁surf	-4782
▁chimp	-4783
▁metal	-4784
▁advert	-4785
▁nations	-4786
▁rapidly	-4787
▁sending	-4788
▁advanced	-4789
▁cultures	-4790
▁epidemic	-4791
▁trillion	-4792
▁electrical	-4793
▁expression	-4794
▁properties	-4795
▁Tom	-4796
▁mer	-4797
▁tap	-4798
abled	-4799
▁bare	-4800
ension	-4801
▁honor	-4802
akistan	-4803
ulating	-4804
▁Amazon	-4805
▁School	-4806
▁budget	-4807
▁facing	-4808
▁appropr	-4809
▁cutting	-4810
▁emerging	-4811
▁graduate	-4812
▁gentlemen	-4813
▁introduce	-4814
▁profession	-4815
▁effectively	-4816
gets	-4817
▁mel	-4818
▁copy	-4819
▁gift	-4820
▁resc	-4821
▁snow	-4822
▁holes	-4823
▁liked	-4824
▁smile	-4825
▁waves	-4826
▁Street	-4827
▁details	-4828
▁official	-4829
▁interface	-4830
▁professor	-4831
▁inequality	-4832
ald	-4833
▁fal	-4834
▁ten	-4835
▁auth	-4836
▁hurt	-4837
▁Center	-4838
▁credit	-4839
▁fossil	-4840
▁player	-4841
▁prefer	-4842
▁remain	-4843
▁trials	-4844
▁malaria	-4845
▁exchange	-4846
▁lifetime	-4847
ait	-4848
fish	-4849
resp	-4850
▁Cam	-4851
▁Los	-4852
▁reef	-4853
▁chart	-4854
▁grade	-4855
▁fortun	-4856
▁poetry	-4857
▁Britain	-4858
▁capture	-4859
▁Pakistan	-4860
▁exercise	-4861
▁required	-4862
▁carefully	-4863
▁politicians	-4864
▁intellectual	-4865
▁BG	-4866
uary	-4867
▁lat	-4868
▁phr	-4869
▁pip	-4870
▁flex	-4871
▁jail	-4872
▁recy	-4873
▁Could	-4874
▁Since	-4875
▁awful	-4876
▁negot	-4877
▁assign	-4878
▁engaged	-4879
▁forests	-4880
▁funding	-4881
▁Anderson	-4882
▁Congress	-4883
▁microbes	-4884
▁chemistry	-4885
▁disappear	-4886
▁vulnerable	-4887
▁specifically	-4888
30	-4889
Do	-4890
ael	-4891
rim	-4892
rog	-4893
olds	-4894
▁ens	-4895
organ	-4896
▁Phil	-4897
▁dots	-4898
▁liqu	-4899
▁remo	-4900
▁unit	-4901
enture	-4902
▁sight	-4903
▁accompl	-4904
▁courage	-4905
▁lessons	-4906
▁location	-4907
▁valuable	-4908
▁encourage	-4909
▁evolutionary	-4910
hes	-4911
lom	-4912
min	-4913
uel	-4914
aurs	-4915
bble	-4916
engu	-4917
▁Jew	-4918
▁Sat	-4919
▁peak	-4920
▁user	-4921
urance	-4922
▁goals	-4923
▁minim	-4924
▁Canada	-4925
▁length	-4926
▁member	-4927
▁review	-4928
▁worlds	-4929
▁depends	-4930
▁opinion	-4931
▁circumst	-4932
▁mountains	-4933
▁producing	-4934
▁relatively	-4935
▁'9	-4936
bors	-4937
usive	-4938
▁bran	-4939
▁maps	-4940
▁define	-4941
▁consist	-4942
▁mistake	-4943
▁participate	-4944
rs	-4945
Don	-4946
fit	-4947
cont	-4948
itan	-4949
olly	-4950
▁Lad	-4951
▁san	-4952
▁chap	-4953
▁pray	-4954
▁sees	-4955
itarian	-4956
▁assist	-4957
▁blocks	-4958
▁buying	-4959
▁former	-4960
▁contain	-4961
▁extract	-4962
▁memories	-4963
▁invention	-4964
▁foundation	-4965
uh	-4966
mas	-4967
abet	-4968
▁Yet	-4969
▁pal	-4970
▁ped	-4971
▁rub	-4972
icago	-4973
▁cure	-4974
▁lady	-4975
▁unus	-4976
▁fewer	-4977
▁obser	-4978
▁refer	-4979
▁satis	-4980
▁staff	-4981
▁formed	-4982
▁vaccine	-4983
▁generate	-4984
▁fundament	-4985
▁mathematical	-4986
lly	-4987
▁45	-4988
▁Qu	-4989
▁Mil	-4990
lying	-4991
▁evil	-4992
▁myst	-4993
▁ride	-4994
porary	-4995
stream	-4996
▁ideal	-4997
▁keeps	-4998
▁kitch	-4999
▁occup	-5000
▁bottle	-5001
▁forgot	-5002
▁Nigeria	-5003
▁centers	-5004
▁however	-5005
▁roughly	-5006
▁convince	-5007
▁establish	-5008
▁conversations	-5009
ov	-5010
▁II	-5011
oston	-5012
▁cave	-5013
▁intr	-5014
▁added	-5015
▁beach	-5016
▁input	-5017
▁serve	-5018
▁shoot	-5019
▁sides	-5020
▁analog	-5021
chnology	-5022
▁Chicago	-5023
▁neighbors	-5024
▁combination	-5025
1.	-5026
60	-5027
bre	-5028
log	-5029
▁75	-5030
▁Mart	-5031
▁bath	-5032
▁bill	-5033
▁shad	-5034
▁grain	-5035
▁reven	-5036
▁shall	-5037
▁factor	-5038
▁encoura	-5039
▁include	-5040
▁install	-5041
▁mosquit	-5042
▁carrying	-5043
▁Institute	-5044
▁worldwide	-5045
▁corruption	-5046
▁environments	-5047
▁manufacturing	-5048
▁GP	-5049
▁bul	-5050
▁lic	-5051
▁Alex	-5052
▁desk	-5053
▁mira	-5054
▁nose	-5055
father	-5056
▁pitch	-5057
▁steel	-5058
▁winter	-5059
▁actions	-5060
▁cartoon	-5061
▁outcome	-5062
▁affected	-5063
▁disaster	-5064
▁spectrum	-5065
▁increased	-5066
▁components	-5067
▁discussion	-5068
▁processing	-5069
▁ho	-5070
▁Sim	-5071
▁nav	-5072
▁YouT	-5073
▁decl	-5074
▁diss	-5075
▁inev	-5076
isters	-5077
ternal	-5078
▁James	-5079
▁hyper	-5080
▁pregn	-5081
▁teeth	-5082
▁Boston	-5083
▁compar	-5084
▁option	-5085
▁pulled	-5086
▁illegal	-5087
▁primary	-5088
▁consumer	-5089
▁existing	-5090
▁behaviors	-5091
▁molecular	-5092
▁introduced	-5093
▁situations	-5094
xim	-5095
▁99	-5096
▁Gh	-5097
hyth	-5098
mers	-5099
▁Ber	-5100
icing	-5101
ograp	-5102
vable	-5103
friend	-5104
▁Frank	-5105
▁Women	-5106
▁pengu	-5107
▁drives	-5108
▁status	-5109
▁thanks	-5110
▁YouTube	-5111
▁attacks	-5112
▁fishing	-5113
▁rational	-5114
▁symptoms	-5115
▁dinosaurs	-5116
▁employees	-5117
▁convention	-5118
▁protection	-5119
▁restaurant	-5120
what	-5121
▁Tur	-5122
▁Wik	-5123
▁adj	-5124
▁rom	-5125
icide	-5126
▁Bank	-5127
▁grid	-5128
▁pair	-5129
angers	-5130
rument	-5131
▁curve	-5132
▁dress	-5133
▁sugar	-5134
▁topic	-5135
▁arrest	-5136
▁liquid	-5137
▁applied	-5138
▁awesome	-5139
▁reached	-5140
abilities	-5141
▁concrete	-5142
▁mistakes	-5143
▁generally	-5144
▁hospitals	-5145
▁newspaper	-5146
▁traveling	-5147
▁definitely	-5148
▁meaningful	-5149
▁physically	-5150
▁potentially	-5151
▁sophisticated	-5152
can	-5153
▁Dep	-5154
▁Min	-5155
▁bow	-5156
ended	-5157
▁fert	-5158
▁lect	-5159
▁reci	-5160
▁thin	-5161
▁Steve	-5162
▁horiz	-5163
▁horse	-5164
▁interp	-5165
▁regard	-5166
▁sample	-5167
▁scared	-5168
▁season	-5169
▁severe	-5170
▁recorded	-5171
▁activities	-5172
▁destruction	-5173
atin	-5174
whel	-5175
▁Bro	-5176
▁que	-5177
olving	-5178
▁flies	-5179
▁shame	-5180
▁organs	-5181
▁sharks	-5182
▁kitchen	-5183
▁quarter	-5184
▁unusual	-5185
▁viruses	-5186
▁awareness	-5187
▁interests	-5188
▁instrument	-5189
ta	-5190
uits	-5191
nding	-5192
▁Four	-5193
▁runs	-5194
▁spin	-5195
▁Other	-5196
▁atoms	-5197
▁cyber	-5198
▁false	-5199
▁goods	-5200
▁Anyway	-5201
▁desper	-5202
▁mirror	-5203
▁perman	-5204
▁dropped	-5205
▁regions	-5206
▁abstract	-5207
▁stronger	-5208
▁protected	-5209
▁radiation	-5210
▁typically	-5211
▁inspiration	-5212
▁photographs	-5213
▁fundamentally	-5214
bur	-5215
igm	-5216
ita	-5217
aren	-5218
cred	-5219
gent	-5220
▁Mic	-5221
▁bee	-5222
▁iPh	-5223
eline	-5224
etics	-5225
▁Coll	-5226
▁dogs	-5227
▁hung	-5228
▁suit	-5229
▁estim	-5230
▁garden	-5231
▁options	-5232
▁witness	-5233
▁password	-5234
▁prepared	-5235
▁passionate	-5236
spe	-5237
▁ju	-5238
ifth	-5239
ront	-5240
▁Gal	-5241
aters	-5242
ework	-5243
gment	-5244
▁Also	-5245
▁tank	-5246
▁dedic	-5247
▁Muslim	-5248
▁joined	-5249
▁senses	-5250
▁spring	-5251
▁Michael	-5252
▁dramatic	-5253
▁overwhel	-5254
▁innovative	-5255
umps	-5256
▁194	-5257
▁asp	-5258
▁acqu	-5259
▁biom	-5260
▁renew	-5261
▁France	-5262
▁Nobody	-5263
▁bubble	-5264
▁conver	-5265
▁Perhaps	-5266
▁empathy	-5267
▁empower	-5268
▁feature	-5269
▁pleasure	-5270
▁ultimate	-5271
▁collected	-5272
▁explained	-5273
▁framework	-5274
▁mechanism	-5275
▁naturally	-5276
▁providing	-5277
▁personally	-5278
▁challenging	-5279
▁collaboration	-5280
80	-5281
cal	-5282
rat	-5283
▁US	-5284
Look	-5285
berg	-5286
▁cast	-5287
▁vert	-5288
▁aging	-5289
▁notes	-5290
▁sweet	-5291
▁Valley	-5292
▁attend	-5293
▁clever	-5294
▁sports	-5295
▁Charles	-5296
▁fiction	-5297
▁gravity	-5298
▁operate	-5299
▁apparent	-5300
▁features	-5301
▁mortality	-5302
▁conservation	-5303
▁technological	-5304
500	-5305
iat	-5306
gged	-5307
ingu	-5308
▁Jer	-5309
▁cha	-5310
▁eld	-5311
enced	-5312
▁drag	-5313
▁pian	-5314
▁memor	-5315
itution	-5316
▁aftern	-5317
▁contem	-5318
▁ingred	-5319
▁clothes	-5320
▁instrum	-5321
▁confront	-5322
▁hydrogen	-5323
▁organism	-5324
▁relevant	-5325
▁ancestors	-5326
ss	-5327
▁2.	-5328
▁anx	-5329
▁dip	-5330
▁rig	-5331
▁sen	-5332
point	-5333
▁hits	-5334
▁navig	-5335
▁ought	-5336
▁tests	-5337
inction	-5338
▁Russia	-5339
▁driven	-5340
▁handle	-5341
▁sphere	-5342
▁survey	-5343
▁falling	-5344
▁harvest	-5345
▁privacy	-5346
▁sensors	-5347
▁silence	-5348
▁internal	-5349
▁transfer	-5350
▁computing	-5351
▁narrative	-5352
▁practical	-5353
▁terrorism	-5354
▁underwater	-5355
ris	-5356
▁Em	-5357
asks	-5358
ault	-5359
hips	-5360
opia	-5361
▁CEO	-5362
orous	-5363
▁Talk	-5364
▁clip	-5365
▁plus	-5366
▁ring	-5367
▁While	-5368
▁auton	-5369
▁coord	-5370
▁uncom	-5371
▁acting	-5372
▁replic	-5373
▁solved	-5374
▁studio	-5375
▁amounts	-5376
▁figures	-5377
▁antibiot	-5378
▁printing	-5379
▁vehicles	-5380
▁pollution	-5381
▁algorithms	-5382
▁productive	-5383
▁applications	-5384
▁transportation	-5385
20	-5386
uls	-5387
vis	-5388
▁Jan	-5389
▁wel	-5390
▁Part	-5391
▁eggs	-5392
▁horm	-5393
▁joke	-5394
▁doubt	-5395
▁lying	-5396
▁polar	-5397
▁storm	-5398
▁thick	-5399
▁toxic	-5400
▁tumor	-5401
eration	-5402
▁fisher	-5403
▁tested	-5404
▁Angeles	-5405
▁remains	-5406
▁equality	-5407
▁horrible	-5408
▁afternoon	-5409
▁democratic	-5410
▁efficiency	-5411
In	-5412
gl	-5413
ham	-5414
mes	-5415
ums	-5416
olic	-5417
▁Art	-5418
▁Pac	-5419
▁spo	-5420
scale	-5421
▁Mont	-5422
▁fake	-5423
▁hunt	-5424
▁mile	-5425
▁wars	-5426
iosity	-5427
▁State	-5428
▁clock	-5429
▁hoping	-5430
▁puzzle	-5431
▁equally	-5432
▁singing	-5433
▁younger	-5434
▁policies	-5435
▁functions	-5436
▁confidence	-5437
▁literature	-5438
▁perception	-5439
▁Dem	-5440
▁Mon	-5441
▁Rob	-5442
▁mak	-5443
being	-5444
▁tape	-5445
▁Korea	-5446
▁domin	-5447
▁initi	-5448
▁ridic	-5449
▁skill	-5450
▁songs	-5451
▁taste	-5452
▁border	-5453
▁fabric	-5454
▁parall	-5455
▁breathe	-5456
▁burning	-5457
▁chicken	-5458
▁fingers	-5459
▁parking	-5460
▁contrast	-5461
▁domestic	-5462
▁election	-5463
▁proteins	-5464
▁swimming	-5465
▁authority	-5466
▁appreciate	-5467
▁surrounded	-5468
ads	-5469
och	-5470
▁Unf	-5471
▁cere	-5472
▁diam	-5473
▁lens	-5474
▁nurs	-5475
▁outc	-5476
Americ	-5477
▁Paris	-5478
▁chose	-5479
▁court	-5480
▁frame	-5481
▁multi	-5482
▁boring	-5483
▁church	-5484
▁cortex	-5485
▁comment	-5486
▁defined	-5487
▁intense	-5488
▁musical	-5489
▁visible	-5490
▁operation	-5491
▁conclusion	-5492
▁Day	-5493
▁Pol	-5494
▁toy	-5495
▁Five	-5496
▁mere	-5497
▁obst	-5498
▁subs	-5499
▁zoom	-5500
▁3,000	-5501
▁score	-5502
▁stret	-5503
▁agreed	-5504
▁critic	-5505
▁reject	-5506
cription	-5507
▁housing	-5508
▁unknown	-5509
▁violent	-5510
▁accurate	-5511
▁combined	-5512
▁infected	-5513
▁Something	-5514
▁constrain	-5515
▁emergency	-5516
▁marketing	-5517
▁Unfortunately	-5518
ls	-5519
itual	-5520
▁bicy	-5521
▁milk	-5522
▁pill	-5523
▁scar	-5524
athers	-5525
▁fixed	-5526
▁rooms	-5527
▁advice	-5528
▁deploy	-5529
▁remove	-5530
▁rocket	-5531
▁stayed	-5532
▁worker	-5533
▁discipl	-5534
▁evening	-5535
▁nowhere	-5536
▁psychology	-5537
▁circumstances	-5538
yn	-5539
den	-5540
itz	-5541
mal	-5542
osh	-5543
▁Ma	-5544
anta	-5545
oons	-5546
▁Mal	-5547
▁gut	-5548
lines	-5549
▁club	-5550
▁cord	-5551
▁flew	-5552
▁tack	-5553
▁zone	-5554
herent	-5555
▁hotel	-5556
▁roads	-5557
▁stone	-5558
▁teams	-5559
▁title	-5560
▁iPhone	-5561
▁suffer	-5562
▁volume	-5563
▁Project	-5564
▁combine	-5565
▁command	-5566
▁largely	-5567
▁tonight	-5568
▁occurred	-5569
▁somewhat	-5570
▁sunlight	-5571
▁wireless	-5572
▁percentage	-5573
▁psychological	-5574
mm	-5575
orb	-5576
sem	-5577
▁Ac	-5578
foot	-5579
▁Eth	-5580
▁Come	-5581
▁Only	-5582
▁Port	-5583
▁Stan	-5584
▁busy	-5585
▁orch	-5586
arrass	-5587
illing	-5588
owered	-5589
▁abuse	-5590
▁admit	-5591
▁angry	-5592
▁cents	-5593
▁depth	-5594
▁films	-5595
▁recom	-5596
▁trend	-5597
▁unexp	-5598
▁upper	-5599
▁Health	-5600
▁deaths	-5601
▁inject	-5602
▁borders	-5603
▁records	-5604
▁birthday	-5605
▁download	-5606
▁implement	-5607
▁interpret	-5608
▁sustainability	-5609
5.	-5610
aser	-5611
▁600	-5612
▁Law	-5613
▁Rev	-5614
ingly	-5615
itors	-5616
stand	-5617
▁Sept	-5618
▁loud	-5619
▁trig	-5620
▁wine	-5621
▁Wikip	-5622
▁judge	-5623
▁plans	-5624
▁prime	-5625
▁assume	-5626
▁button	-5627
▁genius	-5628
aneously	-5629
onscious	-5630
▁advance	-5631
▁allowing	-5632
▁constant	-5633
▁presentation	-5634
adic	-5635
over	-5636
▁GPS	-5637
▁ack	-5638
aming	-5639
▁pool	-5640
making	-5641
ounced	-5642
source	-5643
▁Found	-5644
▁Micro	-5645
▁flood	-5646
▁resil	-5647
▁split	-5648
▁cooking	-5649
▁electro	-5650
▁suppose	-5651
▁presence	-5652
▁September	-5653
▁centuries	-5654
▁embarrass	-5655
▁sensitive	-5656
▁statement	-5657
▁department	-5658
▁unexpected	-5659
▁exploration	-5660
St	-5661
ula	-5662
▁23	-5663
elly	-5664
▁Air	-5665
▁Med	-5666
▁Thom	-5667
▁barr	-5668
▁elev	-5669
▁5,000	-5670
▁House	-5671
▁plate	-5672
▁theme	-5673
▁youth	-5674
▁Before	-5675
▁Number	-5676
▁explos	-5677
ollywood	-5678
▁embrace	-5679
▁offered	-5680
▁creature	-5681
▁instruct	-5682
▁outcomes	-5683
▁selection	-5684
▁resistance	-5685
▁explanation	-5686
ias	-5687
nes	-5688
ola	-5689
onds	-5690
▁bes	-5691
▁Adam	-5692
▁glam	-5693
▁grab	-5694
▁item	-5695
▁sets	-5696
▁About	-5697
▁bones	-5698
▁expon	-5699
▁frank	-5700
▁divide	-5701
▁flower	-5702
▁laptop	-5703
▁string	-5704
▁Finally	-5705
▁overall	-5706
▁pushing	-5707
▁reverse	-5708
▁therapy	-5709
▁distinct	-5710
▁tracking	-5711
▁wondered	-5712
▁Wikipedia	-5713
▁controlled	-5714
▁greenhouse	-5715
▁grandfather	-5716
8.	-5717
fin	-5718
▁Fe	-5719
Yeah	-5720
ctic	-5721
▁Sil	-5722
▁dot	-5723
▁meg	-5724
uting	-5725
▁Mary	-5726
▁mice	-5727
▁boxes	-5728
▁faced	-5729
▁rocks	-5730
▁narrow	-5731
▁patent	-5732
▁ritual	-5733
▁closely	-5734
▁existed	-5735
▁library	-5736
▁receive	-5737
▁solving	-5738
▁floating	-5739
▁maintain	-5740
▁destroyed	-5741
▁determine	-5742
▁technique	-5743
▁capitalism	-5744
▁laboratory	-5745
▁appropriate	-5746
My	-5747
ih	-5748
▁27	-5749
xide	-5750
▁hur	-5751
belie	-5752
ching	-5753
entic	-5754
▁Mark	-5755
▁cosm	-5756
▁disg	-5757
▁furn	-5758
▁pump	-5759
called	-5760
▁aston	-5761
▁crack	-5762
▁datab	-5763
▁error	-5764
▁label	-5765
onymous	-5766
▁enable	-5767
▁ladies	-5768
▁marine	-5769
▁signed	-5770
▁struck	-5771
▁Pacific	-5772
▁causing	-5773
▁feeding	-5774
▁flowers	-5775
▁savings	-5776
▁administ	-5777
▁drinking	-5778
▁application	-5779
But	-5780
ups	-5781
heim	-5782
look	-5783
▁van	-5784
acing	-5785
arant	-5786
iture	-5787
▁clus	-5788
▁cock	-5789
▁ears	-5790
▁silk	-5791
▁Never	-5792
▁guide	-5793
▁logic	-5794
▁march	-5795
▁weigh	-5796
▁acknow	-5797
▁extent	-5798
▁myster	-5799
▁aspects	-5800
▁channel	-5801
▁conclud	-5802
▁corresp	-5803
▁director	-5804
▁equation	-5805
▁measured	-5806
▁provided	-5807
▁subjects	-5808
▁customers	-5809
▁presented	-5810
▁spiritual	-5811
▁transformed	-5812
ata	-5813
▁aim	-5814
▁tab	-5815
▁dign	-5816
▁elim	-5817
▁hook	-5818
▁icon	-5819
asters	-5820
▁Black	-5821
▁Count	-5822
▁Obama	-5823
▁globe	-5824
▁grows	-5825
▁limits	-5826
▁papers	-5827
▁scenar	-5828
▁Science	-5829
▁carried	-5830
▁decline	-5831
▁diction	-5832
▁extinct	-5833
▁neither	-5834
▁samples	-5835
connected	-5836
▁Everyone	-5837
▁engaging	-5838
▁hypothes	-5839
▁suggests	-5840
▁villages	-5841
▁breathing	-5842
▁architects	-5843
agn	-5844
box	-5845
nic	-5846
que	-5847
vey	-5848
▁["	-5849
iled	-5850
rors	-5851
▁pin	-5852
▁acts	-5853
▁firm	-5854
▁wash	-5855
▁Mount	-5856
▁chrom	-5857
▁scary	-5858
▁tired	-5859
▁lifest	-5860
▁relate	-5861
▁stands	-5862
ographer	-5863
▁circuit	-5864
▁classes	-5865
▁transpl	-5866
▁vessels	-5867
▁collapse	-5868
▁economists	-5869
▁dramatically	-5870
Is	-5871
dr	-5872
za	-5873
nda	-5874
▁22	-5875
▁La	-5876
iety	-5877
▁raw	-5878
eness	-5879
iters	-5880
ounce	-5881
▁June	-5882
▁chip	-5883
▁choo	-5884
▁impl	-5885
▁stri	-5886
▁stro	-5887
▁Apple	-5888
▁colum	-5889
▁falls	-5890
▁flash	-5891
▁knock	-5892
▁males	-5893
▁pharm	-5894
▁phase	-5895
▁piano	-5896
▁Museum	-5897
▁Please	-5898
▁clinic	-5899
▁encoun	-5900
▁owners	-5901
▁phrase	-5902
▁January	-5903
▁balloon	-5904
▁suicide	-5905
▁Remember	-5906
▁brothers	-5907
▁Christmas	-5908
▁spreading	-5909
▁standards	-5910
▁electronic	-5911
▁mathematic	-5912
▁implications	-5913
alu	-5914
emb	-5915
vas	-5916
▁ru	-5917
Okay	-5918
keys	-5919
omic	-5920
rade	-5921
▁Bab	-5922
▁mad	-5923
▁army	-5924
▁lets	-5925
▁ours	-5926
▁root	-5927
▁Antar	-5928
▁Latin	-5929
▁dozen	-5930
▁secure	-5931
etically	-5932
inations	-5933
▁anticip	-5934
▁wherever	-5935
▁Basically	-5936
▁economies	-5937
▁privilege	-5938
▁recording	-5939
/1	-5940
uum	-5941
▁Ke	-5942
east	-5943
tail	-5944
▁Che	-5945
▁Jul	-5946
icted	-5947
▁gras	-5948
arency	-5949
▁decre	-5950
▁Global	-5951
▁Thomas	-5952
▁evolve	-5953
▁linked	-5954
▁pocket	-5955
▁portra	-5956
▁whales	-5957
▁frankly	-5958
▁proport	-5959
▁surgeon	-5960
▁windows	-5961
▁paradigm	-5962
▁vaccines	-5963
▁arguments	-5964
▁committed	-5965
▁continued	-5966
▁prototype	-5967
▁mechanical	-5968
▁educational	-5969
▁instruments	-5970
▁personality	-5971
▁recognition	-5972
hol	-5973
aint	-5974
hour	-5975
soft	-5976
tech	-5977
▁Jim	-5978
▁Sam	-5979
▁ath	-5980
▁cup	-5981
sters	-5982
▁biod	-5983
profit	-5984
▁Human	-5985
▁Union	-5986
▁accum	-5987
▁anger	-5988
▁explo	-5989
▁legis	-5990
▁prize	-5991
▁stere	-5992
▁tight	-5993
▁barely	-5994
▁fright	-5995
▁placed	-5996
▁scream	-5997
▁finance	-5998
▁Republic	-5999
▁occasion	-6000
▁overcome	-6001
▁properly	-6002
▁celebrate	-6003
▁component	-6004
▁identical	-6005
▁measuring	-6006
▁represented	-6007
▁automatically	-6008
wr	-6009
▁Gl	-6010
▁NG	-6011
▁Sa	-6012
cers	-6013
illy	-6014
rant	-6015
well	-6016
▁10,	-6017
▁250	-6018
▁irr	-6019
level	-6020
▁Next	-6021
▁bike	-6022
▁gray	-6023
▁limb	-6024
▁neut	-6025
▁seek	-6026
▁breed	-6027
▁dense	-6028
▁honey	-6029
▁walks	-6030
▁clouds	-6031
▁diplom	-6032
▁embedd	-6033
▁monkey	-6034
▁profit	-6035
▁storyt	-6036
▁chromos	-6037
▁efforts	-6038
▁painful	-6039
▁shoulder	-6040
▁traveled	-6041
▁colleague	-6042
▁insurance	-6043
▁translate	-6044
▁microscope	-6045
▁populations	-6046
▁entertainment	-6047
bl	-6048
tes	-6049
uce	-6050
bage	-6051
lymp	-6052
nded	-6053
▁pul	-6054
▁twe	-6055
inals	-6056
▁Gold	-6057
▁gest	-6058
▁nest	-6059
▁poly	-6060
▁fruit	-6061
▁recyc	-6062
▁Island	-6063
▁Robert	-6064
▁rising	-6065
▁thrown	-6066
▁Central	-6067
▁careful	-6068
▁classic	-6069
▁dancing	-6070
▁achieved	-6071
▁imagined	-6072
▁instinct	-6073
▁parallel	-6074
▁curiosity	-6075
▁increases	-6076
▁precisely	-6077
▁distributed	-6078
4.	-6079
bi	-6080
gic	-6081
erge	-6082
ogue	-6083
oned	-6084
otes	-6085
▁Cop	-6086
▁bat	-6087
▁fan	-6088
▁hem	-6089
itory	-6090
otion	-6091
using	-6092
▁Comm	-6093
▁dust	-6094
ateful	-6095
imeter	-6096
▁Olymp	-6097
▁humor	-6098
▁maxim	-6099
▁polio	-6100
▁candid	-6101
▁missed	-6102
▁pushed	-6103
▁script	-6104
▁cheaper	-6105
▁collaps	-6106
▁conserv	-6107
▁guarant	-6108
▁methods	-6109
▁wanting	-6110
▁infinite	-6111
▁footprint	-6112
▁directions	-6113
▁performing	-6114
70	-6115
gly	-6116
iel	-6117
oca	-6118
aret	-6119
iday	-6120
ille	-6121
rary	-6122
rect	-6123
rets	-6124
▁Spe	-6125
▁lun	-6126
▁1950	-6127
▁glob	-6128
▁tent	-6129
▁ther	-6130
arters	-6131
licity	-6132
rating	-6133
▁Ghana	-6134
▁ignor	-6135
▁persu	-6136
▁shell	-6137
▁style	-6138
▁whist	-6139
▁Sweden	-6140
▁interf	-6141
▁mainly	-6142
▁toilet	-6143
▁mystery	-6144
▁raising	-6145
▁robotic	-6146
▁spectac	-6147
▁academic	-6148
▁disorder	-6149
▁Microsoft	-6150
▁exploring	-6151
▁collecting	-6152
▁journalist	-6153
ek	-6154
▁Ah	-6155
uity	-6156
▁Haw	-6157
▁ben	-6158
▁sne	-6159
eters	-6160
iance	-6161
iform	-6162
▁boss	-6163
▁loop	-6164
▁mush	-6165
▁bombs	-6166
▁enemy	-6167
▁stack	-6168
▁tasks	-6169
▁vital	-6170
raction	-6171
through	-6172
▁crying	-6173
▁hunger	-6174
▁obstac	-6175
▁repair	-6176
▁appears	-6177
▁entered	-6178
▁inspire	-6179
▁mammals	-6180
▁poorest	-6181
▁captured	-6182
▁illusion	-6183
▁produces	-6184
▁Hollywood	-6185
▁apartment	-6186
▁Foundation	-6187
▁Revolution	-6188
▁accessible	-6189
▁connecting	-6190
▁volunteers	-6191
▁conventional	-6192
▁expectations	-6193
Be	-6194
ape	-6195
azz	-6196
ban	-6197
son	-6198
▁py	-6199
▁Pan	-6200
▁Pat	-6201
▁vag	-6202
attan	-6203
earch	-6204
oster	-6205
▁Ethi	-6206
▁pace	-6207
▁prem	-6208
▁alien	-6209
▁blank	-6210
▁seeds	-6211
▁toler	-6212
▁traum	-6213
▁whale	-6214
▁assemb	-6215
▁filter	-6216
▁hearts	-6217
▁immune	-6218
▁proced	-6219
▁spinal	-6220
▁designs	-6221
▁diverse	-6222
▁removed	-6223
▁Africans	-6224
▁obsessed	-6225
▁pregnant	-6226
▁corporate	-6227
▁disorders	-6228
▁behavioral	-6229
▁exhibition	-6230
▁recognized	-6231
▁controlling	-6232
oes	-6233
cean	-6234
rous	-6235
▁Bon	-6236
▁Dis	-6237
▁gig	-6238
▁tea	-6239
aving	-6240
opher	-6241
pring	-6242
usted	-6243
▁Gulf	-6244
▁Manh	-6245
▁bias	-6246
▁leap	-6247
▁White	-6248
▁aside	-6249
▁metab	-6250
▁orbit	-6251
▁plays	-6252
▁smoke	-6253
▁tries	-6254
erences	-6255
iveness	-6256
▁escape	-6257
▁geomet	-6258
▁invite	-6259
▁traged	-6260
▁citizen	-6261
▁density	-6262
▁herself	-6263
▁rebuild	-6264
▁slavery	-6265
▁synthes	-6266
▁whereas	-6267
▁appeared	-6268
▁darkness	-6269
▁meetings	-6270
▁reaching	-6271
ologically	-6272
▁Manhattan	-6273
▁consumers	-6274
▁household	-6275
▁permanent	-6276
▁reference	-6277
▁telescope	-6278
▁uncomfort	-6279
▁fascinated	-6280
▁philosophy	-6281
▁interacting	-6282
▁experiencing	-6283
▁interactions	-6284
Let	-6285
▁Po	-6286
ener	-6287
iggs	-6288
wich	-6289
▁Pre	-6290
▁Sec	-6291
clear	-6292
licit	-6293
mates	-6294
▁plot	-6295
▁champ	-6296
▁drove	-6297
▁units	-6298
▁wound	-6299
illance	-6300
▁astero	-6301
▁chocol	-6302
▁hungry	-6303
▁ignore	-6304
▁needle	-6305
▁pollen	-6306
▁writer	-6307
▁earthqu	-6308
▁prosper	-6309
▁unbelie	-6310
▁accepted	-6311
▁concepts	-6312
▁embedded	-6313
▁grateful	-6314
▁isolated	-6315
▁reported	-6316
▁treating	-6317
▁depending	-6318
▁recommend	-6319
▁telephone	-6320
▁contribute	-6321
▁resolution	-6322
▁interactive	-6323
▁universities	-6324
aks	-6325
ari	-6326
bal	-6327
cut	-6328
emp	-6329
hib	-6330
org	-6331
sum	-6332
amin	-6333
case	-6334
▁Get	-6335
▁gla	-6336
▁sed	-6337
esign	-6338
esity	-6339
leton	-6340
orter	-6341
while	-6342
▁Bush	-6343
▁cash	-6344
astern	-6345
▁Inter	-6346
▁Super	-6347
▁abund	-6348
▁adopt	-6349
▁delic	-6350
▁dirty	-6351
▁sales	-6352
▁schol	-6353
anthrop	-6354
attered	-6355
▁colony	-6356
▁devast	-6357
▁plenty	-6358
▁victim	-6359
▁exposed	-6360
▁habitat	-6361
▁license	-6362
▁organize	-6363
▁romantic	-6364
▁authentic	-6365
▁confident	-6366
▁practices	-6367
▁uncertain	-6368
▁commitment	-6369
▁strategies	-6370
fl	-6371
iac	-6372
ota	-6373
rid	-6374
sey	-6375
▁Op	-6376
ello	-6377
exas	-6378
keep	-6379
onna	-6380
walk	-6381
▁Lab	-6382
▁NGO	-6383
▁Nat	-6384
▁Syr	-6385
copes	-6386
under	-6387
▁Jack	-6388
▁Jeff	-6389
▁dict	-6390
▁golf	-6391
▁lung	-6392
▁pour	-6393
▁rush	-6394
lessly	-6395
▁Democ	-6396
▁likes	-6397
▁recru	-6398
century	-6399
ishment	-6400
▁heroes	-6401
▁repeat	-6402
▁retire	-6403
▁Nations	-6404
▁Nothing	-6405
▁dignity	-6406
▁divided	-6407
▁attached	-6408
▁elephant	-6409
▁involves	-6410
▁vertical	-6411
▁productivity	-6412
▁International	-6413
▁uncomfortable	-6414
3.	-6415
7.	-6416
PA	-6417
appy	-6418
esis	-6419
osen	-6420
▁Cor	-6421
▁Oct	-6422
▁Tor	-6423
▁beg	-6424
▁enh	-6425
▁tip	-6426
hythm	-6427
think	-6428
▁Narr	-6429
▁pink	-6430
▁sacr	-6431
phones	-6432
▁Higgs	-6433
▁Texas	-6434
▁banks	-6435
▁doors	-6436
▁fluid	-6437
▁fuels	-6438
▁utter	-6439
ogether	-6440
▁behave	-6441
▁eradic	-6442
▁fertil	-6443
▁latest	-6444
▁legacy	-6445
▁satisf	-6446
children	-6447
▁airport	-6448
▁monkeys	-6449
▁muscles	-6450
▁controls	-6451
▁globally	-6452
▁hardware	-6453
▁magnetic	-6454
▁shooting	-6455
▁lifestyle	-6456
▁apparently	-6457
▁controvers	-6458
▁engagement	-6459
▁entrepreneur	-6460
han	-6461
nels	-6462
ship	-6463
zens	-6464
▁Mad	-6465
▁bon	-6466
▁spr	-6467
▁tag	-6468
flies	-6469
worth	-6470
▁Turn	-6471
▁cous	-6472
▁cute	-6473
▁emph	-6474
▁flip	-6475
▁ugly	-6476
▁vibr	-6477
ivered	-6478
orking	-6479
ptions	-6480
▁aband	-6481
▁fifth	-6482
▁attrib	-6483
▁borrow	-6484
▁corals	-6485
▁defend	-6486
▁facial	-6487
▁lovely	-6488
▁powers	-6489
▁slides	-6490
▁surely	-6491
▁concern	-6492
▁scratch	-6493
▁sisters	-6494
▁Atlantic	-6495
▁district	-6496
▁recovery	-6497
▁paintings	-6498
▁searching	-6499
▁antibiotics	-6500
▁manufacture	-6501
▁transparency	-6502
▁neighborhoods	-6503
6.	-6504
gers	-6505
▁9/1	-6506
▁dio	-6507
angle	-6508
isons	-6509
osure	-6510
▁fulf	-6511
▁prev	-6512
▁till	-6513
▁tube	-6514
abetes	-6515
mented	-6516
▁Voice	-6517
▁brown	-6518
▁chief	-6519
▁crops	-6520
▁liver	-6521
▁usual	-6522
▁excell	-6523
▁layers	-6524
▁oldest	-6525
▁prices	-6526
▁scales	-6527
▁beliefs	-6528
▁diagram	-6529
▁lecture	-6530
▁parties	-6531
▁Stanford	-6532
▁breaking	-6533
▁estimate	-6534
▁particle	-6535
▁provides	-6536
▁stations	-6537
▁textbook	-6538
▁dedicated	-6539
▁virtually	-6540
▁cooperation	-6541
▁surveillance	-6542
uk	-6543
hop	-6544
top	-6545
▁Hi	-6546
▁Rw	-6547
▁id	-6548
ched	-6549
zees	-6550
▁Jes	-6551
▁ate	-6552
▁tri	-6553
There	-6554
agger	-6555
ckets	-6556
iated	-6557
▁rent	-6558
apping	-6559
▁Congo	-6560
▁Grand	-6561
▁Space	-6562
▁Woman	-6563
▁helic	-6564
▁purch	-6565
▁yield	-6566
section	-6567
▁Indeed	-6568
▁rescue	-6569
▁spider	-6570
▁weapon	-6571
▁amongst	-6572
▁instant	-6573
▁obesity	-6574
▁pretend	-6575
▁reconst	-6576
▁section	-6577
▁visited	-6578
▁delivered	-6579
▁elsewhere	-6580
▁furniture	-6581
▁intuitive	-6582
▁sculpture	-6583
▁historical	-6584
▁optimistic	-6585
▁consequence	-6586
▁underground	-6587
AR	-6588
ida	-6589
▁Hy	-6590
ideo	-6591
lims	-6592
ocal	-6593
tery	-6594
ubes	-6595
udes	-6596
▁Bay	-6597
▁Boy	-6598
▁Del	-6599
▁unp	-6600
archy	-6601
class	-6602
iders	-6603
▁High	-6604
▁Pole	-6605
▁ages	-6606
▁axis	-6607
▁corn	-6608
▁lock	-6609
▁rely	-6610
anzees	-6611
▁digit	-6612
▁skull	-6613
▁views	-6614
▁Martin	-6615
▁agenda	-6616
▁hardly	-6617
▁Islamic	-6618
▁crucial	-6619
▁dioxide	-6620
▁distant	-6621
▁federal	-6622
▁impacts	-6623
▁initial	-6624
▁monitor	-6625
▁opposed	-6626
▁suspect	-6627
▁football	-6628
▁laughing	-6629
▁mushroom	-6630
▁penguins	-6631
▁algorithm	-6632
▁backwards	-6633
▁generated	-6634
▁inspiring	-6635
▁intention	-6636
▁mechanics	-6637
▁reduction	-6638
▁functional	-6639
▁incentives	-6640
hh	-6641
aws	-6642
emic	-6643
lete	-6644
▁Leg	-6645
▁Nob	-6646
▁lin	-6647
▁mim	-6648
power	-6649
▁1990	-6650
▁Budd	-6651
▁Cons	-6652
▁cens	-6653
▁hire	-6654
▁Peter	-6655
▁chest	-6656
▁minor	-6657
▁sheep	-6658
▁spark	-6659
▁upset	-6660
▁yours	-6661
uration	-6662
▁capita	-6663
▁chosen	-6664
▁conven	-6665
▁dozens	-6666
▁frozen	-6667
▁locked	-6668
American	-6669
▁recover	-6670
▁focusing	-6671
▁encounter	-6672
▁Department	-6673
-1	-6674
hen	-6675
oir	-6676
doll	-6677
pass	-6678
▁hat	-6679
▁lob	-6680
alian	-6681
▁Back	-6682
▁Step	-6683
▁Wall	-6684
▁beer	-6685
▁earn	-6686
▁peer	-6687
▁rail	-6688
▁sket	-6689
▁Haiti	-6690
▁conce	-6691
▁laser	-6692
▁meter	-6693
▁pyram	-6694
▁route	-6695
▁stops	-6696
▁wings	-6697
forward	-6698
ughters	-6699
▁Palest	-6700
▁paraly	-6701
▁silent	-6702
▁stable	-6703
▁William	-6704
▁concert	-6705
▁delight	-6706
▁orchest	-6707
▁picking	-6708
▁Narrator	-6709
▁agencies	-6710
▁sandwich	-6711
▁investing	-6712
▁advertising	-6713
▁disappeared	-6714
▁spectacular	-6715
▁communications	-6716
ka	-6717
▁65	-6718
▁DH	-6719
fall	-6720
▁Eve	-6721
▁Tal	-6722
▁tro	-6723
▁wip	-6724
▁Stud	-6725
▁dish	-6726
▁Nobel	-6727
▁Scott	-6728
▁imper	-6729
▁reput	-6730
▁50,000	-6731
▁Really	-6732
▁poison	-6733
▁spoken	-6734
▁surviv	-6735
▁charity	-6736
▁consume	-6737
▁disrupt	-6738
▁essence	-6739
▁granted	-6740
▁printed	-6741
▁touched	-6742
▁external	-6743
▁refugees	-6744
▁animation	-6745
▁chocolate	-6746
▁integrated	-6747
▁motivation	-6748
▁protecting	-6749
▁electronics	-6750
▁transparent	-6751
▁breakthrough	-6752
▁characteristics	-6753
9.	-6754
ua	-6755
ali	-6756
asy	-6757
bed	-6758
bra	-6759
oma	-6760
▁$1	-6761
ding	-6762
oded	-6763
osal	-6764
oust	-6765
▁195	-6766
▁Ice	-6767
▁Net	-6768
▁aqu	-6769
▁cab	-6770
▁wet	-6771
allow	-6772
cence	-6773
going	-6774
quare	-6775
▁Arch	-6776
▁debt	-6777
▁dive	-6778
▁excl	-6779
▁fool	-6780
▁quit	-6781
heimer	-6782
▁Italy	-6783
▁Video	-6784
▁pilot	-6785
▁shake	-6786
▁sheet	-6787
▁tears	-6788
▁expans	-6789
▁output	-6790
▁shadow	-6791
▁talent	-6792
▁trends	-6793
▁anxiety	-6794
▁bicycle	-6795
▁ceiling	-6796
▁letting	-6797
▁passing	-6798
▁refugee	-6799
▁astronom	-6800
▁diabetes	-6801
▁northern	-6802
▁repeated	-6803
▁theories	-6804
▁objective	-6805
▁affordable	-6806
▁mechanisms	-6807
▁transplant	-6808
▁photography	-6809
▁programming	-6810
▁participation	-6811
arp	-6812
cel	-6813
ras	-6814
▁Bu	-6815
born	-6816
ione	-6817
▁Fin	-6818
▁Rio	-6819
▁Vir	-6820
▁gam	-6821
▁gro	-6822
▁obl	-6823
▁wra	-6824
ctica	-6825
▁1980	-6826
▁Girl	-6827
▁alco	-6828
▁susp	-6829
mitted	-6830
othing	-6831
▁advoc	-6832
▁apple	-6833
▁drawn	-6834
▁drill	-6835
▁elder	-6836
▁gonna	-6837
▁legit	-6838
▁manif	-6839
▁marry	-6840
▁proof	-6841
▁veter	-6842
▁20,000	-6843
▁Jewish	-6844
▁absorb	-6845
▁actors	-6846
▁margin	-6847
▁orange	-6848
▁Muslims	-6849
▁clients	-6850
▁defense	-6851
▁hanging	-6852
▁officer	-6853
▁baseball	-6854
▁choosing	-6855
▁contains	-6856
▁dolphins	-6857
▁educated	-6858
▁Christian	-6859
▁announced	-6860
▁conflicts	-6861
▁continues	-6862
▁strangers	-6863
▁terrorist	-6864
▁Antarctica	-6865
▁rainforest	-6866
▁discoveries	-6867
▁ingredients	-6868
▁neuroscience	-6869
BI	-6870
▁x	-6871
ket	-6872
lyn	-6873
rol	-6874
uba	-6875
war	-6876
▁Ug	-6877
ober	-6878
▁Bob	-6879
▁Hom	-6880
▁ric	-6881
isted	-6882
omous	-6883
state	-6884
▁mold	-6885
▁tech	-6886
▁tied	-6887
dollar	-6888
usions	-6889
▁River	-6890
▁chaos	-6891
▁coach	-6892
▁finds	-6893
▁naked	-6894
▁punch	-6895
▁perpet	-6896
▁sacred	-6897
▁smooth	-6898
▁chapter	-6899
▁disturb	-6900
▁drivers	-6901
▁helicop	-6902
▁pointed	-6903
▁reduced	-6904
▁welcome	-6905
▁wheelch	-6906
▁Research	-6907
▁dominant	-6908
▁laughter	-6909
▁diagnosed	-6910
▁governance	-6911
▁struggling	-6912
▁demonstrate	-6913
So	-6914
li	-6915
▁Ox	-6916
▁na	-6917
fold	-6918
▁Fre	-6919
▁Sea	-6920
▁Ten	-6921
▁Was	-6922
▁hip	-6923
stage	-6924
▁1970	-6925
▁Sing	-6926
▁Tell	-6927
▁boom	-6928
▁east	-6929
▁kiss	-6930
▁pand	-6931
▁trop	-6932
utical	-6933
▁opens	-6934
▁paras	-6935
viously	-6936
▁emphas	-6937
▁nurses	-6938
▁reveal	-6939
▁settle	-6940
▁shaped	-6941
▁subtle	-6942
▁October	-6943
▁circles	-6944
▁happier	-6945
▁attitude	-6946
▁database	-6947
▁dynamics	-6948
▁inherent	-6949
▁lighting	-6950
▁shopping	-6951
▁southern	-6952
▁dimension	-6953
▁elections	-6954
▁boundaries	-6955
▁identified	-6956
▁ridiculous	-6957
▁astonishing	-6958
▁improvement	-6959
aj	-6960
Can	-6961
def	-6962
arsh	-6963
irds	-6964
thal	-6965
▁10-	-6966
▁der	-6967
▁fib	-6968
▁hol	-6969
▁pra	-6970
gging	-6971
▁Span	-6972
▁bubb	-6973
▁quad	-6974
▁sink	-6975
▁4,000	-6976
▁angle	-6977
▁brave	-6978
▁diver	-6979
▁glaci	-6980
▁links	-6981
▁lungs	-6982
▁relax	-6983
▁strip	-6984
▁Things	-6985
▁adjust	-6986
▁agency	-6987
▁farmer	-6988
▁lawyer	-6989
▁neural	-6990
▁origin	-6991
▁senior	-6992
▁chances	-6993
▁painted	-6994
▁reports	-6995
▁session	-6996
▁symbols	-6997
▁tragedy	-6998
aceutical	-6999
▁surfaces	-7000
▁daughters	-7001
▁highlight	-7002
▁disability	-7003
▁simplicity	-7004
▁chimpanzees	-7005
▁innovations	-7006
mi	-7007
And	-7008
bul	-7009
edy	-7010
omb	-7011
▁32	-7012
▁Ap	-7013
▁Jo	-7014
icks	-7015
rons	-7016
▁Alz	-7017
▁Bel	-7018
▁nit	-7019
athan	-7020
front	-7021
itate	-7022
tical	-7023
▁adap	-7024
▁enth	-7025
▁laid	-7026
▁mood	-7027
▁salt	-7028
arents	-7029
ietnam	-7030
▁Smith	-7031
▁edges	-7032
▁extre	-7033
▁flows	-7034
▁schem	-7035
▁intent	-7036
▁landed	-7037
▁rarely	-7038
▁richer	-7039
▁stages	-7040
▁tricks	-7041
▁anthrop	-7042
▁traject	-7043
▁bathroom	-7044
▁reminded	-7045
▁symmetry	-7046
▁Alzheimer	-7047
▁synthetic	-7048
▁disappoint	-7049
▁earthquake	-7050
▁philanthrop	-7051
▁probability	-7052
auc	-7053
ixt	-7054
izer	-7055
ulum	-7056
▁'60	-7057
▁MRI	-7058
▁mur	-7059
▁unh	-7060
Where	-7061
oding	-7062
▁Mand	-7063
▁dump	-7064
▁glad	-7065
▁incl	-7066
▁lift	-7067
▁neat	-7068
▁pile	-7069
▁Ocean	-7070
▁cryst	-7071
▁exped	-7072
▁monit	-7073
▁roots	-7074
▁seats	-7075
▁skept	-7076
▁threw	-7077
▁ultra	-7078
unction	-7079
▁adding	-7080
▁emerge	-7081
▁regret	-7082
▁served	-7083
▁shrimp	-7084
▁stores	-7085
▁consult	-7086
▁smoking	-7087
▁aircraft	-7088
▁artistic	-7089
▁informed	-7090
▁minister	-7091
▁returned	-7092
▁abilities	-7093
▁adventure	-7094
▁dependent	-7095
▁musicians	-7096
▁physicist	-7097
▁originally	-7098
▁permission	-7099
▁terrorists	-7100
▁assumptions	-7101
▁agricultural	-7102
▁intervention	-7103
ams	-7104
cap	-7105
erd	-7106
pox	-7107
ura	-7108
▁2,	-7109
▁Ok	-7110
▁gh	-7111
ason	-7112
rich	-7113
▁Sou	-7114
▁Sov	-7115
▁aer	-7116
▁dim	-7117
▁lux	-7118
▁caps	-7119
▁mail	-7120
▁sits	-7121
▁tear	-7122
▁toys	-7123
▁Bible	-7124
▁Third	-7125
▁blame	-7126
▁fract	-7127
▁holds	-7128
▁realm	-7129
▁thumb	-7130
▁unpre	-7131
astroph	-7132
igation	-7133
▁Uganda	-7134
▁athlet	-7135
▁commod	-7136
▁degrad	-7137
▁funded	-7138
▁injury	-7139
▁neuron	-7140
▁rating	-7141
▁Through	-7142
▁Vietnam	-7143
▁Whether	-7144
▁ethical	-7145
▁failing	-7146
▁millenn	-7147
▁miracle	-7148
▁promote	-7149
▁sensory	-7150
▁warning	-7151
▁Ethiopia	-7152
▁facility	-7153
▁flexible	-7154
▁Obviously	-7155
▁calculate	-7156
▁predicted	-7157
▁separated	-7158
▁afterwards	-7159
▁capability	-7160
▁determined	-7161
▁mysterious	-7162
▁suggesting	-7163
▁underlying	-7164
▁predictions	-7165
▁biodiversity	-7166
▁participants	-7167
▁photographer	-7168
fe	-7169
tw	-7170
▁0.	-7171
When	-7172
fess	-7173
phor	-7174
urse	-7175
▁Bur	-7176
▁Hel	-7177
▁Lar	-7178
▁Mac	-7179
▁aes	-7180
▁bio	-7181
enger	-7182
ested	-7183
field	-7184
inder	-7185
inson	-7186
ribly	-7187
▁1960	-7188
▁Cour	-7189
▁Sund	-7190
▁Time	-7191
▁bars	-7192
▁hier	-7193
▁nets	-7194
▁tort	-7195
▁wise	-7196
▁Child	-7197
▁Johns	-7198
▁begun	-7199
▁disag	-7200
▁evalu	-7201
▁gases	-7202
▁merely	-7203
▁observ	-7204
▁prosec	-7205
▁robust	-7206
▁simult	-7207
▁theore	-7208
fficient	-7209
▁Eastern	-7210
▁General	-7211
▁briefly	-7212
▁pulling	-7213
▁speaker	-7214
▁conclude	-7215
▁includes	-7216
▁restrict	-7217
▁speakers	-7218
▁depressed	-7219
▁sentences	-7220
▁suggested	-7221
▁teenagers	-7222
▁variation	-7223
▁additional	-7224
▁biologists	-7225
▁ecosystems	-7226
▁treatments	-7227
▁experimental	-7228
▁successfully	-7229
▁grandchildren	-7230
Ch	-7231
Wow	-7232
ena	-7233
esh	-7234
rey	-7235
▁26	-7236
▁95	-7237
ahar	-7238
ardo	-7239
bits	-7240
iece	-7241
▁120	-7242
▁191	-7243
▁Mor	-7244
▁Som	-7245
▁Wal	-7246
▁wid	-7247
arity	-7248
capes	-7249
iment	-7250
▁clim	-7251
▁eleg	-7252
▁hill	-7253
▁soap	-7254
makers	-7255
mingly	-7256
yright	-7257
▁Prize	-7258
▁arrow	-7259
▁flour	-7260
▁reson	-7261
isphere	-7262
unclear	-7263
▁Nature	-7264
▁Virgin	-7265
▁Within	-7266
▁breaks	-7267
▁ethnic	-7268
▁linear	-7269
▁poster	-7270
▁tribes	-7271
▁alcohol	-7272
▁comprom	-7273
▁females	-7274
▁imaging	-7275
▁lawyers	-7276
▁magical	-7277
▁targets	-7278
▁crossing	-7279
▁throwing	-7280
▁accidents	-7281
▁elephants	-7282
▁positions	-7283
▁catastroph	-7284
▁categories	-7285
▁reputation	-7286
▁collaborative	-7287
▁interestingly	-7288
▁significantly	-7289
wl	-7290
agh	-7291
ete	-7292
leep	-7293
rome	-7294
▁Aug	-7295
▁Hey	-7296
▁Hum	-7297
▁Les	-7298
▁Six	-7299
▁lon	-7300
obile	-7301
▁Flor	-7302
▁Gand	-7303
▁anat	-7304
▁meal	-7305
▁stom	-7306
▁vent	-7307
▁wing	-7308
iatric	-7309
icious	-7310
▁Cambr	-7311
▁actor	-7312
▁algae	-7313
▁balls	-7314
▁lions	-7315
▁reefs	-7316
related	-7317
▁Rwanda	-7318
▁adoles	-7319
▁buried	-7320
▁combat	-7321
▁decent	-7322
▁ensure	-7323
▁fought	-7324
▁heaven	-7325
▁rivers	-7326
▁tackle	-7327
▁thresh	-7328
▁deliber	-7329
▁fastest	-7330
▁shelter	-7331
▁shocked	-7332
▁Southern	-7333
▁dinosaur	-7334
▁incident	-7335
▁measures	-7336
▁scenario	-7337
▁sleeping	-7338
▁unlikely	-7339
▁exception	-7340
▁expanding	-7341
▁frequency	-7342
▁frustrated	-7343
▁unbelievable	-7344
sp	-7345
ala	-7346
ann	-7347
aze	-7348
cip	-7349
oly	-7350
▁Ty	-7351
Talk	-7352
alty	-7353
arre	-7354
free	-7355
ocin	-7356
onic	-7357
ownt	-7358
west	-7359
yard	-7360
▁Acc	-7361
▁Put	-7362
▁Ven	-7363
amine	-7364
ifice	-7365
izoph	-7366
reens	-7367
▁None	-7368
▁Star	-7369
▁knee	-7370
▁mall	-7371
▁pupp	-7372
▁tuna	-7373
encing	-7374
soever	-7375
▁Carol	-7376
▁bears	-7377
▁burst	-7378
▁craft	-7379
▁mixed	-7380
▁pione	-7381
▁Design	-7382
▁partly	-7383
▁trucks	-7384
▁waters	-7385
▁widely	-7386
▁affects	-7387
▁analyze	-7388
▁enforce	-7389
▁printer	-7390
▁smarter	-7391
▁confused	-7392
▁proposed	-7393
▁forgotten	-7394
▁ignorance	-7395
▁immediate	-7396
▁passwords	-7397
▁radically	-7398
▁supported	-7399
▁approaches	-7400
▁inevitable	-7401
▁operations	-7402
▁whatsoever	-7403
▁wheelchair	-7404
▁professionals	-7405
sc	-7406
ani	-7407
opy	-7408
apor	-7409
▁Mod	-7410
▁Ros	-7411
▁Sur	-7412
▁ain	-7413
▁lit	-7414
erved	-7415
ician	-7416
ilize	-7417
▁Long	-7418
▁Rome	-7419
▁asks	-7420
▁cats	-7421
▁cong	-7422
▁defe	-7423
▁mate	-7424
▁neck	-7425
▁prec	-7426
cember	-7427
itudes	-7428
nocent	-7429
▁genoc	-7430
▁nerve	-7431
▁pairs	-7432
▁safer	-7433
athered	-7434
▁During	-7435
▁Oxford	-7436
▁assess	-7437
▁caring	-7438
▁panels	-7439
▁shrink	-7440
▁volcan	-7441
▁disgust	-7442
▁enables	-7443
▁founded	-7444
▁helpful	-7445
▁imagery	-7446
▁immense	-7447
▁routine	-7448
▁Children	-7449
▁arrested	-7450
▁category	-7451
▁dialogue	-7452
▁extended	-7453
▁figuring	-7454
▁documents	-7455
▁gradually	-7456
▁nutrition	-7457
▁physician	-7458
bru	-7459
liam	-7460
umes	-7461
▁700	-7462
▁Out	-7463
▁Que	-7464
adays	-7465
clock	-7466
rants	-7467
▁Cont	-7468
▁acid	-7469
▁beet	-7470
▁guns	-7471
▁whis	-7472
izarre	-7473
market	-7474
▁Gates	-7475
▁March	-7476
▁array	-7477
▁elite	-7478
▁fiber	-7479
▁joint	-7480
▁nurse	-7481
▁owner	-7482
▁trail	-7483
▁tribe	-7484
▁weeke	-7485
▁arrive	-7486
▁basket	-7487
▁domain	-7488
▁killer	-7489
▁pursue	-7490
▁sensor	-7491
▁sticks	-7492
▁Florida	-7493
▁convert	-7494
▁deserve	-7495
▁elected	-7496
▁fragile	-7497
▁hackers	-7498
▁involve	-7499
▁observe	-7500
▁origami	-7501
▁revenue	-7502
▁December	-7503
▁answered	-7504
▁entering	-7505
▁invested	-7506
▁manifest	-7507
▁stranger	-7508
▁suffered	-7509
▁intuition	-7510
▁primitive	-7511
▁prisoners	-7512
▁correspond	-7513
▁dictionary	-7514
▁translated	-7515
▁instructions	-7516
▁pharmaceutical	-7517
▁representation	-7518
EC	-7519
OK	-7520
▁LG	-7521
▁Up	-7522
igen	-7523
▁Hen	-7524
▁Lib	-7525
▁Unt	-7526
▁cas	-7527
▁ink	-7528
atrix	-7529
eller	-7530
oning	-7531
puter	-7532
tocin	-7533
▁Move	-7534
▁cert	-7535
▁stab	-7536
▁nucle	-7537
▁spots	-7538
▁trash	-7539
▁uncle	-7540
▁barrel	-7541
▁compos	-7542
▁regime	-7543
▁vacuum	-7544
izophren	-7545
▁Spanish	-7546
▁TEDTalk	-7547
▁contrad	-7548
▁enterpr	-7549
▁fabulous	-7550
▁optimism	-7551
▁smallpox	-7552
▁survived	-7553
▁expansion	-7554
▁primarily	-7555
forestation	-7556
▁attractive	-7557
▁explaining	-7558
▁satellites	-7559
▁constructed	-7560
▁surprisingly	-7561
▁globalization	-7562
"]	-7563
.]	-7564
MA	-7565
hal	-7566
ora	-7567
str	-7568
▁BF	-7569
agos	-7570
ague	-7571
atts	-7572
onia	-7573
utch	-7574
▁800	-7575
▁Gab	-7576
▁Mom	-7577
▁Moo	-7578
▁Ser	-7579
▁boo	-7580
▁hey	-7581
anged	-7582
aning	-7583
gency	-7584
riger	-7585
▁Gore	-7586
▁brib	-7587
▁brut	-7588
▁crew	-7589
▁dear	-7590
▁file	-7591
▁lake	-7592
▁mode	-7593
▁rice	-7594
employ	-7595
iology	-7596
mental	-7597
ortion	-7598
▁Court	-7599
▁chron	-7600
▁cliff	-7601
▁miser	-7602
▁sharp	-7603
▁shout	-7604
▁silly	-7605
▁burned	-7606
▁curric	-7607
▁enthus	-7608
▁inches	-7609
▁stroke	-7610
▁adopted	-7611
▁bizarre	-7612
▁emerged	-7613
▁farming	-7614
▁protest	-7615
▁pyramid	-7616
▁soldier	-7617
▁threats	-7618
▁leverage	-7619
▁refriger	-7620
▁versions	-7621
▁investors	-7622
▁paralyzed	-7623
▁perceived	-7624
▁consistent	-7625
▁industries	-7626
▁proportion	-7627
▁competitive	-7628
▁observation	-7629
▁connectivity	-7630
▁transmission	-7631
▁architectural	-7632
DA	-7633
LA	-7634
▁3.	-7635
▁KB	-7636
eart	-7637
edge	-7638
emen	-7639
half	-7640
iban	-7641
iens	-7642
part	-7643
▁Sar	-7644
▁jun	-7645
ading	-7646
▁Blue	-7647
▁bags	-7648
▁bats	-7649
▁tong	-7650
bruary	-7651
engine	-7652
rained	-7653
▁Brown	-7654
▁chips	-7655
▁civic	-7656
▁jelly	-7657
▁squee	-7658
inarily	-7659
liament	-7660
lishing	-7661
▁Arabic	-7662
▁August	-7663
▁Mother	-7664
▁Should	-7665
▁chairs	-7666
▁client	-7667
▁curren	-7668
▁intrig	-7669
▁jumped	-7670
▁upside	-7671
▁hitting	-7672
▁prepare	-7673
▁winning	-7674
istically	-7675
▁February	-7676
▁channels	-7677
▁fraction	-7678
▁included	-7679
▁innocent	-7680
▁neurolog	-7681
▁skeleton	-7682
▁gathering	-7683
▁healthier	-7684
▁initially	-7685
▁medication	-7686
▁simulation	-7687
▁threatened	-7688
▁traditions	-7689
▁schizophren	-7690
MS	-7691
bow	-7692
che	-7693
kin	-7694
▁Os	-7695
ache	-7696
eday	-7697
enly	-7698
play	-7699
▁'70	-7700
▁'90	-7701
▁Den	-7702
▁Isn	-7703
▁Kev	-7704
▁Mag	-7705
▁gee	-7706
▁sew	-7707
elled	-7708
▁Beij	-7709
▁dies	-7710
▁dumb	-7711
▁sulf	-7712
▁tone	-7713
▁wedd	-7714
semble	-7715
▁Greek	-7716
▁Titan	-7717
▁bored	-7718
▁downt	-7719
▁gotta	-7720
▁plain	-7721
▁screw	-7722
▁stake	-7723
embered	-7724
usiness	-7725
▁Saturn	-7726
▁Soviet	-7727
▁bullet	-7728
▁column	-7729
▁ending	-7730
▁orient	-7731
▁recept	-7732
▁tragic	-7733
▁Russian	-7734
▁closing	-7735
▁elderly	-7736
▁footage	-7737
▁forming	-7738
▁garbage	-7739
▁paradox	-7740
▁selfish	-7741
▁writers	-7742
▁Somebody	-7743
▁accounts	-7744
▁articles	-7745
▁climbing	-7746
▁covering	-7747
▁judgment	-7748
▁sciences	-7749
▁stereoty	-7750
▁strongly	-7751
▁explosion	-7752
▁fortunate	-7753
▁nutrients	-7754
▁difficulty	-7755
▁extinction	-7756
▁resilience	-7757
▁description	-7758
▁exponential	-7759
▁journalists	-7760
▁translation	-7761
▁capabilities	-7762
▁contemporary	-7763
▁demonstration	-7764
err	-7765
mod	-7766
sun	-7767
yan	-7768
airo	-7769
bola	-7770
road	-7771
zero	-7772
▁'80	-7773
▁Hol	-7774
▁Jud	-7775
▁cig	-7776
▁pix	-7777
▁upd	-7778
lings	-7779
opard	-7780
otted	-7781
▁Give	-7782
▁Play	-7783
▁butt	-7784
▁cott	-7785
▁duck	-7786
▁grat	-7787
▁leaf	-7788
▁plug	-7789
fessor	-7790
icient	-7791
rowing	-7792
▁Asian	-7793
▁Spain	-7794
▁funds	-7795
▁hired	-7796
▁immig	-7797
▁incor	-7798
▁panel	-7799
▁wider	-7800
▁wired	-7801
parents	-7802
▁Square	-7803
▁Turkey	-7804
▁scores	-7805
cedented	-7806
quarters	-7807
▁discrim	-7808
▁graphic	-7809
▁liberal	-7810
▁methane	-7811
▁regener	-7812
▁serving	-7813
▁colonies	-7814
▁distingu	-7815
▁homework	-7816
▁improved	-7817
▁keyboard	-7818
▁mosquito	-7819
▁navigate	-7820
▁reducing	-7821
▁scholars	-7822
▁broadcast	-7823
▁copyright	-7824
▁expertise	-7825
▁infection	-7826
▁instantly	-7827
▁threshold	-7828
▁autonomous	-7829
▁compelling	-7830
▁hypothesis	-7831
▁authorities	-7832
▁genetically	-7833
ET	-7834
va	-7835
elf	-7836
enh	-7837
uty	-7838
conf	-7839
▁Jon	-7840
▁Tim	-7841
▁aug	-7842
▁awk	-7843
▁Brun	-7844
▁Comp	-7845
▁Coun	-7846
▁Dere	-7847
▁Miss	-7848
▁bold	-7849
▁carr	-7850
▁cham	-7851
▁dism	-7852
▁irre	-7853
▁sole	-7854
urable	-7855
▁Power	-7856
▁brows	-7857
▁caves	-7858
▁excit	-7859
▁fraud	-7860
▁pride	-7861
▁spray	-7862
▁steal	-7863
▁stunt	-7864
▁tempt	-7865
▁Norway	-7866
▁dating	-7867
▁formal	-7868
▁garage	-7869
▁tracks	-7870
▁Italian	-7871
▁Silicon	-7872
▁Taliban	-7873
▁Without	-7874
▁awkward	-7875
▁bubbles	-7876
▁compete	-7877
▁demands	-7878
▁periods	-7879
▁tissues	-7880
▁uniform	-7881
▁wealthy	-7882
▁detailed	-7883
▁homeless	-7884
▁listened	-7885
▁oxytocin	-7886
▁Cambridge	-7887
▁completed	-7888
▁improving	-7889
▁qualities	-7890
▁reactions	-7891
▁remembered	-7892
▁uncertainty	-7893
▁conservative	-7894
mo	-7895
Who	-7896
ela	-7897
lar	-7898
rit	-7899
▁ub	-7900
aded	-7901
kind	-7902
ords	-7903
xual	-7904
▁20,	-7905
▁Det	-7906
▁LED	-7907
▁Lou	-7908
▁Mah	-7909
▁Nic	-7910
▁Wow	-7911
irect	-7912
maker	-7913
ville	-7914
▁gods	-7915
▁odds	-7916
▁pale	-7917
▁pige	-7918
▁triv	-7919
esthes	-7920
▁2009,	-7921
▁Jesus	-7922
▁Organ	-7923
▁Under	-7924
▁agent	-7925
▁cable	-7926
▁intim	-7927
▁kills	-7928
▁owned	-7929
▁rehab	-7930
▁shots	-7931
▁spons	-7932
▁valid	-7933
itating	-7934
▁Arctic	-7935
▁Govern	-7936
▁aggreg	-7937
▁appeal	-7938
▁convey	-7939
▁metric	-7940
▁pedest	-7941
▁unable	-7942
changing	-7943
▁beating	-7944
▁dolphin	-7945
▁drought	-7946
▁harness	-7947
▁horizon	-7948
▁manager	-7949
▁washing	-7950
▁clothing	-7951
▁drawings	-7952
▁explains	-7953
▁remained	-7954
▁gentleman	-7955
▁remaining	-7956
▁renewable	-7957
▁curriculum	-7958
▁excitement	-7959
▁facilities	-7960
▁profoundly	-7961
▁reasonable	-7962
▁structural	-7963
▁supporting	-7964
▁trajectory	-7965
▁achievement	-7966
▁established	-7967
▁interviewed	-7968
▁collectively	-7969
▁unprecedented	-7970
CA	-7971
ais	-7972
ati	-7973
ctu	-7974
agen	-7975
ails	-7976
ares	-7977
atar	-7978
fast	-7979
illa	-7980
ilty	-7981
omin	-7982
oral	-7983
viol	-7984
▁FBI	-7985
▁Tel	-7986
▁bug	-7987
▁ham	-7988
arest	-7989
asses	-7990
itous	-7991
ostic	-7992
stone	-7993
▁Both	-7994
▁alph	-7995
▁blah	-7996
▁damn	-7997
▁deli	-7998
▁exha	-7999
▁gear	-8000
▁lamp	-8001
▁outs	-8002
▁suck	-8003
▁2010,	-8004
▁Brook	-8005
▁Ebola	-8006
▁Moore	-8007
▁audio	-8008
▁fears	-8009
angible	-8010
working	-8011
▁assets	-8012
▁export	-8013
▁headed	-8014
▁mining	-8015
▁safely	-8016
▁ticket	-8017
▁tumors	-8018
▁beneath	-8019
▁besides	-8020
▁fortune	-8021
▁minimum	-8022
▁restore	-8023
▁staying	-8024
▁Northern	-8025
▁Secondly	-8026
▁applying	-8027
▁socially	-8028
▁tendency	-8029
▁unemploy	-8030
▁anonymous	-8031
▁factories	-8032
▁microbial	-8033
▁realizing	-8034
▁replicate	-8035
▁volunteer	-8036
▁prosperity	-8037
▁beautifully	-8038
▁unconscious	-8039
▁simultaneously	-8040
obs	-8041
oli	-8042
▁AB	-8043
▁rh	-8044
away	-8045
▁Bet	-8046
▁Sir	-8047
▁Tes	-8048
▁cub	-8049
▁inn	-8050
▁ven	-8051
▁July	-8052
▁Make	-8053
▁gaps	-8054
▁hors	-8055
▁loan	-8056
▁lone	-8057
▁sail	-8058
▁sett	-8059
▁soup	-8060
▁west	-8061
atever	-8062
▁2007,	-8063
▁Chile	-8064
▁Trans	-8065
▁anten	-8066
▁bucks	-8067
▁incar	-8068
▁membr	-8069
▁outer	-8070
▁pound	-8071
▁ships	-8072
▁tends	-8073
▁30,000	-8074
▁Friday	-8075
▁Scient	-8076
▁annual	-8077
▁binary	-8078
▁burden	-8079
▁cheese	-8080
▁golden	-8081
▁loving	-8082
andering	-8083
interest	-8084
▁educate	-8085
▁located	-8086
▁offices	-8087
▁profits	-8088
▁rolling	-8089
▁secrets	-8090
▁disabled	-8091
▁gathered	-8092
▁genocide	-8093
▁intended	-8094
▁observed	-8095
▁pandemic	-8096
▁peaceful	-8097
▁perceive	-8098
▁pointing	-8099
▁preserve	-8100
▁purposes	-8101
▁diagnosis	-8102
▁expecting	-8103
▁responses	-8104
▁substance	-8105
▁transcend	-8106
▁challenged	-8107
▁encouraged	-8108
▁expectancy	-8109
▁hemisphere	-8110
▁prediction	-8111
▁computation	-8112
▁corporations	-8113
▁photographed	-8114
▁institutional	-8115
He	-8116
des	-8117
eds	-8118
see	-8119
▁85	-8120
imps	-8121
kins	-8122
neys	-8123
pled	-8124
▁Far	-8125
▁sin	-8126
anges	-8127
bling	-8128
gines	-8129
human	-8130
umble	-8131
▁Bell	-8132
▁Hall	-8133
▁cake	-8134
▁clay	-8135
▁gate	-8136
▁nurt	-8137
▁phos	-8138
▁pref	-8139
▁tsun	-8140
active	-8141
aharan	-8142
▁badly	-8143
▁camps	-8144
▁fault	-8145
▁loves	-8146
▁tooth	-8147
▁Ladies	-8148
▁beaten	-8149
▁errors	-8150
▁negoti	-8151
▁occurs	-8152
▁recipe	-8153
▁skelet	-8154
▁analogy	-8155
▁arrange	-8156
▁charges	-8157
▁closest	-8158
▁courses	-8159
▁engines	-8160
▁mindset	-8161
▁neutral	-8162
▁portion	-8163
▁trigger	-8164
▁Although	-8165
▁delivery	-8166
▁downtown	-8167
▁friendly	-8168
▁musician	-8169
▁openness	-8170
▁magnitude	-8171
▁motivated	-8172
▁ownership	-8173
▁accomplish	-8174
▁assumption	-8175
▁impressive	-8176
▁physicists	-8177
▁desperately	-8178
],	-8179
].	-8180
aa	-8181
ye	-8182
aby	-8183
bar	-8184
eda	-8185
ini	-8186
lla	-8187
▁CD	-8188
asty	-8189
cost	-8190
made	-8191
▁202	-8192
apped	-8193
chool	-8194
icial	-8195
inter	-8196
lades	-8197
oples	-8198
▁labs	-8199
▁murd	-8200
▁nerd	-8201
▁orph	-8202
▁sons	-8203
▁urge	-8204
iences	-8205
▁2000,	-8206
▁2008,	-8207
▁Henry	-8208
▁Until	-8209
▁align	-8210
▁armed	-8211
▁fancy	-8212
▁fires	-8213
▁knife	-8214
▁opera	-8215
▁spont	-8216
Saharan	-8217
otherap	-8218
▁Church	-8219
▁Sunday	-8220
▁claims	-8221
▁crimes	-8222
▁luxury	-8223
▁native	-8224
▁proved	-8225
▁silver	-8226
▁strike	-8227
▁Beijing	-8228
▁Develop	-8229
▁bedroom	-8230
▁glasses	-8231
▁hardest	-8232
▁islands	-8233
▁peoples	-8234
▁persist	-8235
▁propose	-8236
▁someday	-8237
▁spreads	-8238
▁activist	-8239
▁comments	-8240
▁failures	-8241
▁insights	-8242
▁mobility	-8243
▁precious	-8244
▁reliable	-8245
▁striking	-8246
▁substant	-8247
▁Banglades	-8248
▁airplanes	-8249
▁conducted	-8250
▁extension	-8251
▁graduated	-8252
▁workforce	-8253
▁aggressive	-8254
▁comparison	-8255
▁continuous	-8256
▁influenced	-8257
▁newspapers	-8258
▁telescopes	-8259
▁terrifying	-8260
▁discovering	-8261
▁enforcement	-8262
▁limitations	-8263
▁mathematicians	-8264
BM	-8265
udi	-8266
▁Es	-8267
▁RB	-8268
eady	-8269
erer	-8270
ifer	-8271
long	-8272
outs	-8273
umin	-8274
▁Dra	-8275
▁Ext	-8276
▁Joe	-8277
▁lap	-8278
ashed	-8279
burgh	-8280
ellig	-8281
opath	-8282
▁2050	-8283
▁Jose	-8284
▁Leon	-8285
▁Norm	-8286
▁Same	-8287
▁Sure	-8288
▁Walk	-8289
▁brid	-8290
▁dawn	-8291
▁genu	-8292
▁melt	-8293
▁rats	-8294
cation	-8295
itated	-8296
minute	-8297
orious	-8298
▁Being	-8299
▁Derek	-8300
▁Sorry	-8301
▁drown	-8302
▁energ	-8303
▁entry	-8304
▁foods	-8305
▁hated	-8306
▁incom	-8307
▁inhab	-8308
▁inher	-8309
▁items	-8310
▁lifes	-8311
▁parks	-8312
▁shore	-8313
igenous	-8314
▁branch	-8315
▁cosmic	-8316
▁hiding	-8317
▁makers	-8318
▁recall	-8319
▁traits	-8320
▁tunnel	-8321
▁upload	-8322
▁bottles	-8323
▁dressed	-8324
▁hunting	-8325
▁percept	-8326
▁profile	-8327
▁Minister	-8328
▁connects	-8329
▁magnific	-8330
▁morality	-8331
▁terribly	-8332
▁wildlife	-8333
▁obstacles	-8334
▁temporary	-8335
▁appearance	-8336
▁helicopter	-8337
▁indigenous	-8338
▁approaching	-8339
▁constraints	-8340
▁demographic	-8341
▁restaurants	-8342
▁humanitarian	-8343
▁concentration	-8344
▁deforestation	-8345
gu	-8346
All	-8347
cro	-8348
fly	-8349
▁28	-8350
▁33	-8351
▁Bo	-8352
▁Us	-8353
▁je	-8354
agon	-8355
aves	-8356
cons	-8357
four	-8358
iful	-8359
imal	-8360
rian	-8361
ropy	-8362
▁Cra	-8363
▁Met	-8364
▁nom	-8365
▁rac	-8366
ensus	-8367
gence	-8368
icked	-8369
inery	-8370
▁Camp	-8371
▁Fore	-8372
▁Mike	-8373
▁Open	-8374
▁bell	-8375
▁bind	-8376
▁infl	-8377
▁mild	-8378
▁shit	-8379
▁subt	-8380
▁synd	-8381
▁tune	-8382
▁woke	-8383
▁wrap	-8384
▁Kevin	-8385
▁Peace	-8386
▁Santa	-8387
▁drops	-8388
▁farms	-8389
▁guard	-8390
▁ratio	-8391
perform	-8392
▁Almost	-8393
▁butter	-8394
▁campus	-8395
▁estate	-8396
▁halluc	-8397
▁matrix	-8398
▁murder	-8399
▁nearby	-8400
▁nights	-8401
▁offers	-8402
▁tongue	-8403
▁Indians	-8404
▁Islands	-8405
▁cigaret	-8406
▁fluores	-8407
▁genuine	-8408
▁ignored	-8409
▁kingdom	-8410
▁logical	-8411
▁metabol	-8412
▁stepped	-8413
efficient	-8414
▁Palestin	-8415
▁believes	-8416
▁genetics	-8417
▁honestly	-8418
▁teenager	-8419
▁agreement	-8420
▁detection	-8421
▁residents	-8422
▁sacrifice	-8423
▁Technology	-8424
▁ecological	-8425
▁researcher	-8426
▁fortunately	-8427
▁vulnerability	-8428
▁straightforward	-8429
gal	-8430
lan	-8431
uke	-8432
▁36	-8433
▁Id	-8434
ifty	-8435
inth	-8436
quis	-8437
rint	-8438
▁hal	-8439
▁jew	-8440
▁les	-8441
▁tut	-8442
attoo	-8443
rence	-8444
▁Bron	-8445
▁Hill	-8446
▁Zeal	-8447
▁bend	-8448
▁bure	-8449
▁pigs	-8450
aching	-8451
ilized	-8452
weight	-8453
▁cruel	-8454
▁loans	-8455
▁queen	-8456
▁ubiqu	-8457
itative	-8458
looking	-8459
▁Argent	-8460
▁Econom	-8461
▁acoust	-8462
▁addict	-8463
▁apolog	-8464
▁builds	-8465
▁chains	-8466
▁excess	-8467
▁execut	-8468
▁guilty	-8469
▁inevit	-8470
▁manner	-8471
▁planes	-8472
▁propag	-8473
▁rubber	-8474
▁speaks	-8475
▁subway	-8476
▁mapping	-8477
▁prisons	-8478
▁pursuit	-8479
▁reminds	-8480
▁screens	-8481
▁stretch	-8482
▁concerns	-8483
▁counting	-8484
▁distract	-8485
▁historic	-8486
▁interven	-8487
▁offering	-8488
▁redesign	-8489
▁activists	-8490
▁nonprofit	-8491
▁passenger	-8492
▁preparing	-8493
▁strategic	-8494
otechnology	-8495
▁approached	-8496
▁assistance	-8497
▁discipline	-8498
▁acknowledge	-8499
▁remembering	-8500
▁grandparents	-8501
▁storytelling	-8502
.'"	-8503
bye	-8504
ege	-8505
hot	-8506
ona	-8507
▁Bh	-8508
▁MT	-8509
oran	-8510
rats	-8511
rial	-8512
utan	-8513
wind	-8514
▁Ray	-8515
▁ash	-8516
▁dys	-8517
▁tie	-8518
anzan	-8519
arrhe	-8520
break	-8521
chron	-8522
elson	-8523
iogen	-8524
itage	-8525
itzer	-8526
▁Eric	-8527
▁Mach	-8528
▁NGOs	-8529
▁dile	-8530
▁fits	-8531
▁turb	-8532
▁Charl	-8533
▁Eight	-8534
▁amate	-8535
▁ambit	-8536
▁comet	-8537
▁encry	-8538
▁ingen	-8539
▁numer	-8540
▁patch	-8541
▁pause	-8542
▁proto	-8543
▁redef	-8544
▁winds	-8545
▁wires	-8546
angered	-8547
▁Except	-8548
▁Tanzan	-8549
▁canopy	-8550
▁drones	-8551
▁insane	-8552
▁static	-8553
otherapy	-8554
▁Johnson	-8555
▁Seattle	-8556
▁Zealand	-8557
▁descend	-8558
▁despair	-8559
▁envelop	-8560
▁flowing	-8561
▁landing	-8562
▁leather	-8563
▁patents	-8564
▁pockets	-8565
▁scanner	-8566
▁stomach	-8567
▁wedding	-8568
▁cartoons	-8569
▁circuits	-8570
▁customer	-8571
▁earliest	-8572
▁exposure	-8573
▁generous	-8574
▁geometry	-8575
▁graphics	-8576
▁managers	-8577
▁robotics	-8578
▁shifting	-8579
▁shipping	-8580
▁smallest	-8581
▁supplies	-8582
▁Alexander	-8583
▁classical	-8584
▁distances	-8585
▁empowered	-8586
▁excellent	-8587
▁receiving	-8588
▁succeeded	-8589
▁chromosome	-8590
▁classrooms	-8591
▁continuing	-8592
▁previously	-8593
▁legislation	-8594
▁reconstruct	-8595
▁specialized	-8596
▁alternatives	-8597
▁occasionally	-8598
▁temperatures	-8599
▁psychologists	-8600
ga	-8601
ava	-8602
uts	-8603
▁MS	-8604
▁SS	-8605
ousy	-8606
ules	-8607
yrus	-8608
▁Ann	-8609
▁Edu	-8610
▁Lin	-8611
▁Ver	-8612
▁via	-8613
anzee	-8614
ogram	-8615
orage	-8616
phony	-8617
produ	-8618
ushed	-8619
▁Ford	-8620
▁Josh	-8621
▁coca	-8622
▁enzy	-8623
▁fate	-8624
▁grav	-8625
▁heal	-8626
▁iPod	-8627
▁rape	-8628
▁spat	-8629
▁vary	-8630
aneous	-8631
▁2011,	-8632
▁Brian	-8633
▁Hello	-8634
▁appla	-8635
▁cabin	-8636
▁dilem	-8637
▁drone	-8638
▁eaten	-8639
▁grabb	-8640
▁hopes	-8641
▁immun	-8642
▁mayor	-8643
▁poems	-8644
▁risky	-8645
▁shine	-8646
▁stair	-8647
▁stays	-8648
▁suspe	-8649
▁tower	-8650
▁viral	-8651
fulness	-8652
▁Social	-8653
▁compre	-8654
▁correl	-8655
▁lowest	-8656
▁orders	-8657
▁parach	-8658
▁preval	-8659
▁subsid	-8660
▁tattoo	-8661
▁thread	-8662
▁trains	-8663
▁voting	-8664
standing	-8665
▁enabled	-8666
▁hormone	-8667
▁ongoing	-8668
▁princip	-8669
▁rethink	-8670
▁seeking	-8671
▁staring	-8672
▁tsunami	-8673
▁venture	-8674
▁contrary	-8675
▁currency	-8676
▁decrease	-8677
▁promised	-8678
▁affecting	-8679
▁ambitious	-8680
▁economist	-8681
▁glamorous	-8682
▁guarantee	-8683
▁locations	-8684
▁performed	-8685
▁procedure	-8686
▁reproduce	-8687
▁stability	-8688
▁assignment	-8689
▁continents	-8690
▁elementary	-8691
▁physicians	-8692
▁yourselves	-8693
▁surrounding	-8694
▁compassionate	-8695
▁administration	-8696
▁interconnected	-8697
▁extraordinarily	-8698
gi	-8699
nat	-8700
▁AK	-8701
fram	-8702
gram	-8703
ieve	-8704
mony	-8705
▁20-	-8706
▁Mel	-8707
▁Str	-8708
▁blo	-8709
▁dop	-8710
▁ski	-8711
▁vit	-8712
aches	-8713
ademy	-8714
enses	-8715
isten	-8716
press	-8717
rance	-8718
uther	-8719
world	-8720
▁Army	-8721
▁Cath	-8722
▁Homo	-8723
▁Moon	-8724
▁Shan	-8725
▁Sudd	-8726
▁ampl	-8727
▁deck	-8728
▁dung	-8729
▁indu	-8730
▁rose	-8731
▁sexy	-8732
tering	-8733
▁Bronx	-8734
▁Dutch	-8735
▁award	-8736
▁blogs	-8737
▁boats	-8738
▁cared	-8739
▁phant	-8740
▁revol	-8741
▁trace	-8742
cession	-8743
▁Nelson	-8744
▁Newton	-8745
▁Twenty	-8746
▁Yorker	-8747
▁agents	-8748
▁cotton	-8749
▁diving	-8750
▁infant	-8751
▁manual	-8752
▁proven	-8753
▁stimul	-8754
▁tempor	-8755
▁Council	-8756
▁Whereas	-8757
▁barrier	-8758
▁entropy	-8759
▁retreat	-8760
▁storage	-8761
▁teenage	-8762
▁useless	-8763
▁Whatever	-8764
▁branches	-8765
▁compound	-8766
▁incarcer	-8767
▁portrait	-8768
▁replaced	-8769
▁selected	-8770
▁transmit	-8771
▁vacation	-8772
▁estimated	-8773
▁overnight	-8774
▁phenomena	-8775
▁territory	-8776
▁describing	-8777
▁illustrate	-8778
▁impression	-8779
▁landscapes	-8780
▁monitoring	-8781
▁regardless	-8782
▁retirement	-8783
▁sufficient	-8784
▁encouraging	-8785
▁philosopher	-8786
▁interpretation	-8787
col	-8788
neg	-8789
vir	-8790
▁LT	-8791
ador	-8792
ghai	-8793
inem	-8794
lend	-8795
lers	-8796
lesh	-8797
sell	-8798
▁15-	-8799
▁Age	-8800
▁Cap	-8801
▁Emp	-8802
▁Fey	-8803
▁Sal	-8804
▁Sud	-8805
▁Way	-8806
▁hub	-8807
▁obt	-8808
▁pit	-8809
bably	-8810
enter	-8811
erent	-8812
izers	-8813
▁Fort	-8814
▁Gene	-8815
▁Penn	-8816
▁aunt	-8817
▁cath	-8818
▁crop	-8819
▁enjo	-8820
▁frog	-8821
▁gram	-8822
▁mand	-8823
▁pole	-8824
astics	-8825
iberia	-8826
vation	-8827
▁6,000	-8828
▁Delhi	-8829
▁Saudi	-8830
▁blink	-8831
▁coinc	-8832
▁crick	-8833
▁overl	-8834
▁sauce	-8835
▁spell	-8836
▁tubes	-8837
▁County	-8838
▁Howard	-8839
▁Little	-8840
▁System	-8841
▁config	-8842
▁habits	-8843
▁improv	-8844
▁livest	-8845
▁mentor	-8846
▁packed	-8847
▁tomato	-8848
▁trauma	-8849
controll	-8850
▁College	-8851
▁absence	-8852
▁artwork	-8853
▁clinics	-8854
▁continu	-8855
▁destiny	-8856
▁fathers	-8857
▁package	-8858
▁passive	-8859
▁readers	-8860
▁rituals	-8861
▁tension	-8862
▁trapped	-8863
▁Suddenly	-8864
▁hormones	-8865
▁reinvent	-8866
▁sidewalk	-8867
▁collapsed	-8868
▁describes	-8869
▁equations	-8870
▁headlines	-8871
▁incentive	-8872
▁intensive	-8873
▁miserable	-8874
▁officials	-8875
▁predators	-8876
▁realistic	-8877
▁religions	-8878
▁signature	-8879
▁chimpanzee	-8880
▁commission	-8881
▁endangered	-8882
▁manipulate	-8883
▁reflection	-8884
▁vegetables	-8885
▁magnificent	-8886
▁personalized	-8887
py	-8888
yd	-8889
▁.	-8890
Are	-8891
aid	-8892
arl	-8893
asm	-8894
mun	-8895
▁2:	-8896
▁IM	-8897
gend	-8898
hist	-8899
ipts	-8900
izza	-8901
▁Ire	-8902
▁jet	-8903
▁pir	-8904
▁tur	-8905
aware	-8906
grade	-8907
inent	-8908
inger	-8909
▁Hist	-8910
▁Love	-8911
▁Nove	-8912
▁Prot	-8913
▁Rand	-8914
▁Supp	-8915
▁calm	-8916
▁clue	-8917
▁drew	-8918
▁neoc	-8919
▁nuts	-8920
▁rope	-8921
▁toes	-8922
arians	-8923
culiar	-8924
▁Media	-8925
▁Turns	-8926
▁altru	-8927
▁aspir	-8928
▁divor	-8929
▁exerc	-8930
▁flags	-8931
▁grave	-8932
▁sixth	-8933
▁wrist	-8934
▁zones	-8935
uilding	-8936
▁Berlin	-8937
▁Compan	-8938
▁Korean	-8939
▁covers	-8940
▁cycles	-8941
▁editor	-8942
▁freely	-8943
▁grocer	-8944
▁integr	-8945
▁marvel	-8946
▁posted	-8947
▁scenes	-8948
▁stored	-8949
▁troops	-8950
esthesia	-8951
▁200,000	-8952
▁Anybody	-8953
▁Indones	-8954
▁banking	-8955
▁bureauc	-8956
▁counsel	-8957
▁enemies	-8958
▁heading	-8959
▁highway	-8960
▁Brooklyn	-8961
▁advances	-8962
▁catching	-8963
▁complain	-8964
▁horizont	-8965
▁interior	-8966
▁momentum	-8967
▁peculiar	-8968
▁synchron	-8969
▁Professor	-8970
▁audiences	-8971
▁biologist	-8972
▁estimates	-8973
▁seemingly	-8974
▁sensation	-8975
▁statistic	-8976
▁terrified	-8977
▁Bangladesh	-8978
▁infections	-8979
▁initiative	-8980
▁punishment	-8981
▁sanitation	-8982
▁marketplace	-8983
▁predictable	-8984
▁concentrated	-8985
▁intersection	-8986
SP	-8987
law	-8988
two	-8989
▁AT	-8990
▁Bi	-8991
..."	-8992
amps	-8993
bled	-8994
cycl	-8995
irts	-8996
stru	-8997
ugal	-8998
▁Civ	-8999
▁Dad	-9000
▁Had	-9001
▁alb	-9002
▁bin	-9003
▁gif	-9004
▁jam	-9005
ctive	-9006
ifies	-9007
lfare	-9008
omics	-9009
▁Conf	-9010
▁Lake	-9011
▁Mill	-9012
▁Rock	-9013
▁Tony	-9014
▁ange	-9015
▁anno	-9016
▁cree	-9017
▁glow	-9018
▁keys	-9019
▁summ	-9020
ournal	-9021
▁Bruno	-9022
▁Watch	-9023
▁conqu	-9024
▁devil	-9025
▁hydro	-9026
▁recre	-9027
▁shirt	-9028
▁sperm	-9029
▁tweet	-9030
▁wheat	-9031
ometown	-9032
orgeous	-9033
▁advers	-9034
▁amazed	-9035
▁bother	-9036
▁fibers	-9037
▁pencil	-9038
▁relief	-9039
▁rhythm	-9040
▁stones	-9041
▁wheels	-9042
▁Mandela	-9043
▁Neander	-9044
▁Someone	-9045
▁corrupt	-9046
▁locally	-9047
▁proceed	-9048
▁request	-9049
▁resolve	-9050
▁trivial	-9051
criptions	-9052
▁Carolina	-9053
▁November	-9054
▁Shanghai	-9055
▁accuracy	-9056
▁cellular	-9057
▁dopamine	-9058
▁explicit	-9059
▁relation	-9060
▁addiction	-9061
▁amazingly	-9062
▁astronaut	-9063
▁breakfast	-9064
▁machinery	-9065
▁recycling	-9066
▁relatives	-9067
▁responded	-9068
▁Industrial	-9069
▁electrodes	-9070
▁expedition	-9071
▁generating	-9072
▁ubiquitous	-9073
▁partnership	-9074
▁politically	-9075
▁proposition	-9076
▁supermarket	-9077
▁contribution	-9078
▁measurements	-9079
▁psychologist	-9080
da	-9081
mn	-9082
200	-9083
For	-9084
eps	-9085
oln	-9086
pat	-9087
char	-9088
eros	-9089
ihad	-9090
plus	-9091
▁30-	-9092
▁Cur	-9093
▁Its	-9094
▁Val	-9095
▁ech	-9096
▁jar	-9097
▁sib	-9098
adium	-9099
ament	-9100
cking	-9101
copic	-9102
sized	-9103
storm	-9104
venth	-9105
▁Jord	-9106
▁News	-9107
▁Snow	-9108
▁Vict	-9109
▁biof	-9110
▁cows	-9111
▁hipp	-9112
▁hybr	-9113
▁inch	-9114
▁indo	-9115
▁junk	-9116
▁offs	-9117
▁palm	-9118
▁rank	-9119
▁rect	-9120
driven	-9121
gments	-9122
incoln	-9123
inging	-9124
ometer	-9125
phorus	-9126
racies	-9127
▁Arist	-9128
▁Medic	-9129
▁Syria	-9130
▁blown	-9131
▁defic	-9132
▁fatal	-9133
▁femin	-9134
▁humil	-9135
▁jewel	-9136
▁loose	-9137
▁peers	-9138
▁pills	-9139
▁raped	-9140
▁sheer	-9141
▁slums	-9142
▁spill	-9143
istical	-9144
umented	-9145
▁Andrew	-9146
▁Rather	-9147
▁advent	-9148
▁asleep	-9149
▁fallen	-9150
▁gained	-9151
▁immers	-9152
▁magnet	-9153
▁motors	-9154
▁potato	-9155
▁revers	-9156
▁strain	-9157
▁valley	-9158
▁adapted	-9159
▁arguing	-9160
▁diarrhe	-9161
▁ecology	-9162
▁phantom	-9163
▁unhappy	-9164
▁attacked	-9165
▁calories	-9166
▁clusters	-9167
▁nowadays	-9168
▁prostate	-9169
▁stopping	-9170
▁syndrome	-9171
▁worrying	-9172
▁Parkinson	-9173
▁competing	-9174
▁criminals	-9175
▁dominated	-9176
▁formation	-9177
▁mosquitos	-9178
▁convenient	-9179
▁engineered	-9180
▁girlfriend	-9181
▁interviews	-9182
▁mainstream	-9183
▁variations	-9184
▁contributed	-9185
▁communicating	-9186
ado	-9187
eff	-9188
ima	-9189
ker	-9190
▁Ev	-9191
▁MK	-9192
▁od	-9193
aped	-9194
crim	-9195
list	-9196
▁Moz	-9197
▁Off	-9198
▁Tun	-9199
▁gre	-9200
▁ton	-9201
eries	-9202
ifact	-9203
ipher	-9204
▁Half	-9205
▁bang	-9206
▁batt	-9207
▁bite	-9208
▁epis	-9209
▁wore	-9210
coming	-9211
cyclop	-9212
umines	-9213
▁Clint	-9214
▁Koran	-9215
▁Swiss	-9216
▁bless	-9217
▁deals	-9218
▁grasp	-9219
▁insul	-9220
▁limbs	-9221
▁lobby	-9222
▁nodes	-9223
▁outdo	-9224
▁penet	-9225
▁plank	-9226
▁sched	-9227
▁shelf	-9228
▁taxes	-9229
ativity	-9230
bsolute	-9231
▁Anyone	-9232
▁Columb	-9233
▁behalf	-9234
▁curves	-9235
▁excuse	-9236
▁lonely	-9237
▁nerves	-9238
▁purple	-9239
▁slower	-9240
▁strict	-9241
▁Aristot	-9242
▁Ireland	-9243
▁bridges	-9244
▁cocaine	-9245
▁crossed	-9246
▁onstage	-9247
▁puzzles	-9248
▁smiling	-9249
▁terrain	-9250
▁altitude	-9251
▁barriers	-9252
▁breeding	-9253
▁diameter	-9254
▁abandoned	-9255
▁believing	-9256
▁blindness	-9257
▁cooperate	-9258
▁installed	-9259
▁interrupt	-9260
▁jellyfish	-9261
▁planetary	-9262
▁realities	-9263
▁regularly	-9264
▁frequently	-9265
▁organizing	-9266
▁prevention	-9267
▁spacecraft	-9268
▁devastating	-9269
▁discussions	-9270
▁investments	-9271
▁understands	-9272
▁accomplished	-9273
▁installation	-9274
▁transforming	-9275
▁schizophrenia	-9276
dig	-9277
dis	-9278
izz	-9279
lor	-9280
net	-9281
▁42	-9282
▁DV	-9283
▁Gi	-9284
▁UN	-9285
Here	-9286
alia	-9287
mate	-9288
mill	-9289
▁Nan	-9290
▁Rom	-9291
▁Sky	-9292
▁ads	-9293
▁orb	-9294
▁shy	-9295
▁sir	-9296
odied	-9297
owers	-9298
▁Hans	-9299
▁Hope	-9300
▁Jane	-9301
▁Math	-9302
▁Soci	-9303
▁atom	-9304
▁carp	-9305
▁chat	-9306
▁coat	-9307
▁shoe	-9308
▁unst	-9309
income	-9310
lihood	-9311
person	-9312
▁Hawai	-9313
▁bench	-9314
▁comic	-9315
▁delay	-9316
▁depos	-9317
▁donor	-9318
▁embry	-9319
▁flesh	-9320
▁messy	-9321
▁minus	-9322
▁pizza	-9323
▁proph	-9324
▁pulse	-9325
▁roles	-9326
▁sweat	-9327
▁worms	-9328
rations	-9329
▁carpet	-9330
▁contam	-9331
▁dragon	-9332
▁emails	-9333
▁extrem	-9334
▁fusion	-9335
▁lifted	-9336
▁namely	-9337
▁unlock	-9338
▁vagina	-9339
function	-9340
▁Israeli	-9341
▁Lincoln	-9342
▁belongs	-9343
▁broader	-9344
▁doubled	-9345
▁elegant	-9346
▁enjoyed	-9347
▁follows	-9348
▁formula	-9349
▁gesture	-9350
▁injured	-9351
▁reactor	-9352
▁sectors	-9353
▁utterly	-9354
▁welfare	-9355
▁whistle	-9356
▁wrapped	-9357
▁Egyptian	-9358
▁Probably	-9359
▁artifact	-9360
▁asteroid	-9361
▁boundary	-9362
▁consumed	-9363
▁division	-9364
▁evolving	-9365
▁mentally	-9366
▁randomly	-9367
▁revealed	-9368
▁spinning	-9369
▁tropical	-9370
▁According	-9371
▁abundance	-9372
▁attitudes	-9373
▁correctly	-9374
▁medicines	-9375
▁calculated	-9376
▁inevitably	-9377
▁infectious	-9378
▁legitimate	-9379
▁publishing	-9380
▁consciously	-9381
▁foundations	-9382
,'	-9383
IS	-9384
OL	-9385
tr	-9386
ila	-9387
yon	-9388
▁55	-9389
▁Cr	-9390
▁SP	-9391
city	-9392
igma	-9393
olen	-9394
oter	-9395
▁193	-9396
▁350	-9397
▁Roy	-9398
▁Sus	-9399
▁Tas	-9400
▁Tra	-9401
▁avo	-9402
▁cyl	-9403
▁dil	-9404
▁oct	-9405
▁rib	-9406
▁sel	-9407
▁tin	-9408
atson	-9409
gradu	-9410
thood	-9411
ubble	-9412
uctor	-9413
urday	-9414
▁..."	-9415
▁1900	-9416
▁Abra	-9417
▁Show	-9418
▁Whit	-9419
▁bond	-9420
▁bump	-9421
▁chop	-9422
▁coin	-9423
▁dirt	-9424
▁drum	-9425
▁forb	-9426
▁jeal	-9427
▁logo	-9428
▁mask	-9429
▁stun	-9430
▁ties	-9431
▁Apoll	-9432
▁Gabby	-9433
▁Leban	-9434
▁bills	-9435
▁impul	-9436
▁lever	-9437
▁locom	-9438
▁mines	-9439
▁param	-9440
▁sends	-9441
▁shops	-9442
▁vocal	-9443
faction	-9444
▁Albert	-9445
▁Jersey	-9446
▁Pretty	-9447
▁corrid	-9448
▁cousin	-9449
▁elabor	-9450
▁format	-9451
▁horror	-9452
▁render	-9453
▁retail	-9454
▁sheets	-9455
▁summar	-9456
▁unfold	-9457
▁worthy	-9458
▁Stephen	-9459
▁colored	-9460
▁corners	-9461
▁default	-9462
▁earning	-9463
▁enhance	-9464
▁halfway	-9465
▁healing	-9466
▁rehabil	-9467
▁Business	-9468
▁Tanzania	-9469
▁Together	-9470
▁activate	-9471
▁approved	-9472
▁backyard	-9473
▁disagree	-9474
▁gorgeous	-9475
▁hometown	-9476
▁hopeless	-9477
▁opinions	-9478
▁simplest	-9479
▁touching	-9480
▁Brazilian	-9481
▁Indonesia	-9482
▁aesthetic	-9483
▁expressed	-9484
▁imagining	-9485
▁screaming	-9486
▁workplace	-9487
▁destroying	-9488
▁likelihood	-9489
▁phosphorus	-9490
▁frightening	-9491
▁neuroscient	-9492
▁technically	-9493
▁demonstrated	-9494
▁historically	-9495
▁observations	-9496
Sh	-9497
God	-9498
isy	-9499
▁Er	-9500
▁UC	-9501
▁ah	-9502
iots	-9503
pril	-9504
real	-9505
thur	-9506
▁Tib	-9507
▁blu	-9508
▁rap	-9509
▁vib	-9510
cover	-9511
eping	-9512
erals	-9513
▁Coke	-9514
▁Ever	-9515
▁Hong	-9516
▁Lord	-9517
▁Mass	-9518
▁crap	-9519
▁deaf	-9520
▁dent	-9521
▁dose	-9522
▁glue	-9523
▁jazz	-9524
▁meme	-9525
▁rabb	-9526
▁verb	-9527
▁ware	-9528
▁April	-9529
▁Coast	-9530
▁Force	-9531
▁Yemen	-9532
▁bonds	-9533
▁fired	-9534
▁grace	-9535
▁illum	-9536
▁lists	-9537
▁maker	-9538
▁meals	-9539
▁resur	-9540
▁sizes	-9541
▁slime	-9542
▁tiles	-9543
▁twist	-9544
essions	-9545
powered	-9546
ressing	-9547
ructive	-9548
▁Singap	-9549
▁Victor	-9550
▁denial	-9551
▁equity	-9552
▁horses	-9553
▁iconic	-9554
▁marker	-9555
▁orphan	-9556
▁prosth	-9557
▁topics	-9558
▁Abraham	-9559
▁Clinton	-9560
▁Connect	-9561
▁Redwood	-9562
▁constit	-9563
▁couples	-9564
▁deepest	-9565
▁happily	-9566
▁implant	-9567
▁insulin	-9568
▁intrins	-9569
▁mankind	-9570
▁museums	-9571
▁nearest	-9572
▁reaches	-9573
▁refused	-9574
▁sensing	-9575
▁simpler	-9576
▁toilets	-9577
bsolutely	-9578
▁Catholic	-9579
▁Leonardo	-9580
▁Saturday	-9581
▁Security	-9582
▁expanded	-9583
▁feminist	-9584
▁findings	-9585
▁incorpor	-9586
▁kindness	-9587
▁priority	-9588
▁surgeons	-9589
▁acknowled	-9590
▁batteries	-9591
▁candidate	-9592
▁hierarchy	-9593
▁reflected	-9594
▁sequences	-9595
▁shoulders	-9596
▁therapies	-9597
▁visualize	-9598
▁automobile	-9599
▁compromise	-9600
▁microphone	-9601
▁narratives	-9602
▁phenomenal	-9603
▁privileged	-9604
▁smartphone	-9605
▁emotionally	-9606
▁overwhelmed	-9607
▁calculations	-9608
▁independence	-9609
▁introduction	-9610
"?	-9611
deg	-9612
uan	-9613
They	-9614
aeda	-9615
aken	-9616
cher	-9617
nman	-9618
oric	-9619
orph	-9620
pers	-9621
rane	-9622
unks	-9623
▁11,	-9624
▁Bol	-9625
▁Dou	-9626
▁Fed	-9627
▁Jup	-9628
▁Rad	-9629
▁Sen	-9630
▁Try	-9631
▁USA	-9632
▁Vol	-9633
▁mud	-9634
▁vel	-9635
acher	-9636
adian	-9637
eling	-9638
peare	-9639
three	-9640
ucose	-9641
▁Hosp	-9642
▁Pitt	-9643
▁Turk	-9644
▁apps	-9645
▁athe	-9646
▁biol	-9647
▁buff	-9648
▁dece	-9649
▁hint	-9650
▁sake	-9651
▁sale	-9652
▁span	-9653
▁tact	-9654
ulsion	-9655
vasive	-9656
▁2005,	-9657
▁Civil	-9658
▁Stage	-9659
▁Teles	-9660
▁jihad	-9661
▁norms	-9662
▁obese	-9663
▁regul	-9664
▁remix	-9665
▁steam	-9666
▁straw	-9667
ictions	-9668
imeters	-9669
theless	-9670
▁Disney	-9671
▁Greece	-9672
▁Watson	-9673
▁approx	-9674
▁atomic	-9675
▁depart	-9676
▁exotic	-9677
▁kidney	-9678
▁modest	-9679
▁nightm	-9680
▁pigeon	-9681
▁riding	-9682
▁selves	-9683
▁stolen	-9684
▁summit	-9685
▁tables	-9686
▁wishes	-9687
etheless	-9688
ventions	-9689
▁Feynman	-9690
▁Jupiter	-9691
▁Switzer	-9692
▁anatomy	-9693
▁assault	-9694
▁cancers	-9695
▁climbed	-9696
▁cricket	-9697
▁distort	-9698
▁genomes	-9699
▁glacier	-9700
▁kidding	-9701
▁laptops	-9702
▁origins	-9703
▁swallow	-9704
▁teaches	-9705
akespeare	-9706
▁Virginia	-9707
▁actively	-9708
▁athletes	-9709
▁contempl	-9710
▁enjoying	-9711
▁nitrogen	-9712
▁predator	-9713
▁prisoner	-9714
▁publicly	-9715
▁scanning	-9716
▁switched	-9717
▁transist	-9718
▁underest	-9719
▁websites	-9720
▁youngest	-9721
▁Singapore	-9722
▁delicious	-9723
▁eliminate	-9724
▁offspring	-9725
▁parachute	-9726
▁resistant	-9727
▁anticipate	-9728
▁remarkably	-9729
▁separation	-9730
▁subjective	-9731
▁Switzerland	-9732
▁overwhelming	-9733
▁controversial	-9734
40	-9735
BA	-9736
eu	-9737
tt	-9738
▁&	-9739
dam	-9740
oen	-9741
raw	-9742
▁RS	-9743
▁SW	-9744
erey	-9745
erry	-9746
ette	-9747
laim	-9748
mind	-9749
▁12,	-9750
▁190	-9751
▁Has	-9752
▁Mur	-9753
▁PMS	-9754
▁Ron	-9755
▁Sup	-9756
▁sav	-9757
▁sco	-9758
▁unw	-9759
asive	-9760
gener	-9761
impse	-9762
inity	-9763
ourse	-9764
rover	-9765
▁Carl	-9766
▁Nick	-9767
▁Nike	-9768
▁Wind	-9769
▁bulb	-9770
▁cuts	-9771
▁ende	-9772
▁epic	-9773
▁jack	-9774
▁thro	-9775
▁ward	-9776
olitan	-9777
thirds	-9778
▁Detro	-9779
▁Queen	-9780
▁Young	-9781
▁ambig	-9782
▁belly	-9783
▁careg	-9784
▁cream	-9785
▁drunk	-9786
▁float	-9787
▁infer	-9788
▁inhib	-9789
▁lanes	-9790
▁loads	-9791
▁memes	-9792
▁pulls	-9793
▁rings	-9794
keepers	-9795
▁60,000	-9796
▁argued	-9797
▁criter	-9798
▁divers	-9799
▁guards	-9800
▁kicked	-9801
▁sketch	-9802
▁biomass	-9803
▁chronic	-9804
▁congest	-9805
▁consent	-9806
▁farther	-9807
▁glimpse	-9808
▁hacking	-9809
▁handful	-9810
▁laughed	-9811
▁optical	-9812
▁planned	-9813
▁recruit	-9814
▁returns	-9815
▁shorter	-9816
▁Monterey	-9817
▁advocate	-9818
▁deployed	-9819
▁dropping	-9820
▁overhead	-9821
▁proposal	-9822
▁reserves	-9823
▁sexually	-9824
▁transact	-9825
▁Argentina	-9826
▁consensus	-9827
▁convicted	-9828
▁integrate	-9829
▁intensity	-9830
▁livestock	-9831
▁orchestra	-9832
▁platforms	-9833
▁precision	-9834
▁protocell	-9835
▁reporting	-9836
▁survivors	-9837
▁textbooks	-9838
▁tolerance	-9839
▁accelerate	-9840
▁determines	-9841
▁discussing	-9842
▁Shakespeare	-9843
▁distinction	-9844
▁realization	-9845
▁Organization	-9846
▁continuously	-9847
▁interventions	-9848
▁visualization	-9849
▁discrimination	-9850
BC	-9851
lif	-9852
rep	-9853
upp	-9854
▁29	-9855
▁31	-9856
▁72	-9857
▁PC	-9858
▁tu	-9859
alog	-9860
amas	-9861
fare	-9862
grad	-9863
seen	-9864
▁10.	-9865
▁Amy	-9866
▁DVD	-9867
▁Kir	-9868
▁Men	-9869
▁hob	-9870
▁wow	-9871
▁wre	-9872
aired	-9873
ansas	-9874
keley	-9875
oenix	-9876
ormal	-9877
proof	-9878
raine	-9879
▁Home	-9880
▁Lead	-9881
▁Lear	-9882
▁Rick	-9883
▁Zero	-9884
▁airl	-9885
▁blob	-9886
▁lawn	-9887
▁mesh	-9888
▁mini	-9889
Please	-9890
alysis	-9891
iously	-9892
orough	-9893
romagn	-9894
uction	-9895
ulture	-9896
▁Creat	-9897
▁Still	-9898
▁alarm	-9899
▁bleed	-9900
▁entit	-9901
▁fence	-9902
▁gains	-9903
▁insec	-9904
▁mimic	-9905
▁naive	-9906
▁nasty	-9907
▁revel	-9908
▁scaff	-9909
▁trips	-9910
ascular	-9911
itivity	-9912
▁Nether	-9913
▁canvas	-9914
▁cultiv	-9915
▁dispar	-9916
▁intact	-9917
▁marath	-9918
▁masses	-9919
▁passes	-9920
▁raises	-9921
▁shower	-9922
▁smells	-9923
▁sovere	-9924
▁typing	-9925
▁viewer	-9926
▁Academy	-9927
▁Atlanta	-9928
▁chamber	-9929
▁charged	-9930
▁cluster	-9931
▁glamour	-9932
▁glucose	-9933
▁grocery	-9934
▁harmful	-9935
▁heavily	-9936
▁hopeful	-9937
▁melting	-9938
▁penalty	-9939
▁shifted	-9940
▁trading	-9941
▁whoever	-9942
▁Berkeley	-9943
▁Interest	-9944
▁ceremony	-9945
▁ideology	-9946
▁indicate	-9947
▁injuries	-9948
▁plastics	-9949
▁Telescope	-9950
▁alongside	-9951
▁compounds	-9952
▁favorites	-9953
▁geography	-9954
▁Geographic	-9955
▁regulation	-9956
▁responding	-9957
▁Netherlands	-9958
▁composition	-9959
▁documentary	-9960
▁electromagn	-9961
▁expressions	-9962
▁fluorescent	-9963
▁instruction	-9964
▁integration	-9965
▁embarrassing	-9966
▁civilizations	-9967
leg	-9968
tra	-9969
zes	-9970
▁37	-9971
▁JH	-9972
▁Wi	-9973
▁nu	-9974
alem	-9975
bean	-9976
bing	-9977
burg	-9978
five	-9979
hear	-9980
ican	-9981
oked	-9982
orse	-9983
▁Def	-9984
▁IBM	-9985
▁Jac	-9986
▁Mer	-9987
arded	-9988
cribe	-9989
heads	-9990
month	-9991
oline	-9992
oured	-9993
ouses	-9994
▁Benj	-9995
▁chef	-9996
▁chew	-9997
▁duty	-9998
▁fest	-9999
▁jugg	-10000
▁lean	-10001
▁lion	-10002
▁mast	-10003
▁porn	-10004
▁symp	-10005
▁thus	-10006
▁torn	-10007
▁wins	-10008
degree	-10009
ending	-10010
▁Elect	-10011
▁Jones	-10012
▁McDon	-10013
▁Stone	-10014
▁Trade	-10015
▁arbit	-10016
▁artic	-10017
▁boots	-10018
▁brush	-10019
▁buses	-10020
▁decor	-10021
▁dough	-10022
▁gross	-10023
▁index	-10024
▁irony	-10025
▁maneu	-10026
▁meets	-10027
▁pants	-10028
▁reass	-10029
▁vivid	-10030
▁Apollo	-10031
▁Gandhi	-10032
▁cattle	-10033
▁cockro	-10034
▁cosmos	-10035
▁regist	-10036
▁serves	-10037
▁speeds	-10038
▁warmer	-10039
omething	-10040
ortunate	-10041
▁History	-10042
▁Iceland	-10043
▁Kingdom	-10044
▁Olympic	-10045
▁Society	-10046
▁antenna	-10047
▁carries	-10048
▁coastal	-10049
▁damaged	-10050
▁endless	-10051
▁harmony	-10052
▁labeled	-10053
▁planted	-10054
▁stadium	-10055
▁strings	-10056
▁announce	-10057
▁assembly	-10058
▁defining	-10059
▁explored	-10060
▁innovate	-10061
▁mutation	-10062
▁thrilled	-10063
▁Aristotle	-10064
▁achieving	-10065
▁bacterial	-10066
▁disasters	-10067
▁fisheries	-10068
▁returning	-10069
▁witnessed	-10070
▁biolumines	-10071
▁candidates	-10072
▁enterprise	-10073
▁journalism	-10074
▁prototypes	-10075
▁suggestion	-10076
▁collaborate	-10077
▁distinguish	-10078
▁investigate	-10079
▁programmers	-10080
▁theoretical	-10081
▁constitution	-10082
▁contributing	-10083
▁philanthropy	-10084
▁representing	-10085
jo	-10086
gon	-10087
nut	-10088
osn	-10089
rof	-10090
yal	-10091
▁3,	-10092
▁Kh	-10093
▁Ol	-10094
adel	-10095
ccer	-10096
eren	-10097
fire	-10098
ials	-10099
igan	-10100
inda	-10101
take	-10102
uana	-10103
▁Aut	-10104
▁Bre	-10105
▁Dru	-10106
▁Dub	-10107
▁Inc	-10108
▁Mos	-10109
▁Nep	-10110
▁Wol	-10111
▁mat	-10112
Thank	-10113
amboo	-10114
anium	-10115
berry	-10116
ellow	-10117
ighth	-10118
iracy	-10119
ogens	-10120
▁Kong	-10121
▁Lego	-10122
▁blew	-10123
▁depr	-10124
▁mant	-10125
▁unle	-10126
ancers	-10127
assemb	-10128
erving	-10129
gevity	-10130
unting	-10131
▁1,500	-10132
▁2004,	-10133
▁Seven	-10134
▁boost	-10135
▁candy	-10136
▁facil	-10137
▁harsh	-10138
▁juice	-10139
▁panic	-10140
▁steep	-10141
▁twent	-10142
▁twins	-10143
atories	-10144
enhagen	-10145
natural	-10146
▁40,000	-10147
▁Daniel	-10148
▁Rights	-10149
▁Steven	-10150
▁Tasman	-10151
▁bamboo	-10152
▁brands	-10153
▁comedy	-10154
▁comics	-10155
▁fluctu	-10156
▁legisl	-10157
▁losses	-10158
▁pestic	-10159
▁rotate	-10160
▁shifts	-10161
▁sooner	-10162
▁timing	-10163
▁wooden	-10164
▁Journal	-10165
▁Supreme	-10166
▁assumed	-10167
▁authors	-10168
▁dilemma	-10169
▁eastern	-10170
▁exploit	-10171
▁fulfill	-10172
▁iceberg	-10173
▁inhabit	-10174
▁matched	-10175
▁maximum	-10176
▁outrage	-10177
▁penguin	-10178
▁scaling	-10179
▁strands	-10180
▁visions	-10181
ventually	-10182
▁accompan	-10183
▁ambition	-10184
▁coverage	-10185
▁detector	-10186
▁freezing	-10187
▁helpless	-10188
▁heritage	-10189
▁intimate	-10190
▁literacy	-10191
▁managing	-10192
▁minority	-10193
▁officers	-10194
▁recycled	-10195
▁rejected	-10196
▁remotely	-10197
▁resident	-10198
▁sticking	-10199
▁visiting	-10200
ustainable	-10201
▁asteroids	-10202
▁desperate	-10203
▁electrons	-10204
▁generates	-10205
▁mutations	-10206
▁occurring	-10207
▁suspended	-10208
▁Copenhagen	-10209
▁basketball	-10210
▁documented	-10211
▁inherently	-10212
▁professors	-10213
▁projection	-10214
▁psychopath	-10215
▁sequencing	-10216
▁trustworth	-10217
▁Development	-10218
▁democracies	-10219
▁destination	-10220
▁regulations	-10221
▁trafficking	-10222
▁accelerating	-10223
▁coordination	-10224
▁headquarters	-10225
▁computational	-10226
▁accountability	-10227
▁representative	-10228
▁transformative	-10229
ETI	-10230
Man	-10231
She	-10232
▁JF	-10233
Come	-10234
iatr	-10235
olas	-10236
omed	-10237
raph	-10238
wart	-10239
▁192	-10240
▁Ele	-10241
▁Mas	-10242
▁Mid	-10243
▁Ult	-10244
▁pla	-10245
▁yog	-10246
plete	-10247
▁9/11	-10248
▁Jews	-10249
▁Libr	-10250
▁Mond	-10251
▁Nord	-10252
▁bush	-10253
▁demo	-10254
▁drif	-10255
▁fees	-10256
▁flaw	-10257
▁herd	-10258
▁obsc	-10259
▁pays	-10260
▁pipe	-10261
▁prey	-10262
ection	-10263
ergart	-10264
iances	-10265
ijuana	-10266
istine	-10267
▁Louis	-10268
▁Tunis	-10269
▁chase	-10270
▁cheat	-10271
▁clubs	-10272
▁consp	-10273
▁feeds	-10274
▁freak	-10275
▁hoped	-10276
▁inexp	-10277
▁picks	-10278
▁slice	-10279
ologies	-10280
osexual	-10281
▁25,000	-10282
▁Arthur	-10283
▁deadly	-10284
▁exceed	-10285
▁flavor	-10286
▁frames	-10287
▁grades	-10288
▁handed	-10289
▁harbor	-10290
▁immort	-10291
▁insist	-10292
▁preced	-10293
▁presum	-10294
▁soccer	-10295
▁waited	-10296
▁wasted	-10297
computer	-10298
ifferent	-10299
▁Medical	-10300
▁careers	-10301
▁generic	-10302
▁hostile	-10303
▁jumping	-10304
▁lottery	-10305
▁rewards	-10306
▁shining	-10307
▁trusted	-10308
▁annivers	-10309
▁circular	-10310
▁criteria	-10311
▁diarrhea	-10312
▁forecast	-10313
▁informal	-10314
▁protests	-10315
▁protocol	-10316
▁skeletal	-10317
▁talented	-10318
▁terrific	-10319
▁Greenland	-10320
▁attracted	-10321
▁comparing	-10322
▁inflation	-10323
▁migration	-10324
▁portraits	-10325
▁Christians	-10326
▁Eventually	-10327
▁adolescent	-10328
▁apartments	-10329
▁confronted	-10330
▁exceptions	-10331
▁concentrate	-10332
▁recognizing	-10333
▁unfortunate	-10334
▁satisfaction	-10335
▁systematically	-10336
?'	-10337
Now	-10338
eem	-10339
isc	-10340
mat	-10341
orr	-10342
psy	-10343
via	-10344
vol	-10345
▁ED	-10346
▁JA	-10347
▁MR	-10348
agan	-10349
bees	-10350
etti	-10351
imag	-10352
inci	-10353
inos	-10354
itar	-10355
olar	-10356
pack	-10357
▁Pop	-10358
▁Sah	-10359
▁Say	-10360
▁awe	-10361
▁ooh	-10362
abeth	-10363
ierra	-10364
osity	-10365
oters	-10366
piece	-10367
▁Bern	-10368
▁Free	-10369
▁Gard	-10370
▁Hind	-10371
▁Phot	-10372
▁Sand	-10373
▁Scot	-10374
▁asth	-10375
▁fier	-10376
▁mixt	-10377
▁seal	-10378
enance	-10379
orient	-10380
ounded	-10381
umbled	-10382
usalem	-10383
▁Tibet	-10384
▁Water	-10385
▁acres	-10386
▁brick	-10387
▁crude	-10388
▁erect	-10389
▁knees	-10390
▁lifel	-10391
▁stamp	-10392
▁taboo	-10393
▁wrest	-10394
▁Around	-10395
▁Joseph	-10396
▁Nathan	-10397
▁Public	-10398
▁confir	-10399
▁empath	-10400
▁evapor	-10401
▁helium	-10402
▁hybrid	-10403
▁insert	-10404
▁judges	-10405
▁lethal	-10406
▁plates	-10407
▁prepar	-10408
▁scheme	-10409
▁triang	-10410
▁viewed	-10411
▁Detroit	-10412
▁Similar	-10413
▁blowing	-10414
▁browser	-10415
▁cardiac	-10416
▁cooling	-10417
▁decides	-10418
▁filling	-10419
▁gallery	-10420
▁inmates	-10421
▁longest	-10422
▁luckily	-10423
▁ordered	-10424
▁playful	-10425
▁pouring	-10426
▁richest	-10427
▁spatial	-10428
▁streams	-10429
▁texture	-10430
▁transit	-10431
▁weekend	-10432
▁Benjamin	-10433
▁Olympics	-10434
▁analyzed	-10435
▁democrat	-10436
▁Jerusalem	-10437
▁answering	-10438
▁champions	-10439
▁collision	-10440
▁contained	-10441
▁converted	-10442
▁elaborate	-10443
▁principal	-10444
▁surgeries	-10445
▁delivering	-10446
▁opposition	-10447
▁practicing	-10448
▁systematic	-10449
▁astronomers	-10450
▁implemented	-10451
▁practically	-10452
▁transmitted	-10453
▁economically	-10454
▁mathematician	-10455
bag	-10456
bie	-10457
▁46	-10458
▁48	-10459
▁AI	-10460
▁EM	-10461
▁GG	-10462
▁JS	-10463
▁Sl	-10464
aste	-10465
flow	-10466
idal	-10467
nedy	-10468
phia	-10469
▁130	-10470
▁FDA	-10471
▁Jen	-10472
▁NSA	-10473
▁Old	-10474
▁Pot	-10475
▁Tam	-10476
▁Van	-10477
▁mas	-10478
▁pad	-10479
▁rip	-10480
asure	-10481
iolet	-10482
iumph	-10483
speed	-10484
umbai	-10485
▁Cape	-10486
▁Less	-10487
▁Plan	-10488
▁SETI	-10489
▁belt	-10490
▁bust	-10491
▁epip	-10492
▁kidn	-10493
▁slic	-10494
▁slog	-10495
▁voca	-10496
▁warr	-10497
abling	-10498
awater	-10499
eprint	-10500
stairs	-10501
▁Light	-10502
▁acids	-10503
▁alter	-10504
▁blast	-10505
▁dread	-10506
▁escal	-10507
▁favel	-10508
▁juven	-10509
▁lingu	-10510
▁loses	-10511
▁posed	-10512
▁rains	-10513
▁suits	-10514
▁tapir	-10515
▁unint	-10516
▁voted	-10517
inished	-10518
ocation	-10519
ouncing	-10520
quality	-10521
▁15,000	-10522
▁Jordan	-10523
▁Michel	-10524
▁Mumbai	-10525
▁Secret	-10526
▁accent	-10527
▁cataly	-10528
▁copies	-10529
▁enrich	-10530
▁famine	-10531
▁mammal	-10532
▁racing	-10533
▁refuse	-10534
▁underm	-10535
▁virgin	-10536
▁winner	-10537
adelphia	-10538
ependent	-10539
ergarten	-10540
ountered	-10541
▁150,000	-10542
▁Kennedy	-10543
▁Library	-10544
▁chasing	-10545
▁compreh	-10546
▁counted	-10547
▁cousins	-10548
▁enlight	-10549
▁exagger	-10550
▁forgive	-10551
▁mirrors	-10552
▁powered	-10553
▁priorit	-10554
▁superst	-10555
▁texting	-10556
▁Canadian	-10557
▁Hospital	-10558
▁McDonald	-10559
▁abundant	-10560
▁alphabet	-10561
▁attempts	-10562
▁deciding	-10563
▁entities	-10564
▁improvis	-10565
▁lifespan	-10566
▁membrane	-10567
▁multiply	-10568
▁pleasant	-10569
▁shocking	-10570
▁singular	-10571
▁visually	-10572
▁discussed	-10573
▁inclusive	-10574
▁isolation	-10575
▁neocortex	-10576
▁psychiatr	-10577
▁recession	-10578
▁screening	-10579
▁staircase	-10580
▁universes	-10581
▁Absolutely	-10582
▁irrational	-10583
▁politician	-10584
▁undergradu	-10585
▁Palestinian	-10586
▁anniversary	-10587
▁correlation	-10588
▁encountered	-10589
▁medications	-10590
▁Philadelphia	-10591
▁prostitution	-10592
Go	-10593
LS	-10594
gr	-10595
hr	-10596
vy	-10597
Not	-10598
aza	-10599
▁AM	-10600
▁CM	-10601
▁DM	-10602
▁Da	-10603
▁TK	-10604
aska	-10605
tent	-10606
uilt	-10607
▁Mat	-10608
▁Nav	-10609
▁Ram	-10610
▁Tre	-10611
▁cul	-10612
▁ego	-10613
▁nic	-10614
grand	-10615
matic	-10616
olera	-10617
vania	-10618
▁1930	-10619
▁Brad	-10620
▁CEOs	-10621
▁Desp	-10622
▁Emma	-10623
▁Keep	-10624
▁Kids	-10625
▁Mean	-10626
▁carc	-10627
▁cope	-10628
▁craw	-10629
▁dare	-10630
▁radi	-10631
▁toll	-10632
▁vice	-10633
boards	-10634
orters	-10635
ounder	-10636
ricane	-10637
▁2003,	-10638
▁Alice	-10639
▁Georg	-10640
▁Harry	-10641
▁Laden	-10642
▁advis	-10643
▁alert	-10644
▁chess	-10645
▁codes	-10646
▁couch	-10647
▁drain	-10648
▁fever	-10649
▁flock	-10650
▁infra	-10651
▁marks	-10652
▁occas	-10653
▁probe	-10654
▁spare	-10655
▁spite	-10656
▁texts	-10657
▁wages	-10658
▁watts	-10659
ilation	-10660
izabeth	-10661
ounding	-10662
percent	-10663
rection	-10664
ulative	-10665
▁Arabia	-10666
▁Bhutan	-10667
▁Hawaii	-10668
▁Luther	-10669
▁Recent	-10670
▁abroad	-10671
▁admire	-10672
▁aliens	-10673
▁allies	-10674
▁casual	-10675
▁chimps	-10676
▁counts	-10677
▁courts	-10678
▁crowds	-10679
▁donors	-10680
▁pixels	-10681
▁prohib	-10682
▁purely	-10683
▁scaled	-10684
▁stairs	-10685
▁steady	-10686
▁submit	-10687
▁clarity	-10688
▁digging	-10689
▁eternal	-10690
▁exhibit	-10691
▁fantasy	-10692
▁folding	-10693
▁rescued	-10694
▁reserve	-10695
▁shaking	-10696
▁squeeze	-10697
▁adoption	-10698
▁assemble	-10699
▁basement	-10700
▁cleaning	-10701
▁deserves	-10702
▁dreaming	-10703
▁elevator	-10704
▁entrance	-10705
▁habitats	-10706
▁outbreak	-10707
▁stressed	-10708
▁administr	-10709
▁blueprint	-10710
▁commodity	-10711
▁deception	-10712
▁emergence	-10713
▁magazines	-10714
▁reasoning	-10715
▁resilient	-10716
▁conceptual	-10717
▁employment	-10718
▁fertilizer	-10719
▁horizontal	-10720
▁ingredient	-10721
▁interfaces	-10722
▁invitation	-10723
▁networking	-10724
▁preventing	-10725
▁protective	-10726
▁sculptures	-10727
▁chromosomes	-10728
▁functioning	-10729
▁orientation	-10730
▁preparation	-10731
▁disappointed	-10732
▁prescription	-10733
▁approximately	-10734
▁revolutionary	-10735
Af	-10736
As	-10737
RA	-10738
ki	-10739
kyo	-10740
pos	-10741
syl	-10742
wan	-10743
▁4.	-10744
▁BM	-10745
▁Gr	-10746
▁Ra	-10747
▁ov	-10748
anas	-10749
aver	-10750
food	-10751
pace	-10752
step	-10753
teen	-10754
▁1.2	-10755
▁203	-10756
▁30,	-10757
▁Add	-10758
▁Arm	-10759
▁Luc	-10760
▁Nam	-10761
▁Sum	-10762
▁Tar	-10763
▁Ted	-10764
▁nap	-10765
▁rod	-10766
▁sem	-10767
aurus	-10768
elect	-10769
ennis	-10770
rates	-10771
viron	-10772
▁Chap	-10773
▁Fund	-10774
▁Matt	-10775
▁Oper	-10776
▁adds	-10777
▁blur	-10778
▁flee	-10779
▁panc	-10780
▁piss	-10781
▁scal	-10782
▁tags	-10783
▁turt	-10784
ailand	-10785
airobi	-10786
inable	-10787
shaped	-10788
uminum	-10789
ustice	-10790
▁Craig	-10791
▁Later	-10792
▁Sarah	-10793
▁Tokyo	-10794
▁asset	-10795
▁bulbs	-10796
▁cares	-10797
▁cloth	-10798
▁deter	-10799
▁mater	-10800
▁rigid	-10801
▁scans	-10802
▁seals	-10803
▁slave	-10804
▁stare	-10805
▁yards	-10806
issance	-10807
reating	-10808
umbling	-10809
▁Associ	-10810
▁Having	-10811
▁Sierra	-10812
▁Spring	-10813
▁Thirty	-10814
▁Wright	-10815
▁brutal	-10816
▁cables	-10817
▁circul	-10818
▁digest	-10819
▁dishes	-10820
▁equals	-10821
▁exquis	-10822
▁floors	-10823
▁lately	-10824
▁mapped	-10825
▁server	-10826
▁tribal	-10827
▁unfair	-10828
pectives	-10829
restrial	-10830
sylvania	-10831
▁Nairobi	-10832
▁Suppose	-10833
▁ashamed	-10834
▁budgets	-10835
▁commons	-10836
▁compute	-10837
▁condoms	-10838
▁contest	-10839
▁creator	-10840
▁gardens	-10841
▁honored	-10842
▁menstru	-10843
▁motions	-10844
▁squares	-10845
▁strikes	-10846
▁tightly	-10847
▁triumph	-10848
ationally	-10849
▁Mountain	-10850
▁Nigerian	-10851
▁Thailand	-10852
▁calculus	-10853
▁checking	-10854
▁cocktail	-10855
▁cylinder	-10856
▁encyclop	-10857
▁envelope	-10858
▁motivate	-10859
▁peripher	-10860
▁prospect	-10861
▁siblings	-10862
▁simulate	-10863
▁targeted	-10864
▁variable	-10865
▁Meanwhile	-10866
▁apologize	-10867
▁astronomy	-10868
▁cardboard	-10869
▁celebrity	-10870
▁libraries	-10871
▁lightning	-10872
▁longevity	-10873
▁negotiate	-10874
▁secondary	-10875
▁disconnect	-10876
▁disturbing	-10877
▁empowering	-10878
▁Fortunately	-10879
▁transported	-10880
▁Pennsylvania	-10881
▁kindergarten	-10882
▁significance	-10883
▁exponentially	-10884
▁participating	-10885
▁philosophical	-10886
▁scientifically	-10887
Fi	-10888
IN	-10889
sm	-10890
ecd	-10891
erk	-10892
jud	-10893
oto	-10894
vin	-10895
▁CP	-10896
▁Di	-10897
▁Py	-10898
▁RM	-10899
▁ol	-10900
▁vo	-10901
fund	-10902
isan	-10903
offs	-10904
roup	-10905
wing	-10906
▁12-	-10907
▁15,	-10908
▁900	-10909
▁Ara	-10910
▁Lev	-10911
▁Pen	-10912
▁RNA	-10913
▁caf	-10914
▁goo	-10915
▁nud	-10916
Every	-10917
ancer	-10918
avors	-10919
digit	-10920
epher	-10921
inema	-10922
▁Cold	-10923
▁Post	-10924
▁Ross	-10925
▁alar	-10926
▁beef	-10927
▁bowl	-10928
▁cage	-10929
▁cups	-10930
▁esca	-10931
▁fuck	-10932
▁outl	-10933
▁reck	-10934
▁semi	-10935
▁solo	-10936
▁ster	-10937
▁surg	-10938
▁wage	-10939
minded	-10940
normal	-10941
violet	-10942
▁2012,	-10943
▁8,000	-10944
▁Color	-10945
▁Goals	-10946
▁Roman	-10947
▁anecd	-10948
▁clips	-10949
▁paths	-10950
▁reper	-10951
▁rhyth	-10952
▁tanks	-10953
▁Mozart	-10954
▁Office	-10955
▁boards	-10956
▁contra	-10957
▁foster	-10958
▁graphs	-10959
▁hugely	-10960
▁intric	-10961
▁mutual	-10962
▁nicely	-10963
▁overse	-10964
▁rolled	-10965
▁temple	-10966
aggering	-10967
▁Despite	-10968
▁Lebanon	-10969
▁Mexican	-10970
▁Somalia	-10971
▁acquire	-10972
▁applies	-10973
▁cholera	-10974
▁dancers	-10975
▁filters	-10976
▁grabbed	-10977
▁heating	-10978
▁legally	-10979
▁pleased	-10980
▁segment	-10981
▁spiders	-10982
▁telecom	-10983
▁trailer	-10984
▁western	-10985
effective	-10986
▁acquired	-10987
▁admitted	-10988
▁ancestor	-10989
▁chickens	-10990
▁displays	-10991
▁famously	-10992
▁frontier	-10993
▁gestures	-10994
▁inventor	-10995
▁persuade	-10996
▁prosecut	-10997
▁reflects	-10998
▁regional	-10999
▁revenues	-11000
▁scaffold	-11001
▁tangible	-11002
▁analyzing	-11003
▁associate	-11004
▁embracing	-11005
▁extensive	-11006
▁integrity	-11007
▁successes	-11008
▁surviving	-11009
▁therapist	-11010
▁addressing	-11011
▁critically	-11012
▁enormously	-11013
▁millimeter	-11014
▁parliament	-11015
▁presenting	-11016
▁profitable	-11017
▁prosthetic	-11018
▁considering	-11019
▁cooperative	-11020
▁disciplines	-11021
▁nonetheless	-11022
▁progression	-11023
▁projections	-11024
▁researching	-11025
▁appreciation	-11026
▁authenticity	-11027
▁deliberately	-11028
▁laboratories	-11029
▁philosophers	-11030
▁reproductive	-11031
▁characteristic	-11032
tz	-11033
▁#	-11034
Did	-11035
afe	-11036
har	-11037
pay	-11038
zzy	-11039
▁Av	-11040
▁BJ	-11041
▁DP	-11042
▁DR	-11043
▁Ky	-11044
▁MA	-11045
▁eB	-11046
AIDS	-11047
Just	-11048
aire	-11049
chem	-11050
expl	-11051
eyed	-11052
held	-11053
inch	-11054
page	-11055
ucks	-11056
ylon	-11057
▁'50	-11058
▁1.5	-11059
▁Gar	-11060
▁fir	-11061
▁ger	-11062
▁voy	-11063
▁zoo	-11064
Point	-11065
brush	-11066
glect	-11067
graph	-11068
▁2008	-11069
▁2010	-11070
▁Book	-11071
▁Bosn	-11072
▁Dick	-11073
▁Tues	-11074
▁Year	-11075
▁beds	-11076
▁bugs	-11077
▁cycl	-11078
▁disk	-11079
▁fans	-11080
▁germ	-11081
▁odor	-11082
▁pose	-11083
▁toss	-11084
▁trap	-11085
advant	-11086
bulary	-11087
engers	-11088
inding	-11089
orship	-11090
resist	-11091
solete	-11092
▁2006,	-11093
▁Clear	-11094
▁Cyrus	-11095
▁acute	-11096
▁album	-11097
▁awake	-11098
▁camel	-11099
▁ghost	-11100
▁jumps	-11101
▁morph	-11102
▁rises	-11103
▁strat	-11104
▁sucks	-11105
▁usage	-11106
▁wives	-11107
ourcing	-11108
violent	-11109
▁Alaska	-11110
▁Monday	-11111
▁absurd	-11112
▁checks	-11113
▁copied	-11114
▁cracks	-11115
▁filmed	-11116
▁ironic	-11117
▁mating	-11118
▁occupy	-11119
▁potent	-11120
▁precip	-11121
▁tagged	-11122
▁themes	-11123
▁transm	-11124
▁tricky	-11125
▁urgent	-11126
▁virtue	-11127
▁Charlie	-11128
▁Iranian	-11129
▁Swedish	-11130
▁Tuesday	-11131
▁blessed	-11132
▁desires	-11133
▁dismiss	-11134
▁greatly	-11135
▁impress	-11136
▁logging	-11137
▁neglect	-11138
▁reforms	-11139
▁relates	-11140
▁surveys	-11141
▁talents	-11142
▁travels	-11143
▁warrior	-11144
▁winners	-11145
▁aluminum	-11146
▁angiogen	-11147
▁baseline	-11148
▁cheating	-11149
▁colorful	-11150
▁consists	-11151
▁envision	-11152
▁internet	-11153
▁marathon	-11154
▁maximize	-11155
▁modeling	-11156
▁parasite	-11157
▁passions	-11158
▁pathways	-11159
▁referred	-11160
▁thinkers	-11161
▁disadvant	-11162
▁massively	-11163
▁millennia	-11164
▁observing	-11165
▁parenting	-11166
▁satisfied	-11167
▁struggled	-11168
▁vegetable	-11169
▁wandering	-11170
▁warehouse	-11171
engineering	-11172
▁accumulate	-11173
▁altogether	-11174
▁congestion	-11175
▁households	-11176
▁identities	-11177
▁intentions	-11178
▁locomotion	-11179
▁priorities	-11180
▁procedures	-11181
▁programmed	-11182
▁repeatedly	-11183
▁staggering	-11184
▁vocabulary	-11185
▁Christopher	-11186
▁empowerment	-11187
▁frequencies	-11188
▁frustration	-11189
▁inexpensive	-11190
▁maintenance	-11191
▁sensitivity	-11192
▁substantial	-11193
▁ultraviolet	-11194
▁improvements	-11195
▁individually	-11196
▁partnerships	-11197
▁authoritarian	-11198
▁investigation	-11199
Ah	-11200
Ex	-11201
HC	-11202
PT	-11203
pa	-11204
sa	-11205
bot	-11206
▁AG	-11207
arly	-11208
bian	-11209
intu	-11210
mass	-11211
osov	-11212
pted	-11213
ucky	-11214
umbs	-11215
velt	-11216
ylac	-11217
▁Ast	-11218
▁Syl	-11219
▁arc	-11220
▁fog	-11221
▁jaw	-11222
▁mit	-11223
▁mum	-11224
▁spa	-11225
Would	-11226
idesp	-11227
ieval	-11228
ittee	-11229
ivals	-11230
ocity	-11231
pound	-11232
rison	-11233
▁Abed	-11234
▁Cost	-11235
▁Wait	-11236
▁adul	-11237
▁beam	-11238
▁calc	-11239
▁curt	-11240
▁dood	-11241
▁folk	-11242
▁hamb	-11243
▁holy	-11244
▁merg	-11245
▁pron	-11246
▁shed	-11247
▁unac	-11248
▁worm	-11249
cribed	-11250
ertips	-11251
estone	-11252
ilated	-11253
imalay	-11254
ograms	-11255
▁2001,	-11256
▁Beach	-11257
▁Broad	-11258
▁Indus	-11259
▁Small	-11260
▁Sudan	-11261
▁ambul	-11262
▁arise	-11263
▁chunk	-11264
▁clues	-11265
▁fails	-11266
▁greet	-11267
▁moist	-11268
▁mycel	-11269
▁noisy	-11270
▁paste	-11271
▁roofs	-11272
▁simul	-11273
▁slept	-11274
▁towns	-11275
▁zeros	-11276
frontal	-11277
iterate	-11278
▁Edward	-11279
▁Hubble	-11280
▁angles	-11281
▁beside	-11282
▁biases	-11283
▁candle	-11284
▁closet	-11285
▁dancer	-11286
▁earned	-11287
▁eighth	-11288
▁grains	-11289
▁mixing	-11290
▁scarce	-11291
▁traces	-11292
▁viable	-11293
▁Everest	-11294
▁Himalay	-11295
▁Montana	-11296
▁columns	-11297
▁dispers	-11298
▁episode	-11299
▁explode	-11300
▁flights	-11301
▁fossils	-11302
▁honesty	-11303
▁matches	-11304
▁monster	-11305
▁passage	-11306
▁pathway	-11307
▁reclaim	-11308
▁touches	-11309
▁utility	-11310
idespread	-11311
izational	-11312
mentation	-11313
ropolitan	-11314
▁balloons	-11315
▁detected	-11316
▁gasoline	-11317
▁goodness	-11318
▁headline	-11319
▁humility	-11320
▁infrared	-11321
▁interpre	-11322
▁maneuver	-11323
▁minerals	-11324
▁missions	-11325
▁obsolete	-11326
▁obstacle	-11327
▁pipeline	-11328
▁seawater	-11329
▁sometime	-11330
▁survivor	-11331
▁uniquely	-11332
generation	-11333
ographical	-11334
▁Elizabeth	-11335
▁Therefore	-11336
▁artifacts	-11337
▁dictators	-11338
▁execution	-11339
▁fireflies	-11340
▁involving	-11341
▁judgments	-11342
▁mushrooms	-11343
▁nightmare	-11344
▁pressures	-11345
▁processor	-11346
▁producers	-11347
▁projected	-11348
▁replacing	-11349
▁skeptical	-11350
▁PowerPoint	-11351
▁accurately	-11352
▁celebrated	-11353
▁convincing	-11354
▁disruptive	-11355
▁inventions	-11356
▁pedestrian	-11357
▁renewables	-11358
▁translator	-11359
▁Association	-11360
▁dysfunction	-11361
▁questioning	-11362
▁replacement	-11363
▁statistical	-11364
▁stimulation	-11365
▁chemotherapy	-11366
▁perspectives	-11367
▁collaborators	-11368
▁experimenting	-11369
▁rehabilitation	-11370
ER	-11371
ao	-11372
100	-11373
Mom	-11374
One	-11375
bee	-11376
cod	-11377
iro	-11378
lah	-11379
run	-11380
▁52	-11381
▁ID	-11382
▁IP	-11383
▁Ir	-11384
▁JC	-11385
▁UK	-11386
aman	-11387
copy	-11388
hors	-11389
iasm	-11390
inea	-11391
lets	-11392
oton	-11393
rove	-11394
sens	-11395
umen	-11396
yles	-11397
▁140	-11398
▁160	-11399
▁50-	-11400
▁Ang	-11401
▁Ask	-11402
▁Han	-11403
▁Nin	-11404
▁Tit	-11405
▁bip	-11406
ambod	-11407
arial	-11408
ffiti	-11409
roots	-11410
▁Know	-11411
▁Mall	-11412
▁Marc	-11413
▁Peru	-11414
▁Wood	-11415
▁apes	-11416
▁appe	-11417
▁cram	-11418
▁cube	-11419
▁dens	-11420
▁nano	-11421
▁narc	-11422
▁numb	-11423
▁plut	-11424
▁pops	-11425
▁rays	-11426
▁unre	-11427
alized	-11428
ements	-11429
epherd	-11430
ibbean	-11431
ndered	-11432
second	-11433
▁Fifty	-11434
▁Kosov	-11435
▁Nepal	-11436
▁alike	-11437
▁ethic	-11438
▁frogs	-11439
▁fuzzy	-11440
▁grant	-11441
▁macro	-11442
▁newly	-11443
▁penis	-11444
▁woods	-11445
alities	-11446
onsense	-11447
raising	-11448
▁Cambod	-11449
▁Golden	-11450
▁Humans	-11451
▁Sahara	-11452
▁apples	-11453
▁assure	-11454
▁banned	-11455
▁behold	-11456
▁contag	-11457
▁enters	-11458
▁firing	-11459
▁fruits	-11460
▁gravit	-11461
▁hatred	-11462
▁humble	-11463
▁insult	-11464
▁racial	-11465
▁reflex	-11466
▁salmon	-11467
▁spiral	-11468
▁stigma	-11469
▁thrive	-11470
▁weighs	-11471
breaking	-11472
▁Clearly	-11473
▁Defense	-11474
▁altered	-11475
▁checked	-11476
▁dreamed	-11477
▁emerges	-11478
▁exhaust	-11479
▁liberty	-11480
▁portray	-11481
▁praying	-11482
▁reveals	-11483
▁sadness	-11484
▁settled	-11485
▁seventh	-11486
▁shadows	-11487
▁shortly	-11488
▁sounded	-11489
▁thereby	-11490
▁thermal	-11491
▁viewing	-11492
conscious	-11493
inational	-11494
▁Consider	-11495
▁Whenever	-11496
▁autistic	-11497
▁autonomy	-11498
▁champion	-11499
▁gigantic	-11500
▁numerous	-11501
▁operates	-11502
▁overseas	-11503
▁primates	-11504
▁stealing	-11505
▁triangle	-11506
▁weakness	-11507
ifications	-11508
▁Caribbean	-11509
▁Egyptians	-11510
▁activated	-11511
▁augmented	-11512
▁bacterium	-11513
▁consuming	-11514
▁diplomacy	-11515
▁emphasize	-11516
▁finishing	-11517
▁indicates	-11518
▁injustice	-11519
▁instances	-11520
▁metabolic	-11521
▁pervasive	-11522
▁promoting	-11523
▁worldview	-11524
▁Australian	-11525
▁accounting	-11526
▁adaptation	-11527
▁attributes	-11528
▁developers	-11529
▁diagnostic	-11530
▁enthusiasm	-11531
▁intriguing	-11532
▁metabolism	-11533
▁predicting	-11534
▁quantities	-11535
▁supportive	-11536
▁celebration	-11537
▁corresponds	-11538
▁catastrophic	-11539
▁disappearing	-11540
▁explanations	-11541
▁reproduction	-11542
99	-11543
NC	-11544
ja	-11545
po	-11546
▁]	-11547
SPR	-11548
sex	-11549
you	-11550
acco	-11551
acle	-11552
assy	-11553
aven	-11554
beat	-11555
eman	-11556
oler	-11557
ptic	-11558
size	-11559
uper	-11560
▁CRI	-11561
▁Dig	-11562
▁Sad	-11563
▁cod	-11564
▁gad	-11565
▁jan	-11566
▁kit	-11567
Afric	-11568
allas	-11569
ester	-11570
negie	-11571
onder	-11572
rowth	-11573
urger	-11574
uster	-11575
▁Data	-11576
▁Hold	-11577
▁Main	-11578
▁Pete	-11579
▁Phys	-11580
▁Work	-11581
▁clar	-11582
▁debr	-11583
▁dorm	-11584
▁eBay	-11585
▁ease	-11586
▁fame	-11587
▁fled	-11588
▁goat	-11589
▁hurd	-11590
▁iPad	-11591
▁leak	-11592
▁node	-11593
▁tale	-11594
ankind	-11595
formed	-11596
ieties	-11597
inates	-11598
ogenic	-11599
▁Guard	-11600
▁Heart	-11601
▁Libya	-11602
▁Linux	-11603
▁Party	-11604
▁Pitts	-11605
▁adequ	-11606
▁arena	-11607
▁chore	-11608
▁crows	-11609
▁discl	-11610
▁freed	-11611
▁guerr	-11612
▁hills	-11613
▁jeans	-11614
▁manus	-11615
▁marsh	-11616
▁midst	-11617
▁smugg	-11618
▁verge	-11619
▁yeast	-11620
acities	-11621
aghetti	-11622
holders	-11623
▁CRISPR	-11624
▁Cancer	-11625
▁Colomb	-11626
▁Greeks	-11627
▁Joshua	-11628
▁Norden	-11629
▁Notice	-11630
▁Sylvia	-11631
▁Unlike	-11632
▁beetle	-11633
▁calend	-11634
▁folded	-11635
▁interd	-11636
▁jungle	-11637
▁metals	-11638
▁resemb	-11639
▁reserv	-11640
▁resort	-11641
▁slaves	-11642
▁snakes	-11643
▁storms	-11644
▁unseen	-11645
▁violin	-11646
▁voters	-11647
▁Certain	-11648
▁Climate	-11649
▁Georgia	-11650
▁Phoenix	-11651
▁Stewart	-11652
▁airline	-11653
▁anytime	-11654
▁appoint	-11655
▁buttons	-11656
▁captain	-11657
▁chemist	-11658
▁crystal	-11659
▁desktop	-11660
▁enthusi	-11661
▁gallons	-11662
▁goodbye	-11663
▁lighter	-11664
▁migrate	-11665
▁quietly	-11666
▁shelves	-11667
▁upright	-11668
▁volumes	-11669
▁Carnegie	-11670
▁Columbia	-11671
▁Michigan	-11672
▁accommod	-11673
▁assigned	-11674
▁confined	-11675
▁endeavor	-11676
▁friction	-11677
▁intimacy	-11678
▁lectures	-11679
▁mattered	-11680
▁noticing	-11681
▁petition	-11682
▁pressing	-11683
▁pursuing	-11684
▁receptor	-11685
▁regulate	-11686
▁supports	-11687
▁thorough	-11688
▁Architect	-11689
▁Similarly	-11690
▁addressed	-11691
▁countless	-11692
▁displaced	-11693
▁fishermen	-11694
▁graduates	-11695
▁impressed	-11696
▁intervene	-11697
▁obsession	-11698
▁paralysis	-11699
▁promising	-11700
▁recovered	-11701
▁respected	-11702
▁sexuality	-11703
▁similarly	-11704
▁variables	-11705
▁beneficial	-11706
▁friendship	-11707
▁regenerate	-11708
▁relativity	-11709
▁widespread	-11710
▁accountable	-11711
▁citizenship	-11712
▁controversy	-11713
▁frustrating	-11714
▁problematic	-11715
▁revolutions	-11716
▁angiogenesis	-11717
▁dictionaries	-11718
▁nevertheless	-11719
▁Interestingly	-11720
▁multinational	-11721
▁spontaneously	-11722
CH	-11723
ES	-11724
300	-11725
bec	-11726
een	-11727
isa	-11728
lad	-11729
loc	-11730
▁7,	-11731
▁Ba	-11732
▁Lo	-11733
▁MO	-11734
▁Wr	-11735
▁ic	-11736
Cola	-11737
Good	-11738
educ	-11739
eron	-11740
gage	-11741
oven	-11742
unes	-11743
▁50,	-11744
▁Beh	-11745
▁Cir	-11746
▁Dal	-11747
▁Ell	-11748
▁LHC	-11749
▁Naz	-11750
▁Top	-11751
▁bay	-11752
▁fee	-11753
▁hut	-11754
ached	-11755
appro	-11756
ccoli	-11757
epler	-11758
fight	-11759
leans	-11760
pling	-11761
sight	-11762
venue	-11763
▁Bali	-11764
▁Band	-11765
▁Coca	-11766
▁Fred	-11767
▁Mind	-11768
▁Pent	-11769
▁Such	-11770
▁Tele	-11771
▁Zimb	-11772
▁buzz	-11773
▁conj	-11774
▁foie	-11775
▁font	-11776
▁oven	-11777
▁pean	-11778
▁reun	-11779
▁seam	-11780
▁stew	-11781
▁tide	-11782
angelo	-11783
inator	-11784
redict	-11785
rogram	-11786
screen	-11787
ugging	-11788
ussani	-11789
▁Const	-11790
▁Death	-11791
▁Fried	-11792
▁Lagos	-11793
▁Larry	-11794
▁Namib	-11795
▁Story	-11796
▁Tesla	-11797
▁Venus	-11798
▁bribe	-11799
▁dates	-11800
▁inert	-11801
▁laund	-11802
▁physi	-11803
▁sells	-11804
▁squid	-11805
▁tiger	-11806
▁wiped	-11807
eliness	-11808
million	-11809
▁12,000	-11810
▁Canyon	-11811
▁Commun	-11812
▁Others	-11813
▁anonym	-11814
▁asthma	-11815
▁bypass	-11816
▁cement	-11817
▁cooler	-11818
▁ethics	-11819
▁fixing	-11820
▁freeze	-11821
▁hacker	-11822
▁heroic	-11823
▁hunter	-11824
▁irrele	-11825
▁marrow	-11826
▁mature	-11827
▁mouths	-11828
▁punish	-11829
▁salary	-11830
▁spends	-11831
▁submar	-11832
▁thylac	-11833
▁undert	-11834
▁upward	-11835
▁viscer	-11836
▁washed	-11837
▁Orleans	-11838
▁Philipp	-11839
▁Usually	-11840
▁affairs	-11841
▁archive	-11842
▁beetles	-11843
▁confirm	-11844
▁devoted	-11845
▁easiest	-11846
▁examine	-11847
▁magnets	-11848
▁mixture	-11849
▁newborn	-11850
▁phrases	-11851
▁pricing	-11852
▁silicon	-11853
▁skilled	-11854
▁victory	-11855
▁Giussani	-11856
▁TEDTalks	-11857
▁assuming	-11858
▁blocking	-11859
▁exploded	-11860
▁imprison	-11861
▁invasion	-11862
▁misunder	-11863
▁operator	-11864
▁patience	-11865
▁purchase	-11866
▁supernov	-11867
▁symbolic	-11868
▁upstream	-11869
controlled	-11870
▁Education	-11871
▁Jefferson	-11872
▁exclusive	-11873
▁humankind	-11874
▁illusions	-11875
▁ingenuity	-11876
▁inherited	-11877
▁launching	-11878
▁marijuana	-11879
▁stimulate	-11880
▁strengths	-11881
▁sustained	-11882
▁unpredict	-11883
▁disappears	-11884
▁frightened	-11885
▁generosity	-11886
▁physiology	-11887
▁reflective	-11888
▁symmetries	-11889
▁Republicans	-11890
▁destructive	-11891
▁efficiently	-11892
▁embarrassed	-11893
▁flexibility	-11894
▁perceptions	-11895
▁symmetrical	-11896
▁disabilities	-11897
▁tremendously	-11898
▁unemployment	-11899
▁independently	-11900
▁hallucinations	-11901
▁entrepreneurial	-11902
AA	-11903
Le	-11904
▁:	-11905
bes	-11906
eys	-11907
gue	-11908
idi	-11909
iva	-11910
nik	-11911
sea	-11912
▁44	-11913
▁gy	-11914
abwe	-11915
anol	-11916
asha	-11917
cuse	-11918
elle	-11919
enez	-11920
iner	-11921
roid	-11922
weet	-11923
▁16,	-11924
▁ALS	-11925
▁Ash	-11926
▁CMU	-11927
▁Die	-11928
▁Emb	-11929
▁Hot	-11930
▁Muh	-11931
▁Rog	-11932
▁Ter	-11933
▁Win	-11934
▁cum	-11935
▁eru	-11936
▁gel	-11937
▁owe	-11938
▁sha	-11939
▁vig	-11940
actic	-11941
amous	-11942
child	-11943
erers	-11944
essim	-11945
ilibr	-11946
iotic	-11947
opian	-11948
shore	-11949
thals	-11950
ugged	-11951
vance	-11952
▁Cuba	-11953
▁Fire	-11954
▁Food	-11955
▁Pers	-11956
▁Sher	-11957
▁Slow	-11958
▁Soon	-11959
▁bent	-11960
▁cafe	-11961
▁eats	-11962
▁edit	-11963
▁orth	-11964
▁padd	-11965
▁perf	-11966
▁perm	-11967
▁slip	-11968
▁sums	-11969
▁tips	-11970
▁twin	-11971
▁yard	-11972
embers	-11973
forced	-11974
iments	-11975
▁2010.	-11976
▁Milky	-11977
▁Music	-11978
▁Paulo	-11979
▁Simon	-11980
▁alleg	-11981
▁divid	-11982
▁drama	-11983
▁faint	-11984
▁fleet	-11985
▁heter	-11986
▁hurts	-11987
▁lakes	-11988
▁merit	-11989
▁myths	-11990
▁octop	-11991
▁pipes	-11992
▁pumps	-11993
▁shuff	-11994
▁slope	-11995
▁snake	-11996
▁trait	-11997
▁unequ	-11998
▁withd	-11999
▁wreck	-12000
Because	-12001
conomic	-12002
iscover	-12003
ultural	-12004
version	-12005
▁Empire	-12006
▁Kepler	-12007
▁Native	-12008
▁Warren	-12009
▁bloody	-12010
▁bounce	-12011
▁cathed	-12012
▁cinema	-12013
▁debris	-12014
▁divine	-12015
▁entity	-12016
▁fights	-12017
▁guitar	-12018
▁helmet	-12019
▁improb	-12020
▁ladder	-12021
▁marked	-12022
▁pilots	-12023
▁prejud	-12024
▁reader	-12025
▁routes	-12026
▁shares	-12027
▁slowed	-12028
▁throat	-12029
▁truths	-12030
▁underp	-12031
ilibrium	-12032
velength	-12033
▁Country	-12034
▁Environ	-12035
▁Hundred	-12036
▁Natural	-12037
▁amateur	-12038
▁blocked	-12039
▁council	-12040
▁cracked	-12041
▁deficit	-12042
▁donated	-12043
▁markers	-12044
▁minimal	-12045
▁notions	-12046
▁persons	-12047
▁premise	-12048
▁shaping	-12049
▁tickets	-12050
▁warfare	-12051
condition	-12052
▁Zimbabwe	-12053
▁adaptive	-12054
▁applause	-12055
▁commonly	-12056
▁composed	-12057
▁declared	-12058
▁diamonds	-12059
▁doubling	-12060
▁emergent	-12061
▁enabling	-12062
▁equipped	-12063
▁executed	-12064
▁graffiti	-12065
▁magician	-12066
▁modified	-12067
▁mycelium	-12068
▁obtained	-12069
▁plankton	-12070
▁register	-12071
▁sneakers	-12072
▁stepping	-12073
▁surgical	-12074
▁velocity	-12075
▁visitors	-12076
▁workshop	-12077
▁accepting	-12078
▁ambulance	-12079
▁assistant	-12080
▁attending	-12081
▁biosphere	-12082
▁breakdown	-12083
▁demograph	-12084
▁executive	-12085
▁exercises	-12086
▁intersect	-12087
▁processed	-12088
▁qualified	-12089
▁spaghetti	-12090
▁summarize	-12091
▁Scientists	-12092
▁brainstorm	-12093
▁disgusting	-12094
▁grassroots	-12095
▁innovators	-12096
▁passengers	-12097
▁prevalence	-12098
▁propaganda	-12099
▁calculation	-12100
▁documenting	-12101
▁existential	-12102
▁expectation	-12103
▁financially	-12104
▁psychiatric	-12105
▁Neanderthals	-12106
▁illustration	-12107
▁manipulation	-12108
▁urbanization	-12109
▁configuration	-12110
▁consideration	-12111
▁gravitational	-12112
▁/	-12113
ECD	-12114
boy	-12115
fig	-12116
lem	-12117
una	-12118
vet	-12119
weg	-12120
wid	-12121
▁38	-12122
▁43	-12123
▁Cy	-12124
▁ST	-12125
▁oy	-12126
acks	-12127
adow	-12128
blow	-12129
bone	-12130
bral	-12131
eddy	-12132
eton	-12133
hops	-12134
icut	-12135
mics	-12136
mile	-12137
otal	-12138
rose	-12139
urbs	-12140
zone	-12141
▁14,	-12142
▁18,	-12143
▁24-	-12144
▁DAR	-12145
▁Fil	-12146
▁Ham	-12147
▁Kar	-12148
▁Lee	-12149
▁Lew	-12150
▁Mig	-12151
▁Oft	-12152
▁Sub	-12153
▁Tai	-12154
▁ape	-12155
▁lex	-12156
▁rum	-12157
ammad	-12158
borne	-12159
cycle	-12160
igned	-12161
shirt	-12162
story	-12163
▁2005	-12164
▁Bert	-12165
▁Dave	-12166
▁Expl	-12167
▁Gall	-12168
▁Hung	-12169
▁Milo	-12170
▁OECD	-12171
▁Stop	-12172
▁TEDx	-12173
▁Wars	-12174
▁anom	-12175
▁bion	-12176
▁budd	-12177
▁gaze	-12178
▁puff	-12179
▁sang	-12180
▁skip	-12181
▁slam	-12182
▁slum	-12183
apagos	-12184
bercul	-12185
enment	-12186
ervice	-12187
handed	-12188
irable	-12189
lahoma	-12190
ortune	-12191
ranean	-12192
rition	-12193
school	-12194
▁Danny	-12195
▁Prime	-12196
▁Princ	-12197
▁Qaeda	-12198
▁Using	-12199
▁Venez	-12200
▁backs	-12201
▁centr	-12202
▁crank	-12203
▁deple	-12204
▁draws	-12205
▁folds	-12206
▁hobby	-12207
▁jokes	-12208
▁oppon	-12209
▁recur	-12210
▁riots	-12211
▁shred	-12212
▁snaps	-12213
▁surre	-12214
▁swing	-12215
▁tuned	-12216
develop	-12217
itorium	-12218
ocratic	-12219
▁Buddha	-12220
▁Dallas	-12221
▁Norweg	-12222
▁Syrian	-12223
▁Yellow	-12224
▁benign	-12225
▁copper	-12226
▁depths	-12227
▁empire	-12228
▁firmly	-12229
▁hypoth	-12230
▁laying	-12231
▁pessim	-12232
▁powder	-12233
▁tender	-12234
▁unimag	-12235
▁update	-12236
appiness	-12237
▁anxious	-12238
▁categor	-12239
▁cleaned	-12240
▁defines	-12241
▁divorce	-12242
▁grammar	-12243
▁joining	-12244
▁outdoor	-12245
▁primate	-12246
▁sailing	-12247
▁submers	-12248
▁subsequ	-12249
▁sulfide	-12250
▁torture	-12251
▁tracked	-12252
▁wonders	-12253
▁wounded	-12254
intuitive	-12255
▁Portugal	-12256
▁Recently	-12257
▁Venezuel	-12258
▁certific	-12259
▁chapters	-12260
▁commands	-12261
▁contacts	-12262
▁diagnose	-12263
▁embodied	-12264
▁embraced	-12265
▁entitled	-12266
▁glaciers	-12267
▁indirect	-12268
▁jealousy	-12269
▁juvenile	-12270
▁memorial	-12271
▁planting	-12272
▁promises	-12273
▁responds	-12274
▁societal	-12275
berculosis	-12276
▁Galapagos	-12277
▁Princeton	-12278
▁Secretary	-12279
▁affection	-12280
▁aggregate	-12281
▁arbitrary	-12282
▁assembled	-12283
▁cellphone	-12284
▁combining	-12285
▁container	-12286
▁demanding	-12287
▁filmmaker	-12288
▁kilometer	-12289
▁releasing	-12290
▁routinely	-12291
▁scenarios	-12292
▁simulated	-12293
▁submitted	-12294
▁Pittsburgh	-12295
▁acceptable	-12296
▁acceptance	-12297
▁courageous	-12298
▁playground	-12299
▁reasonably	-12300
▁recognizes	-12301
▁Connecticut	-12302
▁aspirations	-12303
▁calculating	-12304
▁celebrating	-12305
▁circulation	-12306
▁conferences	-12307
▁equilibrium	-12308
▁measurement	-12309
▁microscopic	-12310
▁stereotypes	-12311
▁transferred	-12312
▁willingness	-12313
▁wonderfully	-12314
▁disconnected	-12315
▁breakthroughs	-12316
▁developmental	-12317
▁improvisation	-12318
▁personalities	-12319
▁photographers	-12320
▁statistically	-12321
▁electromagnetic	-12322
-2	-12323
Ar	-12324
Cl	-12325
EA	-12326
600	-12327
800	-12328
but	-12329
fts	-12330
jan	-12331
mia	-12332
nie	-12333
obi	-12334
odd	-12335
pit	-12336
rer	-12337
sis	-12338
ugs	-12339
▁4,	-12340
▁Ec	-12341
▁Od	-12342
acre	-12343
amil	-12344
anch	-12345
arat	-12346
aron	-12347
bles	-12348
core	-12349
dest	-12350
eled	-12351
fing	-12352
neum	-12353
otan	-12354
rays	-12355
soon	-12356
uled	-12357
wear	-12358
▁180	-12359
▁450	-12360
▁Bor	-12361
▁Ide	-12362
▁McG	-12363
▁Mot	-12364
▁Pet	-12365
▁Reg	-12366
▁Scr	-12367
▁Too	-12368
▁bol	-12369
▁cav	-12370
▁fet	-12371
▁hij	-12372
▁hug	-12373
▁los	-12374
achel	-12375
arium	-12376
asant	-12377
berty	-12378
crast	-12379
erate	-12380
ibati	-12381
icism	-12382
illas	-12383
illes	-12384
loved	-12385
rovir	-12386
ucked	-12387
▁2009	-12388
▁Jama	-12389
▁Jean	-12390
▁Lama	-12391
▁Real	-12392
▁appl	-12393
▁cops	-12394
▁dome	-12395
▁extr	-12396
▁hect	-12397
▁lane	-12398
▁lips	-12399
▁lump	-12400
▁mang	-12401
▁mund	-12402
asting	-12403
iately	-12404
itical	-12405
lights	-12406
obiles	-12407
ocracy	-12408
odynam	-12409
opardy	-12410
rhythm	-12411
strong	-12412
▁9/11,	-12413
▁Doesn	-12414
▁Keith	-12415
▁Quite	-12416
▁Roose	-12417
▁Royal	-12418
▁Start	-12419
▁chalk	-12420
▁dealt	-12421
▁firms	-12422
▁fungi	-12423
▁gifts	-12424
▁hatch	-12425
▁insur	-12426
▁piles	-12427
▁races	-12428
▁sadly	-12429
▁scope	-12430
▁traff	-12431
ilizing	-12432
sterdam	-12433
▁Doctor	-12434
▁Either	-12435
▁Kansas	-12436
▁Taiwan	-12437
▁arrows	-12438
▁differ	-12439
▁elders	-12440
▁facult	-12441
▁fierce	-12442
▁hooked	-12443
▁loaded	-12444
▁pollut	-12445
▁poured	-12446
▁psycho	-12447
▁spouse	-12448
▁syring	-12449
▁thrust	-12450
▁towers	-12451
ceptable	-12452
oriented	-12453
▁300,000	-12454
▁400,000	-12455
▁Justice	-12456
▁Looking	-12457
▁chaotic	-12458
▁charter	-12459
▁crashes	-12460
▁crushed	-12461
▁deserts	-12462
▁editors	-12463
▁enzymes	-12464
▁epiphan	-12465
▁equator	-12466
▁expense	-12467
▁frontal	-12468
▁jewelry	-12469
▁knocked	-12470
▁linking	-12471
▁mammoth	-12472
▁nucleus	-12473
▁placebo	-12474
▁reviews	-12475
▁romance	-12476
▁suburbs	-12477
▁symptom	-12478
▁vitamin	-12479
▁Buddhist	-12480
▁Kiribati	-12481
▁Movement	-12482
▁Muhammad	-12483
▁Oklahoma	-12484
▁acoustic	-12485
▁broccoli	-12486
▁civilian	-12487
▁degraded	-12488
▁flourish	-12489
▁horrific	-12490
▁insisted	-12491
▁nonsense	-12492
▁passport	-12493
▁presents	-12494
▁quantity	-12495
▁sacrific	-12496
▁sections	-12497
▁shepherd	-12498
▁smartest	-12499
▁superher	-12500
▁threaten	-12501
ysomething	-12502
▁Roosevelt	-12503
▁afterward	-12504
▁attacking	-12505
▁attempted	-12506
▁cigarette	-12507
▁confusion	-12508
▁fragments	-12509
▁galleries	-12510
▁illnesses	-12511
▁implanted	-12512
▁pregnancy	-12513
▁preserved	-12514
▁voluntary	-12515
▁Parliament	-12516
▁Ultimately	-12517
▁antibiotic	-12518
▁assessment	-12519
▁coordinate	-12520
▁distribute	-12521
▁specialist	-12522
▁wavelength	-12523
▁accelerated	-12524
▁adolescence	-12525
▁association	-12526
▁complaining	-12527
▁countryside	-12528
▁exceptional	-12529
▁initiatives	-12530
▁meaningless	-12531
▁permanently	-12532
▁rainforests	-12533
▁scholarship	-12534
▁Michelangelo	-12535
▁biologically	-12536
▁developments	-12537
▁presidential	-12538
▁tuberculosis	-12539
▁comprehensive	-12540
▁contradiction	-12541
▁contributions	-12542
▁incarceration	-12543
.5	-12544
BT	-12545
EM	-12546
FO	-12547
To	-12548
ARS	-12549
Pro	-12550
asa	-12551
dad	-12552
obo	-12553
urp	-12554
zer	-12555
▁'8	-12556
▁86	-12557
▁98	-12558
▁AD	-12559
▁Ku	-12560
▁PR	-12561
▁SO	-12562
▁Si	-12563
▁Sk	-12564
axis	-12565
cium	-12566
mart	-12567
obic	-12568
otto	-12569
risk	-12570
uten	-12571
wall	-12572
▁1.3	-12573
▁40-	-12574
▁Bru	-12575
▁Cat	-12576
▁Kim	-12577
▁Run	-12578
▁SMS	-12579
▁Tah	-12580
▁dug	-12581
▁gym	-12582
▁obe	-12583
▁thy	-12584
▁unb	-12585
Great	-12586
actly	-12587
atics	-12588
bands	-12589
cture	-12590
heric	-12591
ilson	-12592
izona	-12593
munic	-12594
oping	-12595
tends	-12596
uddin	-12597
ulent	-12598
▁Alan	-12599
▁Ardu	-12600
▁Jobs	-12601
▁Lady	-12602
▁Line	-12603
▁Luck	-12604
▁bore	-12605
▁gait	-12606
▁gosh	-12607
▁heck	-12608
▁jury	-12609
▁menu	-12610
▁nick	-12611
▁owns	-12612
▁rhet	-12613
abytes	-12614
alling	-12615
irling	-12616
resses	-12617
uation	-12618
▁1990,	-12619
▁2000.	-12620
▁7,000	-12621
▁Chuck	-12622
▁Dalai	-12623
▁Diego	-12624
▁Leone	-12625
▁Radio	-12626
▁Stand	-12627
▁bands	-12628
▁choir	-12629
▁crust	-12630
▁drift	-12631
▁empir	-12632
▁files	-12633
▁glory	-12634
▁incub	-12635
▁kilos	-12636
▁pneum	-12637
▁recip	-12638
▁repet	-12639
▁rides	-12640
▁stole	-12641
▁toast	-12642
▁wrink	-12643
anguage	-12644
growing	-12645
inative	-12646
inators	-12647
thetics	-12648
▁Cities	-12649
▁Garden	-12650
▁Invest	-12651
▁Johnny	-12652
▁Kosovo	-12653
▁Person	-12654
▁Wouldn	-12655
▁angels	-12656
▁biased	-12657
▁bucket	-12658
▁condem	-12659
▁defeat	-12660
▁finite	-12661
▁harass	-12662
▁heroin	-12663
▁hollow	-12664
▁issued	-12665
▁lasted	-12666
▁learns	-12667
▁lenses	-12668
▁listed	-12669
▁obsess	-12670
▁poorly	-12671
▁scroll	-12672
▁shield	-12673
▁singer	-12674
▁slogan	-12675
▁smiles	-12676
▁stocks	-12677
▁tastes	-12678
▁waking	-12679
▁wished	-12680
ictional	-12681
▁Alright	-12682
▁Arizona	-12683
▁Denmark	-12684
▁Francis	-12685
▁Liberia	-12686
▁Snowden	-12687
▁Somehow	-12688
▁abandon	-12689
▁bananas	-12690
▁barbers	-12691
▁compens	-12692
▁complim	-12693
▁copying	-12694
▁impulse	-12695
▁justify	-12696
▁lesbian	-12697
▁mineral	-12698
▁morally	-12699
▁mundane	-12700
▁needing	-12701
▁needles	-12702
▁posters	-12703
▁puberty	-12704
▁ratings	-12705
▁reduces	-12706
▁scanned	-12707
▁seafood	-12708
▁shipped	-12709
▁squared	-12710
▁strains	-12711
▁summary	-12712
▁wasting	-12713
▁worship	-12714
▁Brothers	-12715
▁backpack	-12716
▁balanced	-12717
▁cerebral	-12718
▁contents	-12719
▁duration	-12720
▁glorious	-12721
▁midnight	-12722
▁miracles	-12723
▁operated	-12724
▁optimize	-12725
▁overlook	-12726
▁prevents	-12727
▁rainfall	-12728
▁receiver	-12729
▁sessions	-12730
▁suburban	-12731
▁temporal	-12732
▁unstable	-12733
▁weekends	-12734
▁adversity	-12735
▁certainty	-12736
▁civilians	-12737
▁gratitude	-12738
▁imaginary	-12739
▁marvelous	-12740
▁mysteries	-12741
▁mythology	-12742
▁pediatric	-12743
▁practiced	-12744
▁prevented	-12745
▁varieties	-12746
▁Commission	-12747
▁Republican	-12748
▁auditorium	-12749
▁conception	-12750
▁conscience	-12751
▁dependence	-12752
▁explicitly	-12753
▁fingertips	-12754
▁geographic	-12755
▁guaranteed	-12756
▁irrelevant	-12757
▁parameters	-12758
▁battlefield	-12759
▁competitors	-12760
▁eradication	-12761
▁illustrates	-12762
▁introducing	-12763
▁operational	-12764
▁preventable	-12765
▁specialists	-12766
▁storyteller	-12767
▁threatening	-12768
▁trustworthy	-12769
▁quantitative	-12770
▁undergraduate	-12771
▁organizational	-12772
AC	-12773
Hi	-12774
ju	-12775
ão	-12776
aba	-12777
bet	-12778
cam	-12779
cup	-12780
ffe	-12781
oft	-12782
omp	-12783
pol	-12784
rah	-12785
sen	-12786
uci	-12787
whe	-12788
▁CC	-12789
▁Ig	-12790
▁Ju	-12791
▁Vi	-12792
▁WK	-12793
amie	-12794
asma	-12795
brow	-12796
egas	-12797
esty	-12798
etta	-12799
hall	-12800
know	-12801
owan	-12802
race	-12803
spec	-12804
them	-12805
uels	-12806
verb	-12807
▁18-	-12808
▁187	-12809
▁Cla	-12810
▁Gam	-12811
▁Hon	-12812
▁Ill	-12813
▁Jay	-12814
▁Max	-12815
▁Rub	-12816
▁Sel	-12817
▁Syd	-12818
▁gor	-12819
▁soy	-12820
▁wig	-12821
abama	-12822
aires	-12823
gebra	-12824
geria	-12825
idity	-12826
imore	-12827
meter	-12828
ochem	-12829
opoly	-12830
otics	-12831
style	-12832
width	-12833
ymmet	-12834
▁Best	-12835
▁Cars	-12836
▁Down	-12837
▁Edin	-12838
▁Harr	-12839
▁Jenn	-12840
▁Jill	-12841
▁LGBT	-12842
▁Lots	-12843
▁Side	-12844
▁Stat	-12845
▁argu	-12846
▁exit	-12847
▁inqu	-12848
▁lazy	-12849
▁pond	-12850
▁rage	-12851
▁ripp	-12852
▁rode	-12853
▁taxi	-12854
▁tilt	-12855
▁worn	-12856
atical	-12857
design	-12858
esters	-12859
health	-12860
ocaust	-12861
▁2008.	-12862
▁Beeth	-12863
▁Glass	-12864
▁Going	-12865
▁Intel	-12866
▁Jason	-12867
▁Jerry	-12868
▁Large	-12869
▁Matth	-12870
▁Often	-12871
▁Sever	-12872
▁Tower	-12873
▁absor	-12874
▁arter	-12875
▁beast	-12876
▁blade	-12877
▁bonus	-12878
▁clich	-12879
▁compr	-12880
▁cried	-12881
▁elbow	-12882
▁guilt	-12883
▁halls	-12884
▁lined	-12885
▁parag	-12886
▁parap	-12887
▁petro	-12888
▁poses	-12889
▁resid	-12890
▁ridge	-12891
▁rolls	-12892
▁sanct	-12893
▁scare	-12894
▁skies	-12895
▁spike	-12896
▁steer	-12897
▁stiff	-12898
▁towel	-12899
▁tread	-12900
▁urine	-12901
genesis	-12902
▁League	-12903
▁coding	-12904
▁cookie	-12905
▁crocod	-12906
▁defect	-12907
▁gamers	-12908
▁miscon	-12909
▁prayer	-12910
▁reluct	-12911
▁rooted	-12912
▁sticky	-12913
▁tennis	-12914
▁thirds	-12915
▁titles	-12916
▁toxins	-12917
▁vastly	-12918
▁wolves	-12919
▁writes	-12920
elligent	-12921
friendly	-12922
lessness	-12923
osterone	-12924
specific	-12925
▁Alabama	-12926
▁Finland	-12927
▁Machine	-12928
▁Namibia	-12929
▁accused	-12930
▁broadly	-12931
▁calcium	-12932
▁compact	-12933
▁dragged	-12934
▁ethanol	-12935
▁gaining	-12936
▁hallway	-12937
▁intimid	-12938
▁masters	-12939
▁octopus	-12940
▁regrets	-12941
▁rockets	-12942
▁singers	-12943
▁slowing	-12944
▁spheres	-12945
▁weighed	-12946
▁whisper	-12947
▁Hundreds	-12948
▁Medicine	-12949
▁Williams	-12950
▁activism	-12951
▁advertis	-12952
▁altruism	-12953
▁extremes	-12954
▁inviting	-12955
▁matching	-12956
▁mustache	-12957
▁producer	-12958
▁reactors	-12959
▁releases	-12960
▁secondly	-12961
▁symphony	-12962
resolution	-12963
▁Amsterdam	-12964
▁Beethoven	-12965
▁Edinburgh	-12966
▁Otherwise	-12967
▁Tasmanian	-12968
▁adulthood	-12969
▁bombsight	-12970
▁campaigns	-12971
▁confirmed	-12972
▁corridors	-12973
▁cybercrim	-12974
▁declining	-12975
▁delighted	-12976
▁epidemics	-12977
▁exhausted	-12978
▁followers	-12979
▁histories	-12980
▁imperfect	-12981
▁improvise	-12982
▁injection	-12983
▁institute	-12984
▁streaming	-12985
▁vibrating	-12986
▁Government	-12987
▁anesthesia	-12988
▁cigarettes	-12989
▁comparable	-12990
▁connectome	-12991
▁expressing	-12992
▁hypotheses	-12993
▁imperative	-12994
▁infinitely	-12995
▁loneliness	-12996
▁pesticides	-12997
▁registered	-12998
▁unemployed	-12999
▁unintended	-13000
▁vegetation	-13001
▁Information	-13002
▁abstraction	-13003
▁coincidence	-13004
▁commodities	-13005
▁corporation	-13006
▁identifying	-13007
▁maintaining	-13008
▁preferences	-13009
▁requirement	-13010
▁conditioning	-13011
▁consistently	-13012
▁encyclopedia	-13013
▁refrigerator	-13014
▁stratosphere	-13015
▁surroundings	-13016
▁unacceptable	-13017
▁manufacturers	-13018
▁presentations	-13019
Am	-13020
An	-13021
EG	-13022
wa	-13023
zo	-13024
alg	-13025
dle	-13026
pot	-13027
ria	-13028
tic	-13029
▁34	-13030
▁PI	-13031
▁SA	-13032
▁TB	-13033
▁TR	-13034
▁du	-13035
Your	-13036
arer	-13037
ause	-13038
bird	-13039
etts	-13040
greg	-13041
itis	-13042
mble	-13043
obos	-13044
onal	-13045
onto	-13046
plan	-13047
ques	-13048
riad	-13049
rust	-13050
stan	-13051
zler	-13052
▁14-	-13053
▁16-	-13054
▁17,	-13055
▁185	-13056
▁360	-13057
▁Bah	-13058
▁Bud	-13059
▁Dev	-13060
▁End	-13061
▁Est	-13062
▁Got	-13063
▁Isa	-13064
▁Kle	-13065
▁McC	-13066
▁Ooh	-13067
▁Ple	-13068
▁Rel	-13069
▁Rus	-13070
▁bos	-13071
▁dar	-13072
▁jur	-13073
▁lou	-13074
▁mun	-13075
▁pee	-13076
▁quo	-13077
▁sap	-13078
▁woo	-13079
These	-13080
achus	-13081
adequ	-13082
akota	-13083
alore	-13084
erend	-13085
iages	-13086
igate	-13087
ilage	-13088
integ	-13089
ipper	-13090
osion	-13091
theon	-13092
▁$100	-13093
▁Balt	-13094
▁Beck	-13095
▁Cart	-13096
▁Chan	-13097
▁Cher	-13098
▁Fast	-13099
▁Hard	-13100
▁Mama	-13101
▁Vill	-13102
▁Yale	-13103
▁bass	-13104
▁crab	-13105
▁cues	-13106
▁encl	-13107
▁gran	-13108
▁grim	-13109
▁hump	-13110
▁keen	-13111
▁larv	-13112
▁stir	-13113
achers	-13114
acious	-13115
atrina	-13116
esteem	-13117
govern	-13118
igrade	-13119
lethal	-13120
veling	-13121
▁1998,	-13122
▁2050,	-13123
▁Emily	-13124
▁Lewis	-13125
▁Skype	-13126
▁Solar	-13127
▁arrog	-13128
▁attor	-13129
▁crawl	-13130
▁dwell	-13131
▁gangs	-13132
▁goats	-13133
▁grief	-13134
▁guest	-13135
▁hairs	-13136
▁lasts	-13137
▁moons	-13138
▁noble	-13139
▁polls	-13140
▁pools	-13141
▁radar	-13142
▁savan	-13143
▁tenth	-13144
▁unity	-13145
▁votes	-13146
▁wells	-13147
centric	-13148
iratory	-13149
usively	-13150
▁Copern	-13151
▁Desert	-13152
▁Julian	-13153
▁Living	-13154
▁Minist	-13155
▁Nicole	-13156
▁Norman	-13157
▁Philip	-13158
▁Senate	-13159
▁Sydney	-13160
▁Venice	-13161
▁Wonder	-13162
▁abused	-13163
▁bricks	-13164
▁exclud	-13165
▁impose	-13166
▁intend	-13167
▁misery	-13168
▁quotes	-13169
▁rented	-13170
▁sought	-13171
▁taller	-13172
building	-13173
cellular	-13174
vascular	-13175
▁250,000	-13176
▁Arduino	-13177
▁Company	-13178
▁Exactly	-13179
▁Freedom	-13180
▁Hawking	-13181
▁Luckily	-13182
▁Mediter	-13183
▁Natasha	-13184
▁Teszler	-13185
▁Toronto	-13186
▁abusive	-13187
▁bankers	-13188
▁beloved	-13189
▁biochem	-13190
▁crowded	-13191
▁editing	-13192
▁funeral	-13193
▁holiday	-13194
▁humming	-13195
▁inadequ	-13196
▁leopard	-13197
▁literal	-13198
▁mentors	-13199
▁millise	-13200
▁partial	-13201
▁posture	-13202
▁prevail	-13203
▁retired	-13204
▁rhythms	-13205
achusetts	-13206
▁TEDsters	-13207
▁abnormal	-13208
▁approval	-13209
▁arriving	-13210
▁avoiding	-13211
▁calendar	-13212
▁daylight	-13213
▁delicate	-13214
▁evaluate	-13215
▁happiest	-13216
▁impaired	-13217
▁insecure	-13218
▁observer	-13219
▁offshore	-13220
▁orbiting	-13221
▁quarters	-13222
▁redefine	-13223
▁resolved	-13224
▁sensible	-13225
▁shortcut	-13226
▁shouting	-13227
▁superior	-13228
performing	-13229
▁Baltimore	-13230
▁Bangalore	-13231
▁Democrats	-13232
▁automatic	-13233
▁cartilage	-13234
▁continuum	-13235
▁decentral	-13236
▁developer	-13237
▁digitally	-13238
▁directors	-13239
▁educators	-13240
▁fictional	-13241
▁marriages	-13242
▁parasites	-13243
▁pathogens	-13244
▁remembers	-13245
▁resonance	-13246
▁sequenced	-13247
▁sovereign	-13248
▁synthesis	-13249
▁Democratic	-13250
▁astronauts	-13251
▁attraction	-13252
▁censorship	-13253
▁compressed	-13254
▁harvesting	-13255
▁meditation	-13256
▁multiverse	-13257
▁simplistic	-13258
▁standpoint	-13259
▁statements	-13260
▁suspicious	-13261
▁accompanied	-13262
▁backgrounds	-13263
▁catastrophe	-13264
▁conclusions	-13265
▁continually	-13266
▁inefficient	-13267
▁instability	-13268
▁publication	-13269
▁combinations	-13270
▁exploitation	-13271
▁incidentally	-13272
▁requirements	-13273
▁similarities	-13274
▁testosterone	-13275
▁Mediterranean	-13276
▁appropriately	-13277
▁determination	-13278
▁unpredictable	-13279
▁mathematically	-13280
▁environmentally	-13281
▁transformations	-13282
Me	-13283
On	-13284
Pe	-13285
yg	-13286
▁+	-13287
awa	-13288
bly	-13289
eur	-13290
flu	-13291
ika	-13292
ili	-13293
kel	-13294
sur	-13295
▁53	-13296
▁54	-13297
▁74	-13298
▁Aw	-13299
▁BC	-13300
▁CN	-13301
▁KA	-13302
▁Mu	-13303
▁SB	-13304
▁Sn	-13305
amen	-13306
arin	-13307
arks	-13308
ctar	-13309
imed	-13310
weed	-13311
yota	-13312
▁12.	-13313
▁2.5	-13314
▁25,	-13315
▁Ach	-13316
▁Bat	-13317
▁Cru	-13318
▁Ent	-13319
▁Ess	-13320
▁Fal	-13321
▁Fox	-13322
▁Kib	-13323
▁Oak	-13324
▁Pra	-13325
▁Zip	-13326
▁fis	-13327
▁gru	-13328
▁wax	-13329
acent	-13330
backs	-13331
cular	-13332
ensed	-13333
etary	-13334
frame	-13335
gered	-13336
ieces	-13337
imony	-13338
lical	-13339
otech	-13340
owned	-13341
shine	-13342
stick	-13343
third	-13344
▁100,	-13345
▁2006	-13346
▁Alph	-13347
▁Bear	-13348
▁Marg	-13349
▁MoMA	-13350
▁Ohio	-13351
▁Pass	-13352
▁Pink	-13353
▁UCLA	-13354
▁Virt	-13355
▁Wild	-13356
▁buck	-13357
▁bulk	-13358
▁cort	-13359
▁dual	-13360
▁grip	-13361
▁guid	-13362
▁hats	-13363
▁heel	-13364
▁hood	-13365
▁lied	-13366
▁lith	-13367
▁mega	-13368
▁pity	-13369
▁prag	-13370
▁symb	-13371
▁unin	-13372
▁unne	-13373
▁warn	-13374
▁weed	-13375
▁wets	-13376
Listen	-13377
ateral	-13378
carbon	-13379
earing	-13380
enders	-13381
etical	-13382
ignant	-13383
izable	-13384
ostics	-13385
oulder	-13386
ourced	-13387
reatic	-13388
verted	-13389
▁Allen	-13390
▁Cairo	-13391
▁Costa	-13392
▁Labor	-13393
▁Night	-13394
▁Roger	-13395
▁Rover	-13396
▁Short	-13397
▁Techn	-13398
▁Vegas	-13399
▁blend	-13400
▁cheer	-13401
▁excer	-13402
▁flown	-13403
▁oblig	-13404
▁paran	-13405
▁perse	-13406
▁rooft	-13407
▁sands	-13408
▁spine	-13409
agement	-13410
appropr	-13411
assador	-13412
keeping	-13413
ometers	-13414
ultures	-13415
▁Bosnia	-13416
▁Forest	-13417
▁Guinea	-13418
▁Ninety	-13419
▁Turing	-13420
▁agrees	-13421
▁archae	-13422
▁avatar	-13423
▁balcon	-13424
▁banana	-13425
▁bitter	-13426
▁condom	-13427
▁denied	-13428
▁digits	-13429
▁expose	-13430
▁feared	-13431
▁ideals	-13432
▁larvae	-13433
▁mosque	-13434
▁nectar	-13435
▁nuclei	-13436
▁priest	-13437
▁retina	-13438
▁sulfur	-13439
▁tablet	-13440
▁thesis	-13441
▁treaty	-13442
▁united	-13443
▁verbal	-13444
▁voyage	-13445
assembly	-13446
aterials	-13447
▁500,000	-13448
▁Babbage	-13449
▁Babylon	-13450
▁Believe	-13451
▁Several	-13452
▁Station	-13453
▁Tunisia	-13454
▁algebra	-13455
▁aquatic	-13456
▁barrels	-13457
▁basking	-13458
▁beaches	-13459
▁cleaner	-13460
▁dangers	-13461
▁founder	-13462
▁futures	-13463
▁heights	-13464
▁laundry	-13465
▁legitim	-13466
▁manages	-13467
▁modules	-13468
▁payload	-13469
▁perpetr	-13470
▁reperto	-13471
▁replied	-13472
▁secular	-13473
▁shuttle	-13474
▁thirdly	-13475
▁uranium	-13476
▁watches	-13477
nutrition	-13478
resistant	-13479
▁Cambodia	-13480
▁Franklin	-13481
▁Ministry	-13482
▁Scotland	-13483
▁abortion	-13484
▁adjacent	-13485
▁annoying	-13486
▁bicycles	-13487
▁biofuels	-13488
▁congress	-13489
▁contexts	-13490
▁crashing	-13491
▁employed	-13492
▁employee	-13493
▁employer	-13494
▁feminine	-13495
▁grounded	-13496
▁guidance	-13497
▁highways	-13498
▁migrants	-13499
▁photosyn	-13500
▁pristine	-13501
▁reacting	-13502
▁recreate	-13503
▁rewarded	-13504
▁sketches	-13505
▁stumbled	-13506
▁stunning	-13507
▁sweeping	-13508
▁thriving	-13509
▁unnecess	-13510
▁veterans	-13511
▁volcanic	-13512
▁Certainly	-13513
▁Hopefully	-13514
▁attribute	-13515
▁belonging	-13516
▁cockroach	-13517
▁confusing	-13518
▁contracts	-13519
▁employers	-13520
▁firsthand	-13521
▁geometric	-13522
▁inventing	-13523
▁limestone	-13524
▁mentality	-13525
▁preferred	-13526
▁prejudice	-13527
▁relevance	-13528
▁schooling	-13529
▁selective	-13530
▁stressful	-13531
▁triangles	-13532
▁visionary	-13533
▁Especially	-13534
▁advantages	-13535
▁analytical	-13536
▁beginnings	-13537
▁capitalist	-13538
▁culturally	-13539
▁incomplete	-13540
▁influences	-13541
▁prefrontal	-13542
▁restricted	-13543
▁satisfying	-13544
▁temptation	-13545
▁worthwhile	-13546
▁anticipated	-13547
▁dragonflies	-13548
▁methodology	-13549
▁neighboring	-13550
▁progressive	-13551
▁prototyping	-13552
▁manufacturer	-13553
▁restrictions	-13554
▁Massachusetts	-13555
▁traditionally	-13556
▁nanotechnology	-13557
▁experimentation	-13558
FL	-13559
Re	-13560
awi	-13561
cav	-13562
dog	-13563
eid	-13564
ols	-13565
oub	-13566
rie	-13567
rin	-13568
ulu	-13569
▁47	-13570
▁4:	-13571
▁BR	-13572
▁EC	-13573
▁IQ	-13574
▁IT	-13575
▁MG	-13576
▁MW	-13577
▁YR	-13578
acon	-13579
alin	-13580
arms	-13581
asso	-13582
fits	-13583
hill	-13584
inas	-13585
nies	-13586
ocke	-13587
olis	-13588
rine	-13589
tebr	-13590
text	-13591
ummy	-13592
▁13,	-13593
▁Cup	-13594
▁Dam	-13595
▁Fem	-13596
▁Imp	-13597
▁Moh	-13598
▁PhD	-13599
▁Pix	-13600
▁Rec	-13601
▁Sex	-13602
▁bru	-13603
▁eco	-13604
▁geo	-13605
▁haz	-13606
▁huh	-13607
▁lag	-13608
▁piv	-13609
▁pup	-13610
▁rab	-13611
▁reh	-13612
ambia	-13613
apses	-13614
ashes	-13615
great	-13616
herom	-13617
kings	-13618
metic	-13619
ocamp	-13620
olith	-13621
owing	-13622
pical	-13623
ranny	-13624
wired	-13625
▁2007	-13626
▁Cass	-13627
▁Dean	-13628
▁Dian	-13629
▁Doaa	-13630
▁Germ	-13631
▁Much	-13632
▁Nich	-13633
▁Rena	-13634
▁Sold	-13635
▁aged	-13636
▁axes	-13637
▁brow	-13638
▁cann	-13639
▁cass	-13640
▁hind	-13641
▁kite	-13642
▁lobe	-13643
▁medi	-13644
▁moms	-13645
▁moth	-13646
▁nail	-13647
▁plum	-13648
▁rear	-13649
▁rept	-13650
▁resh	-13651
▁scra	-13652
▁sque	-13653
▁swap	-13654
▁tire	-13655
astery	-13656
belief	-13657
funded	-13658
igible	-13659
puters	-13660
uclear	-13661
ulsive	-13662
▁Along	-13663
▁Build	-13664
▁Cross	-13665
▁Freud	-13666
▁Given	-13667
▁Index	-13668
▁Maria	-13669
▁amino	-13670
▁amput	-13671
▁appet	-13672
▁arose	-13673
▁arous	-13674
▁bumps	-13675
▁comed	-13676
▁doses	-13677
▁eager	-13678
▁essay	-13679
▁gates	-13680
▁hello	-13681
▁icons	-13682
▁livel	-13683
▁loops	-13684
▁milit	-13685
▁ozone	-13686
▁posts	-13687
▁scuba	-13688
▁secre	-13689
▁spawn	-13690
▁suppl	-13691
▁swamp	-13692
▁templ	-13693
▁vapor	-13694
artheid	-13695
balance	-13696
ocative	-13697
product	-13698
writing	-13699
▁Barack	-13700
▁Corpor	-13701
▁Eighty	-13702
▁Engine	-13703
▁Incred	-13704
▁Listen	-13705
▁Mathem	-13706
▁Simple	-13707
▁Wilson	-13708
▁bionic	-13709
▁coined	-13710
▁costly	-13711
▁county	-13712
▁crises	-13713
▁drinks	-13714
▁enzyme	-13715
▁erotic	-13716
▁gallon	-13717
▁hammer	-13718
▁heated	-13719
▁indoor	-13720
▁inputs	-13721
▁makeup	-13722
▁orgasm	-13723
▁poorer	-13724
▁remitt	-13725
▁solemn	-13726
▁strang	-13727
▁suburb	-13728
▁theirs	-13729
▁valued	-13730
iability	-13731
novation	-13732
▁Already	-13733
▁Katrina	-13734
▁Windows	-13735
▁catalog	-13736
▁curator	-13737
▁diamond	-13738
▁excuses	-13739
▁exhilar	-13740
▁forcing	-13741
▁hunters	-13742
▁margins	-13743
▁mastery	-13744
▁nurture	-13745
▁optimal	-13746
▁photons	-13747
▁recycle	-13748
▁relaxed	-13749
▁satisfy	-13750
▁seasons	-13751
▁shallow	-13752
▁spirits	-13753
▁surplus	-13754
▁suscept	-13755
▁tropics	-13756
▁unaware	-13757
▁unequal	-13758
▁vicious	-13759
▁volcano	-13760
▁worries	-13761
Americans	-13762
elligence	-13763
ependence	-13764
ographing	-13765
roportion	-13766
▁Building	-13767
▁Russians	-13768
▁Scottish	-13769
▁addicted	-13770
▁aviation	-13771
▁bleeding	-13772
▁borrowed	-13773
▁catalyst	-13774
▁constitu	-13775
▁crawling	-13776
▁develops	-13777
▁drowning	-13778
▁epiphany	-13779
▁flooding	-13780
▁husbands	-13781
▁implicit	-13782
▁interrog	-13783
▁lifelong	-13784
▁meantime	-13785
▁minimize	-13786
▁mobilize	-13787
▁murdered	-13788
▁occupied	-13789
▁policing	-13790
▁portable	-13791
▁receives	-13792
▁reminder	-13793
▁rotating	-13794
▁shortage	-13795
▁speeches	-13796
▁tortured	-13797
▁visceral	-13798
▁Armstrong	-13799
▁Companies	-13800
▁Mountains	-13801
▁Norwegian	-13802
▁Palestine	-13803
▁Venezuela	-13804
▁automated	-13805
▁bandwidth	-13806
▁collapses	-13807
▁conductor	-13808
▁eradicate	-13809
▁exquisite	-13810
▁instincts	-13811
▁intricate	-13812
▁intrinsic	-13813
▁inventors	-13814
▁kilograms	-13815
▁meanwhile	-13816
▁northeast	-13817
▁nurturing	-13818
▁predatory	-13819
▁strongest	-13820
▁supercond	-13821
▁waterfall	-13822
▁Throughout	-13823
▁contagious	-13824
▁criticized	-13825
▁disruption	-13826
▁encryption	-13827
▁fulfilling	-13828
▁globalized	-13829
▁improbable	-13830
▁indication	-13831
▁internship	-13832
▁pancreatic	-13833
▁programmer	-13834
▁repertoire	-13835
▁superpower	-13836
▁synthesize	-13837
▁transistor	-13838
▁vaccinated	-13839
▁Renaissance	-13840
▁arrangement	-13841
▁centimeters	-13842
▁departments	-13843
▁friendships	-13844
▁fundraising	-13845
▁integrating	-13846
▁negotiating	-13847
▁negotiation	-13848
▁acceleration	-13849
▁demographics	-13850
▁malnutrition	-13851
▁investigating	-13852
▁reconstruction	-13853
▁twentysomething	-13854
400	-13855
abs	-13856
acc	-13857
aic	-13858
eer	-13859
enz	-13860
hel	-13861
nas	-13862
ods	-13863
raz	-13864
uns	-13865
▁82	-13866
▁FO	-13867
addy	-13868
airy	-13869
bons	-13870
cile	-13871
code	-13872
elve	-13873
fers	-13874
ikes	-13875
kers	-13876
kill	-13877
lene	-13878
mann	-13879
ocks	-13880
plex	-13881
pres	-13882
rans	-13883
rics	-13884
shah	-13885
type	-13886
uate	-13887
with	-13888
ylum	-13889
ymph	-13890
▁125	-13891
▁99.	-13892
▁Bot	-13893
▁Cou	-13894
▁EDI	-13895
▁Hur	-13896
▁Mem	-13897
▁Mrs	-13898
▁Nev	-13899
▁RIS	-13900
▁Son	-13901
▁cue	-13902
▁fer	-13903
▁heh	-13904
▁lem	-13905
,000.	-13906
azine	-13907
gress	-13908
ibles	-13909
icill	-13910
ihood	-13911
ustin	-13912
wheel	-13913
▁100-	-13914
▁1800	-13915
▁200-	-13916
▁Case	-13917
▁Dead	-13918
▁Deep	-13919
▁Kick	-13920
▁Live	-13921
▁Patr	-13922
▁Poll	-13923
▁Read	-13924
▁SARS	-13925
▁amph	-13926
▁auto	-13927
▁casc	-13928
▁clap	-13929
▁dash	-13930
▁deer	-13931
▁dude	-13932
▁fade	-13933
▁feas	-13934
▁inex	-13935
▁lamb	-13936
▁lure	-13937
▁plun	-13938
▁riot	-13939
▁skys	-13940
▁snap	-13941
▁tink	-13942
▁unve	-13943
▁wipe	-13944
anting	-13945
atemal	-13946
atized	-13947
cripts	-13948
energy	-13949
erness	-13950
houses	-13951
rorism	-13952
▁1995,	-13953
▁2002,	-13954
▁Alpha	-13955
▁Among	-13956
▁Bruce	-13957
▁DARPA	-13958
▁Irish	-13959
▁Kelly	-13960
▁Kyoto	-13961
▁Pixar	-13962
▁Point	-13963
▁Psych	-13964
▁Sadly	-13965
▁Susan	-13966
▁Ushah	-13967
▁armor	-13968
▁beats	-13969
▁bikes	-13970
▁booth	-13971
▁boson	-13972
▁deleg	-13973
▁dried	-13974
▁epile	-13975
▁exams	-13976
▁fairy	-13977
▁geeks	-13978
▁nickn	-13979
▁niece	-13980
▁peaks	-13981
▁pries	-13982
▁relie	-13983
▁royal	-13984
▁ruins	-13985
▁ruled	-13986
▁tails	-13987
▁teddy	-13988
▁volat	-13989
amation	-13990
icillin	-13991
massive	-13992
tension	-13993
ulously	-13994
▁Agency	-13995
▁Better	-13996
▁Cooper	-13997
▁Kenyan	-13998
▁Lester	-13999
▁Marcus	-14000
▁Samuel	-14001
▁antide	-14002
▁backup	-14003
▁census	-14004
▁dining	-14005
▁elites	-14006
▁enroll	-14007
▁floods	-14008
▁forbid	-14009
▁hacked	-14010
▁hotter	-14011
▁incons	-14012
▁intest	-14013
▁joints	-14014
▁labels	-14015
▁legend	-14016
▁louder	-14017
▁melody	-14018
▁noises	-14019
▁petals	-14020
▁poetic	-14021
▁polite	-14022
▁proves	-14023
▁racism	-14024
▁ripped	-14025
▁statue	-14026
▁thumbs	-14027
▁timber	-14028
▁triple	-14029
▁weekly	-14030
▁wounds	-14031
conflict	-14032
ospheric	-14033
▁Austria	-14034
▁Millenn	-14035
▁Network	-14036
▁Perfect	-14037
▁Siberia	-14038
▁biotech	-14039
▁compass	-14040
▁crosses	-14041
▁epidemi	-14042
▁erosion	-14043
▁escaped	-14044
▁faculty	-14045
▁favelas	-14046
▁fishery	-14047
▁flipped	-14048
▁focuses	-14049
▁imposed	-14050
▁indoors	-14051
▁inspect	-14052
▁janitor	-14053
▁lasting	-14054
▁miracul	-14055
▁monsoon	-14056
▁novelty	-14057
▁overlap	-14058
▁painter	-14059
▁placing	-14060
▁refined	-14061
▁signing	-14062
▁strokes	-14063
▁textile	-14064
ciliation	-14065
generated	-14066
▁Colombia	-14067
▁Computer	-14068
▁Guatemal	-14069
▁Margaret	-14070
▁Students	-14071
▁absorbed	-14072
▁amateurs	-14073
▁backward	-14074
▁blogging	-14075
▁climbers	-14076
▁creators	-14077
▁depended	-14078
▁disposal	-14079
▁donation	-14080
▁dragging	-14081
▁fighters	-14082
▁founding	-14083
▁frequent	-14084
▁improves	-14085
▁invasive	-14086
▁medieval	-14087
▁potatoes	-14088
▁protects	-14089
▁realizes	-14090
▁requests	-14091
▁respects	-14092
▁searches	-14093
▁settings	-14094
▁timeline	-14095
▁underway	-14096
▁uploaded	-14097
▁Himalayas	-14098
▁academics	-14099
▁appealing	-14100
▁boyfriend	-14101
▁cathedral	-14102
▁certified	-14103
▁charities	-14104
▁contribut	-14105
▁distorted	-14106
▁educating	-14107
▁explorers	-14108
▁hippocamp	-14109
▁honeybees	-14110
▁metaphors	-14111
▁packaging	-14112
▁partially	-14113
▁reconnect	-14114
▁revealing	-14115
▁shrinking	-14116
▁surprises	-14117
▁articulate	-14118
▁devastated	-14119
▁excellence	-14120
▁executives	-14121
▁homosexual	-14122
▁intangible	-14123
▁liberation	-14124
▁livelihood	-14125
▁nonviolent	-14126
▁perfection	-14127
▁pollutants	-14128
▁prioritize	-14129
▁randomness	-14130
▁reflecting	-14131
▁translates	-14132
▁antidepress	-14133
▁appreciated	-14134
▁constrained	-14135
▁distinctive	-14136
▁imaginative	-14137
▁incremental	-14138
▁spontaneous	-14139
▁acknowledged	-14140
▁difficulties	-14141
▁hypothetical	-14142
▁interconnect	-14143
▁negotiations	-14144
▁neurogenesis	-14145
▁neurological	-14146
▁preservation	-14147
▁corresponding	-14148
▁differentiate	-14149
▁disproportion	-14150
▁supercomputer	-14151
▁underestimate	-14152
▁internationally	-14153
▁neuroscientists	-14154
CO	-14155
DF	-14156
Je	-14157
NG	-14158
SE	-14159
dy	-14160
vo	-14161
Cor	-14162
May	-14163
aho	-14164
cko	-14165
iza	-14166
ogy	-14167
ois	-14168
rip	-14169
▁1:	-14170
▁64	-14171
▁91	-14172
▁CI	-14173
▁CS	-14174
▁Fa	-14175
▁Uk	-14176
▁hi	-14177
▁ze	-14178
▁zo	-14179
bell	-14180
cker	-14181
enza	-14182
fill	-14183
gher	-14184
hole	-14185
iami	-14186
ickr	-14187
imic	-14188
ingo	-14189
isha	-14190
lean	-14191
nals	-14192
obia	-14193
opsy	-14194
oura	-14195
rett	-14196
rost	-14197
ston	-14198
stop	-14199
tics	-14200
udge	-14201
uras	-14202
vens	-14203
week	-14204
▁13.	-14205
▁189	-14206
▁Abu	-14207
▁Aqu	-14208
▁BMW	-14209
▁Bad	-14210
▁Bow	-14211
▁Dor	-14212
▁Hem	-14213
▁Las	-14214
▁Len	-14215
▁Map	-14216
▁Ott	-14217
▁Pap	-14218
▁Pic	-14219
▁Seb	-14220
▁São	-14221
▁Tay	-14222
▁Tro	-14223
▁Use	-14224
▁Vis	-14225
▁agn	-14226
▁ais	-14227
▁dub	-14228
▁hay	-14229
▁hes	-14230
▁ove	-14231
▁por	-14232
▁ray	-14233
Hello	-14234
forms	-14235
izard	-14236
orial	-14237
otent	-14238
otive	-14239
ouver	-14240
white	-14241
yalty	-14242
▁Beat	-14243
▁Buff	-14244
▁Capt	-14245
▁Fall	-14246
▁Full	-14247
▁Gord	-14248
▁Help	-14249
▁Jaze	-14250
▁Nine	-14251
▁RISD	-14252
▁Rose	-14253
▁Shir	-14254
▁Tenn	-14255
▁Test	-14256
▁Uber	-14257
▁Whoa	-14258
▁anch	-14259
▁asph	-14260
▁boil	-14261
▁cher	-14262
▁curs	-14263
▁deny	-14264
▁echo	-14265
▁envy	-14266
▁flop	-14267
▁goss	-14268
▁quot	-14269
▁ramp	-14270
▁tect	-14271
▁todd	-14272
▁vest	-14273
change	-14274
charge	-14275
consum	-14276
ellers	-14277
estion	-14278
gender	-14279
imated	-14280
omfort	-14281
people	-14282
ulates	-14283
▁Arabs	-14284
▁Forty	-14285
▁Grace	-14286
▁Hindu	-14287
▁Miami	-14288
▁annoy	-14289
▁blows	-14290
▁chord	-14291
▁cubic	-14292
▁dimin	-14293
▁erase	-14294
▁flick	-14295
▁grabs	-14296
▁handy	-14297
▁hears	-14298
▁holog	-14299
▁incon	-14300
▁juris	-14301
▁kings	-14302
▁leaks	-14303
▁lover	-14304
▁orang	-14305
▁overd	-14306
▁pixel	-14307
▁reads	-14308
▁rearr	-14309
▁reuse	-14310
▁scrap	-14311
▁setup	-14312
▁shiny	-14313
▁slipp	-14314
▁souls	-14315
▁teens	-14316
amiliar	-14317
chester	-14318
fashion	-14319
ivation	-14320
ousands	-14321
▁80,000	-14322
▁Behind	-14323
▁Bridge	-14324
▁Easter	-14325
▁Evergl	-14326
▁Marine	-14327
▁Modern	-14328
▁Poland	-14329
▁Prince	-14330
▁aerial	-14331
▁arises	-14332
▁backed	-14333
▁brakes	-14334
▁camels	-14335
▁cardio	-14336
▁compat	-14337
▁dissem	-14338
▁hotels	-14339
▁humane	-14340
▁innate	-14341
▁joyful	-14342
▁lastly	-14343
▁marshm	-14344
▁microw	-14345
▁openly	-14346
▁parked	-14347
▁pherom	-14348
▁radius	-14349
▁rubble	-14350
▁serial	-14351
▁shells	-14352
▁stereo	-14353
▁strand	-14354
▁throws	-14355
▁varied	-14356
▁yields	-14357
attering	-14358
positive	-14359
radition	-14360
▁Germans	-14361
▁Jazeera	-14362
▁Koreans	-14363
▁Titanic	-14364
▁applaud	-14365
▁athlete	-14366
▁bluefin	-14367
▁bombing	-14368
▁bullets	-14369
▁claimed	-14370
▁congrat	-14371
▁customs	-14372
▁disagre	-14373
▁drowned	-14374
▁erectus	-14375
▁evident	-14376
▁excerpt	-14377
▁expands	-14378
▁eyebrow	-14379
▁filming	-14380
▁fractal	-14381
▁heavens	-14382
▁invaded	-14383
▁kidneys	-14384
▁measles	-14385
▁monthly	-14386
▁municip	-14387
▁payment	-14388
▁ranging	-14389
▁sapiens	-14390
▁suffers	-14391
▁thunder	-14392
▁tourism	-14393
▁tourist	-14394
▁unified	-14395
▁unthink	-14396
▁upwards	-14397
organized	-14398
▁Americas	-14399
▁Guardian	-14400
▁Lawrence	-14401
▁Learning	-14402
▁Marshall	-14403
▁Ushahidi	-14404
▁adequate	-14405
▁airports	-14406
▁blessing	-14407
▁colonial	-14408
▁composer	-14409
▁conceive	-14410
▁currents	-14411
▁declined	-14412
▁demanded	-14413
▁deterior	-14414
▁distress	-14415
▁emission	-14416
▁emphasis	-14417
▁estrogen	-14418
▁governor	-14419
▁ignorant	-14420
▁journals	-14421
▁meanings	-14422
▁memorize	-14423
▁overload	-14424
▁paradise	-14425
▁procrast	-14426
▁province	-14427
▁reporter	-14428
▁richness	-14429
▁scalable	-14430
▁schedule	-14431
▁secretly	-14432
▁severely	-14433
▁solitary	-14434
▁steering	-14435
▁strictly	-14436
▁superint	-14437
▁survives	-14438
▁sympathy	-14439
▁synapses	-14440
▁terminal	-14441
industrial	-14442
▁Interview	-14443
▁addresses	-14444
▁appearing	-14445
▁capturing	-14446
▁cognition	-14447
▁competent	-14448
▁criticism	-14449
▁defending	-14450
▁discourse	-14451
▁dominance	-14452
▁fertility	-14453
▁hamburger	-14454
▁historian	-14455
▁intrigued	-14456
▁memorable	-14457
▁paragraph	-14458
▁personnel	-14459
▁pneumonia	-14460
▁providers	-14461
▁recruited	-14462
▁rectangle	-14463
▁reinforce	-14464
▁stabilize	-14465
▁stretched	-14466
▁struggles	-14467
▁trillions	-14468
▁viewpoint	-14469
▁Depression	-14470
▁Millennium	-14471
▁accidental	-14472
▁adventures	-14473
▁animations	-14474
▁appliances	-14475
▁capacities	-14476
▁centimeter	-14477
▁complained	-14478
▁conspiracy	-14479
▁depressing	-14480
▁discomfort	-14481
▁downloaded	-14482
▁eliminated	-14483
▁eradicated	-14484
▁foreground	-14485
▁geological	-14486
▁limitation	-14487
▁occupation	-14488
▁outrageous	-14489
▁penicillin	-14490
▁perceptual	-14491
▁questioned	-14492
▁rebuilding	-14493
▁responsive	-14494
▁solidarity	-14495
▁starvation	-14496
▁unfinished	-14497
▁Governments	-14498
▁adolescents	-14499
▁automobiles	-14500
▁collections	-14501
▁humiliation	-14502
▁ideological	-14503
▁lightweight	-14504
▁respiratory	-14505
▁smartphones	-14506
▁suggestions	-14507
▁accidentally	-14508
▁constructive	-14509
▁descriptions	-14510
▁interviewing	-14511
▁metropolitan	-14512
▁psychiatrist	-14513
▁unimaginable	-14514
▁biotechnology	-14515
▁unsustainable	-14516
▁industrialized	-14517
▁representatives	-14518
-'	-14519
IP	-14520
fur	-14521
hed	-14522
ige	-14523
isp	-14524
lit	-14525
oxy	-14526
umn	-14527
yss	-14528
▁68	-14529
▁AR	-14530
▁AS	-14531
▁DI	-14532
▁EH	-14533
▁FG	-14534
▁MP	-14535
▁NP	-14536
▁Ow	-14537
▁RO	-14538
▁TM	-14539
▁Ur	-14540
▁Ut	-14541
▁Ze	-14542
Give	-14543
Mart	-14544
PTCH	-14545
Star	-14546
abad	-14547
agle	-14548
good	-14549
high	-14550
hire	-14551
iary	-14552
ieth	-14553
ilst	-14554
ippi	-14555
mail	-14556
oots	-14557
oske	-14558
prot	-14559
star	-14560
tion	-14561
ylan	-14562
▁110	-14563
▁24/	-14564
▁Ath	-14565
▁BBC	-14566
▁Bul	-14567
▁Coh	-14568
▁Cro	-14569
▁Cub	-14570
▁Fly	-14571
▁Haz	-14572
▁Hit	-14573
▁Hop	-14574
▁McK	-14575
▁Rab	-14576
▁Sol	-14577
▁Sty	-14578
▁cem	-14579
▁zip	-14580
5,000	-14581
ahren	-14582
bucks	-14583
built	-14584
essee	-14585
green	-14586
inked	-14587
ishes	-14588
marks	-14589
ocate	-14590
pable	-14591
regon	-14592
stood	-14593
uture	-14594
▁Arts	-14595
▁Club	-14596
▁Code	-14597
▁Didn	-14598
▁Ella	-14599
▁Kind	-14600
▁Land	-14601
▁Need	-14602
▁Pear	-14603
▁Peps	-14604
▁Pier	-14605
▁Rule	-14606
▁Sput	-14607
▁Vanc	-14608
▁atro	-14609
▁bron	-14610
▁buys	-14611
▁cane	-14612
▁clut	-14613
▁coma	-14614
▁dice	-14615
▁dodo	-14616
▁geek	-14617
▁liar	-14618
▁pets	-14619
▁rows	-14620
▁seiz	-14621
▁slee	-14622
▁suic	-14623
ancies	-14624
asking	-14625
giving	-14626
growth	-14627
imicry	-14628
itutes	-14629
ivable	-14630
linear	-14631
orable	-14632
ougher	-14633
ouncer	-14634
riarch	-14635
saving	-14636
terior	-14637
verbal	-14638
weeney	-14639
writer	-14640
▁2,500	-14641
▁Dylan	-14642
▁Early	-14643
▁Field	-14644
[...]
