<unk>	0
<s>	0
</s>	0
▁t	-0
▁th	-1
▁a	-2
▁i	-3
▁w	-4
▁the	-5
▁s	-6
re	-7
▁o	-8
in	-9
at	-10
nd	-11
er	-12
ou	-13
▁c	-14
▁b	-15
▁m	-16
▁h	-17
ing	-18
▁and	-19
en	-20
▁to	-21
▁p	-22
on	-23
▁f	-24
▁d	-25
an	-26
es	-27
▁of	-28
or	-29
ll	-30
▁in	-31
▁l	-32
ed	-33
is	-34
▁y	-35
it	-36
ar	-37
▁that	-38
▁g	-39
▁we	-40
▁n	-41
om	-42
▁you	-43
as	-44
▁wh	-45
▁it	-46
ic	-47
le	-48
ve	-49
al	-50
▁e	-51
▁be	-52
▁is	-53
ow	-54
us	-55
ut	-56
ion	-57
ot	-58
et	-59
▁re	-60
▁on	-61
▁ha	-62
ent	-63
ct	-64
▁this	-65
ld	-66
ver	-67
▁so	-68
ay	-69
se	-70
all	-71
ro	-72
▁st	-73
st	-74
id	-75
ig	-76
ur	-77
ly	-78
ch	-79
▁he	-80
ke	-81
▁for	-82
ce	-83
▁they	-84
▁was	-85
ra	-86
▁an	-87
im	-88
▁do	-89
▁are	-90
ir	-91
▁u	-92
▁li	-93
th	-94
▁go	-95
ith	-96
op	-97
ally	-98
▁k	-99
▁with	-100
▁have	-101
am	-102
▁se	-103
▁ab	-104
▁but	-105
▁what	-106
▁can	-107
▁as	-108
▁mo	-109
▁-	-110
▁--	-111
ation	-112
▁j	-113
out	-114
ht	-115
▁sh	-116
ol	-117
▁wor	-118
▁ne	-119
▁com	-120
ere	-121
▁at	-122
▁me	-123
ad	-124
very	-125
ould	-126
▁ch	-127
▁there	-128
▁not	-129
▁about	-130
▁r	-131
▁all	-132
ill	-133
ant	-134
ter	-135
ge	-136
il	-137
▁fr	-138
ust	-139
ul	-140
▁som	-141
oo	-142
▁ex	-143
▁my	-144
ers	-145
▁or	-146
▁pro	-147
▁de	-148
use	-149
ight	-150
▁pe	-151
▁one	-152
▁"	-153
▁con	-154
art	-155
▁peop	-156
▁like	-157
▁people	-158
um	-159
ear	-160
▁bec	-161
pp	-162
ck	-163
▁ma	-164
ess	-165
ate	-166
ies	-167
ure	-168
▁if	-169
ity	-170
▁from	-171
ive	-172
est	-173
▁al	-174
▁kn	-175
▁v	-176
▁our	-177
ect	-178
nt	-179
ist	-180
if	-181
ble	-182
qu	-183
▁now	-184
▁just	-185
▁us	-186
▁te	-187
ind	-188
▁out	-189
ink	-190
▁these	-191
▁int	-192
▁know	-193
rou	-194
ause	-195
un	-196
ook	-197
▁sp	-198
od	-199
▁when	-200
▁thing	-201
▁because	-202
▁them	-203
▁see	-204
▁tr	-205
▁who	-206
and	-207
▁very	-208
▁think	-209
ie	-210
▁up	-211
os	-212
her	-213
ort	-214
▁pl	-215
▁get	-216
▁by	-217
▁some	-218
▁how	-219
ci	-220
ich	-221
▁going	-222
▁act	-223
iv	-224
one	-225
ain	-226
▁more	-227
▁1	-228
▁your	-229
▁had	-230
▁im	-231
el	-232
og	-233
▁sa	-234
▁year	-235
▁tim	-236
▁would	-237
▁were	-238
em	-239
▁look	-240
▁which	-241
▁su	-242
▁en	-243
▁their	-244
▁ta	-245
our	-246
ine	-247
00	-248
▁here	-249
▁comp	-250
ment	-251
ame	-252
▁work	-253
▁want	-254
▁really	-255
ast	-256
▁co	-257
ap	-258
▁than	-259
iz	-260
ually	-261
▁le	-262
ous	-263
."	-264
ard	-265
act	-266
▁then	-267
▁world	-268
gh	-269
ack	-270
are	-271
▁every	-272
reat	-273
▁way	-274
ose	-275
hing	-276
▁man	-277
▁per	-278
▁has	-279
▁time	-280
▁un	-281
ans	-282
▁ev	-283
ab	-284
▁oth	-285
▁don	-286
▁qu	-287
▁no	-288
res	-289
ag	-290
▁exp	-291
▁could	-292
▁actually	-293
▁will	-294
▁where	-295
ide	-296
▁fe	-297
▁into	-298
ace	-299
ions	-300
▁ag	-301
▁say	-302
ong	-303
ore	-304
ild	-305
▁did	-306
ence	-307
ud	-308
▁other	-309
▁things	-310
▁years	-311
itt	-312
▁am	-313
▁somet	-314
age	-315
alk	-316
▁any	-317
▁tw	-318
▁af	-319
▁cl	-320
▁right	-321
nder	-322
iff	-323
▁pr	-324
ach	-325
▁new	-326
▁been	-327
▁she	-328
▁make	-329
ical	-330
▁diff	-331
▁happ	-332
▁ar	-333
so	-334
▁well	-335
▁need	-336
ip	-337
▁start	-338
▁over	-339
▁po	-340
▁part	-341
▁fir	-342
▁ro	-343
▁bu	-344
▁2	-345
fe	-346
▁said	-347
red	-348
▁dis	-349
▁something	-350
▁those	-351
▁first	-352
▁imp	-353
ree	-354
ice	-355
ia	-356
own	-357
▁two	-358
▁mu	-359
ry	-360
▁back	-361
ite	-362
▁lo	-363
ount	-364
ory	-365
pt	-366
round	-367
▁chan	-368
orm	-369
▁much	-370
▁got	-371
ens	-372
▁call	-373
olog	-374
ign	-375
▁also	-376
▁differe	-377
ater	-378
de	-379
ass	-380
ff	-381
▁most	-382
ound	-383
▁ph	-384
▁kind	-385
sel	-386
cent	-387
ittle	-388
ib	-389
▁lot	-390
▁little	-391
▁spe	-392
▁ac	-393
▁cont	-394
ue	-395
▁talk	-396
ac	-397
ght	-398
▁even	-399
▁bet	-400
ome	-401
ple	-402
way	-403
ult	-404
▁des	-405
ber	-406
▁his	-407
▁only	-408
ves	-409
▁res	-410
king	-411
▁ad	-412
vel	-413
▁under	-414
▁sy	-415
ell	-416
▁life	-417
ving	-418
ody	-419
ru	-420
ated	-421
▁day	-422
co	-423
▁many	-424
▁bl	-425
rain	-426
▁hum	-427
ep	-428
able	-429
▁take	-430
▁ind	-431
ations	-432
▁her	-433
▁let	-434
▁br	-435
▁good	-436
ms	-437
▁different	-438
ick	-439
ph	-440
▁comm	-441
▁does	-442
ial	-443
ict	-444
other	-445
rough	-446
ish	-447
ood	-448
▁real	-449
int	-450
▁around	-451
ase	-452
▁through	-453
ire	-454
▁ide	-455
▁inter	-456
du	-457
▁down	-458
▁may	-459
▁put	-460
pl	-461
▁sc	-462
ents	-463
▁pre	-464
▁♫	-465
urn	-466
cess	-467
▁em	-468
▁use	-469
▁why	-470
▁show	-471
▁ra	-472
▁being	-473
▁tell	-474
day	-475
ark	-476
▁off	-477
▁fl	-478
form	-479
ors	-480
▁sm	-481
ress	-482
ob	-483
▁same	-484
ade	-485
▁inc	-486
ible	-487
▁too	-488
ether	-489
▁thou	-490
▁happen	-491
ary	-492
▁gen	-493
▁count	-494
▁try	-495
pe	-496
ak	-497
▁come	-498
▁proble	-499
ject	-500
▁great	-501
ance	-502
ath	-503
▁big	-504
wn	-505
▁fact	-506
chn	-507
ars	-508
stem	-509
xt	-510
▁three	-511
ys	-512
ful	-513
▁human	-514
ang	-515
iver	-516
ual	-517
▁gr	-518
▁techn	-519
▁find	-520
▁doing	-521
ning	-522
▁tra	-523
ile	-524
▁wr	-525
ces	-526
▁pers	-527
ord	-528
we	-529
▁app	-530
▁sur	-531
ting	-532
per	-533
▁thank	-534
▁gu	-535
▁again	-536
ved	-537
ric	-538
▁after	-539
ower	-540
▁system	-541
ically	-542
▁percent	-543
▁dec	-544
▁build	-545
▁stud	-546
ied	-547
▁sim	-548
▁child	-549
illion	-550
nds	-551
ology	-552
thing	-553
body	-554
igh	-555
fore	-556
ren	-557
▁wom	-558
▁called	-559
ons	-560
▁inv	-561
self	-562
▁rem	-563
be	-564
▁today	-565
cial	-566
▁quest	-567
▁inst	-568
▁long	-569
ition	-570
▁exper	-571
▁bel	-572
▁fo	-573
▁made	-574
ious	-575
ities	-576
▁ear	-577
▁lear	-578
ics	-579
▁should	-580
▁own	-581
ating	-582
▁ob	-583
▁car	-584
▁import	-585
▁turn	-586
ize	-587
ft	-588
te	-589
▁underst	-590
▁sci	-591
ates	-592
▁hel	-593
les	-594
oss	-595
▁gl	-596
▁bas	-597
▁sch	-598
▁change	-599
con	-600
wh	-601
ian	-602
▁didn	-603
▁last	-604
▁bo	-605
erest	-606
ub	-607
▁design	-608
▁another	-609
▁feel	-610
▁cour	-611
ty	-612
▁mean	-613
▁started	-614
▁ke	-615
▁end	-616
▁ask	-617
▁person	-618
av	-619
▁thought	-620
ction	-621
▁important	-622
000	-623
▁cr	-624
▁him	-625
▁idea	-626
als	-627
▁its	-628
▁interest	-629
▁creat	-630
▁gra	-631
▁brain	-632
▁rel	-633
▁trans	-634
ail	-635
▁play	-636
▁before	-637
?"	-638
▁ins	-639
gan	-640
▁exam	-641
▁fu	-642
▁understand	-643
▁coll	-644
▁never	-645
▁better	-646
▁help	-647
▁went	-648
▁dr	-649
ool	-650
▁give	-651
▁might	-652
,000	-653
ution	-654
▁pol	-655
▁mon	-656
▁3	-657
▁cons	-658
ily	-659
▁imag	-660
ists	-661
ough	-662
▁bit	-663
ise	-664
▁la	-665
ility	-666
▁problem	-667
▁found	-668
▁point	-669
▁sl	-670
▁power	-671
ular	-672
▁able	-673
▁still	-674
▁sol	-675
▁plan	-676
▁produ	-677
▁course	-678
▁tog	-679
▁belie	-680
▁story	-681
▁together	-682
▁commun	-683
ros	-684
▁ele	-685
▁fam	-686
▁school	-687
▁num	-688
lic	-689
▁next	-690
▁ent	-691
atter	-692
▁few	-693
ert	-694
kes	-695
▁high	-696
▁kid	-697
▁each	-698
▁hu	-699
ix	-700
▁med	-701
▁eng	-702
oth	-703
▁water	-704
▁art	-705
eric	-706
▁ago	-707
alth	-708
ited	-709
▁str	-710
▁place	-711
▁sort	-712
▁came	-713
erg	-714
▁dat	-715
uc	-716
atch	-717
▁mod	-718
velop	-719
mo	-720
▁fin	-721
ave	-722
ween	-723
▁cent	-724
arch	-725
▁19	-726
▁ser	-727
▁ter	-728
▁comple	-729
▁learn	-730
▁20	-731
ather	-732
▁seco	-733
▁between	-734
ense	-735
▁rec	-736
▁used	-737
▁women	-738
read	-739
▁technology	-740
iss	-741
▁develop	-742
ized	-743
▁ext	-744
ward	-745
ness	-746
▁four	-747
▁met	-748
ience	-749
old	-750
▁ed	-751
▁min	-752
▁question	-753
▁data	-754
▁nat	-755
▁op	-756
▁ok	-757
▁small	-758
▁10	-759
▁att	-760
ork	-761
▁love	-762
▁cre	-763
,"	-764
ures	-765
▁mom	-766
▁looking	-767
▁old	-768
▁maybe	-769
ines	-770
ets	-771
▁grow	-772
▁comput	-773
az	-774
ways	-775
▁americ	-776
▁care	-777
ram	-778
▁partic	-779
▁el	-780
▁example	-781
ven	-782
ger	-783
▁doesn	-784
ific	-785
▁move	-786
▁eff	-787
▁light	-788
ered	-789
▁done	-790
▁word	-791
▁read	-792
▁wanted	-793
▁ever	-794
▁rep	-795
ced	-796
▁bi	-797
▁far	-798
▁lar	-799
ute	-800
▁mus	-801
iness	-802
ably	-803
cept	-804
▁cap	-805
▁hard	-806
▁beh	-807
▁bus	-808
cy	-809
▁stu	-810
▁cell	-811
▁whole	-812
▁inform	-813
▁reas	-814
conom	-815
▁war	-816
▁live	-817
▁children	-818
▁chang	-819
ross	-820
▁health	-821
▁second	-822
▁trying	-823
▁econom	-824
▁poss	-825
ings	-826
▁million	-827
ational	-828
▁sk	-829
▁less	-830
▁expl	-831
▁giv	-832
ative	-833
oney	-834
▁gener	-835
▁always	-836
selves	-837
ands	-838
ah	-839
▁supp	-840
▁working	-841
ote	-842
▁away	-843
▁project	-844
ope	-845
ism	-846
▁country	-847
▁believe	-848
▁cor	-849
ps	-850
▁ca	-851
▁univer	-852
▁everything	-853
ments	-854
▁5	-855
..	-856
▁resp	-857
cer	-858
▁afric	-859
ural	-860
▁book	-861
▁five	-862
ird	-863
ne	-864
▁space	-865
ries	-866
▁sub	-867
▁open	-868
▁form	-869
▁using	-870
▁number	-871
▁anim	-872
▁organ	-873
▁cou	-874
▁vis	-875
▁run	-876
▁frie	-877
▁pict	-878
no	-879
▁home	-880
▁inf	-881
nect	-882
vers	-883
ruct	-884
▁pres	-885
hip	-886
▁information	-887
▁means	-888
▁thinking	-889
▁intern	-890
▁money	-891
ead	-892
▁pub	-893
ks	-894
▁took	-895
▁prob	-896
▁lead	-897
gin	-898
▁times	-899
▁acc	-900
▁sing	-901
▁hand	-902
▁compan	-903
led	-904
vern	-905
▁4	-906
▁kids	-907
▁create	-908
gg	-909
▁prog	-910
▁reg	-911
▁doll	-912
cr	-913
its	-914
ues	-915
▁spec	-916
▁walk	-917
▁teach	-918
▁become	-919
aces	-920
ract	-921
▁process	-922
▁mind	-923
ital	-924
ten	-925
▁fut	-926
▁govern	-927
air	-928
ock	-929
▁glob	-930
▁head	-931
▁left	-932
▁mark	-933
▁cle	-934
▁interesting	-935
alf	-936
ale	-937
▁best	-938
ouse	-939
▁getting	-940
▁energ	-941
▁social	-942
▁set	-943
aut	-944
▁enough	-945
sw	-946
▁quite	-947
▁conf	-948
pr	-949
▁grou	-950
▁future	-951
▁pat	-952
iew	-953
ention	-954
▁food	-955
▁month	-956
▁cam	-957
▁wo	-958
ull	-959
iting	-960
▁comes	-961
▁jo	-962
▁cur	-963
▁contro	-964
ew	-965
▁probably	-966
▁fun	-967
▁earth	-968
▁making	-969
ories	-970
▁energy	-971
▁z	-972
ont	-973
▁city	-974
▁connect	-975
▁add	-976
▁without	-977
▁sign	-978
▁sense	-979
▁happened	-980
▁gre	-981
▁talking	-982
▁answ	-983
ety	-984
▁pass	-985
▁job	-986
▁science	-987
▁men	-988
▁pop	-989
▁building	-990
ever	-991
▁youn	-992
▁pret	-993
▁told	-994
ertain	-995
▁elect	-996
▁countries	-997
▁phys	-998
ier	-999
▁body	-1000
▁hist	-1001
▁keep	-1002
ts	-1003
▁room	-1004
▁char	-1005
▁sw	-1006
▁begin	-1007
ately	-1008
vir	-1009
▁model	-1010
▁moment	-1011
▁stuff	-1012
cus	-1013
▁eas	-1014
▁wee	-1015
▁pretty	-1016
▁air	-1017
▁prot	-1018
ices	-1019
▁half	-1020
▁allow	-1021
▁side	-1022
▁soci	-1023
▁col	-1024
▁rese	-1025
▁reason	-1026
ient	-1027
ying	-1028
▁beaut	-1029
▁business	-1030
nce	-1031
▁opp	-1032
▁dist	-1033
▁anything	-1034
▁top	-1035
▁such	-1036
ner	-1037
▁else	-1038
▁coming	-1039
▁dollars	-1040
me	-1041
▁stop	-1042
▁lives	-1043
▁ty	-1044
▁par	-1045
▁pie	-1046
▁imagine	-1047
viron	-1048
▁amaz	-1049
▁global	-1050
▁scient	-1051
▁environ	-1052
arr	-1053
▁across	-1054
gs	-1055
ogra	-1056
▁bad	-1057
ember	-1058
▁once	-1059
▁sound	-1060
▁saw	-1061
▁ord	-1062
▁later	-1063
▁research	-1064
▁educ	-1065
▁wa	-1066
▁matter	-1067
where	-1068
▁aut	-1069
▁hope	-1070
▁det	-1071
ality	-1072
▁stand	-1073
uring	-1074
▁bring	-1075
▁young	-1076
▁rob	-1077
▁family	-1078
lf	-1079
most	-1080
fect	-1081
ince	-1082
▁while	-1083
idd	-1084
ior	-1085
▁makes	-1086
▁seen	-1087
▁ey	-1088
▁living	-1089
▁face	-1090
▁says	-1091
▁having	-1092
▁yet	-1093
io	-1094
▁200	-1095
▁val	-1096
▁fore	-1097
▁simple	-1098
ided	-1099
▁fig	-1100
▁particular	-1101
▁asked	-1102
▁share	-1103
ortun	-1104
olution	-1105
ream	-1106
▁hour	-1107
man	-1108
▁list	-1109
▁africa	-1110
▁experience	-1111
▁bre	-1112
▁case	-1113
ken	-1114
▁cult	-1115
▁sit	-1116
▁prof	-1117
▁ways	-1118
imes	-1119
▁goes	-1120
▁six	-1121
▁equ	-1122
▁mil	-1123
▁watch	-1124
▁happens	-1125
▁mor	-1126
▁complete	-1127
irl	-1128
ots	-1129
ization	-1130
▁days	-1131
▁effect	-1132
▁almost	-1133
llow	-1134
ught	-1135
▁both	-1136
▁computer	-1137
▁wonder	-1138
▁thous	-1139
▁ref	-1140
▁phot	-1141
▁planet	-1142
▁nothing	-1143
▁picture	-1144
the	-1145
▁lab	-1146
▁basically	-1147
▁mach	-1148
▁states	-1149
▁polit	-1150
▁sure	-1151
oc	-1152
▁public	-1153
▁whether	-1154
▁remember	-1155
▁loc	-1156
ready	-1157
▁single	-1158
ott	-1159
▁environment	-1160
iter	-1161
▁level	-1162
▁mem	-1163
▁test	-1164
▁inside	-1165
▁dise	-1166
▁already	-1167
▁rest	-1168
ilt	-1169
ina	-1170
▁within	-1171
▁problems	-1172
allen	-1173
▁vide	-1174
▁certain	-1175
ash	-1176
arent	-1177
ants	-1178
▁def	-1179
▁okay	-1180
▁lang	-1181
▁age	-1182
med	-1183
aps	-1184
ime	-1185
▁unt	-1186
▁saying	-1187
▁someone	-1188
orn	-1189
▁community	-1190
ank	-1191
ograph	-1192
▁langu	-1193
ulation	-1194
▁music	-1195
▁state	-1196
▁ge	-1197
na	-1198
▁hear	-1199
▁sou	-1200
cl	-1201
▁everybody	-1202
unch	-1203
▁pain	-1204
▁control	-1205
▁suc	-1206
▁looked	-1207
▁billion	-1208
ins	-1209
▁girl	-1210
▁answer	-1211
▁disco	-1212
▁che	-1213
▁history	-1214
ases	-1215
▁possible	-1216
ivid	-1217
▁often	-1218
osed	-1219
▁ass	-1220
▁exact	-1221
▁contin	-1222
▁challen	-1223
▁incred	-1224
ury	-1225
▁amazing	-1226
▁ideas	-1227
less	-1228
▁iss	-1229
▁yes	-1230
▁cost	-1231
▁treat	-1232
▁wrong	-1233
▁looks	-1234
work	-1235
▁dev	-1236
▁heart	-1237
imate	-1238
itive	-1239
▁product	-1240
▁dire	-1241
▁true	-1242
▁beautif	-1243
ern	-1244
ange	-1245
▁sometimes	-1246
▁guy	-1247
▁sec	-1248
▁net	-1249
▁myself	-1250
▁law	-1251
▁[	-1252
▁vir	-1253
▁ted	-1254
oice	-1255
▁united	-1256
ield	-1257
▁news	-1258
▁night	-1259
▁di	-1260
▁mag	-1261
▁large	-1262
▁months	-1263
side	-1264
nding	-1265
▁instead	-1266
▁self	-1267
▁adv	-1268
▁nor	-1269
ware	-1270
▁kill	-1271
▁since	-1272
ndred	-1273
▁stre	-1274
▁hundred	-1275
lish	-1276
pect	-1277
ters	-1278
ages	-1279
cle	-1280
ron	-1281
ering	-1282
aterial	-1283
▁full	-1284
▁class	-1285
▁heard	-1286
▁until	-1287
▁entire	-1288
▁group	-1289
▁individ	-1290
▁wasn	-1291
▁cond	-1292
▁figure	-1293
▁government	-1294
oy	-1295
bers	-1296
ians	-1297
▁tre	-1298
▁15	-1299
▁fil	-1300
▁works	-1301
utes	-1302
▁house	-1303
▁terr	-1304
▁cells	-1305
▁words	-1306
▁beautiful	-1307
uro	-1308
▁isn	-1309
▁friends	-1310
ivity	-1311
▁god	-1312
▁100	-1313
▁mic	-1314
ired	-1315
▁exc	-1316
▁cra	-1317
▁ris	-1318
▁built	-1319
vious	-1320
▁order	-1321
ives	-1322
▁aud	-1323
land	-1324
iddle	-1325
▁incre	-1326
▁pay	-1327
▁woman	-1328
br	-1329
▁30	-1330
▁6	-1331
▁appro	-1332
▁couple	-1333
▁must	-1334
▁ret	-1335
▁cancer	-1336
▁individual	-1337
▁internet	-1338
ene	-1339
▁result	-1340
get	-1341
▁front	-1342
▁video	-1343
▁material	-1344
▁const	-1345
▁'	-1346
eah	-1347
▁dra	-1348
▁somebody	-1349
▁50	-1350
▁nature	-1351
▁line	-1352
▁abs	-1353
▁middle	-1354
▁cal	-1355
up	-1356
▁follow	-1357
▁market	-1358
▁education	-1359
▁deep	-1360
▁land	-1361
▁species	-1362
aper	-1363
▁quick	-1364
▁piece	-1365
▁language	-1366
▁past	-1367
ustr	-1368
▁completely	-1369
line	-1370
▁name	-1371
▁places	-1372
▁though	-1373
to	-1374
▁av	-1375
▁collect	-1376
▁decided	-1377
atic	-1378
▁invest	-1379
tern	-1380
▁dru	-1381
▁became	-1382
▁view	-1383
▁object	-1384
▁knew	-1385
▁inno	-1386
▁exactly	-1387
▁society	-1388
ental	-1389
bs	-1390
ling	-1391
▁experim	-1392
▁stories	-1393
▁9	-1394
▁free	-1395
▁tool	-1396
▁students	-1397
▁oce	-1398
▁everyone	-1399
▁black	-1400
▁study	-1401
▁train	-1402
▁engine	-1403
he	-1404
omes	-1405
▁huge	-1406
▁taking	-1407
▁learned	-1408
uck	-1409
▁happening	-1410
gest	-1411
ats	-1412
ond	-1413
▁red	-1414
▁turns	-1415
cing	-1416
▁bab	-1417
▁america	-1418
ined	-1419
▁mother	-1420
▁id	-1421
▁mess	-1422
▁bro	-1423
▁gets	-1424
▁animals	-1425
▁success	-1426
ared	-1427
▁green	-1428
▁third	-1429
▁deal	-1430
ator	-1431
▁itself	-1432
▁universe	-1433
▁ant	-1434
ibly	-1435
ision	-1436
▁against	-1437
▁mass	-1438
ien	-1439
▁pos	-1440
▁struct	-1441
▁miss	-1442
ane	-1443
▁arch	-1444
▁close	-1445
▁rather	-1446
▁har	-1447
▁meet	-1448
▁ones	-1449
▁company	-1450
▁along	-1451
▁questions	-1452
li	-1453
▁leg	-1454
ients	-1455
▁ourselves	-1456
▁themselves	-1457
▁univers	-1458
▁opportun	-1459
▁clear	-1460
▁bra	-1461
ional	-1462
ape	-1463
dd	-1464
▁7	-1465
▁kinds	-1466
▁prov	-1467
▁behav	-1468
itting	-1469
▁mar	-1470
rop	-1471
▁wind	-1472
ogn	-1473
▁hold	-1474
▁sex	-1475
▁meas	-1476
sy	-1477
vation	-1478
▁dep	-1479
▁rev	-1480
▁hy	-1481
acter	-1482
▁yeah	-1483
▁complex	-1484
▁8	-1485
row	-1486
etic	-1487
▁team	-1488
ident	-1489
▁mill	-1490
▁couldn	-1491
▁step	-1492
▁disease	-1493
icult	-1494
▁math	-1495
▁india	-1496
▁minutes	-1497
aster	-1498
▁jour	-1499
ones	-1500
▁ill	-1501
▁hours	-1502
▁parent	-1503
▁created	-1504
face	-1505
▁sun	-1506
...	-1507
▁others	-1508
▁norm	-1509
▁pred	-1510
▁focus	-1511
▁protect	-1512
haps	-1513
▁ste	-1514
ability	-1515
▁worked	-1516
▁perhaps	-1517
▁fund	-1518
▁es	-1519
ctor	-1520
▁relations	-1521
▁thousands	-1522
▁program	-1523
▁vi	-1524
▁fly	-1525
▁rad	-1526
att	-1527
▁south	-1528
▁bott	-1529
▁early	-1530
▁listen	-1531
rib	-1532
ming	-1533
urs	-1534
▁ve	-1535
▁colle	-1536
▁expect	-1537
▁liter	-1538
▁mot	-1539
ush	-1540
▁finally	-1541
ames	-1542
▁lots	-1543
not	-1544
▁won	-1545
▁least	-1546
▁guys	-1547
▁difficult	-1548
▁pot	-1549
wards	-1550
cc	-1551
▁dem	-1552
▁field	-1553
▁game	-1554
▁exist	-1555
▁natural	-1556
ples	-1557
▁chr	-1558
▁ho	-1559
▁happy	-1560
▁da	-1561
▁cir	-1562
▁death	-1563
▁network	-1564
▁speak	-1565
▁recent	-1566
istic	-1567
▁var	-1568
ake	-1569
▁fre	-1570
ither	-1571
▁lim	-1572
▁oper	-1573
▁record	-1574
ium	-1575
ially	-1576
▁gave	-1577
▁seven	-1578
▁outside	-1579
▁systems	-1580
ented	-1581
▁sens	-1582
ination	-1583
▁fail	-1584
▁taken	-1585
▁extra	-1586
▁amount	-1587
▁learning	-1588
olved	-1589
▁euro	-1590
▁super	-1591
▁—	-1592
ider	-1593
▁obvious	-1594
▁york	-1595
▁difference	-1596
cul	-1597
▁machine	-1598
ns	-1599
▁cities	-1600
▁ple	-1601
▁china	-1602
▁changed	-1603
▁support	-1604
▁interact	-1605
▁cut	-1606
utions	-1607
▁american	-1608
gen	-1609
▁dig	-1610
ential	-1611
▁during	-1612
iqu	-1613
▁typ	-1614
▁incl	-1615
▁leave	-1616
▁behind	-1617
ological	-1618
well	-1619
▁del	-1620
▁area	-1621
vered	-1622
▁given	-1623
▁...	-1624
▁relationship	-1625
▁dream	-1626
▁century	-1627
ature	-1628
▁short	-1629
▁demo	-1630
▁hands	-1631
▁squ	-1632
▁eyes	-1633
▁pick	-1634
ster	-1635
▁wall	-1636
▁ident	-1637
▁turned	-1638
▁common	-1639
▁grand	-1640
▁europe	-1641
▁low	-1642
▁sym	-1643
aking	-1644
▁local	-1645
▁arg	-1646
ted	-1647
ides	-1648
▁eight	-1649
▁communic	-1650
▁beginning	-1651
ully	-1652
▁yourself	-1653
ased	-1654
▁behavior	-1655
era	-1656
▁blue	-1657
▁north	-1658
▁reach	-1659
▁companies	-1660
▁easy	-1661
▁whatever	-1662
▁non	-1663
olute	-1664
▁ocean	-1665
▁takes	-1666
▁seeing	-1667
▁explain	-1668
▁tem	-1669
▁moving	-1670
▁population	-1671
inary	-1672
▁sent	-1673
▁trad	-1674
what	-1675
▁oil	-1676
▁access	-1677
▁stay	-1678
verage	-1679
▁extre	-1680
▁break	-1681
▁needed	-1682
▁maj	-1683
▁began	-1684
▁event	-1685
▁impro	-1686
▁intell	-1687
▁absolute	-1688
astic	-1689
▁serv	-1690
ply	-1691
inal	-1692
year	-1693
▁tot	-1694
▁media	-1695
▁12	-1696
sych	-1697
▁patter	-1698
▁cy	-1699
itions	-1700
▁culture	-1701
▁audience	-1702
ges	-1703
▁instit	-1704
▁opt	-1705
elt	-1706
ison	-1707
pped	-1708
▁simply	-1709
▁perfect	-1710
▁emot	-1711
▁terms	-1712
ney	-1713
▁needs	-1714
▁psych	-1715
ude	-1716
▁occ	-1717
aring	-1718
▁father	-1719
▁white	-1720
▁powerful	-1721
itch	-1722
▁parts	-1723
▁cannot	-1724
ret	-1725
▁viol	-1726
▁paper	-1727
▁longer	-1728
▁realized	-1729
▁wonderful	-1730
▁week	-1731
▁civ	-1732
▁ess	-1733
idence	-1734
▁national	-1735
ode	-1736
▁18	-1737
▁famil	-1738
▁image	-1739
▁poor	-1740
▁friend	-1741
▁reality	-1742
ump	-1743
▁ap	-1744
▁chem	-1745
▁major	-1746
▁micro	-1747
▁surv	-1748
▁humans	-1749
▁special	-1750
ton	-1751
iving	-1752
▁robot	-1753
▁economic	-1754
pid	-1755
▁fall	-1756
▁size	-1757
▁♪	-1758
▁parents	-1759
cra	-1760
▁emb	-1761
▁fish	-1762
▁repres	-1763
▁center	-1764
▁press	-1765
▁sea	-1766
▁resour	-1767
▁perform	-1768
▁oh	-1769
▁priv	-1770
▁phone	-1771
▁tried	-1772
how	-1773
▁felt	-1774
▁blood	-1775
▁pract	-1776
▁buy	-1777
cious	-1778
▁conv	-1779
▁dark	-1780
▁ground	-1781
ivers	-1782
▁approach	-1783
▁surpr	-1784
▁quickly	-1785
ised	-1786
hood	-1787
fully	-1788
▁personal	-1789
port	-1790
rought	-1791
▁either	-1792
▁40	-1793
ibility	-1794
▁growth	-1795
▁gone	-1796
▁requ	-1797
ged	-1798
▁situ	-1799
▁present	-1800
bo	-1801
osp	-1802
▁opportunity	-1803
▁spend	-1804
els	-1805
▁strong	-1806
▁political	-1807
itect	-1808
▁fight	-1809
▁interested	-1810
you	-1811
▁sum	-1812
ledge	-1813
▁spent	-1814
crib	-1815
ilar	-1816
▁feed	-1817
▁leaders	-1818
mer	-1819
▁architect	-1820
▁transform	-1821
▁key	-1822
▁fear	-1823
▁scale	-1824
▁climate	-1825
ising	-1826
▁recogn	-1827
ived	-1828
▁near	-1829
▁weeks	-1830
▁consum	-1831
▁travel	-1832
▁measure	-1833
▁risk	-1834
rodu	-1835
▁direct	-1836
▁extreme	-1837
▁profess	-1838
ife	-1839
▁sitting	-1840
▁eat	-1841
▁vers	-1842
▁ability	-1843
app	-1844
▁known	-1845
avor	-1846
▁enc	-1847
dden	-1848
▁sil	-1849
▁bill	-1850
▁medic	-1851
ators	-1852
▁wouldn	-1853
oms	-1854
▁sudden	-1855
▁economy	-1856
▁incredible	-1857
ex	-1858
▁street	-1859
▁changes	-1860
ax	-1861
▁bar	-1862
▁mult	-1863
▁rich	-1864
▁predict	-1865
▁respons	-1866
ains	-1867
urb	-1868
▁pen	-1869
▁lost	-1870
▁orig	-1871
▁prin	-1872
▁shows	-1873
▁surface	-1874
▁technolog	-1875
▁obs	-1876
▁insp	-1877
▁slow	-1878
▁dest	-1879
▁impact	-1880
▁cool	-1881
▁morning	-1882
sh	-1883
rent	-1884
▁challenge	-1885
▁win	-1886
▁fast	-1887
bor	-1888
end	-1889
ards	-1890
izing	-1891
▁nice	-1892
▁scientists	-1893
▁write	-1894
cially	-1895
▁animal	-1896
ouch	-1897
▁cop	-1898
▁ice	-1899
▁vol	-1900
oh	-1901
▁caus	-1902
▁rock	-1903
▁based	-1904
▁value	-1905
of	-1906
▁dna	-1907
▁feet	-1908
▁growing	-1909
▁pur	-1910
▁die	-1911
▁areas	-1912
▁civil	-1913
zy	-1914
ony	-1915
▁feeling	-1916
▁patients	-1917
▁sat	-1918
lt	-1919
▁hosp	-1920
ively	-1921
▁indust	-1922
iny	-1923
ows	-1924
ral	-1925
▁ce	-1926
▁hor	-1927
▁structure	-1928
by	-1929
▁soft	-1930
▁hundreds	-1931
▁physical	-1932
▁evolution	-1933
ove	-1934
▁arm	-1935
▁foot	-1936
hor	-1937
anger	-1938
entially	-1939
▁similar	-1940
ument	-1941
▁draw	-1942
▁pull	-1943
▁bottom	-1944
com	-1945
ales	-1946
▁anal	-1947
▁redu	-1948
▁average	-1949
▁comb	-1950
▁force	-1951
▁color	-1952
▁neigh	-1953
▁voice	-1954
▁photograph	-1955
▁anyone	-1956
▁box	-1957
▁born	-1958
▁development	-1959
▁film	-1960
▁numbers	-1961
▁bene	-1962
▁rele	-1963
▁brought	-1964
▁serious	-1965
▁25	-1966
▁sho	-1967
▁mole	-1968
▁literally	-1969
▁pa	-1970
ny	-1971
▁text	-1972
▁attention	-1973
▁movement	-1974
▁understanding	-1975
ler	-1976
ateg	-1977
▁unf	-1978
▁ball	-1979
▁camp	-1980
▁main	-1981
▁realize	-1982
▁experiment	-1983
eg	-1984
erm	-1985
ule	-1986
▁scre	-1987
uth	-1988
▁stage	-1989
lect	-1990
▁map	-1991
ustain	-1992
▁sle	-1993
▁knowledge	-1994
▁ach	-1995
▁deg	-1996
▁soon	-1997
▁vill	-1998
ression	-1999
▁millions	-2000
▁absolutely	-2001
▁technologies	-2002
acy	-2003
▁hot	-2004
▁stra	-2005
▁wrote	-2006
▁tele	-2007
▁guess	-2008
▁running	-2009
▁dead	-2010
▁mount	-2011
ford	-2012
▁books	-2013
▁meaning	-2014
▁fac	-2015
▁giving	-2016
ified	-2017
▁starting	-2018
▁crit	-2019
▁mov	-2020
▁polic	-2021
bon	-2022
▁ir	-2023
▁prom	-2024
▁spread	-2025
ids	-2026
▁seems	-2027
ored	-2028
▁alone	-2029
par	-2030
▁sour	-2031
▁flo	-2032
▁tradition	-2033
▁forest	-2034
▁forward	-2035
▁developed	-2036
ned	-2037
▁path	-2038
ption	-2039
▁cars	-2040
▁miles	-2041
▁tools	-2042
▁favor	-2043
▁includ	-2044
▁circ	-2045
▁current	-2046
▁stat	-2047
▁images	-2048
bit	-2049
ploy	-2050
▁fundam	-2051
▁telling	-2052
aged	-2053
ero	-2054
omet	-2055
▁depe	-2056
▁post	-2057
▁relig	-2058
▁electric	-2059
▁hig	-2060
▁repl	-2061
▁road	-2062
▁issue	-2063
▁theory	-2064
▁describ	-2065
▁revolution	-2066
▁fire	-2067
▁touch	-2068
▁nobody	-2069
ency	-2070
▁visual	-2071
lu	-2072
ging	-2073
▁baby	-2074
oud	-2075
por	-2076
▁hon	-2077
aw	-2078
▁er	-2079
ills	-2080
▁sell	-2081
▁girls	-2082
▁proper	-2083
ift	-2084
iod	-2085
▁sn	-2086
▁among	-2087
▁compet	-2088
▁online	-2089
▁recently	-2090
chan	-2091
▁web	-2092
▁period	-2093
ggest	-2094
▁suff	-2095
▁talked	-2096
▁gives	-2097
▁issues	-2098
▁suggest	-2099
▁sustain	-2100
▁intellig	-2101
▁emp	-2102
ensive	-2103
▁modern	-2104
▁type	-2105
▁worth	-2106
▁chance	-2107
▁convers	-2108
ades	-2109
▁est	-2110
▁gal	-2111
go	-2112
▁dou	-2113
▁ult	-2114
▁avail	-2115
▁medical	-2116
▁industry	-2117
▁arr	-2118
amp	-2119
▁rul	-2120
▁achie	-2121
▁truth	-2122
▁general	-2123
▁track	-2124
▁mathem	-2125
▁normal	-2126
▁english	-2127
▁innovation	-2128
▁university	-2129
amed	-2130
vent	-2131
▁sold	-2132
▁showed	-2133
pecially	-2134
▁solution	-2135
▁affect	-2136
▁except	-2137
ilities	-2138
▁especially	-2139
▁fur	-2140
ung	-2141
▁rate	-2142
▁attack	-2143
ances	-2144
▁subject	-2145
▁developing	-2146
▁discovered	-2147
▁phil	-2148
▁prop	-2149
iant	-2150
▁capital	-2151
gn	-2152
▁benef	-2153
▁poll	-2154
▁concept	-2155
▁creating	-2156
▁resources	-2157
▁fa	-2158
head	-2159
ites	-2160
▁fem	-2161
▁lay	-2162
▁park	-2163
▁sever	-2164
▁experien	-2165
▁vac	-2166
urity	-2167
▁obviously	-2168
asing	-2169
ished	-2170
▁save	-2171
po	-2172
asc	-2173
▁boy	-2174
eed	-2175
ique	-2176
▁song	-2177
▁react	-2178
▁computers	-2179
▁aw	-2180
imens	-2181
▁goog	-2182
▁solve	-2183
▁designed	-2184
ug	-2185
ther	-2186
▁eye	-2187
▁patient	-2188
▁reasons	-2189
▁situation	-2190
▁plant	-2191
like	-2192
▁seem	-2193
▁smart	-2194
▁report	-2195
▁anybody	-2196
ped	-2197
▁cit	-2198
▁haven	-2199
▁search	-2200
▁asking	-2201
▁sleep	-2202
▁ast	-2203
phere	-2204
▁available	-2205
come	-2206
ences	-2207
▁safe	-2208
▁tiny	-2209
▁solar	-2210
▁mechan	-2211
▁compass	-2212
▁playing	-2213
▁produce	-2214
ival	-2215
yond	-2216
▁groups	-2217
▁knows	-2218
▁peace	-2219
▁changing	-2220
▁dom	-2221
▁choo	-2222
▁drive	-2223
▁several	-2224
▁evidence	-2225
▁led	-2226
▁shape	-2227
▁beyond	-2228
▁incredibly	-2229
ma	-2230
▁imm	-2231
▁generation	-2232
▁ox	-2233
▁drugs	-2234
▁trust	-2235
ify	-2236
unt	-2237
▁port	-2238
ipp	-2239
erence	-2240
▁journey	-2241
▁pictures	-2242
▁din	-2243
▁neg	-2244
▁emerg	-2245
▁ec	-2246
▁bigger	-2247
▁involved	-2248
▁rain	-2249
▁table	-2250
▁message	-2251
erv	-2252
▁fair	-2253
▁office	-2254
room	-2255
▁flu	-2256
▁carbon	-2257
▁aren	-2258
▁danger	-2259
ires	-2260
▁rights	-2261
do	-2262
iction	-2263
▁becomes	-2264
▁drug	-2265
▁199	-2266
inese	-2267
oices	-2268
▁ver	-2269
ister	-2270
▁send	-2271
▁putting	-2272
▁bird	-2273
▁citiz	-2274
▁choice	-2275
▁sounds	-2276
▁mob	-2277
▁nine	-2278
▁flow	-2279
▁defin	-2280
▁towards	-2281
yn	-2282
str	-2283
book	-2284
▁bed	-2285
▁google	-2286
▁basic	-2287
▁lived	-2288
▁likely	-2289
apt	-2290
▁lad	-2291
▁digital	-2292
▁lea	-2293
istan	-2294
▁cris	-2295
arily	-2296
ishing	-2297
let	-2298
here	-2299
ze	-2300
▁son	-2301
▁indeed	-2302
▁necess	-2303
▁clos	-2304
▁chinese	-2305
▁function	-2306
▁certainly	-2307
ucle	-2308
▁cross	-2309
lo	-2310
ips	-2311
fort	-2312
▁breat	-2313
▁speed	-2314
▁writing	-2315
▁compassion	-2316
▁60	-2317
lict	-2318
oring	-2319
▁security	-2320
▁marr	-2321
oph	-2322
▁died	-2323
▁rece	-2324
▁stru	-2325
ik	-2326
ese	-2327
light	-2328
▁democra	-2329
▁international	-2330
une	-2331
▁schools	-2332
▁tend	-2333
▁princi	-2334
▁extraord	-2335
▁software	-2336
▁potential	-2337
xic	-2338
▁neighbor	-2339
▁201	-2340
▁lif	-2341
▁log	-2342
▁action	-2343
▁device	-2344
50	-2345
▁bal	-2346
ief	-2347
ously	-2348
▁virt	-2349
medi	-2350
▁hit	-2351
▁activ	-2352
▁block	-2353
▁return	-2354
▁eth	-2355
▁pan	-2356
▁tas	-2357
▁west	-2358
▁adm	-2359
▁code	-2360
▁neur	-2361
▁please	-2362
▁particip	-2363
▁eventually	-2364
▁communities	-2365
▁mal	-2366
▁interv	-2367
▁progress	-2368
▁bur	-2369
for	-2370
abor	-2371
▁wish	-2372
▁clean	-2373
▁nucle	-2374
▁particularly	-2375
▁star	-2376
▁account	-2377
▁pu	-2378
▁higher	-2379
▁vision	-2380
▁examples	-2381
▁violence	-2382
▁rules	-2383
▁scientific	-2384
uly	-2385
rast	-2386
▁quality	-2387
ctors	-2388
▁capt	-2389
▁screen	-2390
▁starts	-2391
▁hospital	-2392
▁bir	-2393
▁virus	-2394
▁walking	-2395
▁character	-2396
gth	-2397
▁tar	-2398
▁consider	-2399
▁conscious	-2400
▁onto	-2401
▁bacter	-2402
▁notice	-2403
▁showing	-2404
▁totally	-2405
umb	-2406
▁sam	-2407
itary	-2408
▁prim	-2409
▁ready	-2410
▁prison	-2411
▁college	-2412
▁suddenly	-2413
▁camera	-2414
▁materials	-2415
ners	-2416
ground	-2417
▁effic	-2418
▁moved	-2419
onse	-2420
▁syn	-2421
▁plants	-2422
▁biggest	-2423
▁everywhere	-2424
ext	-2425
▁dan	-2426
▁bank	-2427
▁largest	-2428
▁teachers	-2429
eter	-2430
▁jobs	-2431
usion	-2432
▁narr	-2433
▁cause	-2434
▁exciting	-2435
▁extremely	-2436
▁diag	-2437
ressed	-2438
▁results	-2439
▁vari	-2440
▁aware	-2441
▁encou	-2442
▁square	-2443
ok	-2444
iar	-2445
▁anyway	-2446
▁threat	-2447
cuss	-2448
▁represent	-2449
idge	-2450
▁gas	-2451
▁skin	-2452
▁wants	-2453
▁detail	-2454
▁response	-2455
fer	-2456
▁div	-2457
antly	-2458
▁link	-2459
▁apart	-2460
▁student	-2461
▁sky	-2462
▁role	-2463
▁meant	-2464
▁immedi	-2465
▁creative	-2466
▁individuals	-2467
▁80	-2468
▁wait	-2469
▁further	-2470
▁projects	-2471
▁essentially	-2472
isions	-2473
▁fix	-2474
▁meth	-2475
▁push	-2476
▁check	-2477
▁crazy	-2478
osphere	-2479
▁watching	-2480
uit	-2481
▁ban	-2482
▁sal	-2483
▁stick	-2484
▁door	-2485
▁birth	-2486
▁games	-2487
▁print	-2488
oid	-2489
▁adult	-2490
▁labor	-2491
▁village	-2492
▁san	-2493
▁models	-2494
ey	-2495
▁democracy	-2496
verty	-2497
▁east	-2498
▁freed	-2499
▁named	-2500
▁context	-2501
ims	-2502
▁11	-2503
▁cold	-2504
▁separ	-2505
▁discover	-2506
▁favorite	-2507
nal	-2508
rest	-2509
▁ine	-2510
▁tree	-2511
▁waste	-2512
▁chemical	-2513
▁organization	-2514
▁deb	-2515
▁clin	-2516
▁african	-2517
▁allowed	-2518
▁complic	-2519
▁perspect	-2520
▁cat	-2521
▁finan	-2522
▁trees	-2523
▁doctor	-2524
▁terror	-2525
▁transl	-2526
▁improve	-2527
▁medicine	-2528
▁fundamental	-2529
icle	-2530
▁dro	-2531
▁mis	-2532
▁carry	-2533
▁robots	-2534
▁colleag	-2535
▁introdu	-2536
▁supposed	-2537
▁earl	-2538
▁farm	-2539
▁poverty	-2540
▁strateg	-2541
▁conflict	-2542
▁connected	-2543
▁luck	-2544
itten	-2545
oming	-2546
ughter	-2547
▁x	-2548
▁los	-2549
▁brit	-2550
▁coun	-2551
▁goal	-2552
▁police	-2553
▁passion	-2554
▁continue	-2555
ai	-2556
enom	-2557
▁jud	-2558
urban	-2559
▁choose	-2560
▁objects	-2561
▁grew	-2562
▁trial	-2563
▁fant	-2564
▁imposs	-2565
▁extraordinary	-2566
erve	-2567
▁dam	-2568
▁sand	-2569
▁accept	-2570
▁wealth	-2571
▁including	-2572
▁fra	-2573
▁joh	-2574
▁assum	-2575
▁somewhere	-2576
.,	-2577
▁fill	-2578
▁tells	-2579
▁memory	-2580
▁buildings	-2581
▁happiness	-2582
apan	-2583
▁ang	-2584
▁bom	-2585
▁graph	-2586
▁minds	-2587
▁shown	-2588
ruction	-2589
▁launch	-2590
▁thanks	-2591
▁families	-2592
▁signific	-2593
▁thousand	-2594
ery	-2595
▁late	-2596
▁spir	-2597
▁detect	-2598
▁mathemat	-2599
▁fing	-2600
▁zero	-2601
▁positive	-2602
ring	-2603
▁above	-2604
▁usually	-2605
more	-2606
▁cart	-2607
▁wife	-2608
▁bunch	-2609
▁cases	-2610
▁collabor	-2611
▁16	-2612
▁remark	-2613
▁president	-2614
▁fle	-2615
phone	-2616
▁japan	-2617
▁movie	-2618
▁discuss	-2619
▁tom	-2620
ulate	-2621
▁sequ	-2622
▁influ	-2623
▁worse	-2624
▁concer	-2625
▁temper	-2626
▁pattern	-2627
▁teacher	-2628
▁card	-2629
▁magn	-2630
▁allows	-2631
▁faster	-2632
▁taught	-2633
iger	-2634
ought	-2635
▁mine	-2636
▁wild	-2637
▁crisis	-2638
▁finding	-2639
men	-2640
▁enj	-2641
▁conditions	-2642
▁isl	-2643
odies	-2644
▁fine	-2645
▁ended	-2646
▁genes	-2647
▁unfortun	-2648
imp	-2649
▁blind	-2650
▁stars	-2651
▁larger	-2652
▁activity	-2653
ee	-2654
▁14	-2655
▁lose	-2656
▁author	-2657
▁killed	-2658
▁source	-2659
izations	-2660
▁excited	-2661
▁decision	-2662
▁impossible	-2663
nces	-2664
▁ann	-2665
▁bud	-2666
▁brains	-2667
▁manage	-2668
▁central	-2669
▁however	-2670
▁standing	-2671
ops	-2672
▁webs	-2673
▁chris	-2674
▁somehow	-2675
ana	-2676
▁rid	-2677
▁mars	-2678
▁galax	-2679
bol	-2680
rage	-2681
ured	-2682
▁lower	-2683
emic	-2684
atory	-2685
▁appear	-2686
▁disapp	-2687
▁rand	-2688
ration	-2689
▁truly	-2690
▁minute	-2691
▁studies	-2692
▁kil	-2693
▁pack	-2694
▁older	-2695
▁military	-2696
▁traditional	-2697
eth	-2698
▁corre	-2699
▁service	-2700
▁increase	-2701
▁conversation	-2702
ued	-2703
ffic	-2704
mend	-2705
ission	-2706
▁christ	-2707
▁freedom	-2708
▁position	-2709
▁products	-2710
▁successful	-2711
ipt	-2712
cise	-2713
▁hop	-2714
▁king	-2715
▁nuclear	-2716
▁citizens	-2717
▁17	-2718
akes	-2719
▁lands	-2720
▁infect	-2721
▁secret	-2722
▁sorts	-2723
▁afford	-2724
▁publish	-2725
▁complicated	-2726
!"	-2727
cape	-2728
▁muse	-2729
▁vict	-2730
▁policy	-2731
▁reading	-2732
▁perspective	-2733
put	-2734
▁doc	-2735
▁alth	-2736
▁desp	-2737
▁fram	-2738
others	-2739
▁achieve	-2740
aur	-2741
inct	-2742
▁swe	-2743
▁heav	-2744
▁kept	-2745
▁workers	-2746
▁although	-2747
▁gold	-2748
▁site	-2749
estern	-2750
inated	-2751
▁clearly	-2752
isms	-2753
▁alg	-2754
▁lau	-2755
ounds	-2756
▁purp	-2757
▁straight	-2758
uss	-2759
▁roll	-2760
▁forms	-2761
▁moral	-2762
▁hur	-2763
▁burn	-2764
▁fasc	-2765
▁series	-2766
▁ger	-2767
▁oxy	-2768
▁town	-2769
▁upon	-2770
▁tv	-2771
rams	-2772
soci	-2773
▁hiv	-2774
▁term	-2775
▁museum	-2776
▁pieces	-2777
▁points	-2778
▁training	-2779
owd	-2780
▁ign	-2781
ining	-2782
▁cook	-2783
▁region	-2784
▁specific	-2785
▁mist	-2786
▁board	-2787
ror	-2788
fact	-2789
▁throw	-2790
▁urban	-2791
▁distrib	-2792
oke	-2793
iers	-2794
▁ran	-2795
▁quant	-2796
▁address	-2797
▁contrib	-2798
▁mention	-2799
▁smaller	-2800
▁electricity	-2801
enomen	-2802
▁governments	-2803
zz	-2804
▁dad	-2805
▁page	-2806
▁glass	-2807
▁lines	-2808
▁doctors	-2809
▁phenomen	-2810
▁treatment	-2811
amm	-2812
▁fort	-2813
▁enorm	-2814
▁prote	-2815
▁biology	-2816
▁therefore	-2817
▁increasing	-2818
▁throughout	-2819
sect	-2820
▁hom	-2821
▁spect	-2822
▁solutions	-2823
▁alive	-2824
▁employ	-2825
▁engage	-2826
▁anymore	-2827
▁strange	-2828
▁recognize	-2829
rap	-2830
vision	-2831
▁cloud	-2832
▁innov	-2833
▁respect	-2834
▁seconds	-2835
▁machines	-2836
▁dangerous	-2837
▁decisions	-2838
ama	-2839
tend	-2840
▁weren	-2841
▁physics	-2842
▁patterns	-2843
ech	-2844
▁mr	-2845
▁beings	-2846
▁strugg	-2847
iversity	-2848
▁journal	-2849
▁bacteria	-2850
▁sad	-2851
▁gene	-2852
▁magic	-2853
▁effort	-2854
▁slight	-2855
▁becoming	-2856
▁critical	-2857
dom	-2858
▁thr	-2859
▁broad	-2860
ologists	-2861
▁healthy	-2862
▁private	-2863
▁anywhere	-2864
iced	-2865
▁198	-2866
▁whe	-2867
▁clim	-2868
▁written	-2869
▁21	-2870
▁actual	-2871
▁associ	-2872
▁intelligence	-2873
sequ	-2874
▁afgh	-2875
▁mental	-2876
▁comfort	-2877
▁init	-2878
▁price	-2879
▁skills	-2880
▁explore	-2881
▁provide	-2882
▁western	-2883
▁atm	-2884
▁loved	-2885
▁calcul	-2886
▁earlier	-2887
▁version	-2888
▁waiting	-2889
▁americans	-2890
▁listening	-2891
▁immediately	-2892
time	-2893
▁vacc	-2894
▁molec	-2895
cies	-2896
aging	-2897
ently	-2898
▁trou	-2899
▁cover	-2900
▁unique	-2901
▁financial	-2902
▁architecture	-2903
▁unfortunately	-2904
▁13	-2905
▁sus	-2906
▁costs	-2907
ike	-2908
imately	-2909
▁career	-2910
▁famous	-2911
▁content	-2912
▁interview	-2913
▁cry	-2914
▁pal	-2915
▁scr	-2916
▁sor	-2917
uments	-2918
▁forth	-2919
▁trick	-2920
▁remind	-2921
▁plastic	-2922
▁expensive	-2923
▁institutions	-2924
▁neighborhood	-2925
▁environmental	-2926
▁exh	-2927
▁laws	-2928
▁shot	-2929
▁match	-2930
ustrial	-2931
▁diseases	-2932
▁transport	-2933
iet	-2934
lly	-2935
oon	-2936
▁cust	-2937
▁trade	-2938
▁bodies	-2939
▁willing	-2940
▁jump	-2941
▁final	-2942
itation	-2943
▁dog	-2944
iding	-2945
▁hero	-2946
▁offic	-2947
▁worry	-2948
inating	-2949
▁afghan	-2950
▁greater	-2951
▁painting	-2952
bb	-2953
rep	-2954
▁hous	-2955
▁drink	-2956
▁occur	-2957
▁determ	-2958
▁method	-2959
▁weight	-2960
▁direction	-2961
▁fantastic	-2962
ceed	-2963
acity	-2964
cient	-2965
▁none	-2966
▁autom	-2967
▁humanity	-2968
ays	-2969
lebr	-2970
▁fit	-2971
▁river	-2972
▁store	-2973
▁celebr	-2974
▁greatest	-2975
ulf	-2976
back	-2977
ained	-2978
iling	-2979
▁catch	-2980
▁liber	-2981
▁himself	-2982
▁neurons	-2983
ira	-2984
ball	-2985
iest	-2986
iven	-2987
▁ara	-2988
itude	-2989
▁yell	-2990
▁forget	-2991
▁multip	-2992
met	-2993
amic	-2994
▁income	-2995
▁genetic	-2996
▁familiar	-2997
ried	-2998
▁veh	-2999
water	-3000
▁floor	-3001
▁saving	-3002
▁services	-3003
▁teaching	-3004
mb	-3005
oty	-3006
▁den	-3007
▁hol	-3008
▁enjoy	-3009
▁mobile	-3010
▁nation	-3011
▁driving	-3012
0,	-3013
▁tit	-3014
▁rise	-3015
▁apply	-3016
▁oppos	-3017
pro	-3018
ube	-3019
▁hall	-3020
iation	-3021
▁gradu	-3022
▁walked	-3023
▁massive	-3024
gra	-3025
rees	-3026
▁ten	-3027
atives	-3028
▁surve	-3029
▁levels	-3030
▁random	-3031
▁challenges	-3032
resh	-3033
▁pressure	-3034
▁effective	-3035
uted	-3036
▁dyn	-3037
▁email	-3038
▁laugh	-3039
▁raise	-3040
▁range	-3041
▁mid	-3042
▁optim	-3043
▁types	-3044
▁decade	-3045
▁values	-3046
▁website	-3047
▁production	-3048
aly	-3049
▁legs	-3050
▁radio	-3051
▁politics	-3052
▁engineering	-3053
▁aid	-3054
attle	-3055
eless	-3056
▁harv	-3057
istics	-3058
▁integ	-3059
ndon	-3060
▁lat	-3061
aries	-3062
itted	-3063
▁hell	-3064
▁babies	-3065
rastruct	-3066
▁decades	-3067
▁meeting	-3068
sc	-3069
▁fuel	-3070
▁hair	-3071
▁race	-3072
▁beauty	-3073
▁popular	-3074
▁practice	-3075
▁terrible	-3076
▁infrastruct	-3077
▁90	-3078
ping	-3079
ables	-3080
▁decide	-3081
▁physic	-3082
▁societ	-3083
atically	-3084
▁standard	-3085
▁following	-3086
▁demon	-3087
▁honest	-3088
▁mostly	-3089
cope	-3090
vert	-3091
▁female	-3092
▁spirit	-3093
▁various	-3094
▁industrial	-3095
bel	-3096
▁ut	-3097
airs	-3098
rene	-3099
▁ken	-3100
▁shap	-3101
▁express	-3102
▁programs	-3103
iot	-3104
▁male	-3105
▁ahead	-3106
▁useful	-3107
▁effects	-3108
▁performance	-3109
zil	-3110
▁tun	-3111
▁surger	-3112
▁choices	-3113
▁remarkable	-3114
unk	-3115
▁base	-3116
▁tiss	-3117
▁flying	-3118
▁consequ	-3119
▁enormous	-3120
▁mountain	-3121
▁surround	-3122
▁atmosphere	-3123
iate	-3124
▁prep	-3125
▁rule	-3126
▁wood	-3127
ologist	-3128
▁brazil	-3129
▁colleagues	-3130
▁connection	-3131
ches	-3132
▁dram	-3133
▁shark	-3134
▁german	-3135
▁shared	-3136
▁cultural	-3137
iles	-3138
itor	-3139
▁pig	-3140
▁tor	-3141
ement	-3142
epend	-3143
▁simpl	-3144
▁speech	-3145
▁invented	-3146
ica	-3147
why	-3148
▁nut	-3149
▁pet	-3150
▁beat	-3151
▁uses	-3152
▁weap	-3153
▁austr	-3154
▁commer	-3155
▁helped	-3156
▁relative	-3157
▁organizations	-3158
ils	-3159
uct	-3160
▁et	-3161
aign	-3162
▁500	-3163
▁dar	-3164
▁mut	-3165
▁electr	-3166
ises	-3167
▁hus	-3168
▁tax	-3169
▁ton	-3170
▁worst	-3171
▁island	-3172
▁london	-3173
ervation	-3174
▁instance	-3175
▁condition	-3176
key	-3177
▁drop	-3178
▁sick	-3179
▁destro	-3180
▁respond	-3181
▁streets	-3182
▁campaign	-3183
antic	-3184
erson	-3185
▁john	-3186
▁motiv	-3187
▁whose	-3188
ec	-3189
used	-3190
board	-3191
▁below	-3192
▁instr	-3193
▁depend	-3194
▁supply	-3195
▁possibly	-3196
▁understood	-3197
▁hyd	-3198
▁tens	-3199
▁insect	-3200
▁purpose	-3201
▁washing	-3202
▁slightly	-3203
▁temperature	-3204
ffe	-3205
▁ben	-3206
▁task	-3207
▁concl	-3208
▁custom	-3209
▁demonstr	-3210
▁independ	-3211
▁infrastructure	-3212
▁ur	-3213
wise	-3214
▁mos	-3215
orrow	-3216
▁speaking	-3217
▁70	-3218
itter	-3219
ufact	-3220
ricult	-3221
▁legal	-3222
▁sorry	-3223
▁stress	-3224
▁television	-3225
▁24	-3226
▁appl	-3227
▁gent	-3228
▁total	-3229
▁stopped	-3230
▁agricult	-3231
▁electron	-3232
ornia	-3233
▁belief	-3234
▁heat	-3235
▁calif	-3236
▁smell	-3237
▁causes	-3238
▁invent	-3239
▁survive	-3240
▁relationships	-3241
ios	-3242
▁boys	-3243
▁doub	-3244
▁mamm	-3245
▁summer	-3246
▁switch	-3247
olve	-3248
▁altern	-3249
▁mission	-3250
my	-3251
▁slide	-3252
▁prevent	-3253
▁directly	-3254
▁manufact	-3255
▁biological	-3256
▁creativity	-3257
anc	-3258
yle	-3259
load	-3260
▁ira	-3261
inate	-3262
▁bang	-3263
▁twice	-3264
reprene	-3265
▁artist	-3266
▁histor	-3267
▁philos	-3268
▁capacity	-3269
▁conference	-3270
▁responsibility	-3271
fl	-3272
▁197	-3273
▁gun	-3274
▁plat	-3275
▁party	-3276
▁visit	-3277
▁meters	-3278
▁california	-3279
▁experiments	-3280
nel	-3281
▁swim	-3282
▁microb	-3283
▁members	-3284
▁afghanistan	-3285
▁cru	-3286
arian	-3287
gress	-3288
▁hack	-3289
▁paid	-3290
▁displ	-3291
▁despite	-3292
▁controll	-3293
▁profound	-3294
▁communicate	-3295
▁sustainable	-3296
▁answers	-3297
▁tremend	-3298
▁communication	-3299
band	-3300
▁mix	-3301
▁bord	-3302
▁scan	-3303
▁dimens	-3304
▁oxygen	-3305
▁symbol	-3306
▁knowing	-3307
▁markets	-3308
▁networks	-3309
cles	-3310
▁cla	-3311
▁coast	-3312
▁dance	-3313
▁shock	-3314
▁depart	-3315
▁easily	-3316
▁degrees	-3317
0.	-3318
▁dav	-3319
▁loss	-3320
▁bought	-3321
▁democr	-3322
▁highly	-3323
▁reduce	-3324
▁societies	-3325
▁entreprene	-3326
▁surprising	-3327
ray	-3328
ancy	-3329
▁tal	-3330
▁conc	-3331
▁applic	-3332
▁reflect	-3333
▁facebook	-3334
▁emotional	-3335
win	-3336
oper	-3337
uing	-3338
house	-3339
pping	-3340
▁poet	-3341
▁vast	-3342
▁analy	-3343
▁dying	-3344
▁feels	-3345
▁nations	-3346
▁planets	-3347
▁significant	-3348
ls	-3349
raid	-3350
▁196	-3351
▁arab	-3352
▁blog	-3353
▁habit	-3354
▁gentle	-3355
▁devices	-3356
▁justice	-3357
5,	-3358
mon	-3359
ste	-3360
izes	-3361
cules	-3362
▁funny	-3363
▁afraid	-3364
▁window	-3365
▁noticed	-3366
▁daughter	-3367
rew	-3368
anced	-3369
rench	-3370
▁birds	-3371
▁rapid	-3372
▁shift	-3373
▁broken	-3374
▁expand	-3375
▁played	-3376
▁spaces	-3377
▁yellow	-3378
▁original	-3379
icles	-3380
▁hang	-3381
▁hole	-3382
▁closer	-3383
▁corner	-3384
▁forces	-3385
▁resist	-3386
▁volunt	-3387
▁published	-3388
▁differently	-3389
rupt	-3390
wood	-3391
▁fat	-3392
▁iraq	-3393
▁wide	-3394
▁foundation	-3395
cks	-3396
▁lack	-3397
▁nearly	-3398
▁evolved	-3399
▁addition	-3400
▁inspired	-3401
▁designers	-3402
▁ultimately	-3403
gy	-3404
▁je	-3405
▁tur	-3406
oting	-3407
▁moon	-3408
▁reco	-3409
▁active	-3410
▁desert	-3411
▁contact	-3412
▁efficient	-3413
tle	-3414
outh	-3415
▁300	-3416
aling	-3417
▁crowd	-3418
ception	-3419
▁identity	-3420
▁produced	-3421
▁scientist	-3422
kn	-3423
ened	-3424
ores	-3425
ening	-3426
orith	-3427
othes	-3428
▁fold	-3429
▁trib	-3430
▁frank	-3431
▁target	-3432
▁algorith	-3433
▁differences	-3434
cell	-3435
empt	-3436
atell	-3437
▁core	-3438
▁join	-3439
ashion	-3440
▁rough	-3441
▁indian	-3442
▁helping	-3443
▁crim	-3444
▁rare	-3445
▁trip	-3446
▁compon	-3447
▁demand	-3448
▁genome	-3449
▁austral	-3450
▁religion	-3451
▁diversity	-3452
▁molecules	-3453
▁experiences	-3454
look	-3455
arter	-3456
▁wire	-3457
▁dreams	-3458
▁flight	-3459
ef	-3460
▁fol	-3461
▁magaz	-3462
▁inspir	-3463
▁seemed	-3464
▁missing	-3465
▁bringing	-3466
aff	-3467
anda	-3468
term	-3469
▁vul	-3470
▁mich	-3471
▁stem	-3472
▁agree	-3473
▁brill	-3474
▁climb	-3475
▁passed	-3476
▁satell	-3477
▁surgery	-3478
▁trouble	-3479
ius	-3480
lim	-3481
▁ju	-3482
▁gotten	-3483
▁virtual	-3484
af	-3485
▁host	-3486
▁basis	-3487
▁accord	-3488
▁correct	-3489
▁traffic	-3490
▁alt	-3491
▁inj	-3492
▁mig	-3493
idden	-3494
right	-3495
▁rout	-3496
▁1,000	-3497
▁eating	-3498
▁attract	-3499
▁hearing	-3500
gu	-3501
rael	-3502
▁fro	-3503
▁copy	-3504
▁russ	-3505
▁seas	-3506
▁avoid	-3507
▁parad	-3508
▁lights	-3509
▁deliver	-3510
▁forever	-3511
▁partners	-3512
▁spending	-3513
hy	-3514
la	-3515
▁$	-3516
set	-3517
care	-3518
▁nan	-3519
▁ske	-3520
ander	-3521
▁bomb	-3522
▁giant	-3523
▁consid	-3524
▁corpor	-3525
▁studying	-3526
▁background	-3527
▁complexity	-3528
orge	-3529
▁etc	-3530
▁fab	-3531
▁teen	-3532
icking	-3533
▁coffe	-3534
▁brother	-3535
▁investment	-3536
▁gh	-3537
▁fed	-3538
▁rom	-3539
▁tum	-3540
▁aspect	-3541
▁amb	-3542
▁ecos	-3543
▁dinos	-3544
▁metap	-3545
▁weird	-3546
eral	-3547
▁enter	-3548
▁fully	-3549
▁stren	-3550
▁opposite	-3551
ding	-3552
rate	-3553
▁airpl	-3554
▁photo	-3555
▁raised	-3556
▁unlike	-3557
▁vulner	-3558
▁creates	-3559
▁commercial	-3560
aced	-3561
atures	-3562
▁accom	-3563
▁cooper	-3564
pre	-3565
ystem	-3566
ifying	-3567
▁mexic	-3568
▁coffee	-3569
▁easier	-3570
▁sexual	-3571
▁focused	-3572
▁strength	-3573
▁consciousness	-3574
1,	-3575
reci	-3576
istry	-3577
▁harm	-3578
▁mort	-3579
▁lucky	-3580
▁matters	-3581
▁opportunities	-3582
uge	-3583
▁boat	-3584
▁gard	-3585
▁describe	-3586
▁tremendous	-3587
arm	-3588
cop	-3589
roud	-3590
▁wis	-3591
▁prev	-3592
▁failure	-3593
▁leadership	-3594
vit	-3595
▁gar	-3596
▁mad	-3597
▁saf	-3598
▁acad	-3599
▁forg	-3600
▁horr	-3601
▁shop	-3602
▁foreign	-3603
▁ecosystem	-3604
▁importantly	-3605
ties	-3606
rated	-3607
▁iran	-3608
▁teles	-3609
▁ancient	-3610
▁kilomet	-3611
ya	-3612
▁ep	-3613
hand	-3614
▁bag	-3615
▁cred	-3616
▁epid	-3617
▁flag	-3618
▁adapt	-3619
▁invis	-3620
▁mouth	-3621
▁10,000	-3622
▁bright	-3623
▁israel	-3624
▁therap	-3625
ulations	-3626
▁artists	-3627
▁sharing	-3628
▁turning	-3629
▁platform	-3630
▁structures	-3631
▁possibility	-3632
▁1.	-3633
cript	-3634
▁held	-3635
▁puzz	-3636
▁brings	-3637
▁photos	-3638
▁remain	-3639
▁landscape	-3640
ae	-3641
fr	-3642
▁repe	-3643
▁proud	-3644
▁fairly	-3645
▁notion	-3646
▁entirely	-3647
8,	-3648
ees	-3649
mark	-3650
this	-3651
▁mas	-3652
▁bees	-3653
▁stuck	-3654
▁advant	-3655
▁breast	-3656
▁transm	-3657
▁benefits	-3658
▁emotions	-3659
▁brilliant	-3660
▁imagination	-3661
▁mit	-3662
▁cand	-3663
▁reve	-3664
▁david	-3665
▁according	-3666
2,	-3667
can	-3668
wor	-3669
iage	-3670
based	-3671
▁chur	-3672
▁accur	-3673
▁distance	-3674
▁otherwise	-3675
9,	-3676
bu	-3677
▁joy	-3678
ipped	-3679
itely	-3680
▁band	-3681
▁poem	-3682
▁seed	-3683
▁chick	-3684
▁tough	-3685
ography	-3686
▁bridge	-3687
▁disord	-3688
▁remote	-3689
▁concent	-3690
▁husband	-3691
▁billions	-3692
▁negative	-3693
▁religious	-3694
bert	-3695
▁cogn	-3696
▁myster	-3697
▁attempt	-3698
▁regular	-3699
ley	-3700
off	-3701
zen	-3702
ysis	-3703
▁egg	-3704
▁scul	-3705
▁calls	-3706
▁diagn	-3707
▁batter	-3708
▁phones	-3709
▁appreci	-3710
▁fashion	-3711
▁twitter	-3712
▁discovery	-3713
▁definition	-3714
▁phenomenon	-3715
▁necessarily	-3716
isco	-3717
celer	-3718
rogen	-3719
▁asia	-3720
▁libr	-3721
ulated	-3722
▁sport	-3723
▁opened	-3724
▁counter	-3725
▁moments	-3726
▁collective	-3727
cest	-3728
▁bone	-3729
▁disp	-3730
▁exer	-3731
▁bound	-3732
▁brand	-3733
▁gender	-3734
▁tissue	-3735
▁figured	-3736
▁require	-3737
▁european	-3738
reg	-3739
▁lin	-3740
▁note	-3741
▁mouse	-3742
▁pleas	-3743
connect	-3744
▁events	-3745
▁emotion	-3746
▁argument	-3747
▁elements	-3748
▁suffering	-3749
aria	-3750
▁ble	-3751
▁rot	-3752
▁iron	-3753
▁helps	-3754
▁leads	-3755
▁niger	-3756
ifically	-3757
▁destroy	-3758
▁creatures	-3759
▁necessary	-3760
▁particles	-3761
▁professor	-3762
vere	-3763
▁que	-3764
▁appe	-3765
▁bread	-3766
▁cheap	-3767
▁faith	-3768
▁adults	-3769
▁ancest	-3770
▁failed	-3771
▁sector	-3772
▁stream	-3773
▁transp	-3774
▁farmers	-3775
▁shouldn	-3776
▁normally	-3777
iber	-3778
▁shr	-3779
▁exch	-3780
▁ship	-3781
▁crime	-3782
▁charge	-3783
▁pounds	-3784
▁holding	-3785
▁leading	-3786
▁studied	-3787
▁compared	-3788
▁previous	-3789
▁influence	-3790
▁responsible	-3791
ked	-3792
ager	-3793
▁due	-3794
▁jew	-3795
▁mel	-3796
print	-3797
▁agre	-3798
▁ange	-3799
▁spot	-3800
▁vall	-3801
▁prior	-3802
▁walls	-3803
▁sculpt	-3804
▁signal	-3805
ada	-3806
verse	-3807
▁shel	-3808
▁diver	-3809
▁astron	-3810
▁double	-3811
▁letter	-3812
▁volunte	-3813
ha	-3814
oun	-3815
cons	-3816
ears	-3817
▁und	-3818
▁bear	-3819
▁lock	-3820
▁tour	-3821
▁cycle	-3822
▁prost	-3823
▁convin	-3824
▁french	-3825
▁restaur	-3826
▁succeed	-3827
▁childhood	-3828
▁organisms	-3829
▁competition	-3830
7,	-3831
▁400	-3832
▁mer	-3833
▁tast	-3834
dimens	-3835
▁lunch	-3836
▁newsp	-3837
▁stock	-3838
▁wheel	-3839
▁politic	-3840
▁theater	-3841
ification	-3842
▁department	-3843
▁cos	-3844
▁mir	-3845
▁embra	-3846
▁equal	-3847
▁fresh	-3848
▁offer	-3849
▁lesson	-3850
▁master	-3851
▁acceler	-3852
▁strategy	-3853
▁engineers	-3854
▁businesses	-3855
▁depression	-3856
vant	-3857
▁gay	-3858
▁purs	-3859
idents	-3860
▁indic	-3861
▁motor	-3862
▁quote	-3863
▁talks	-3864
issions	-3865
▁dollar	-3866
▁oceans	-3867
▁balance	-3868
▁install	-3869
▁leaving	-3870
▁invisible	-3871
▁philosoph	-3872
▁washington	-3873
▁1,	-3874
roll	-3875
wide	-3876
▁mur	-3877
▁deeply	-3878
▁typical	-3879
ibilities	-3880
▁fighting	-3881
▁magazine	-3882
ky	-3883
lin	-3884
rict	-3885
▁cro	-3886
inist	-3887
▁edge	-3888
▁camer	-3889
▁eleph	-3890
▁frequ	-3891
▁subst	-3892
lection	-3893
quality	-3894
▁hidden	-3895
▁sister	-3896
▁document	-3897
▁currently	-3898
stein	-3899
▁exhib	-3900
▁franc	-3901
▁maint	-3902
▁limited	-3903
▁managed	-3904
▁fascinating	-3905
▁institution	-3906
ses	-3907
hold	-3908
pper	-3909
thes	-3910
vity	-3911
▁adop	-3912
▁foss	-3913
ctions	-3914
▁argue	-3915
▁noise	-3916
▁belong	-3917
▁colors	-3918
▁degree	-3919
▁compare	-3920
▁creation	-3921
▁construct	-3922
▁hopefully	-3923
gypt	-3924
▁dry	-3925
▁hyp	-3926
throp	-3927
▁egypt	-3928
▁paint	-3929
▁origin	-3930
▁refuge	-3931
▁british	-3932
▁watched	-3933
▁majority	-3934
dimensional	-3935
▁professional	-3936
rad	-3937
▁faces	-3938
▁mosqu	-3939
▁caught	-3940
▁closed	-3941
▁slowly	-3942
▁insects	-3943
▁related	-3944
▁finished	-3945
▁separate	-3946
ami	-3947
pes	-3948
yes	-3949
aker	-3950
athy	-3951
▁tow	-3952
▁pros	-3953
▁summ	-3954
▁apple	-3955
▁grass	-3956
ruption	-3957
▁believed	-3958
▁seriously	-3959
ston	-3960
word	-3961
▁pun	-3962
iable	-3963
▁ment	-3964
▁folks	-3965
▁steps	-3966
▁fellow	-3967
▁safety	-3968
▁benefit	-3969
▁prototy	-3970
▁wearing	-3971
▁metaphor	-3972
▁intellect	-3973
▁ug	-3974
▁fif	-3975
▁odd	-3976
▁anti	-3977
▁defe	-3978
▁grown	-3979
▁names	-3980
▁prize	-3981
▁church	-3982
▁everyday	-3983
▁followed	-3984
▁whenever	-3985
hi	-3986
und	-3987
agers	-3988
ength	-3989
▁opin	-3990
▁finger	-3991
▁leader	-3992
▁unless	-3993
▁artific	-3994
▁element	-3995
▁multiple	-3996
▁soldiers	-3997
▁concerned	-3998
ta	-3999
amb	-4000
▁frag	-4001
▁gall	-4002
▁chair	-4003
▁moves	-4004
▁circle	-4005
ographic	-4006
▁capable	-4007
▁quantum	-4008
▁station	-4009
▁trained	-4010
▁surprise	-4011
▁constantly	-4012
▁mathematics	-4013
▁disc	-4014
▁hate	-4015
▁soil	-4016
▁novel	-4017
▁breath	-4018
▁fourth	-4019
▁interaction	-4020
bl	-4021
ri	-4022
ino	-4023
oted	-4024
▁150	-4025
▁hun	-4026
force	-4027
▁chap	-4028
▁gain	-4029
▁wear	-4030
▁heads	-4031
▁begins	-4032
▁fortun	-4033
▁married	-4034
▁accident	-4035
▁sequence	-4036
▁kilometers	-4037
▁principles	-4038
asa	-4039
cket	-4040
known	-4041
▁fell	-4042
▁lapt	-4043
▁whom	-4044
▁truck	-4045
▁grandm	-4046
▁highest	-4047
▁launched	-4048
▁received	-4049
▁advantage	-4050
▁described	-4051
▁researchers	-4052
irt	-4053
enty	-4054
uros	-4055
▁gap	-4056
apers	-4057
illed	-4058
▁paul	-4059
▁court	-4060
▁expert	-4061
▁investig	-4062
▁perfectly	-4063
rel	-4064
sec	-4065
▁bon	-4066
▁era	-4067
▁fis	-4068
▁arts	-4069
▁cosm	-4070
urally	-4071
▁click	-4072
▁goals	-4073
▁pages	-4074
▁attach	-4075
▁valley	-4076
▁factory	-4077
▁replace	-4078
▁weapons	-4079
▁mentioned	-4080
dp	-4081
fo	-4082
lex	-4083
omy	-4084
▁ax	-4085
aked	-4086
▁row	-4087
tical	-4088
▁grad	-4089
▁kick	-4090
terday	-4091
▁march	-4092
▁plane	-4093
▁mothers	-4094
▁cognitive	-4095
▁operating	-4096
▁surprised	-4097
ulous	-4098
▁roof	-4099
▁seat	-4100
forest	-4101
▁brief	-4102
▁crash	-4103
oration	-4104
▁exists	-4105
▁fields	-4106
▁reward	-4107
▁insight	-4108
▁invited	-4109
▁precise	-4110
▁identify	-4111
▁survival	-4112
ij	-4113
asion	-4114
essed	-4115
▁bull	-4116
▁coal	-4117
▁myth	-4118
▁nutr	-4119
▁soph	-4120
▁shoes	-4121
▁signals	-4122
▁principle	-4123
▁healthcare	-4124
▁consequences	-4125
▁aids	-4126
▁hasn	-4127
▁intu	-4128
▁tons	-4129
ipping	-4130
▁coral	-4131
▁equip	-4132
▁homes	-4133
▁commit	-4134
▁debate	-4135
▁dinner	-4136
▁micros	-4137
▁paying	-4138
▁article	-4139
▁letters	-4140
gar	-4141
pher	-4142
that	-4143
▁spl	-4144
▁daily	-4145
▁protein	-4146
▁galaxies	-4147
▁marriage	-4148
▁considered	-4149
▁agriculture	-4150
bi	-4151
cil	-4152
enn	-4153
iat	-4154
edia	-4155
▁fal	-4156
▁nav	-4157
ortex	-4158
▁empt	-4159
▁stim	-4160
▁wave	-4161
ushing	-4162
▁surge	-4163
▁battle	-4164
▁harder	-4165
▁reform	-4166
▁australia	-4167
▁civilization	-4168
mm	-4169
emy	-4170
hab	-4171
anes	-4172
▁smo	-4173
▁ves	-4174
icity	-4175
uries	-4176
▁ants	-4177
▁lady	-4178
▁beach	-4179
▁galaxy	-4180
▁implic	-4181
▁versus	-4182
▁curious	-4183
▁experts	-4184
▁economics	-4185
▁yesterday	-4186
▁associated	-4187
▁increasingly	-4188
ume	-4189
▁gdp	-4190
▁lie	-4191
▁sla	-4192
▁arms	-4193
▁diet	-4194
▁meat	-4195
▁nerv	-4196
▁scen	-4197
▁tick	-4198
▁vent	-4199
▁limit	-4200
▁mexico	-4201
▁testing	-4202
▁shut	-4203
▁finish	-4204
▁ladies	-4205
▁leaves	-4206
▁motion	-4207
▁weather	-4208
▁worried	-4209
▁feedback	-4210
▁planning	-4211
▁dol	-4212
▁org	-4213
▁sen	-4214
craft	-4215
▁lies	-4216
▁wake	-4217
▁neuro	-4218
▁forced	-4219
▁incent	-4220
▁spring	-4221
▁stupid	-4222
▁wisdom	-4223
▁drawing	-4224
▁illustr	-4225
▁congress	-4226
▁contract	-4227
▁classroom	-4228
▁existence	-4229
▁mountains	-4230
▁universal	-4231
▁alternative	-4232
▁comfortable	-4233
der	-4234
uous	-4235
▁rub	-4236
▁load	-4237
▁subm	-4238
▁round	-4239
▁autism	-4240
▁desire	-4241
▁vessel	-4242
▁equival	-4243
▁organic	-4244
▁treated	-4245
▁equipment	-4246
▁statistics	-4247
▁generations	-4248
▁independent	-4249
mp	-4250
yl	-4251
▁exec	-4252
▁rein	-4253
▁infin	-4254
▁layer	-4255
▁rural	-4256
▁sympt	-4257
▁voices	-4258
▁england	-4259
▁molecule	-4260
▁struggle	-4261
▁continent	-4262
ago	-4263
pir	-4264
life	-4265
odes	-4266
anted	-4267
▁date	-4268
▁maps	-4269
▁categ	-4270
▁recon	-4271
▁darwin	-4272
▁gather	-4273
▁sending	-4274
▁designer	-4275
▁consumption	-4276
new	-4277
pet	-4278
point	-4279
▁army	-4280
▁warm	-4281
encies	-4282
thetic	-4283
▁lifet	-4284
▁scene	-4285
▁stood	-4286
▁frustr	-4287
▁calling	-4288
▁nervous	-4289
▁resource	-4290
▁emissions	-4291
▁processes	-4292
▁technical	-4293
▁artificial	-4294
▁management	-4295
3,	-4296
dy	-4297
hey	-4298
apse	-4299
▁rat	-4300
▁flat	-4301
▁snow	-4302
itness	-4303
▁quiet	-4304
▁spoke	-4305
▁picked	-4306
▁select	-4307
▁contain	-4308
▁partner	-4309
▁release	-4310
▁warming	-4311
▁engineer	-4312
▁ordinary	-4313
▁tomorrow	-4314
▁institute	-4315
▁interface	-4316
▁languages	-4317
▁experienced	-4318
4,	-4319
aled	-4320
roph	-4321
▁bul	-4322
▁bits	-4323
▁kore	-4324
ensity	-4325
▁2,000	-4326
▁antib	-4327
▁chain	-4328
▁saved	-4329
▁circum	-4330
▁symmet	-4331
▁videos	-4332
▁100,000	-4333
▁germany	-4334
▁keeping	-4335
▁expected	-4336
▁sentence	-4337
▁ah	-4338
ests	-4339
estic	-4340
olves	-4341
▁isol	-4342
▁lawy	-4343
▁puts	-4344
▁unit	-4345
▁vote	-4346
▁weak	-4347
▁brown	-4348
▁facts	-4349
▁inner	-4350
▁poetry	-4351
▁shapes	-4352
▁malaria	-4353
▁vehicle	-4354
▁clinical	-4355
▁criminal	-4356
ara	-4357
ibr	-4358
now	-4359
oom	-4360
rum	-4361
▁35	-4362
bble	-4363
cast	-4364
iors	-4365
▁pil	-4366
▁pip	-4367
▁dial	-4368
▁gang	-4369
▁hadn	-4370
▁illeg	-4371
▁filled	-4372
▁analysis	-4373
▁property	-4374
▁organized	-4375
▁importance	-4376
▁distribution	-4377
place	-4378
▁wond	-4379
▁toward	-4380
▁covered	-4381
▁dealing	-4382
▁dynamic	-4383
▁privile	-4384
▁richard	-4385
▁selling	-4386
▁setting	-4387
▁collection	-4388
▁transition	-4389
▁intelligent	-4390
▁ein	-4391
▁caused	-4392
▁george	-4393
▁movies	-4394
▁cameras	-4395
▁airplane	-4396
▁movements	-4397
▁equivalent	-4398
▁connections	-4399
▁specifically	-4400
esome	-4401
neath	-4402
▁abst	-4403
▁hung	-4404
▁qual	-4405
▁reef	-4406
▁tall	-4407
▁chimp	-4408
▁dolph	-4409
▁kenya	-4410
▁solid	-4411
▁users	-4412
▁thinks	-4413
▁arrived	-4414
▁reaction	-4415
▁convinced	-4416
▁wondering	-4417
▁underneath	-4418
ux	-4419
cap	-4420
gged	-4421
otic	-4422
semb	-4423
▁cow	-4424
▁poo	-4425
▁blow	-4426
▁hide	-4427
▁shad	-4428
elling	-4429
▁heavy	-4430
▁rates	-4431
▁risks	-4432
▁player	-4433
▁factors	-4434
▁advanced	-4435
▁exchange	-4436
sa	-4437
▁mc	-4438
down	-4439
rete	-4440
▁atl	-4441
▁mat	-4442
▁hurt	-4443
▁surf	-4444
▁tail	-4445
lation	-4446
▁prove	-4447
▁sites	-4448
▁toile	-4449
▁losing	-4450
▁neuros	-4451
▁southern	-4452
▁convention	-4453
▁dimensions	-4454
don	-4455
iev	-4456
ocol	-4457
sour	-4458
zing	-4459
▁smile	-4460
▁stone	-4461
osition	-4462
▁houses	-4463
▁medium	-4464
▁cutting	-4465
▁players	-4466
▁whereas	-4467
▁feelings	-4468
▁requires	-4469
▁satellite	-4470
▁democratic	-4471
.'	-4472
ogen	-4473
▁pow	-4474
▁wars	-4475
ession	-4476
▁honor	-4477
▁hyper	-4478
▁veget	-4479
▁damage	-4480
▁garden	-4481
▁muscle	-4482
▁conduct	-4483
▁illness	-4484
▁einstein	-4485
▁japanese	-4486
▁released	-4487
6,	-4488
eng	-4489
mber	-4490
▁cha	-4491
▁bush	-4492
▁ends	-4493
▁driver	-4494
▁extend	-4495
▁height	-4496
▁review	-4497
▁opening	-4498
▁suppose	-4499
▁messages	-4500
▁electrical	-4501
just	-4502
▁toy	-4503
iency	-4504
itals	-4505
▁bare	-4506
▁evil	-4507
▁mart	-4508
▁resc	-4509
▁swed	-4510
icated	-4511
▁cards	-4512
▁colon	-4513
▁signs	-4514
▁waves	-4515
▁deeper	-4516
▁explan	-4517
▁fossil	-4518
▁battery	-4519
▁killing	-4520
▁northern	-4521
▁essential	-4522
▁properties	-4523
▁construction	-4524
car	-4525
cont	-4526
onym	-4527
▁jan	-4528
▁auth	-4529
▁valu	-4530
ension	-4531
stream	-4532
▁estab	-4533
akistan	-4534
▁appropr	-4535
▁victims	-4536
▁designing	-4537
▁inequality	-4538
▁represents	-4539
▁intellectual	-4540
▁entrepreneurs	-4541
cipl	-4542
▁bow	-4543
▁ped	-4544
erves	-4545
▁pray	-4546
▁suit	-4547
acters	-4548
lement	-4549
▁awful	-4550
▁broke	-4551
▁chart	-4552
▁perce	-4553
▁amazon	-4554
▁budget	-4555
▁credit	-4556
▁member	-4557
▁harvard	-4558
▁rapidly	-4559
▁reprodu	-4560
▁witness	-4561
▁epidemic	-4562
▁graduate	-4563
▁sophistic	-4564
▁worldwide	-4565
▁characters	-4566
▁expression	-4567
col	-4568
fish	-4569
irty	-4570
▁2000	-4571
▁lift	-4572
▁pure	-4573
▁recy	-4574
▁empty	-4575
▁promise	-4576
▁variety	-4577
▁emerging	-4578
▁trillion	-4579
2.	-4580
▁hey	-4581
▁van	-4582
iques	-4583
▁holes	-4584
▁liked	-4585
▁negot	-4586
▁prime	-4587
▁advert	-4588
▁facing	-4589
▁former	-4590
▁trials	-4591
▁britain	-4592
▁exercise	-4593
▁microbes	-4594
▁pakistan	-4595
▁entertain	-4596
▁francisco	-4597
▁corruption	-4598
▁possibilities	-4599
gl	-4600
ett	-4601
▁pac	-4602
▁wel	-4603
▁flex	-4604
▁gree	-4605
▁spin	-4606
▁manip	-4607
▁prefer	-4608
▁display	-4609
▁library	-4610
▁radical	-4611
▁thoughts	-4612
▁carefully	-4613
▁chemistry	-4614
▁telescope	-4615
▁protection	-4616
▁effectively	-4617
▁conservation	-4618
ca	-4619
min	-4620
zed	-4621
anze	-4622
aurs	-4623
▁dip	-4624
▁ing	-4625
▁cave	-4626
▁decl	-4627
▁nasa	-4628
▁claim	-4629
▁ideal	-4630
▁occup	-4631
▁sweet	-4632
ulating	-4633
▁capture	-4634
▁forests	-4635
▁sources	-4636
▁official	-4637
▁chimpanze	-4638
▁gentlemen	-4639
▁typically	-4640
▁grandmother	-4641
▁mathematical	-4642
ss	-4643
pan	-4644
gets	-4645
▁ded	-4646
▁mak	-4647
▁hunt	-4648
▁intr	-4649
▁plus	-4650
▁pole	-4651
▁remo	-4652
▁shif	-4653
▁minim	-4654
▁cultures	-4655
▁required	-4656
▁politicians	-4657
prof	-4658
▁lic	-4659
akers	-4660
▁dots	-4661
▁gift	-4662
▁liqu	-4663
▁peak	-4664
▁ride	-4665
pected	-4666
▁horse	-4667
▁pengu	-4668
▁sight	-4669
▁length	-4670
▁centers	-4671
▁lessons	-4672
▁roughly	-4673
▁minister	-4674
▁introduce	-4675
▁profession	-4676
▁relatively	-4677
30	-4678
rs	-4679
▁'9	-4680
osis	-4681
▁wik	-4682
▁club	-4683
▁mira	-4684
▁user	-4685
▁kitch	-4686
▁profit	-4687
▁depends	-4688
▁details	-4689
▁extract	-4690
▁generate	-4691
▁lifetime	-4692
▁disappear	-4693
▁vulnerable	-4694
ael	-4695
bur	-4696
cal	-4697
icy	-4698
▁bee	-4699
▁jack	-4700
▁loud	-4701
▁shall	-4702
itarian	-4703
▁assist	-4704
▁buying	-4705
▁define	-4706
▁command	-4707
▁mosquit	-4708
▁nigeria	-4709
▁convince	-4710
▁location	-4711
▁generally	-4712
▁producing	-4713
▁definitely	-4714
▁participate	-4715
ded	-4716
spe	-4717
▁py	-4718
cers	-4719
▁jail	-4720
▁unex	-4721
▁unus	-4722
▁compl	-4723
▁crack	-4724
▁serve	-4725
▁tumor	-4726
▁status	-4727
▁survey	-4728
▁consist	-4729
▁circumst	-4730
▁chemicals	-4731
▁dinosaurs	-4732
▁encourage	-4733
▁techniques	-4734
bre	-4735
▁45	-4736
nded	-4737
uary	-4738
▁aff	-4739
▁phr	-4740
icago	-4741
rooms	-4742
▁diam	-4743
▁drag	-4744
▁mand	-4745
▁domin	-4746
▁shame	-4747
▁staff	-4748
▁canada	-4749
▁interp	-4750
▁engaged	-4751
▁funding	-4752
▁anderson	-4753
▁molecular	-4754
but	-4755
▁bg	-4756
abet	-4757
stic	-4758
▁cub	-4759
usive	-4760
▁bran	-4761
▁hill	-4762
▁sees	-4763
▁fewer	-4764
▁grade	-4765
▁pregn	-4766
▁steel	-4767
▁sugar	-4768
▁formed	-4769
▁regard	-4770
▁sharks	-4771
▁accompl	-4772
▁awesome	-4773
▁cartoon	-4774
▁encoura	-4775
▁consumer	-4776
▁personally	-4777
▁transformation	-4778
1.	-4779
oes	-4780
ole	-4781
▁eld	-4782
▁les	-4783
▁cure	-4784
▁desk	-4785
▁orch	-4786
▁cyber	-4787
▁grain	-4788
▁metal	-4789
▁teeth	-4790
▁advent	-4791
▁forgot	-4792
▁winter	-4793
▁actions	-4794
▁applied	-4795
▁chicago	-4796
▁courage	-4797
▁spectrum	-4798
▁fundament	-4799
▁invention	-4800
▁combination	-4801
60	-4802
uls	-4803
oles	-4804
▁oct	-4805
▁dogs	-4806
▁james	-4807
▁pitch	-4808
▁reven	-4809
▁bottle	-4810
▁bubble	-4811
▁studio	-4812
▁primary	-4813
▁valuable	-4814
▁hospitals	-4815
▁manufacturing	-4816
ox	-4817
▁ru	-4818
bors	-4819
olds	-4820
tube	-4821
▁bath	-4822
▁cast	-4823
▁nose	-4824
urance	-4825
▁auton	-4826
▁obser	-4827
▁polar	-4828
▁refer	-4829
▁shoot	-4830
▁inevit	-4831
▁illegal	-4832
▁include	-4833
▁outcome	-4834
▁vaccine	-4835
▁apparent	-4836
▁disaster	-4837
▁environments	-4838
ka	-4839
▁nur	-4840
▁grid	-4841
▁lect	-4842
cience	-4843
▁flies	-4844
▁genet	-4845
▁horiz	-4846
▁sides	-4847
▁arrest	-4848
▁compar	-4849
▁fisher	-4850
▁marine	-4851
▁season	-4852
▁kitchen	-4853
▁quarter	-4854
▁establish	-4855
▁increased	-4856
▁naturally	-4857
▁discussion	-4858
▁instrument	-4859
▁situations	-4860
▁evolutionary	-4861
au	-4862
hyth	-4863
icip	-4864
▁ens	-4865
▁wat	-4866
alled	-4867
▁diss	-4868
▁aging	-4869
▁assign	-4870
▁blocks	-4871
▁mirror	-4872
▁worlds	-4873
▁chicken	-4874
▁opinion	-4875
abilities	-4876
▁affected	-4877
▁carrying	-4878
▁symptoms	-4879
▁authority	-4880
▁awareness	-4881
▁employees	-4882
▁potentially	-4883
dr	-4884
ym	-4885
van	-4886
▁ber	-4887
▁pin	-4888
eline	-4889
porary	-4890
▁atoms	-4891
▁analog	-4892
▁drives	-4893
▁empathy	-4894
▁gravity	-4895
▁viruses	-4896
▁youtube	-4897
▁interests	-4898
▁neighbors	-4899
▁restaurant	-4900
iti	-4901
mas	-4902
▁75	-4903
▁99	-4904
▁ii	-4905
iend	-4906
▁jer	-4907
ament	-4908
child	-4909
icing	-4910
ublic	-4911
▁fert	-4912
▁thin	-4913
father	-4914
ternal	-4915
▁added	-4916
▁input	-4917
▁boston	-4918
▁factor	-4919
▁liquid	-4920
▁option	-4921
▁regions	-4922
▁unusual	-4923
▁recorded	-4924
▁behaviors	-4925
▁newspaper	-4926
▁radiation	-4927
▁traveling	-4928
▁components	-4929
▁introduced	-4930
▁physically	-4931
▁biom	-4932
▁impl	-4933
▁ring	-4934
▁runs	-4935
▁soul	-4936
olving	-4937
▁islam	-4938
▁notes	-4939
▁renew	-4940
▁organs	-4941
▁pulled	-4942
▁attacks	-4943
▁channel	-4944
▁mistake	-4945
▁reached	-4946
▁existing	-4947
▁maintain	-4948
▁password	-4949
▁prepared	-4950
▁fundamentally	-4951
▁sophisticated	-4952
rog	-4953
▁bat	-4954
▁rit	-4955
▁mile	-4956
▁milk	-4957
▁perm	-4958
▁pian	-4959
▁estim	-4960
▁false	-4961
▁goods	-4962
▁keeps	-4963
▁lying	-4964
▁muslim	-4965
▁sample	-4966
▁sports	-4967
▁empower	-4968
▁brothers	-4969
▁rational	-4970
▁mortality	-4971
▁pollution	-4972
▁protected	-4973
▁laboratory	-4974
▁conversations	-4975
hes	-4976
log	-4977
uits	-4978
▁sco	-4979
build	-4980
lying	-4981
▁hotel	-4982
▁storm	-4983
▁critic	-4984
▁severe	-4985
▁fishing	-4986
▁silence	-4987
▁pleasure	-4988
▁stronger	-4989
▁transfer	-4990
▁activities	-4991
▁innovative	-4992
▁meaningful	-4993
▁na	-4994
▁cup	-4995
ework	-4996
▁acqu	-4997
▁span	-4998
▁clinic	-4999
▁conver	-5000
▁desper	-5001
▁france	-5002
▁ingred	-5003
▁laptop	-5004
▁perman	-5005
▁feature	-5006
▁harvest	-5007
▁housing	-5008
▁michael	-5009
▁operate	-5010
▁hydrogen	-5011
▁framework	-5012
▁providing	-5013
ald	-5014
esh	-5015
whel	-5016
▁194	-5017
▁gut	-5018
abled	-5019
icate	-5020
▁barr	-5021
▁reci	-5022
anging	-5023
▁clock	-5024
▁curve	-5025
▁satis	-5026
▁topic	-5027
▁union	-5028
▁driven	-5029
▁scared	-5030
▁senses	-5031
▁sphere	-5032
▁privacy	-5033
▁overwhel	-5034
▁ultimate	-5035
▁practical	-5036
▁destruction	-5037
uel	-5038
cond	-5039
▁ath	-5040
organ	-5041
▁alex	-5042
▁clip	-5043
▁pair	-5044
angers	-5045
▁doubt	-5046
▁steve	-5047
▁toxic	-5048
▁joined	-5049
▁neither	-5050
▁abstract	-5051
▁administ	-5052
▁equality	-5053
▁features	-5054
▁vehicles	-5055
▁computing	-5056
▁mechanism	-5057
▁algorithms	-5058
▁efficiency	-5059
▁literature	-5060
▁inspiration	-5061
▁technological	-5062
▁bes	-5063
▁las	-5064
▁rig	-5065
▁spo	-5066
▁eggs	-5067
▁hits	-5068
▁coord	-5069
▁score	-5070
▁clever	-5071
▁russia	-5072
▁afterno	-5073
▁equally	-5074
▁islands	-5075
▁records	-5076
▁remains	-5077
▁singing	-5078
▁antibiot	-5079
▁mathematic	-5080
▁processing	-5081
▁collaboration	-5082
▁transportation	-5083
da	-5084
ams	-5085
igm	-5086
umps	-5087
▁aug	-5088
▁bio	-5089
▁max	-5090
▁meg	-5091
▁pool	-5092
▁scar	-5093
▁songs	-5094
▁hoping	-5095
▁solved	-5096
▁figures	-5097
▁largely	-5098
▁tonight	-5099
▁windows	-5100
▁dramatic	-5101
▁election	-5102
▁internal	-5103
▁policies	-5104
▁terrorism	-5105
▁productive	-5106
lom	-5107
aren	-5108
ront	-5109
▁anx	-5110
▁bay	-5111
▁tan	-5112
▁ven	-5113
gment	-5114
▁mont	-5115
▁nurs	-5116
▁subs	-5117
▁zone	-5118
▁ought	-5119
▁upper	-5120
▁acting	-5121
▁patent	-5122
▁amounts	-5123
▁clothes	-5124
▁electro	-5125
▁musical	-5126
▁contrast	-5127
▁printing	-5128
▁relevant	-5129
▁ancestors	-5130
▁passionate	-5131
▁perception	-5132
▁underwater	-5133
20	-5134
500	-5135
ham	-5136
nes	-5137
opia	-5138
▁sem	-5139
▁twe	-5140
enced	-5141
orous	-5142
▁bell	-5143
▁dece	-5144
▁tape	-5145
isters	-5146
▁tests	-5147
▁contem	-5148
▁cortex	-5149
▁remove	-5150
▁rocket	-5151
▁borders	-5152
▁breathe	-5153
▁charles	-5154
▁combine	-5155
▁dropped	-5156
▁nowhere	-5157
▁unknown	-5158
▁concrete	-5159
▁confront	-5160
▁director	-5161
▁swimming	-5162
▁collected	-5163
▁operation	-5164
▁psychology	-5165
▁surrounded	-5166
▁photographs	-5167
▁sustainability	-5168
sem	-5169
▁2.	-5170
▁ip	-5171
▁pm	-5172
▁cere	-5173
▁glam	-5174
▁joke	-5175
▁embed	-5176
▁frame	-5177
▁initi	-5178
▁navig	-5179
▁paris	-5180
▁plate	-5181
▁ridic	-5182
▁skill	-5183
▁diplom	-5184
▁fabric	-5185
▁puzzle	-5186
▁reject	-5187
▁eastern	-5188
▁visible	-5189
▁younger	-5190
▁memories	-5191
▁republic	-5192
▁functions	-5193
za	-5194
ums	-5195
crim	-5196
ingu	-5197
gging	-5198
▁grab	-5199
▁lens	-5200
▁mere	-5201
▁wine	-5202
▁stret	-5203
llywood	-5204
▁anonym	-5205
▁parall	-5206
▁comment	-5207
▁fingers	-5208
▁intense	-5209
▁wireless	-5210
▁afternoon	-5211
▁explained	-5212
▁narrative	-5213
que	-5214
berg	-5215
olic	-5216
oses	-5217
▁dot	-5218
▁tab	-5219
being	-5220
▁bicy	-5221
▁lake	-5222
▁3,000	-5223
▁angry	-5224
▁dress	-5225
▁honey	-5226
▁judge	-5227
▁taste	-5228
▁theme	-5229
▁thick	-5230
▁youth	-5231
inction	-5232
▁advice	-5233
▁agreed	-5234
▁announ	-5235
▁worker	-5236
▁defense	-5237
▁discipl	-5238
▁falling	-5239
▁sunlight	-5240
▁appreciate	-5241
▁mechanical	-5242
▁resistance	-5243
▁challenging	-5244
▁applications	-5245
80	-5246
▁mice	-5247
▁stan	-5248
arrass	-5249
▁depth	-5250
▁button	-5251
▁handle	-5252
▁stayed	-5253
▁tested	-5254
▁diction	-5255
▁fiction	-5256
▁constant	-5257
▁horrible	-5258
▁infected	-5259
▁mistakes	-5260
▁organism	-5261
▁proteins	-5262
▁embarrass	-5263
▁interpret	-5264
▁greenhouse	-5265
hips	-5266
uses	-5267
▁haw	-5268
scale	-5269
▁horm	-5270
▁outc	-5271
▁silk	-5272
▁trig	-5273
americ	-5274
▁chose	-5275
▁dynam	-5276
▁border	-5277
▁boring	-5278
▁deaths	-5279
▁iphone	-5280
▁evening	-5281
▁violent	-5282
▁accurate	-5283
▁occurred	-5284
▁emergency	-5285
▁marketing	-5286
▁capitalism	-5287
▁circumstances	-5288
ita	-5289
rom	-5290
▁mac	-5291
ended	-5292
lands	-5293
▁busy	-5294
▁fake	-5295
▁obst	-5296
▁sept	-5297
▁zoom	-5298
▁falls	-5299
▁resil	-5300
▁title	-5301
▁trend	-5302
▁deploy	-5303
cription	-5304
▁constit	-5305
▁cooking	-5306
▁defined	-5307
▁options	-5308
▁overall	-5309
▁sensors	-5310
▁birthday	-5311
▁occasion	-5312
▁confidence	-5313
5.	-5314
ih	-5315
pa	-5316
gue	-5317
vis	-5318
anta	-5319
foot	-5320
greg	-5321
▁hem	-5322
▁sir	-5323
▁cock	-5324
▁cord	-5325
▁flew	-5326
▁label	-5327
▁rocks	-5328
▁split	-5329
▁uncom	-5330
▁monkey	-5331
▁virgin	-5332
▁parking	-5333
▁scratch	-5334
▁allowing	-5335
▁combined	-5336
▁download	-5337
▁somewhat	-5338
▁implement	-5339
▁sensitive	-5340
▁conclusion	-5341
▁percentage	-5342
▁exploration	-5343
▁presentation	-5344
box	-5345
▁dut	-5346
▁gps	-5347
▁ham	-5348
▁ric	-5349
▁hook	-5350
▁thom	-5351
iosity	-5352
▁multi	-5353
▁roads	-5354
▁rooms	-5355
▁divide	-5356
▁linked	-5357
aneously	-5358
▁advance	-5359
▁closely	-5360
▁tracking	-5361
▁constrain	-5362
▁selection	-5363
▁statement	-5364
▁controlled	-5365
▁educational	-5366
▁psychological	-5367
gr	-5368
han	-5369
mal	-5370
ula	-5371
▁hi	-5372
▁ze	-5373
ault	-5374
lock	-5375
▁ack	-5376
▁cath	-5377
▁clus	-5378
▁excl	-5379
▁furn	-5380
▁item	-5381
▁poly	-5382
▁pump	-5383
▁tack	-5384
▁wash	-5385
illing	-5386
source	-5387
▁cents	-5388
▁datab	-5389
▁faced	-5390
▁films	-5391
▁flood	-5392
▁memor	-5393
▁phase	-5394
▁recom	-5395
▁assume	-5396
▁signed	-5397
▁spider	-5398
▁volume	-5399
▁circuit	-5400
▁federal	-5401
▁reverse	-5402
▁presence	-5403
▁wherever	-5404
▁recording	-5405
▁september	-5406
▁unc	-5407
icide	-5408
▁limb	-5409
herent	-5410
making	-5411
▁absor	-5412
▁abuse	-5413
▁bones	-5414
▁fixed	-5415
▁globe	-5416
▁excell	-5417
▁flower	-5418
▁inject	-5419
▁suffer	-5420
▁angeles	-5421
▁burning	-5422
▁finance	-5423
▁provided	-5424
▁determine	-5425
▁architects	-5426
▁electronic	-5427
▁explanation	-5428
8.	-5429
bal	-5430
ups	-5431
▁23	-5432
cend	-5433
pass	-5434
▁aqu	-5435
▁pra	-5436
▁tap	-5437
▁wow	-5438
▁chip	-5439
▁mush	-5440
▁pink	-5441
▁rush	-5442
▁sets	-5443
▁wikip	-5444
▁string	-5445
▁whales	-5446
▁frankly	-5447
▁pacific	-5448
▁receive	-5449
▁therapy	-5450
▁collapse	-5451
▁hypothes	-5452
▁centuries	-5453
▁spiritual	-5454
▁economists	-5455
▁unexpected	-5456
▁appropriate	-5457
▁interestingly	-5458
vi	-5459
tech	-5460
yeah	-5461
▁raw	-5462
▁uns	-5463
iture	-5464
▁dust	-5465
▁ears	-5466
▁mall	-5467
▁pill	-5468
ateful	-5469
▁boxes	-5470
▁flash	-5471
▁plans	-5472
▁teams	-5473
▁weigh	-5474
▁encoun	-5475
▁explos	-5476
▁ritual	-5477
▁balloon	-5478
▁conserv	-5479
▁embrace	-5480
▁solving	-5481
▁transpl	-5482
▁creature	-5483
▁instruct	-5484
▁outcomes	-5485
▁subjects	-5486
▁treating	-5487
▁villages	-5488
▁standards	-5489
alu	-5490
uce	-5491
ctic	-5492
itors	-5493
sters	-5494
▁bike	-5495
▁gulf	-5496
▁5,000	-5497
▁piano	-5498
▁shell	-5499
▁owners	-5500
▁script	-5501
▁causing	-5502
▁flowers	-5503
▁pushing	-5504
▁vessels	-5505
▁measured	-5506
▁customers	-5507
▁economies	-5508
▁application	-5509
ads	-5510
bed	-5511
des	-5512
keys	-5513
oint	-5514
▁nic	-5515
arant	-5516
uting	-5517
▁mary	-5518
▁logic	-5519
▁males	-5520
▁lifest	-5521
▁scenar	-5522
▁struck	-5523
▁airport	-5524
▁existed	-5525
▁extinct	-5526
connected	-5527
▁suggests	-5528
▁wondered	-5529
▁algorithm	-5530
▁breathing	-5531
▁celebrate	-5532
▁wikipedia	-5533
nda	-5534
▁600	-5535
▁irr	-5536
▁tro	-5537
▁vag	-5538
▁voc	-5539
eness	-5540
▁coin	-5541
▁stri	-5542
▁admit	-5543
▁expon	-5544
▁queen	-5545
▁clouds	-5546
▁enable	-5547
▁extent	-5548
▁genius	-5549
▁papers	-5550
▁classes	-5551
▁decline	-5552
▁feeding	-5553
▁offered	-5554
▁disorder	-5555
▁drinking	-5556
▁elephant	-5557
▁floating	-5558
▁destroyed	-5559
▁technique	-5560
▁translate	-5561
▁transformed	-5562
ov	-5563
wr	-5564
ris	-5565
iled	-5566
okay	-5567
oons	-5568
over	-5569
▁gla	-5570
eding	-5571
icted	-5572
▁corn	-5573
▁firm	-5574
▁icon	-5575
▁nest	-5576
▁stro	-5577
called	-5578
▁humor	-5579
▁ignor	-5580
▁legis	-5581
▁obama	-5582
▁acknow	-5583
▁agency	-5584
▁corres	-5585
▁portra	-5586
ographer	-5587
▁aspects	-5588
▁proport	-5589
▁savings	-5590
▁distinct	-5591
▁domestic	-5592
▁identical	-5593
▁instruments	-5594
▁implications	-5595
▁q	-5596
hour	-5597
iety	-5598
omic	-5599
iring	-5600
night	-5601
▁ages	-5602
▁elim	-5603
owered	-5604
▁colum	-5605
▁fifth	-5606
▁silic	-5607
▁whale	-5608
▁limits	-5609
▁scream	-5610
▁thomas	-5611
▁anticip	-5612
▁samples	-5613
▁welcome	-5614
▁district	-5615
▁engaging	-5616
▁grateful	-5617
▁shoulder	-5618
▁conventional	-5619
ias	-5620
▁27	-5621
tail	-5622
▁jul	-5623
hythm	-5624
iters	-5625
▁acts	-5626
▁adam	-5627
▁cash	-5628
▁dign	-5629
▁gras	-5630
▁june	-5631
▁lets	-5632
▁neut	-5633
▁ours	-5634
▁root	-5635
athers	-5636
▁accum	-5637
▁advoc	-5638
▁chief	-5639
▁error	-5640
▁explo	-5641
▁pharm	-5642
▁relate	-5643
▁secure	-5644
▁toilet	-5645
inations	-5646
▁careful	-5647
▁carried	-5648
▁stretch	-5649
▁instinct	-5650
▁paradigm	-5651
▁romantic	-5652
▁vaccines	-5653
▁arguments	-5654
▁continued	-5655
▁curiosity	-5656
▁measuring	-5657
▁precisely	-5658
▁privilege	-5659
▁grandfather	-5660
▁populations	-5661
/1	-5662
hop	-5663
uum	-5664
▁["	-5665
▁du	-5666
▁fan	-5667
▁gam	-5668
▁tea	-5669
ounce	-5670
▁lone	-5671
phones	-5672
profit	-5673
▁anger	-5674
▁antar	-5675
▁aston	-5676
▁grows	-5677
▁korea	-5678
▁latin	-5679
▁liver	-5680
▁whist	-5681
eration	-5682
▁stands	-5683
▁storyt	-5684
▁prosper	-5685
conscious	-5686
▁equation	-5687
▁footprint	-5688
▁apparently	-5689
▁microscope	-5690
▁represented	-5691
▁dramatically	-5692
hen	-5693
iox	-5694
yal	-5695
kind	-5696
soft	-5697
▁cab	-5698
▁gro	-5699
▁jim	-5700
▁lun	-5701
▁tri	-5702
cence	-5703
osing	-5704
while	-5705
▁seek	-5706
▁ther	-5707
▁aster	-5708
▁fruit	-5709
▁stack	-5710
▁stere	-5711
▁assemb	-5712
▁chocol	-5713
▁colony	-5714
▁heroes	-5715
▁millenn	-5716
▁orchest	-5717
▁academic	-5718
▁infinite	-5719
▁christmas	-5720
▁consumers	-5721
▁increases	-5722
▁insurance	-5723
▁presented	-5724
▁prototype	-5725
▁spreading	-5726
▁automatically	-5727
ba	-5728
ek	-5729
cred	-5730
heim	-5731
nday	-5732
▁gon	-5733
there	-5734
▁golf	-5735
▁gray	-5736
▁leap	-5737
▁pace	-5738
▁shar	-5739
▁tent	-5740
▁dense	-5741
▁dozen	-5742
▁polio	-5743
▁style	-5744
▁tired	-5745
▁traum	-5746
▁evolve	-5747
▁fright	-5748
▁interf	-5749
▁mainly	-5750
▁phrase	-5751
▁rising	-5752
▁classic	-5753
▁impress	-5754
▁january	-5755
▁robotic	-5756
▁behavioral	-5757
▁performing	-5758
▁distributed	-5759
▁entertainment	-5760
hr	-5761
oll	-5762
ost	-5763
vas	-5764
▁22	-5765
bage	-5766
rets	-5767
rors	-5768
▁10,	-5769
▁250	-5770
▁sne	-5771
itory	-5772
using	-5773
▁cens	-5774
▁tech	-5775
imeter	-5776
struct	-5777
▁champ	-5778
▁knock	-5779
▁unbel	-5780
▁crying	-5781
▁hunger	-5782
▁pollen	-5783
▁sweden	-5784
▁authent	-5785
▁citizen	-5786
▁designs	-5787
▁guarant	-5788
▁mammals	-5789
▁mystery	-5790
▁spectac	-5791
▁complain	-5792
▁parallel	-5793
▁traveled	-5794
▁committed	-5795
▁component	-5796
▁corporate	-5797
▁journalist	-5798
▁personality	-5799
▁recognition	-5800
4.	-5801
hol	-5802
tes	-5803
▁ba	-5804
▁dh	-5805
aret	-5806
keep	-5807
rary	-5808
▁hat	-5809
▁sed	-5810
clear	-5811
think	-5812
▁1950	-5813
▁boom	-5814
▁gest	-5815
▁prem	-5816
▁aside	-5817
▁banks	-5818
▁smoke	-5819
▁walks	-5820
▁wound	-5821
▁hearts	-5822
▁ignore	-5823
▁pocket	-5824
▁robert	-5825
▁spinal	-5826
▁surely	-5827
▁habitat	-5828
▁methods	-5829
▁monkeys	-5830
▁poorest	-5831
▁surgeon	-5832
▁africans	-5833
▁obsessed	-5834
▁overcome	-5835
▁pregnant	-5836
▁properly	-5837
▁exploring	-5838
▁controlling	-5839
▁universities	-5840
ev	-5841
def	-5842
lymp	-5843
▁mim	-5844
▁sar	-5845
▁bias	-5846
▁till	-5847
▁vibr	-5848
ashing	-5849
▁blank	-5850
▁bombs	-5851
▁enemy	-5852
▁persu	-5853
▁scary	-5854
▁units	-5855
▁candid	-5856
▁immune	-5857
▁placed	-5858
▁proced	-5859
▁repair	-5860
▁thrown	-5861
▁traged	-5862
▁dancing	-5863
▁earthqu	-5864
▁kingdom	-5865
▁silicon	-5866
▁wanting	-5867
▁achieved	-5868
▁produces	-5869
▁reaching	-5870
▁unbeliev	-5871
▁colleague	-5872
▁depending	-5873
▁reference	-5874
▁virtually	-5875
▁exhibition	-5876
▁strategies	-5877
▁fortunately	-5878
70	-5879
ket	-5880
▁rw	-5881
ille	-5882
oned	-5883
uity	-5884
wich	-5885
▁fib	-5886
▁hal	-5887
▁hub	-5888
lines	-5889
opher	-5890
▁loop	-5891
▁manh	-5892
▁decre	-5893
▁ghana	-5894
▁olymp	-5895
▁orbit	-5896
▁roots	-5897
▁tight	-5898
▁vital	-5899
illance	-5900
▁prices	-5901
▁diverse	-5902
▁efforts	-5903
▁entered	-5904
▁license	-5905
▁raising	-5906
▁appeared	-5907
▁organize	-5908
▁household	-5909
▁connecting	-5910
▁interacting	-5911
oe	-5912
ota	-5913
war	-5914
udes	-5915
▁pul	-5916
▁tip	-5917
acing	-5918
stand	-5919
▁axis	-5920
▁carr	-5921
▁lung	-5922
▁plot	-5923
▁rail	-5924
▁tube	-5925
arency	-5926
▁delic	-5927
▁gates	-5928
▁metab	-5929
▁shake	-5930
▁tasks	-5931
▁toler	-5932
▁tries	-5933
anthrop	-5934
iveness	-5935
through	-5936
▁corals	-5937
▁golden	-5938
▁invite	-5939
▁missed	-5940
▁native	-5941
▁obstac	-5942
▁powers	-5943
children	-5944
▁inspire	-5945
▁painful	-5946
▁astronom	-5947
▁embedded	-5948
▁imagined	-5949
▁meetings	-5950
▁disorders	-5951
▁permanent	-5952
▁telephone	-5953
▁collecting	-5954
▁directions	-5955
▁underground	-5956
▁surveillance	-5957
▁transparency	-5958
agn	-5959
ban	-5960
gic	-5961
hib	-5962
itz	-5963
pal	-5964
gers	-5965
ogue	-5966
▁gig	-5967
▁spr	-5968
mates	-5969
▁boss	-5970
▁flor	-5971
▁jeff	-5972
▁peer	-5973
▁drove	-5974
▁remem	-5975
▁seeds	-5976
erences	-5977
▁barely	-5978
▁orange	-5979
▁plenty	-5980
▁appears	-5981
▁cheaper	-5982
▁removed	-5983
▁darkness	-5984
▁globally	-5985
▁microsoft	-5986
▁practices	-5987
▁philosophy	-5988
org	-5989
vin	-5990
etch	-5991
llar	-5992
otes	-5993
▁aim	-5994
▁der	-5995
▁wal	-5996
attan	-5997
▁dict	-5998
▁disg	-5999
▁elev	-6000
▁ethi	-6001
▁pand	-6002
▁trop	-6003
arters	-6004
▁guard	-6005
▁higgs	-6006
▁plays	-6007
▁pyram	-6008
▁schol	-6009
raction	-6010
▁geomet	-6011
▁legacy	-6012
▁narrow	-6013
▁pushed	-6014
▁repeat	-6015
▁collaps	-6016
▁concern	-6017
▁concert	-6018
▁density	-6019
▁muscles	-6020
▁accepted	-6021
▁attached	-6022
▁breaking	-6023
▁concepts	-6024
▁illusion	-6025
▁narrator	-6026
▁penguins	-6027
▁recovery	-6028
▁shooting	-6029
▁vertical	-6030
▁furniture	-6031
▁commitment	-6032
▁controvers	-6033
▁fascinated	-6034
▁rainforest	-6035
▁recognized	-6036
▁interactive	-6037
gun	-6038
rous	-6039
▁cas	-6040
▁syr	-6041
▁tex	-6042
esity	-6043
iform	-6044
leton	-6045
power	-6046
▁alph	-6047
▁erad	-6048
▁sacr	-6049
▁imper	-6050
▁recru	-6051
▁route	-6052
▁sales	-6053
▁veter	-6054
▁devast	-6055
▁diabet	-6056
▁escape	-6057
▁facial	-6058
▁fertil	-6059
▁filter	-6060
▁lovely	-6061
▁rescue	-6062
▁retire	-6063
▁chapter	-6064
▁herself	-6065
▁hardware	-6066
▁isolated	-6067
▁secondly	-6068
▁textbook	-6069
▁apartment	-6070
▁manhattan	-6071
▁sculpture	-6072
▁searching	-6073
▁contribute	-6074
▁engagement	-6075
▁entrepreneur	-6076
▁interactions	-6077
▁productivity	-6078
3.	-6079
tw	-6080
azz	-6081
son	-6082
val	-6083
amin	-6084
esis	-6085
nels	-6086
ship	-6087
▁bob	-6088
▁wed	-6089
iders	-6090
▁flip	-6091
▁pour	-6092
▁adopt	-6093
▁elder	-6094
▁sheep	-6095
century	-6096
▁hungry	-6097
▁latest	-6098
▁needle	-6099
▁oldest	-6100
▁writer	-6101
▁amongst	-6102
▁diagram	-6103
▁divided	-6104
▁synthes	-6105
▁captured	-6106
▁involves	-6107
▁psychiat	-6108
▁chocolate	-6109
▁lifestyle	-6110
▁volunteers	-6111
▁antibiotics	-6112
▁manufacture	-6113
▁expectations	-6114
▁neighborhoods	-6115
aks	-6116
bra	-6117
ida	-6118
osh	-6119
aust	-6120
illy	-6121
rect	-6122
walk	-6123
▁eve	-6124
▁jes	-6125
▁lux	-6126
▁tag	-6127
eared	-6128
▁diox	-6129
▁emph	-6130
▁fulf	-6131
▁mold	-6132
▁tank	-6133
ptions	-6134
▁aband	-6135
▁aspir	-6136
▁coach	-6137
▁crops	-6138
▁dirty	-6139
▁fluid	-6140
▁glaci	-6141
▁texas	-6142
▁usual	-6143
▁adjust	-6144
▁hardly	-6145
▁shadow	-6146
▁slides	-6147
▁dignity	-6148
▁granted	-6149
▁monitor	-6150
▁obesity	-6151
▁section	-6152
▁suicide	-6153
▁controls	-6154
▁laughing	-6155
▁magnetic	-6156
▁sandwich	-6157
▁stations	-6158
▁elsewhere	-6159
▁paintings	-6160
7.	-6161
va	-6162
cut	-6163
iac	-6164
uff	-6165
case	-6166
uman	-6167
▁dim	-6168
agger	-6169
cause	-6170
isons	-6171
▁cous	-6172
ivered	-6173
▁alien	-6174
▁chaos	-6175
▁minor	-6176
▁purch	-6177
▁sheet	-6178
▁utter	-6179
▁wired	-6180
▁yield	-6181
ishment	-6182
▁behave	-6183
▁conven	-6184
▁farmer	-6185
▁martin	-6186
▁islamic	-6187
▁estimate	-6188
▁reported	-6189
▁stanford	-6190
▁uncertain	-6191
▁operations	-6192
▁cooperation	-6193
ds	-6194
list	-6195
vest	-6196
▁9/1	-6197
▁cod	-6198
▁nin	-6199
▁wip	-6200
angle	-6201
class	-6202
copes	-6203
flies	-6204
▁cute	-6205
▁salt	-6206
▁congo	-6207
▁likes	-6208
section	-6209
▁borrow	-6210
▁weapon	-6211
▁autonom	-6212
▁beliefs	-6213
▁council	-6214
▁dioxide	-6215
▁exposed	-6216
▁impacts	-6217
▁lecture	-6218
▁parties	-6219
▁rebuild	-6220
▁provides	-6221
▁refugees	-6222
ologically	-6223
▁hollywood	-6224
▁functional	-6225
▁historical	-6226
▁protecting	-6227
6.	-6228
wa	-6229
iel	-6230
vey	-6231
free	-6232
happ	-6233
icop	-6234
iday	-6235
lete	-6236
▁doz	-6237
ckets	-6238
eters	-6239
orter	-6240
osure	-6241
otion	-6242
▁beer	-6243
▁budd	-6244
▁fool	-6245
▁hire	-6246
▁migr	-6247
▁rely	-6248
▁actor	-6249
▁maxim	-6250
▁nobel	-6251
▁reput	-6252
▁skull	-6253
▁tears	-6254
▁wings	-6255
attered	-6256
▁agenda	-6257
▁capita	-6258
▁layers	-6259
▁locked	-6260
▁scales	-6261
▁anthrop	-6262
▁delight	-6263
▁disgust	-6264
▁fortune	-6265
▁opposed	-6266
▁recover	-6267
▁visited	-6268
▁atlantic	-6269
▁diabetes	-6270
▁dolphins	-6271
▁external	-6272
▁football	-6273
▁particle	-6274
▁dedicated	-6275
▁delivered	-6276
▁encounter	-6277
▁generated	-6278
▁intention	-6279
▁intuitive	-6280
▁recommend	-6281
▁accessible	-6282
▁incentives	-6283
▁resolution	-6284
▁simplicity	-6285
▁communications	-6286
nic	-6287
▁ts	-6288
fall	-6289
lies	-6290
lims	-6291
▁ate	-6292
▁reb	-6293
▁1990	-6294
▁clar	-6295
▁glad	-6296
▁rent	-6297
▁suck	-6298
▁guide	-6299
▁willi	-6300
▁yours	-6301
▁attrib	-6302
▁expans	-6303
▁frozen	-6304
▁paraly	-6305
▁spoken	-6306
▁talent	-6307
▁ceiling	-6308
▁charity	-6309
▁crucial	-6310
▁disrupt	-6311
▁synthetic	-6312
▁uncomfort	-6313
▁optimistic	-6314
▁programming	-6315
▁spectacular	-6316
-1	-6317
den	-6318
pox	-6319
tery	-6320
▁ash	-6321
going	-6322
owing	-6323
▁haiti	-6324
▁meter	-6325
▁ultra	-6326
▁upset	-6327
unclear	-6328
▁attend	-6329
▁commod	-6330
▁integr	-6331
▁silent	-6332
▁distant	-6333
▁focusing	-6334
▁animation	-6335
▁investing	-6336
▁reduction	-6337
▁governance	-6338
▁integrated	-6339
▁terrorists	-6340
▁transplant	-6341
▁disappeared	-6342
▁philanthrop	-6343
▁transparent	-6344
9.	-6345
aa	-6346
aws	-6347
nam	-6348
sum	-6349
▁65	-6350
aint	-6351
ener	-6352
▁aer	-6353
aming	-6354
archy	-6355
level	-6356
▁quad	-6357
▁tort	-6358
lessly	-6359
▁chest	-6360
▁digit	-6361
▁drawn	-6362
▁manif	-6363
▁pilot	-6364
uration	-6365
▁50,000	-6366
▁dozens	-6367
▁palest	-6368
▁surviv	-6369
▁drivers	-6370
▁helicop	-6371
▁initial	-6372
▁instant	-6373
▁printed	-6374
▁suspect	-6375
▁backwards	-6376
▁confident	-6377
▁affordable	-6378
▁commission	-6379
▁chimpanzees	-6380
▁ingredients	-6381
▁neuroscience	-6382
sey	-6383
born	-6384
elly	-6385
osen	-6386
▁195	-6387
▁lob	-6388
▁obl	-6389
▁rio	-6390
▁unp	-6391
inals	-6392
▁biod	-6393
▁bron	-6394
▁debt	-6395
▁dere	-6396
▁knee	-6397
▁pale	-6398
▁rice	-6399
▁ugly	-6400
dollar	-6401
▁abund	-6402
▁fuels	-6403
▁gonna	-6404
▁opens	-6405
▁paras	-6406
▁strip	-6407
▁views	-6408
forward	-6409
▁adding	-6410
▁chosen	-6411
▁intent	-6412
▁margin	-6413
▁nurses	-6414
▁output	-6415
▁satisf	-6416
▁smooth	-6417
▁theore	-6418
▁trends	-6419
american	-6420
▁bicycle	-6421
▁hanging	-6422
▁officer	-6423
▁refugee	-6424
▁touched	-6425
▁baseball	-6426
▁contains	-6427
▁database	-6428
▁dynamics	-6429
▁laughter	-6430
▁sciences	-6431
▁symmetry	-6432
▁theories	-6433
▁announced	-6434
▁anonymous	-6435
▁christian	-6436
▁conflicts	-6437
▁uncomfortable	-6438
edy	-6439
rus	-6440
▁$1	-6441
▁rh	-6442
ione	-6443
▁hip	-6444
iated	-6445
▁emer	-6446
▁pupp	-6447
▁conce	-6448
▁doors	-6449
▁legit	-6450
▁naked	-6451
▁peter	-6452
▁scott	-6453
▁spark	-6454
▁stops	-6455
▁tower	-6456
▁actors	-6457
▁extrem	-6458
▁neural	-6459
▁senior	-6460
▁anxiety	-6461
▁essence	-6462
▁muslims	-6463
▁slavery	-6464
▁agencies	-6465
▁continues	-6466
▁inspiring	-6467
▁afterwards	-6468
▁biologists	-6469
▁motivation	-6470
▁struggling	-6471
▁advertising	-6472
▁discoveries	-6473
▁participants	-6474
▁characteristics	-6475
ja	-6476
oma	-6477
thal	-6478
▁enh	-6479
▁ray	-6480
cling	-6481
stage	-6482
under	-6483
▁1980	-6484
▁bubb	-6485
▁dear	-6486
▁earn	-6487
▁sink	-6488
▁tied	-6489
▁toys	-6490
heimer	-6491
usions	-6492
▁angle	-6493
▁chrom	-6494
▁finds	-6495
▁laser	-6496
▁proof	-6497
▁punch	-6498
▁titan	-6499
▁20,000	-6500
▁observ	-6501
▁richer	-6502
▁subtle	-6503
▁chances	-6504
▁letting	-6505
▁passing	-6506
▁protest	-6507
▁sisters	-6508
▁speaker	-6509
▁tragedy	-6510
▁attitude	-6511
▁crossing	-6512
▁dominant	-6513
▁surfaces	-6514
▁diagnosed	-6515
▁boundaries	-6516
▁earthquake	-6517
▁mechanisms	-6518
▁ridiculous	-6519
▁improvement	-6520
▁photography	-6521
▁probability	-6522
▁agricultural	-6523
▁breakthrough	-6524
har	-6525
ares	-6526
ober	-6527
sing	-6528
view	-6529
when	-6530
▁10-	-6531
▁nit	-6532
▁wet	-6533
▁wra	-6534
ctica	-6535
enger	-6536
▁cham	-6537
▁dish	-6538
▁kiss	-6539
▁labs	-6540
▁quit	-6541
▁wise	-6542
▁cliff	-6543
▁craft	-6544
▁drill	-6545
▁evalu	-6546
▁hello	-6547
▁hemis	-6548
▁lungs	-6549
▁relax	-6550
▁smith	-6551
▁spell	-6552
▁uncle	-6553
▁county	-6554
▁emphas	-6555
▁heaven	-6556
▁partly	-6557
▁perpet	-6558
▁robust	-6559
▁stable	-6560
▁circles	-6561
▁clients	-6562
▁painted	-6563
▁picking	-6564
▁reports	-6565
▁traject	-6566
▁facility	-6567
▁lighting	-6568
▁dependent	-6569
▁dimension	-6570
▁elephants	-6571
▁musicians	-6572
▁terrorist	-6573
▁antarctica	-6574
▁demonstrate	-6575
▁innovations	-6576
sp	-6577
udd	-6578
mers	-6579
▁aes	-6580
front	-6581
▁1970	-6582
▁alco	-6583
▁dive	-6584
▁hier	-6585
▁mail	-6586
▁mood	-6587
▁viet	-6588
▁4,000	-6589
▁schem	-6590
▁skept	-6591
ughters	-6592
▁jewish	-6593
▁rarely	-6594
▁rating	-6595
▁sacred	-6596
▁served	-6597
▁settle	-6598
▁consume	-6599
▁disturb	-6600
▁october	-6601
▁pointed	-6602
▁reduced	-6603
▁educated	-6604
▁repeated	-6605
▁calculate	-6606
▁elections	-6607
▁highlight	-6608
▁ignorance	-6609
▁mechanics	-6610
▁objective	-6611
▁identified	-6612
▁originally	-6613
▁suggesting	-6614
▁consequence	-6615
▁electronics	-6616
▁intervention	-6617
bar	-6618
hal	-6619
lyn	-6620
▁ak	-6621
▁alz	-6622
▁ceo	-6623
▁dow	-6624
▁pad	-6625
alian	-6626
▁bars	-6627
▁nets	-6628
▁nick	-6629
▁tear	-6630
▁wing	-6631
makers	-6632
▁bears	-6633
▁bible	-6634
▁cryst	-6635
▁edges	-6636
▁gases	-6637
▁links	-6638
▁monit	-6639
▁athlet	-6640
▁emerge	-6641
▁landed	-6642
▁lawyer	-6643
▁linear	-6644
▁neuron	-6645
▁poison	-6646
▁reveal	-6647
▁shrimp	-6648
▁simult	-6649
▁stages	-6650
▁uganda	-6651
▁victim	-6652
▁briefly	-6653
▁sensory	-6654
▁smoking	-6655
▁aircraft	-6656
▁dinosaur	-6657
▁incident	-6658
▁returned	-6659
▁alzheimer	-6660
▁excellent	-6661
▁strangers	-6662
▁assumptions	-6663
▁participation	-6664
wow	-6665
▁0.	-6666
▁mi	-6667
▁od	-6668
▁bol	-6669
▁boo	-6670
▁sin	-6671
▁bats	-6672
▁dump	-6673
▁eleg	-6674
▁laid	-6675
▁pile	-6676
▁soap	-6677
parent	-6678
utical	-6679
▁chron	-6680
▁exped	-6681
▁flows	-6682
▁italy	-6683
▁marry	-6684
▁panel	-6685
▁pione	-6686
▁seats	-6687
▁threw	-6688
▁thumb	-6689
astroph	-6690
▁injury	-6691
▁regret	-6692
▁tribes	-6693
▁tricks	-6694
▁consult	-6695
▁failing	-6696
▁promote	-6697
▁soldier	-6698
▁statist	-6699
▁figuring	-6700
▁includes	-6701
▁informed	-6702
▁manifest	-6703
▁variation	-6704
▁additional	-6705
▁capability	-6706
▁dictionary	-6707
▁treatments	-6708
▁predictions	-6709
▁biodiversity	-6710
▁photographer	-6711
▁unbelievable	-6712
ari	-6713
aze	-6714
hus	-6715
▁32	-6716
ardo	-6717
fold	-6718
phor	-6719
▁'60	-6720
▁191	-6721
▁wid	-6722
▁1960	-6723
▁caps	-6724
▁clay	-6725
▁neat	-6726
▁sits	-6727
▁disag	-6728
▁fract	-6729
▁realm	-6730
▁respo	-6731
unction	-6732
▁confir	-6733
▁merely	-6734
▁prosec	-6735
▁twenty	-6736
▁happier	-6737
▁pulling	-6738
aceutical	-6739
▁artistic	-6740
▁inherent	-6741
▁reminded	-6742
▁speakers	-6743
▁gradually	-6744
▁physicist	-6745
▁separated	-6746
▁catastroph	-6747
▁ecosystems	-6748
▁mysterious	-6749
▁experimental	-6750
▁globalization	-6751
▁grandchildren	-6752
ua	-6753
wl	-6754
ato	-6755
rid	-6756
top	-6757
▁ol	-6758
izer	-6759
talk	-6760
▁120	-6761
▁ain	-6762
capes	-6763
igned	-6764
third	-6765
▁beet	-6766
▁cats	-6767
▁cott	-6768
▁mate	-6769
▁neck	-6770
▁prec	-6771
▁rose	-6772
mingly	-6773
▁array	-6774
▁arrow	-6775
▁begun	-6776
▁blame	-6777
▁mayor	-6778
▁nerve	-6779
▁reefs	-6780
▁branch	-6781
▁combat	-6782
▁funded	-6783
▁poster	-6784
chnology	-6785
▁chromos	-6786
▁ethical	-6787
▁hackers	-6788
▁lawyers	-6789
▁symbols	-6790
▁warning	-6791
▁flexible	-6792
▁restrict	-6793
▁accidents	-6794
▁adventure	-6795
▁expanding	-6796
▁frequency	-6797
▁immediate	-6798
▁initially	-6799
▁nutrition	-6800
▁positions	-6801
▁predicted	-6802
▁prisoners	-6803
▁teenagers	-6804
▁geographic	-6805
▁permission	-6806
▁reputation	-6807
▁underlying	-6808
rix	-6809
▁95	-6810
ilit	-6811
part	-6812
yard	-6813
bered	-6814
field	-6815
▁adap	-6816
▁gand	-6817
▁meal	-6818
▁stom	-6819
▁algae	-6820
▁balls	-6821
▁carol	-6822
▁genoc	-6823
▁johns	-6824
▁reson	-6825
▁trail	-6826
igation	-6827
▁adoles	-6828
▁assess	-6829
▁breaks	-6830
▁ensure	-6831
▁rivers	-6832
▁rwanda	-6833
▁stores	-6834
▁turkey	-6835
▁volcan	-6836
fficient	-6837
▁analyze	-6838
▁automob	-6839
▁besides	-6840
▁helpful	-6841
▁origami	-6842
▁pyramid	-6843
▁conclude	-6844
▁ethiopia	-6845
▁scenario	-6846
▁shopping	-6847
▁smallpox	-6848
▁depressed	-6849
▁documents	-6850
▁suggested	-6851
▁determined	-6852
▁hemisphere	-6853
▁connectivity	-6854
▁collaborative	-6855
▁2,	-6856
▁ng	-6857
▁ub	-6858
ubes	-6859
west	-6860
▁ink	-6861
iment	-6862
state	-6863
▁bure	-6864
▁gods	-6865
▁guns	-6866
▁cambr	-6867
▁flour	-6868
▁holds	-6869
▁joint	-6870
▁schiz	-6871
related	-6872
▁arctic	-6873
▁decent	-6874
▁thresh	-6875
▁waters	-6876
▁comprom	-6877
▁enterpr	-6878
▁fastest	-6879
▁session	-6880
▁shelter	-6881
▁smarter	-6882
▁targets	-6883
▁entering	-6884
▁extended	-6885
▁sleeping	-6886
▁copyright	-6887
▁daughters	-6888
▁exception	-6889
▁passwords	-6890
▁supported	-6891
▁industries	-6892
▁inevitable	-6893
▁satellites	-6894
▁astonishing	-6895
▁experiencing	-6896
▁surprisingly	-6897
▁significantly	-6898
mod	-6899
apor	-6900
oids	-6901
osal	-6902
▁ell	-6903
▁lit	-6904
clock	-6905
iance	-6906
ilize	-6907
inder	-6908
▁brut	-6909
▁sole	-6910
encing	-6911
market	-6912
▁brave	-6913
▁civic	-6914
▁jelly	-6915
▁owner	-6916
▁safer	-6917
▁basket	-6918
▁buried	-6919
▁caring	-6920
▁domain	-6921
▁fought	-6922
▁killer	-6923
▁oxford	-6924
▁sensor	-6925
▁alcohol	-6926
▁enforce	-6927
▁females	-6928
▁imaging	-6929
▁persist	-6930
▁wheelch	-6931
▁throwing	-6932
▁unlikely	-6933
▁wildlife	-6934
▁abilities	-6935
▁economist	-6936
▁investors	-6937
▁radically	-6938
▁autonomous	-6939
▁translated	-6940
▁constructed	-6941
ga	-6942
hh	-6943
vy	-6944
opy	-6945
toc	-6946
▁26	-6947
▁lg	-6948
▁os	-6949
half	-6950
ulum	-6951
viet	-6952
▁700	-6953
▁amy	-6954
▁bos	-6955
▁gab	-6956
erved	-6957
ifice	-6958
tocin	-6959
▁acid	-6960
▁penn	-6961
▁tuna	-6962
▁award	-6963
▁mixed	-6964
▁screw	-6965
▁silly	-6966
▁spots	-6967
▁metric	-6968
▁panels	-6969
▁pursue	-6970
▁sevent	-6971
▁shaped	-6972
▁shrink	-6973
▁vacuum	-6974
▁aggress	-6975
▁florida	-6976
▁fragile	-6977
▁revenue	-6978
▁routine	-6979
▁shocked	-6980
▁threats	-6981
▁answered	-6982
▁arrested	-6983
▁dialogue	-6984
▁invested	-6985
▁oxytocin	-6986
▁expansion	-6987
▁primarily	-6988
▁sentences	-6989
▁volunteer	-6990
▁occasionally	-6991
.]	-6992
ela	-6993
fin	-6994
ocr	-6995
oir	-6996
ura	-6997
▁bf	-6998
▁mt	-6999
bits	-7000
iens	-7001
rich	-7002
umes	-7003
▁dys	-7004
▁hen	-7005
▁ooh	-7006
inson	-7007
▁duck	-7008
▁mode	-7009
▁publ	-7010
▁rome	-7011
▁whis	-7012
itudes	-7013
othing	-7014
▁agent	-7015
▁audio	-7016
▁burst	-7017
▁fiber	-7018
▁miser	-7019
▁parli	-7020
▁tribe	-7021
ication	-7022
▁compos	-7023
▁curren	-7024
▁insist	-7025
▁sticks	-7026
▁contrad	-7027
▁convert	-7028
▁deliber	-7029
▁founded	-7030
▁imagery	-7031
▁immense	-7032
▁liberal	-7033
▁observe	-7034
▁paradox	-7035
▁printer	-7036
▁december	-7037
▁leverage	-7038
▁measures	-7039
▁neurolog	-7040
▁proposed	-7041
▁schizoph	-7042
▁forgotten	-7043
forestation	-7044
▁frustrated	-7045
▁proportion	-7046
▁observation	-7047
▁architectural	-7048
▁professionals	-7049
ata	-7050
cel	-7051
dam	-7052
▁3.	-7053
▁nu	-7054
iece	-7055
▁800	-7056
▁cig	-7057
▁spa	-7058
▁tut	-7059
cking	-7060
▁bags	-7061
▁file	-7062
▁stab	-7063
▁chips	-7064
▁elite	-7065
▁index	-7066
▁lifes	-7067
▁opera	-7068
▁enthus	-7069
▁intrig	-7070
▁trucks	-7071
▁widely	-7072
▁farming	-7073
▁forming	-7074
▁hunting	-7075
▁involve	-7076
▁magical	-7077
▁miracle	-7078
▁category	-7079
▁climbing	-7080
▁confused	-7081
▁robotics	-7082
▁skeleton	-7083
▁broadcast	-7084
▁disappoint	-7085
▁resilience	-7086
▁journalists	-7087
▁capabilities	-7088
▁transmission	-7089
▁administration	-7090
▁pharmaceutical	-7091
ann	-7092
bru	-7093
ecd	-7094
ndr	-7095
ras	-7096
▁tu	-7097
ache	-7098
agon	-7099
arre	-7100
edge	-7101
olit	-7102
play	-7103
▁alb	-7104
▁dub	-7105
▁tes	-7106
ville	-7107
▁beij	-7108
▁buff	-7109
▁butt	-7110
▁chim	-7111
▁crew	-7112
▁gate	-7113
▁lamp	-7114
▁murd	-7115
▁sulf	-7116
apping	-7117
friend	-7118
soever	-7119
▁bored	-7120
▁cable	-7121
▁crick	-7122
▁grace	-7123
▁nurse	-7124
▁parks	-7125
▁physi	-7126
▁sharp	-7127
▁weeke	-7128
athered	-7129
▁approx	-7130
▁arrive	-7131
▁august	-7132
▁curric	-7133
▁regime	-7134
▁soviet	-7135
▁stroke	-7136
▁tackle	-7137
▁adopted	-7138
▁deserve	-7139
▁elderly	-7140
▁pretend	-7141
▁regener	-7142
▁spanish	-7143
▁writers	-7144
▁articles	-7145
▁choosing	-7146
▁fabulous	-7147
▁included	-7148
▁innocent	-7149
▁reducing	-7150
▁stereoty	-7151
▁versions	-7152
▁gathering	-7153
▁instantly	-7154
▁primitive	-7155
▁similarly	-7156
▁approaches	-7157
▁explaining	-7158
▁hypothesis	-7159
▁medication	-7160
▁simulation	-7161
▁whatsoever	-7162
▁authorities	-7163
▁schizophren	-7164
▁translation	-7165
▁contemporary	-7166
▁successfully	-7167
▁representation	-7168
▁gi	-7169
agos	-7170
bola	-7171
conf	-7172
erer	-7173
▁biz	-7174
▁bug	-7175
▁fer	-7176
▁kar	-7177
▁pix	-7178
▁sew	-7179
▁upd	-7180
adays	-7181
athan	-7182
happy	-7183
oning	-7184
oying	-7185
riger	-7186
world	-7187
worth	-7188
▁brib	-7189
▁leaf	-7190
▁plug	-7191
▁tone	-7192
icious	-7193
mented	-7194
ortion	-7195
semble	-7196
▁caves	-7197
▁ebola	-7198
▁foods	-7199
▁immig	-7200
▁pairs	-7201
▁stake	-7202
▁wider	-7203
▁burned	-7204
▁chairs	-7205
▁cheese	-7206
▁inches	-7207
▁matrix	-7208
▁recept	-7209
▁silver	-7210
▁affects	-7211
▁bubbles	-7212
▁closing	-7213
▁elected	-7214
▁emerged	-7215
▁garbage	-7216
▁graphic	-7217
▁rolling	-7218
▁selfish	-7219
▁wealthy	-7220
▁channels	-7221
▁colonies	-7222
▁covering	-7223
▁fraction	-7224
▁judgment	-7225
▁mosquito	-7226
▁nowadays	-7227
▁openness	-7228
▁refriger	-7229
▁strongly	-7230
▁survived	-7231
▁infection	-7232
▁physician	-7233
▁attractive	-7234
▁consistent	-7235
▁difficulty	-7236
▁parliament	-7237
▁association	-7238
▁demonstration	-7239
"]	-7240
och	-7241
see	-7242
who	-7243
bing	-7244
road	-7245
zero	-7246
▁'90	-7247
▁mri	-7248
▁nom	-7249
▁sel	-7250
maker	-7251
▁asks	-7252
▁dies	-7253
▁grat	-7254
▁hind	-7255
▁inex	-7256
▁loan	-7257
▁odds	-7258
icient	-7259
▁arist	-7260
▁armed	-7261
▁excit	-7262
▁greek	-7263
▁indig	-7264
▁plain	-7265
▁rehab	-7266
▁shout	-7267
▁squee	-7268
▁arabic	-7269
▁norway	-7270
▁orient	-7271
▁saturn	-7272
▁ticket	-7273
▁tracks	-7274
▁unable	-7275
▁bizarre	-7276
▁discrim	-7277
▁enables	-7278
▁luckily	-7279
▁prepare	-7280
▁request	-7281
▁tedtalk	-7282
▁tissues	-7283
▁optimism	-7284
▁stranger	-7285
▁healthier	-7286
▁nutrients	-7287
▁reactions	-7288
▁compelling	-7289
▁disability	-7290
▁traditions	-7291
▁wheelchair	-7292
▁genetically	-7293
▁unconscious	-7294
▁instructions	-7295
ani	-7296
che	-7297
ania	-7298
eday	-7299
four	-7300
icks	-7301
oded	-7302
▁'70	-7303
▁bin	-7304
▁loo	-7305
ading	-7306
amine	-7307
emics	-7308
lings	-7309
opard	-7310
otted	-7311
▁anes	-7312
▁brun	-7313
▁dism	-7314
▁forb	-7315
▁hipp	-7316
▁hors	-7317
▁phos	-7318
▁pige	-7319
bruary	-7320
engine	-7321
▁cabin	-7322
▁fraud	-7323
▁gotta	-7324
▁incor	-7325
▁intim	-7326
▁spray	-7327
▁supre	-7328
▁tweet	-7329
▁unpre	-7330
parents	-7331
▁convey	-7332
▁ending	-7333
▁formal	-7334
▁garage	-7335
▁jumped	-7336
changing	-7337
▁beneath	-7338
▁dolphin	-7339
▁drought	-7340
▁footage	-7341
▁hitting	-7342
▁methane	-7343
▁minimum	-7344
▁periods	-7345
▁prisons	-7346
▁secrets	-7347
▁someday	-7348
▁staying	-7349
▁accounts	-7350
▁contrary	-7351
▁february	-7352
▁homework	-7353
▁keyboard	-7354
▁socially	-7355
▁suffered	-7356
▁cambridge	-7357
▁intuition	-7358
▁paralyzed	-7359
▁perceived	-7360
▁qualities	-7361
▁realizing	-7362
▁renewable	-7363
▁threshold	-7364
▁extinction	-7365
▁initiative	-7366
▁structural	-7367
▁supporting	-7368
▁trajectory	-7369
▁competitive	-7370
▁description	-7371
▁conservative	-7372
▁mathematicians	-7373
▁simultaneously	-7374
tr	-7375
eds	-7376
▁kb	-7377
emen	-7378
lers	-7379
▁jet	-7380
▁lou	-7381
▁vel	-7382
human	-7383
rical	-7384
stone	-7385
▁cert	-7386
▁cree	-7387
▁dumb	-7388
▁triv	-7389
▁zeal	-7390
asters	-7391
employ	-7392
rained	-7393
▁asian	-7394
▁downt	-7395
▁fears	-7396
▁jesus	-7397
▁kills	-7398
▁pride	-7399
▁ships	-7400
▁stunt	-7401
▁tempt	-7402
▁twist	-7403
▁valid	-7404
inarily	-7405
tending	-7406
▁column	-7407
▁dragon	-7408
▁export	-7409
▁scores	-7410
▁strike	-7411
▁tumors	-7412
cedented	-7413
quarters	-7414
▁demands	-7415
▁prostit	-7416
▁russian	-7417
▁serving	-7418
▁drawings	-7419
▁genocide	-7420
▁improved	-7421
▁navigate	-7422
▁scholars	-7423
▁tendency	-7424
▁expertise	-7425
▁fortunate	-7426
▁improving	-7427
▁curriculum	-7428
▁excitement	-7429
▁interviewed	-7430
▁corporations	-7431
▁institutional	-7432
▁unprecedented	-7433
▁vulnerability	-7434
bow	-7435
ctu	-7436
▁ga	-7437
aded	-7438
agen	-7439
aran	-7440
char	-7441
lson	-7442
viol	-7443
▁gir	-7444
▁jam	-7445
▁jon	-7446
▁lap	-7447
itous	-7448
▁bond	-7449
▁deli	-7450
▁frog	-7451
▁gaps	-7452
▁germ	-7453
▁infl	-7454
▁irre	-7455
▁mild	-7456
▁rats	-7457
▁sail	-7458
nostic	-7459
▁2009,	-7460
▁anten	-7461
▁chile	-7462
▁devil	-7463
▁herit	-7464
▁owned	-7465
▁satur	-7466
▁shots	-7467
▁tends	-7468
▁trash	-7469
angible	-7470
working	-7471
▁30,000	-7472
▁assets	-7473
▁binary	-7474
▁empire	-7475
▁makers	-7476
▁mining	-7477
▁rhythm	-7478
▁upside	-7479
▁beating	-7480
▁glasses	-7481
▁restore	-7482
▁applying	-7483
▁clothing	-7484
▁detailed	-7485
▁distingu	-7486
▁genetics	-7487
▁homeless	-7488
▁mobility	-7489
▁pandemic	-7490
▁remained	-7491
▁completed	-7492
▁factories	-7493
▁microbial	-7494
▁ownership	-7495
▁replicate	-7496
▁expectancy	-7497
▁prediction	-7498
▁profoundly	-7499
▁prosperity	-7500
▁remembered	-7501
▁terrifying	-7502
▁threatened	-7503
▁computation	-7504
▁exponential	-7505
asy	-7506
isy	-7507
lfr	-7508
rol	-7509
sah	-7510
ague	-7511
illa	-7512
imag	-7513
kins	-7514
leep	-7515
pled	-7516
rant	-7517
uded	-7518
wind	-7519
xual	-7520
▁20,	-7521
▁fbi	-7522
aving	-7523
▁brid	-7524
▁fest	-7525
▁gore	-7526
▁orph	-7527
▁palm	-7528
▁soup	-7529
minute	-7530
theast	-7531
urable	-7532
▁brows	-7533
▁bucks	-7534
▁membr	-7535
▁outer	-7536
▁tooth	-7537
▁annual	-7538
▁cosmic	-7539
▁excuse	-7540
▁pedest	-7541
▁tragic	-7542
▁tunnel	-7543
andering	-7544
▁compete	-7545
▁harness	-7546
▁highway	-7547
▁neutral	-7548
▁profits	-7549
▁spreads	-7550
▁trigger	-7551
▁winning	-7552
▁activist	-7553
▁friendly	-7554
▁honestly	-7555
▁intended	-7556
▁peaceful	-7557
▁striking	-7558
▁unemploy	-7559
▁detection	-7560
▁explosion	-7561
▁gentleman	-7562
▁remaining	-7563
▁substance	-7564
▁facilities	-7565
▁physicians	-7566
▁reasonable	-7567
▁telescopes	-7568
▁achievement	-7569
▁approaching	-7570
▁beautifully	-7571
▁demographic	-7572
▁established	-7573
▁uncertainty	-7574
▁collectively	-7575
▁humanitarian	-7576
▁photographed	-7577
▁deforestation	-7578
].	-7579
gi	-7580
aid	-7581
eda	-7582
ini	-7583
ola	-7584
▁gy	-7585
ails	-7586
away	-7587
cost	-7588
iban	-7589
ifer	-7590
long	-7591
made	-7592
▁'80	-7593
▁sna	-7594
▁une	-7595
chool	-7596
heart	-7597
lades	-7598
umble	-7599
▁arth	-7600
▁bold	-7601
▁cake	-7602
▁damn	-7603
▁lean	-7604
▁lord	-7605
▁nurt	-7606
▁pigs	-7607
▁sett	-7608
▁fancy	-7609
▁spont	-7610
▁steal	-7611
▁aggreg	-7612
▁claims	-7613
▁cotton	-7614
▁defend	-7615
▁headed	-7616
▁loving	-7617
▁negoti	-7618
interest	-7619
▁beijing	-7620
▁cigaret	-7621
▁courses	-7622
▁horizon	-7623
▁manager	-7624
▁mapping	-7625
▁percept	-7626
▁portion	-7627
▁customer	-7628
▁delivery	-7629
▁explains	-7630
▁historic	-7631
▁musician	-7632
▁preserve	-7633
▁purposes	-7634
▁agreement	-7635
▁banglades	-7636
▁diagnosis	-7637
▁expecting	-7638
▁extension	-7639
▁meanwhile	-7640
▁responses	-7641
▁challenged	-7642
▁comparison	-7643
▁helicopter	-7644
▁physicists	-7645
ati	-7646
udi	-7647
▁rb	-7648
fast	-7649
gent	-7650
neys	-7651
onic	-7652
take	-7653
▁dop	-7654
▁joe	-7655
▁luc	-7656
▁rac	-7657
▁vit	-7658
anged	-7659
etics	-7660
opath	-7661
▁dawn	-7662
▁susp	-7663
iences	-7664
▁2000,	-7665
▁2008,	-7666
▁2010,	-7667
▁badly	-7668
▁brook	-7669
▁camps	-7670
▁derek	-7671
▁hired	-7672
▁inhab	-7673
▁moore	-7674
▁patch	-7675
▁pound	-7676
▁ratio	-7677
▁shore	-7678
▁winds	-7679
otherap	-7680
▁beaten	-7681
▁dating	-7682
▁luxury	-7683
▁nearby	-7684
▁occurs	-7685
▁recess	-7686
▁safely	-7687
▁skelet	-7688
▁subway	-7689
▁tongue	-7690
▁bottles	-7691
▁charges	-7692
▁engines	-7693
▁offices	-7694
▁uniform	-7695
▁correspo	-7696
▁listened	-7697
▁morality	-7698
▁perceive	-7699
▁precious	-7700
▁substant	-7701
▁conducted	-7702
▁workforce	-7703
▁categories	-7704
▁continuing	-7705
▁continuous	-7706
▁discipline	-7707
▁encouraged	-7708
▁impressive	-7709
▁influenced	-7710
▁newspapers	-7711
▁researcher	-7712
▁psychologists	-7713
auc	-7714
dle	-7715
gal	-7716
ora	-7717
two	-7718
▁85	-7719
▁ja	-7720
ilty	-7721
pend	-7722
▁202	-7723
▁ner	-7724
▁piz	-7725
▁ros	-7726
arest	-7727
burgh	-7728
▁2050	-7729
▁bend	-7730
▁genu	-7731
▁homo	-7732
▁indo	-7733
▁july	-7734
▁melt	-7735
▁pref	-7736
▁rabb	-7737
▁tsun	-7738
▁urge	-7739
▁woke	-7740
active	-7741
mental	-7742
▁2007,	-7743
▁fault	-7744
▁items	-7745
▁loves	-7746
▁plast	-7747
▁poems	-7748
▁spain	-7749
▁spons	-7750
▁stair	-7751
looking	-7752
perform	-7753
saharan	-7754
▁butter	-7755
▁canopy	-7756
▁client	-7757
▁crimes	-7758
▁degrad	-7759
▁hiding	-7760
▁insane	-7761
▁rubber	-7762
▁sketch	-7763
▁sunday	-7764
▁vagina	-7765
▁analogy	-7766
▁arrange	-7767
▁dressed	-7768
▁educate	-7769
▁fluores	-7770
▁hardest	-7771
▁leather	-7772
▁located	-7773
▁mindset	-7774
▁downtown	-7775
▁failures	-7776
▁shipping	-7777
▁terribly	-7778
▁airplanes	-7779
▁magnitude	-7780
▁orchestra	-7781
▁passenger	-7782
▁strategic	-7783
▁aggressive	-7784
▁regardless	-7785
▁discovering	-7786
▁enforcement	-7787
▁restaurants	-7788
▁concentration	-7789
],	-7790
ker	-7791
law	-7792
mar	-7793
▁uk	-7794
asty	-7795
oran	-7796
outs	-7797
star	-7798
▁awk	-7799
▁hob	-7800
▁tie	-7801
bling	-7802
break	-7803
ester	-7804
grade	-7805
licit	-7806
▁acou	-7807
▁aunt	-7808
▁bind	-7809
▁blah	-7810
▁gear	-7811
▁leon	-7812
▁mike	-7813
▁rape	-7814
▁charl	-7815
▁drown	-7816
▁funds	-7817
▁incar	-7818
▁loans	-7819
▁proto	-7820
▁royal	-7821
▁santa	-7822
▁sixth	-7823
▁addict	-7824
▁campus	-7825
▁drones	-7826
▁estate	-7827
▁excess	-7828
▁girlfr	-7829
▁improv	-7830
▁motors	-7831
▁parach	-7832
▁proved	-7833
▁purple	-7834
▁awkward	-7835
▁barrier	-7836
▁enlight	-7837
▁ignored	-7838
▁italian	-7839
▁landing	-7840
▁metabol	-7841
▁profile	-7842
▁propose	-7843
▁pursuit	-7844
▁taliban	-7845
▁bathroom	-7846
▁believes	-7847
▁cartoons	-7848
▁concerns	-7849
▁connects	-7850
▁gathered	-7851
▁insights	-7852
▁supplies	-7853
▁medicines	-7854
▁nonprofit	-7855
▁obstacles	-7856
▁sacrifice	-7857
▁temporary	-7858
▁assistance	-7859
▁assumption	-7860
▁previously	-7861
▁legislation	-7862
▁limitations	-7863
▁storytelling	-7864
▁straightforward	-7865
bm	-7866
bye	-7867
ema	-7868
iro	-7869
▁28	-7870
▁33	-7871
▁36	-7872
▁si	-7873
chem	-7874
ugal	-7875
utan	-7876
▁bot	-7877
▁tox	-7878
attoo	-7879
icial	-7880
itzer	-7881
rence	-7882
▁bust	-7883
▁chop	-7884
▁dile	-7885
▁eric	-7886
▁heal	-7887
▁holy	-7888
▁jose	-7889
▁ngos	-7890
▁thus	-7891
▁tune	-7892
▁wrap	-7893
orious	-7894
▁amate	-7895
▁comet	-7896
▁cruel	-7897
▁fires	-7898
▁ingen	-7899
▁phant	-7900
▁redes	-7901
▁shelf	-7902
▁syndr	-7903
▁wheat	-7904
▁apolog	-7905
▁burden	-7906
▁chains	-7907
▁endang	-7908
▁entrop	-7909
▁execut	-7910
▁harbor	-7911
▁manner	-7912
▁manual	-7913
▁nights	-7914
▁planes	-7915
▁propag	-7916
▁subsid	-7917
▁tattoo	-7918
▁traits	-7919
▁upload	-7920
▁closest	-7921
▁flowing	-7922
▁genuine	-7923
▁patents	-7924
▁pockets	-7925
▁rethink	-7926
▁screens	-7927
▁stepped	-7928
▁supreme	-7929
▁venture	-7930
▁zealand	-7931
▁counting	-7932
▁dopamine	-7933
▁generous	-7934
▁interven	-7935
▁mushroom	-7936
▁palestin	-7937
▁portrait	-7938
▁prostate	-7939
▁reliable	-7940
▁alexander	-7941
▁glamorous	-7942
▁graduated	-7943
▁residents	-7944
otechnology	-7945
▁accomplish	-7946
▁classrooms	-7947
▁constraints	-7948
▁encouraging	-7949
▁reconstruct	-7950
▁grandparents	-7951
ye	-7952
aby	-7953
asm	-7954
fly	-7955
▁lt	-7956
good	-7957
quis	-7958
▁coc	-7959
▁jar	-7960
▁tin	-7961
▁voy	-7962
arrhe	-7963
enous	-7964
pless	-7965
▁fits	-7966
▁josh	-7967
▁rick	-7968
▁stor	-7969
▁tanz	-7970
weight	-7971
▁drone	-7972
▁entry	-7973
▁grave	-7974
▁incom	-7975
▁inher	-7976
▁lions	-7977
▁pause	-7978
▁redef	-7979
▁trace	-7980
▁ubiqu	-7981
▁argent	-7982
▁bullet	-7983
▁ethnic	-7984
▁halluc	-7985
▁infant	-7986
▁nelson	-7987
▁recipe	-7988
▁speaks	-7989
▁voting	-7990
otherapy	-7991
▁despair	-7992
▁diarrhe	-7993
▁exhaust	-7994
▁gallery	-7995
▁glacier	-7996
▁indians	-7997
▁reminds	-7998
▁rituals	-7999
▁scanner	-8000
▁stomach	-8001
▁vietnam	-8002
▁comments	-8003
▁currency	-8004
▁graphics	-8005
▁heritage	-8006
▁managers	-8007
▁observed	-8008
▁pointing	-8009
▁promised	-8010
▁reinvent	-8011
▁teenager	-8012
▁tropical	-8013
▁activists	-8014
▁amazingly	-8015
▁classical	-8016
▁stability	-8017
▁succeeded	-8018
▁chimpanzee	-8019
▁continents	-8020
▁endangered	-8021
▁yourselves	-8022
▁acknowledge	-8023
▁desperately	-8024
▁partnership	-8025
▁philosopher	-8026
▁proposition	-8027
▁specialized	-8028
▁personalized	-8029
▁temperatures	-8030
▁interpretation	-8031
.'"	-8032
bie	-8033
hot	-8034
nat	-8035
yan	-8036
atar	-8037
city	-8038
cled	-8039
fram	-8040
onge	-8041
pers	-8042
rian	-8043
stop	-8044
▁via	-8045
ashed	-8046
chron	-8047
icked	-8048
inter	-8049
iogen	-8050
ogram	-8051
▁ampl	-8052
▁batt	-8053
▁drew	-8054
▁dung	-8055
▁fate	-8056
▁lion	-8057
▁neoc	-8058
▁shan	-8059
▁shit	-8060
▁turb	-8061
▁ambit	-8062
▁bless	-8063
▁blogs	-8064
▁bronx	-8065
▁coinc	-8066
▁eaten	-8067
▁encry	-8068
▁immun	-8069
▁peers	-8070
▁revol	-8071
▁wires	-8072
▁builds	-8073
▁errors	-8074
▁habits	-8075
▁lowest	-8076
▁magnet	-8077
▁orders	-8078
▁preval	-8079
▁static	-8080
▁stimul	-8081
▁trains	-8082
▁clinics	-8083
▁cluster	-8084
▁commons	-8085
▁hormone	-8086
▁mandela	-8087
▁ongoing	-8088
▁passive	-8089
▁peoples	-8090
▁readers	-8091
▁reserve	-8092
▁storage	-8093
▁teenage	-8094
▁cellular	-8095
▁circuits	-8096
▁compound	-8097
▁earliest	-8098
▁magnific	-8099
▁offering	-8100
▁affecting	-8101
▁audiences	-8102
▁distances	-8103
▁guarantee	-8104
▁overnight	-8105
▁procedure	-8106
▁signature	-8107
▁impression	-8108
▁indigenous	-8109
▁landscapes	-8110
▁surrounding	-8111
▁alternatives	-8112
▁constitution	-8113
▁compassionate	-8114
fi	-8115
ador	-8116
aids	-8117
aine	-8118
ghai	-8119
umin	-8120
▁dil	-8121
▁pir	-8122
▁ski	-8123
▁wol	-8124
gence	-8125
ingly	-8126
▁crop	-8127
▁enzy	-8128
▁ford	-8129
▁inch	-8130
▁ipod	-8131
▁subt	-8132
▁brian	-8133
▁divor	-8134
▁dutch	-8135
▁henry	-8136
▁knife	-8137
▁saudi	-8138
▁agents	-8139
▁diving	-8140
▁guilty	-8141
▁howard	-8142
▁marvel	-8143
▁namely	-8144
▁newton	-8145
▁proven	-8146
▁recall	-8147
▁trauma	-8148
▁yorker	-8149
▁johnson	-8150
▁package	-8151
▁seeking	-8152
▁decrease	-8153
▁distract	-8154
▁exposure	-8155
▁geometry	-8156
▁momentum	-8157
▁ambitious	-8158
▁estimates	-8159
▁incentive	-8160
▁locations	-8161
▁motivated	-8162
▁performed	-8163
▁receiving	-8164
▁religions	-8165
▁reproduce	-8166
▁appearance	-8167
▁ecological	-8168
▁elementary	-8169
▁expedition	-8170
▁generating	-8171
▁illustrate	-8172
▁monitoring	-8173
▁retirement	-8174
▁sufficient	-8175
▁independence	-8176
▁interconnected	-8177
ona	-8178
tra	-8179
▁bh	-8180
▁ss	-8181
aken	-8182
mart	-8183
sell	-8184
step	-8185
▁15-	-8186
▁20-	-8187
▁ads	-8188
▁fox	-8189
▁ire	-8190
▁pit	-8191
aches	-8192
emies	-8193
great	-8194
inery	-8195
produ	-8196
uther	-8197
▁carp	-8198
▁guid	-8199
▁keys	-8200
▁logo	-8201
▁nuts	-8202
aneous	-8203
ilized	-8204
thesia	-8205
▁altru	-8206
▁boats	-8207
▁cared	-8208
▁defic	-8209
▁delhi	-8210
▁farms	-8211
▁flags	-8212
▁gorge	-8213
▁numer	-8214
▁pants	-8215
▁pizza	-8216
▁risky	-8217
▁sauce	-8218
▁straw	-8219
▁tubes	-8220
itative	-8221
▁compre	-8222
▁cycles	-8223
▁freely	-8224
▁friday	-8225
▁livest	-8226
▁summit	-8227
▁tempor	-8228
controll	-8229
▁200,000	-8230
▁absence	-8231
▁academy	-8232
▁banking	-8233
▁counsel	-8234
▁destiny	-8235
▁entropy	-8236
▁hacking	-8237
▁heading	-8238
▁indones	-8239
▁logical	-8240
▁phantom	-8241
▁proceed	-8242
▁retreat	-8243
▁wedding	-8244
▁branches	-8245
▁catching	-8246
▁explicit	-8247
▁interior	-8248
▁phosphor	-8249
▁shifting	-8250
▁transmit	-8251
▁addiction	-8252
▁astronaut	-8253
▁formation	-8254
▁headlines	-8255
▁miserable	-8256
▁phenomena	-8257
▁preparing	-8258
▁recycling	-8259
▁territory	-8260
▁approached	-8261
▁bangladesh	-8262
▁manipulate	-8263
▁marketplace	-8264
▁extraordinarily	-8265
mn	-8266
▁.	-8267
cip	-8268
dig	-8269
dis	-8270
enh	-8271
neg	-8272
▁eb	-8273
abul	-8274
bled	-8275
grow	-8276
ipts	-8277
lend	-8278
onia	-8279
reen	-8280
▁gif	-8281
▁jih	-8282
▁por	-8283
▁rib	-8284
▁sav	-8285
▁sud	-8286
enses	-8287
izers	-8288
phony	-8289
press	-8290
pring	-8291
sized	-8292
ushed	-8293
▁anat	-8294
▁anno	-8295
▁chat	-8296
▁clue	-8297
▁coke	-8298
▁cows	-8299
▁deck	-8300
▁epis	-8301
▁hybr	-8302
▁jazz	-8303
▁jung	-8304
▁junk	-8305
▁toes	-8306
▁whit	-8307
arians	-8308
driven	-8309
▁hated	-8310
▁hydro	-8311
▁lever	-8312
▁loose	-8313
▁sadly	-8314
▁shine	-8315
▁shirt	-8316
▁slime	-8317
▁stays	-8318
▁viral	-8319
▁zones	-8320
fulness	-8321
▁accent	-8322
▁carpet	-8323
▁gained	-8324
▁nerves	-8325
▁offers	-8326
▁relief	-8327
▁scenes	-8328
▁wheels	-8329
▁artwork	-8330
▁corrupt	-8331
▁ecology	-8332
▁enabled	-8333
▁enemies	-8334
▁formula	-8335
▁glamour	-8336
▁redwood	-8337
▁tension	-8338
▁tsunami	-8339
▁william	-8340
▁carolina	-8341
▁clusters	-8342
▁democrat	-8343
▁horizont	-8344
▁replaced	-8345
▁shanghai	-8346
▁smallest	-8347
▁syndrome	-8348
▁blindness	-8349
▁describes	-8350
▁estimated	-8351
▁officials	-8352
▁seemingly	-8353
▁terrified	-8354
▁assignment	-8355
▁mainstream	-8356
▁prevention	-8357
▁remarkably	-8358
▁spacecraft	-8359
▁variations	-8360
▁vegetables	-8361
▁concentrated	-8362
py	-8363
uk	-8364
cla	-8365
cor	-8366
god	-8367
▁2:	-8368
coln	-8369
mony	-8370
oked	-8371
stru	-8372
▁30-	-8373
▁ech	-8374
▁mud	-8375
▁obt	-8376
▁orb	-8377
▁ram	-8378
▁rap	-8379
▁shy	-8380
▁sib	-8381
allow	-8382
aware	-8383
copic	-8384
elled	-8385
storm	-8386
▁chef	-8387
▁drum	-8388
▁rect	-8389
▁rope	-8390
▁sons	-8391
▁spat	-8392
▁unre	-8393
comput	-8394
▁bench	-8395
▁blink	-8396
▁conqu	-8397
▁grabb	-8398
▁maker	-8399
▁overl	-8400
▁proph	-8401
▁raped	-8402
▁slums	-8403
▁sperm	-8404
▁spill	-8405
▁stead	-8406
▁andrew	-8407
▁correl	-8408
▁covers	-8409
▁editor	-8410
▁fallen	-8411
▁mentor	-8412
▁packed	-8413
▁stones	-8414
▁strain	-8415
▁thread	-8416
▁troops	-8417
▁arguing	-8418
▁elegant	-8419
▁halfway	-8420
▁neander	-8421
▁puzzles	-8422
▁resolve	-8423
▁seattle	-8424
▁shortly	-8425
▁smiling	-8426
▁staring	-8427
▁trivial	-8428
▁unhappy	-8429
▁relation	-8430
▁selected	-8431
▁stopping	-8432
▁synchron	-8433
▁biologist	-8434
▁breakfast	-8435
▁collapsed	-8436
▁empowered	-8437
▁equations	-8438
▁installed	-8439
▁jellyfish	-8440
▁mosquitos	-8441
▁transcend	-8442
▁electrodes	-8443
▁infections	-8444
▁interviews	-8445
▁phosphorus	-8446
▁publishing	-8447
▁reflection	-8448
▁contributed	-8449
▁predictable	-8450
▁supermarket	-8451
▁historically	-8452
▁intersection	-8453
▁measurements	-8454
▁psychologist	-8455
200	-8456
dad	-8457
ugg	-8458
▁ye	-8459
cycl	-8460
gend	-8461
oral	-8462
▁bru	-8463
▁hut	-8464
▁mah	-8465
▁moz	-8466
▁nap	-8467
▁nar	-8468
▁sty	-8469
▁zoo	-8470
eries	-8471
ifact	-8472
ipher	-8473
rance	-8474
three	-8475
▁biof	-8476
▁bowl	-8477
▁calm	-8478
▁dent	-8479
▁dirt	-8480
▁jord	-8481
▁mini	-8482
▁nove	-8483
▁pear	-8484
▁sexy	-8485
▁stad	-8486
▁ward	-8487
ancing	-8488
gments	-8489
ometer	-8490
umines	-8491
▁2011,	-8492
▁6,000	-8493
▁bruno	-8494
▁depos	-8495
▁drops	-8496
▁exerc	-8497
▁jihad	-8498
▁koran	-8499
▁nodes	-8500
▁param	-8501
▁resur	-8502
▁swiss	-8503
▁wrist	-8504
ometown	-8505
umented	-8506
▁asleep	-8507
▁atomic	-8508
▁fibers	-8509
▁murder	-8510
▁shakes	-8511
▁stored	-8512
▁strict	-8513
▁victor	-8514
▁aristot	-8515
▁bridges	-8516
▁bureauc	-8517
▁cocaine	-8518
▁continu	-8519
▁crossed	-8520
▁fathers	-8521
▁intrins	-8522
▁ireland	-8523
▁locally	-8524
criptions	-8525
▁advances	-8526
▁altitude	-8527
▁artifact	-8528
▁asteroid	-8529
▁attacked	-8530
▁barriers	-8531
▁breeding	-8532
▁incarcer	-8533
▁plastics	-8534
▁predator	-8535
▁spinning	-8536
▁undergra	-8537
▁statistic	-8538
▁convenient	-8539
▁describing	-8540
▁infectious	-8541
▁punishment	-8542
▁ubiquitous	-8543
▁devastating	-8544
▁politically	-8545
▁installation	-8546
▁transforming	-8547
▁schizophrenia	-8548
bod	-8549
mun	-8550
obs	-8551
▁42	-8552
▁dv	-8553
..."	-8554
cher	-8555
hist	-8556
oman	-8557
ules	-8558
▁cyl	-8559
▁kat	-8560
▁nam	-8561
▁rod	-8562
▁tam	-8563
▁zip	-8564
erals	-8565
inent	-8566
irect	-8567
omics	-8568
owers	-8569
vable	-8570
▁cage	-8571
▁coat	-8572
▁hans	-8573
▁meme	-8574
▁vary	-8575
▁welf	-8576
itable	-8577
▁bills	-8578
▁deals	-8579
▁embry	-8580
▁fatal	-8581
▁fifty	-8582
▁grasp	-8583
▁hawai	-8584
▁hopes	-8585
▁insul	-8586
▁minus	-8587
▁outdo	-8588
▁recre	-8589
▁sched	-8590
▁syria	-8591
▁taxes	-8592
▁worms	-8593
ativity	-8594
▁amazed	-8595
▁appeal	-8596
▁bother	-8597
▁columb	-8598
▁contam	-8599
▁emails	-8600
▁fusion	-8601
▁grocer	-8602
▁immers	-8603
▁lonely	-8604
▁unlock	-8605
▁chamber	-8606
▁envelop	-8607
▁israeli	-8608
▁lincoln	-8609
▁onstage	-8610
▁sectors	-8611
▁terrain	-8612
▁trapped	-8613
▁useless	-8614
▁whistle	-8615
▁accuracy	-8616
▁backyard	-8617
▁brooklyn	-8618
▁diameter	-8619
▁feminist	-8620
▁hometown	-8621
▁november	-8622
▁sidewalk	-8623
▁worrying	-8624
▁believing	-8625
▁criminals	-8626
▁intensive	-8627
▁interrupt	-8628
▁planetary	-8629
▁predators	-8630
▁relatives	-8631
▁responded	-8632
▁screaming	-8633
▁sensation	-8634
▁frequently	-8635
▁inevitably	-8636
▁organizing	-8637
▁foundations	-8638
▁investments	-8639
▁magnificent	-8640
▁technically	-8641
ila	-8642
isa	-8643
lor	-8644
▁55	-8645
aped	-8646
irts	-8647
▁350	-8648
▁cin	-8649
ested	-8650
uctor	-8651
▁abra	-8652
▁bamb	-8653
▁bion	-8654
▁bite	-8655
▁bump	-8656
▁jane	-8657
▁offs	-8658
▁radi	-8659
▁tony	-8660
▁vice	-8661
▁ware	-8662
culiar	-8663
income	-8664
▁clint	-8665
▁comic	-8666
▁donor	-8667
▁femin	-8668
▁gabby	-8669
▁gross	-8670
▁humil	-8671
▁impul	-8672
▁leban	-8673
▁locom	-8674
▁mines	-8675
▁penet	-8676
▁pills	-8677
▁pulse	-8678
▁rings	-8679
▁roles	-8680
▁sheer	-8681
▁sweep	-8682
powered	-8683
▁albert	-8684
▁berlin	-8685
▁comedy	-8686
▁config	-8687
▁equity	-8688
▁format	-8689
▁horses	-8690
▁marath	-8691
▁posted	-8692
▁render	-8693
▁revers	-8694
▁summar	-8695
function	-8696
▁adapted	-8697
▁bedroom	-8698
▁belongs	-8699
▁couples	-8700
▁earning	-8701
▁follows	-8702
▁gesture	-8703
▁healing	-8704
▁implant	-8705
▁laptops	-8706
▁welfare	-8707
▁approved	-8708
▁calories	-8709
▁gorgeous	-8710
▁hormones	-8711
▁mentally	-8712
▁peculiar	-8713
▁randomly	-8714
▁revealed	-8715
▁surgeons	-8716
▁tanzania	-8717
▁aesthetic	-8718
▁brazilian	-8719
▁cooperate	-8720
▁correctly	-8721
▁indonesia	-8722
▁parachute	-8723
▁regularly	-8724
▁workplace	-8725
▁girlfriend	-8726
▁sanitation	-8727
▁consciously	-8728
▁understands	-8729
▁contribution	-8730
▁demonstrated	-8731
▁civilizations	-8732
▁communicating	-8733
,'	-8734
eu	-8735
any	-8736
bot	-8737
lan	-8738
zes	-8739
▁mk	-8740
ason	-8741
five	-8742
ials	-8743
irst	-8744
mill	-8745
olen	-8746
your	-8747
▁dun	-8748
▁lam	-8749
asses	-8750
eller	-8751
ifies	-8752
▁athe	-8753
▁cass	-8754
▁dose	-8755
▁hong	-8756
▁outs	-8757
▁sale	-8758
cyclop	-8759
lihood	-8760
person	-8761
▁jewel	-8762
▁kevin	-8763
▁limbs	-8764
▁lobby	-8765
▁messy	-8766
▁steam	-8767
▁sweat	-8768
▁tiles	-8769
▁behalf	-8770
▁corrid	-8771
▁cousin	-8772
▁curves	-8773
▁orphan	-8774
▁pencil	-8775
▁sheets	-8776
▁slower	-8777
▁topics	-8778
▁worthy	-8779
▁broader	-8780
▁captain	-8781
▁chronic	-8782
▁colored	-8783
▁consens	-8784
▁cricket	-8785
▁doubled	-8786
▁enjoyed	-8787
▁harmony	-8788
▁injured	-8789
▁mankind	-8790
▁utterly	-8791
▁assembly	-8792
▁catholic	-8793
▁consumed	-8794
▁disabled	-8795
▁disagree	-8796
▁encyclop	-8797
▁enjoying	-8798
▁evolving	-8799
▁findings	-8800
▁leonardo	-8801
▁priority	-8802
▁prospect	-8803
▁simplest	-8804
▁touching	-8805
▁websites	-8806
▁abandoned	-8807
▁candidate	-8808
▁competing	-8809
▁delicious	-8810
▁electrons	-8811
▁fisheries	-8812
▁machinery	-8813
▁protocell	-8814
▁reporting	-8815
▁shoulders	-8816
▁automobile	-8817
▁compromise	-8818
▁legitimate	-8819
▁corporation	-8820
▁accomplished	-8821
▁calculations	-8822
▁observations	-8823
▁philanthropy	-8824
ado	-8825
ava	-8826
mes	-8827
yon	-8828
▁jh	-8829
▁ms	-8830
bian	-8831
ette	-8832
mind	-8833
qual	-8834
racy	-8835
they	-8836
▁193	-8837
▁bor	-8838
▁jup	-8839
cover	-8840
creat	-8841
ctive	-8842
ucose	-8843
▁1900	-8844
▁atom	-8845
▁belt	-8846
▁biol	-8847
▁buck	-8848
▁cape	-8849
▁deaf	-8850
▁pitt	-8851
▁scal	-8852
▁seal	-8853
▁shoe	-8854
▁tact	-8855
▁verb	-8856
uction	-8857
ulsion	-8858
▁alarm	-8859
▁alter	-8860
▁ambig	-8861
▁artic	-8862
▁blown	-8863
▁boots	-8864
▁cream	-8865
▁dread	-8866
▁fired	-8867
▁float	-8868
▁illum	-8869
▁meals	-8870
▁memes	-8871
▁obese	-8872
▁regul	-8873
▁sizes	-8874
ictions	-8875
▁elabor	-8876
▁exotic	-8877
▁horror	-8878
▁pigeon	-8879
▁retail	-8880
▁singap	-8881
▁stolen	-8882
▁thirty	-8883
▁unfold	-8884
▁viewer	-8885
▁wishes	-8886
▁cancers	-8887
▁congest	-8888
▁deepest	-8889
▁genomes	-8890
▁glucose	-8891
▁insulin	-8892
▁jupiter	-8893
▁origins	-8894
▁switzer	-8895
▁toilets	-8896
▁wrapped	-8897
▁division	-8898
▁expanded	-8899
▁nitrogen	-8900
▁opinions	-8901
▁prisoner	-8902
▁protocol	-8903
▁reserves	-8904
▁switched	-8905
▁transact	-8906
▁alongside	-8907
▁attitudes	-8908
▁consensus	-8909
▁dominated	-8910
▁expressed	-8911
▁hierarchy	-8912
▁realities	-8913
▁secretary	-8914
▁textbooks	-8915
▁therapies	-8916
▁visualize	-8917
▁destroying	-8918
▁engineered	-8919
▁enterprise	-8920
▁likelihood	-8921
▁narratives	-8922
▁discussions	-8923
▁frightening	-8924
▁switzerland	-8925
▁introduction	-8926
▁controversial	-8927
"?	-8928
cs	-8929
jo	-8930
ima	-8931
lif	-8932
nut	-8933
oen	-8934
▁ig	-8935
▁ly	-8936
aeda	-8937
plus	-8938
▁190	-8939
▁gee	-8940
▁haz	-8941
▁pms	-8942
▁ron	-8943
anges	-8944
peare	-8945
ynman	-8946
▁..."	-8947
▁bulb	-8948
▁crap	-8949
▁glue	-8950
▁jugg	-8951
▁nike	-8952
▁sake	-8953
▁scra	-8954
▁ties	-8955
▁turk	-8956
▁unle	-8957
elines	-8958
liness	-8959
thirds	-8960
verted	-8961
▁2005,	-8962
▁bonds	-8963
▁chase	-8964
▁delay	-8965
▁detro	-8966
▁embod	-8967
▁lanes	-8968
▁lists	-8969
▁loads	-8970
▁plank	-8971
▁pulls	-8972
▁remix	-8973
▁shops	-8974
▁somal	-8975
▁suspe	-8976
▁yemen	-8977
ressing	-8978
▁denial	-8979
▁gandhi	-8980
▁guards	-8981
▁hunter	-8982
▁iconic	-8983
▁lifted	-8984
▁marker	-8985
▁modest	-8986
▁prosth	-8987
▁sooner	-8988
▁tables	-8989
ventions	-8990
▁biomass	-8991
▁climbed	-8992
▁clinton	-8993
▁corners	-8994
▁default	-8995
▁farther	-8996
▁feynman	-8997
▁kidding	-8998
▁optical	-8999
▁passage	-9000
▁penguin	-9001
▁returns	-9002
▁simpler	-9003
▁teaches	-9004
▁activate	-9005
▁athletes	-9006
▁helpless	-9007
▁hopeless	-9008
▁publicly	-9009
▁redesign	-9010
▁saturday	-9011
▁sexually	-9012
▁underest	-9013
▁authentic	-9014
▁geography	-9015
▁migration	-9016
▁recession	-9017
▁singapore	-9018
▁survivors	-9019
▁tolerance	-9020
▁accelerate	-9021
▁calculated	-9022
▁discussing	-9023
▁journalism	-9024
▁microphone	-9025
▁phenomenal	-9026
▁regulation	-9027
▁smartphone	-9028
▁astronomers	-9029
▁neuroscient	-9030
▁theoretical	-9031
▁embarrassing	-9032
▁overwhelming	-9033
▁interventions	-9034
▁visualization	-9035
▁discrimination	-9036
cre	-9037
deg	-9038
kin	-9039
mma	-9040
▁29	-9041
▁kh	-9042
▁ot	-9043
alem	-9044
erey	-9045
fare	-9046
iots	-9047
pack	-9048
rane	-9049
seen	-9050
▁12,	-9051
▁apr	-9052
▁vot	-9053
ansas	-9054
atson	-9055
berry	-9056
ffect	-9057
itate	-9058
oenix	-9059
proof	-9060
quate	-9061
thank	-9062
▁cuts	-9063
▁ende	-9064
▁hint	-9065
▁lawn	-9066
▁lego	-9067
▁mant	-9068
▁mast	-9069
▁matt	-9070
▁nano	-9071
▁wore	-9072
▁alpha	-9073
▁belly	-9074
▁careg	-9075
▁cheat	-9076
▁choir	-9077
▁gains	-9078
▁hills	-9079
▁infer	-9080
▁inhib	-9081
▁maneu	-9082
▁mimic	-9083
▁naive	-9084
▁norms	-9085
▁panic	-9086
▁revel	-9087
▁scaff	-9088
▁sends	-9089
▁surre	-9090
▁tiger	-9091
essions	-9092
imeters	-9093
keepers	-9094
theless	-9095
▁comics	-9096
▁dispar	-9097
▁divers	-9098
▁gravit	-9099
▁hurric	-9100
▁kidney	-9101
▁masses	-9102
▁preach	-9103
▁replic	-9104
▁sovere	-9105
▁temple	-9106
▁typing	-9107
▁watson	-9108
▁wooden	-9109
standing	-9110
▁atlanta	-9111
▁committ	-9112
▁enhance	-9113
▁goodbye	-9114
▁handful	-9115
▁happily	-9116
▁inmates	-9117
▁labeled	-9118
▁planned	-9119
▁powered	-9120
▁recruit	-9121
▁refused	-9122
▁scaling	-9123
▁stadium	-9124
▁transit	-9125
▁boundary	-9126
▁ceremony	-9127
▁deployed	-9128
▁diarrhea	-9129
▁dropping	-9130
▁incorpor	-9131
▁kindness	-9132
▁monterey	-9133
▁overhead	-9134
▁proposal	-9135
▁scanning	-9136
▁visiting	-9137
▁youngest	-9138
▁acknowled	-9139
▁argentina	-9140
▁bacterial	-9141
▁batteries	-9142
▁biosphere	-9143
▁compounds	-9144
▁parkinson	-9145
▁platforms	-9146
▁precision	-9147
▁realistic	-9148
▁reflected	-9149
▁resistant	-9150
▁anticipate	-9151
▁determines	-9152
▁privileged	-9153
▁separation	-9154
▁expressions	-9155
▁fluorescent	-9156
▁instruction	-9157
▁realization	-9158
▁shakespeare	-9159
▁trafficking	-9160
▁nevertheless	-9161
40	-9162
uh	-9163
mom	-9164
oly	-9165
urd	-9166
▁31	-9167
▁37	-9168
igma	-9169
norm	-9170
unks	-9171
wing	-9172
▁11,	-9173
▁ade	-9174
▁kir	-9175
asive	-9176
grand	-9177
ighth	-9178
oline	-9179
raine	-9180
▁benj	-9181
▁carl	-9182
▁curt	-9183
▁hars	-9184
▁mesh	-9185
▁symp	-9186
▁thor	-9187
▁toss	-9188
▁twin	-9189
assemb	-9190
degree	-9191
inator	-9192
olitan	-9193
▁album	-9194
▁april	-9195
▁buses	-9196
▁candy	-9197
▁dough	-9198
▁drunk	-9199
▁flesh	-9200
▁jones	-9201
▁lingu	-9202
▁mcdon	-9203
▁trips	-9204
ascular	-9205
▁canvas	-9206
▁cockro	-9207
▁cosmos	-9208
▁criter	-9209
▁nightm	-9210
▁noneth	-9211
▁occupy	-9212
▁presum	-9213
▁timing	-9214
▁warmer	-9215
▁winner	-9216
▁antenna	-9217
▁assault	-9218
▁coastal	-9219
▁consent	-9220
▁harmful	-9221
▁heavily	-9222
▁iceland	-9223
▁nearest	-9224
▁planted	-9225
▁stephen	-9226
▁strands	-9227
▁strings	-9228
▁texting	-9229
▁whoever	-9230
▁advocate	-9231
▁explored	-9232
▁ideology	-9233
▁mutation	-9234
▁thrilled	-9235
▁transist	-9236
▁abundance	-9237
▁aristotle	-9238
▁comparing	-9239
▁desperate	-9240
▁disasters	-9241
▁imagining	-9242
▁offspring	-9243
▁returning	-9244
▁biolumines	-9245
▁psychopath	-9246
▁composition	-9247
▁democracies	-9248
▁distinction	-9249
▁emotionally	-9250
▁nonetheless	-9251
▁programmers	-9252
dra	-9253
net	-9254
▁3,	-9255
alog	-9256
burg	-9257
ched	-9258
eros	-9259
food	-9260
iful	-9261
itar	-9262
omed	-9263
ople	-9264
orph	-9265
pond	-9266
rade	-9267
▁dum	-9268
▁mum	-9269
▁pla	-9270
▁soc	-9271
▁vib	-9272
aired	-9273
gener	-9274
inity	-9275
ogens	-9276
omagn	-9277
orted	-9278
ourse	-9279
▁apps	-9280
▁asth	-9281
▁chew	-9282
▁depr	-9283
▁duty	-9284
▁gran	-9285
▁kong	-9286
▁micr	-9287
▁nich	-9288
▁patr	-9289
▁plut	-9290
coming	-9291
inging	-9292
▁arbit	-9293
▁boost	-9294
▁chuck	-9295
▁decor	-9296
▁fence	-9297
▁flick	-9298
▁fried	-9299
▁juice	-9300
▁juven	-9301
▁meets	-9302
▁nasty	-9303
▁penal	-9304
▁picks	-9305
▁posed	-9306
▁tapir	-9307
▁woods	-9308
atories	-9309
▁absorb	-9310
▁advers	-9311
▁argued	-9312
▁bamboo	-9313
▁cattle	-9314
▁contra	-9315
▁cultiv	-9316
▁donors	-9317
▁fluctu	-9318
▁foster	-9319
▁greece	-9320
▁helium	-9321
▁intact	-9322
▁kicked	-9323
▁legisl	-9324
▁raises	-9325
▁riding	-9326
▁smells	-9327
▁tasman	-9328
▁authors	-9329
▁charged	-9330
▁dilemma	-9331
▁exploit	-9332
▁inhabit	-9333
▁laughed	-9334
▁maximum	-9335
▁phoenix	-9336
▁reaches	-9337
▁reactor	-9338
▁rewards	-9339
▁trading	-9340
▁actively	-9341
▁announce	-9342
▁coverage	-9343
▁forecast	-9344
▁freezing	-9345
▁injuries	-9346
▁innovate	-9347
▁multiply	-9348
▁recycled	-9349
▁vacation	-9350
▁commodity	-9351
▁convicted	-9352
▁favorites	-9353
▁inflation	-9354
▁intensity	-9355
▁livestock	-9356
▁suspended	-9357
▁basketball	-9358
▁projection	-9359
▁responding	-9360
▁suggestion	-9361
▁destination	-9362
▁documentary	-9363
▁electromagn	-9364
▁investigate	-9365
▁overwhelmed	-9366
▁continuously	-9367
▁contributing	-9368
▁coordination	-9369
▁headquarters	-9370
▁approximately	-9371
▁accountability	-9372
▁&	-9373
bab	-9374
err	-9375
iju	-9376
▁72	-9377
▁iv	-9378
▁jf	-9379
anas	-9380
bean	-9381
bird	-9382
etti	-9383
fire	-9384
mate	-9385
oric	-9386
rist	-9387
▁10.	-9388
▁192	-9389
▁ibm	-9390
▁jac	-9391
▁rum	-9392
adian	-9393
impse	-9394
▁drif	-9395
▁hamb	-9396
▁jews	-9397
▁mama	-9398
▁mumb	-9399
▁nord	-9400
▁pent	-9401
▁prey	-9402
▁stun	-9403
▁torn	-9404
iances	-9405
ijuana	-9406
people	-9407
please	-9408
▁1,500	-9409
▁clubs	-9410
▁irony	-9411
▁louis	-9412
▁marsh	-9413
▁strat	-9414
▁treas	-9415
▁vivid	-9416
▁vocal	-9417
enhagen	-9418
faction	-9419
natural	-9420
▁40,000	-9421
▁chimps	-9422
▁daniel	-9423
▁deadly	-9424
▁disney	-9425
▁handed	-9426
▁hybrid	-9427
▁losses	-9428
▁preced	-9429
▁regist	-9430
▁rotate	-9431
▁sensit	-9432
▁server	-9433
▁serves	-9434
▁shower	-9435
▁steven	-9436
▁triang	-9437
▁waited	-9438
▁creator	-9439
▁endless	-9440
▁fulfill	-9441
▁glimpse	-9442
▁hopeful	-9443
▁jumping	-9444
▁lottery	-9445
▁museums	-9446
▁olympic	-9447
▁outrage	-9448
▁sensing	-9449
▁accompan	-9450
▁annivers	-9451
▁calculus	-9452
▁circular	-9453
▁contempl	-9454
▁indicate	-9455
▁informal	-9456
▁intimate	-9457
▁managing	-9458
▁minority	-9459
▁prescrib	-9460
▁remotely	-9461
▁sticking	-9462
▁administr	-9463
▁asteroids	-9464
▁eliminate	-9465
▁generates	-9466
▁mutations	-9467
▁occurring	-9468
▁witnessed	-9469
▁adolescent	-9470
▁christians	-9471
▁confronted	-9472
▁copenhagen	-9473
▁millennium	-9474
▁sequencing	-9475
▁collaborate	-9476
▁regulations	-9477
▁computational	-9478
▁representative	-9479
▁systematically	-9480
▁transformative	-9481
?'	-9482
sm	-9483
tz	-9484
ala	-9485
bus	-9486
mat	-9487
ran	-9488
she	-9489
vol	-9490
wan	-9491
▁cm	-9492
adel	-9493
agra	-9494
ergy	-9495
igan	-9496
inda	-9497
▁gad	-9498
▁kin	-9499
▁tib	-9500
▁usa	-9501
▁woo	-9502
abeth	-9503
ching	-9504
iracy	-9505
keley	-9506
month	-9507
ouses	-9508
▁aven	-9509
▁blew	-9510
▁coch	-9511
▁dele	-9512
▁fees	-9513
▁impr	-9514
▁mask	-9515
▁pays	-9516
▁pier	-9517
▁scot	-9518
▁shed	-9519
iatric	-9520
istine	-9521
orient	-9522
usalem	-9523
vasive	-9524
▁2004,	-9525
▁align	-9526
▁brush	-9527
▁couch	-9528
▁erect	-9529
▁flock	-9530
▁grant	-9531
▁hoped	-9532
▁slice	-9533
▁steep	-9534
▁taboo	-9535
▁twins	-9536
▁watts	-9537
▁wrest	-9538
ocation	-9539
osexual	-9540
ructive	-9541
▁25,000	-9542
▁60,000	-9543
▁allies	-9544
▁arthur	-9545
▁barrel	-9546
▁canyon	-9547
▁courts	-9548
▁empath	-9549
▁immort	-9550
▁insert	-9551
▁judges	-9552
▁korean	-9553
▁passes	-9554
▁plates	-9555
▁shifts	-9556
▁speeds	-9557
ongevity	-9558
▁assumed	-9559
▁chasing	-9560
▁detroit	-9561
▁grocery	-9562
▁hostile	-9563
▁melting	-9564
▁monster	-9565
▁shifted	-9566
▁spiders	-9567
▁streams	-9568
▁texture	-9569
▁visions	-9570
▁analyzed	-9571
▁attempts	-9572
▁benjamin	-9573
▁berkeley	-9574
▁defining	-9575
▁improvis	-9576
▁lifespan	-9577
▁literacy	-9578
▁protests	-9579
▁rejected	-9580
▁skeletal	-9581
▁talented	-9582
▁terrific	-9583
▁virginia	-9584
▁attracted	-9585
▁deception	-9586
▁integrate	-9587
▁jerusalem	-9588
▁neocortex	-9589
▁principal	-9590
▁candidates	-9591
▁correspond	-9592
▁documented	-9593
▁professors	-9594
▁prototypes	-9595
▁concentrate	-9596
▁implemented	-9597
▁recognizing	-9598
▁unfortunate	-9599
▁accelerating	-9600
▁mathematician	-9601
▁revolutionary	-9602
alt	-9603
bag	-9604
did	-9605
pat	-9606
uba	-9607
vae	-9608
via	-9609
▁bj	-9610
▁cd	-9611
▁js	-9612
bees	-9613
itis	-9614
lear	-9615
▁fda	-9616
▁mol	-9617
▁nsa	-9618
▁pap	-9619
▁pou	-9620
▁unw	-9621
▁yog	-9622
eling	-9623
heads	-9624
inger	-9625
iolet	-9626
osity	-9627
restr	-9628
▁9/11	-9629
▁alas	-9630
▁bern	-9631
▁bert	-9632
▁blur	-9633
▁craw	-9634
▁cube	-9635
▁cycl	-9636
▁fier	-9637
▁goat	-9638
▁obsc	-9639
▁pipe	-9640
▁prox	-9641
▁seti	-9642
▁thro	-9643
▁wins	-9644
erving	-9645
itated	-9646
▁acres	-9647
▁alert	-9648
▁blast	-9649
▁consp	-9650
▁favel	-9651
▁fever	-9652
▁gramm	-9653
▁harsh	-9654
▁insec	-9655
▁loses	-9656
▁reass	-9657
▁seals	-9658
▁stamp	-9659
▁suits	-9660
▁usage	-9661
ogether	-9662
▁dishes	-9663
▁evapor	-9664
▁exceed	-9665
▁flavor	-9666
▁lethal	-9667
▁mammal	-9668
▁metrop	-9669
▁mumbai	-9670
▁nether	-9671
▁racing	-9672
▁scheme	-9673
▁selves	-9674
▁wasted	-9675
▁150,000	-9676
▁abraham	-9677
▁affairs	-9678
▁careers	-9679
▁carries	-9680
▁exhibit	-9681
▁facilit	-9682
▁forgive	-9683
▁liberty	-9684
▁longest	-9685
▁matched	-9686
▁mirrors	-9687
▁priorit	-9688
▁seventh	-9689
▁technic	-9690
▁alphabet	-9691
▁assuming	-9692
▁cleaning	-9693
▁criteria	-9694
▁detector	-9695
▁egyptian	-9696
▁mcdonald	-9697
▁membrane	-9698
▁ministry	-9699
▁resident	-9700
▁shocking	-9701
▁symphony	-9702
▁achieving	-9703
▁astronomy	-9704
▁collision	-9705
▁elaborate	-9706
▁portraits	-9707
▁sequences	-9708
▁staircase	-9709
▁surgeries	-9710
▁universes	-9711
▁exceptions	-9712
▁inherently	-9713
▁irrational	-9714
▁subjective	-9715
▁anniversary	-9716
▁netherlands	-9717
▁transmitted	-9718
▁authenticity	-9719
▁economically	-9720
▁laboratories	-9721
▁representing	-9722
aza	-9723
boy	-9724
cin	-9725
cod	-9726
gas	-9727
oli	-9728
psy	-9729
▁46	-9730
▁ky	-9731
▁tk	-9732
▁wi	-9733
aves	-9734
eyed	-9735
idal	-9736
olar	-9737
▁ego	-9738
▁gor	-9739
▁inn	-9740
▁jen	-9741
▁jun	-9742
▁jur	-9743
▁pic	-9744
▁rip	-9745
arded	-9746
atoes	-9747
every	-9748
ierra	-9749
olera	-9750
speed	-9751
stics	-9752
▁bent	-9753
▁cope	-9754
▁dare	-9755
▁enab	-9756
▁flaw	-9757
▁flee	-9758
▁fran	-9759
▁offe	-9760
▁porn	-9761
▁stew	-9762
▁tide	-9763
▁warr	-9764
▁worm	-9765
enance	-9766
ounder	-9767
umbled	-9768
▁apoll	-9769
▁breed	-9770
▁camel	-9771
▁codes	-9772
▁crude	-9773
▁deter	-9774
▁escal	-9775
▁escap	-9776
▁feeds	-9777
▁freak	-9778
▁georg	-9779
▁ghost	-9780
▁laure	-9781
▁lifel	-9782
▁loyal	-9783
▁moder	-9784
▁probe	-9785
▁rains	-9786
▁retro	-9787
▁shred	-9788
▁spare	-9789
▁texts	-9790
▁voted	-9791
▁wages	-9792
▁yards	-9793
inished	-9794
izabeth	-9795
percent	-9796
ulative	-9797
▁15,000	-9798
▁aliens	-9799
▁arabia	-9800
▁bhutan	-9801
▁casual	-9802
▁copies	-9803
▁counts	-9804
▁equals	-9805
▁frames	-9806
▁grades	-9807
▁hambur	-9808
▁hawaii	-9809
▁hugely	-9810
▁jordan	-9811
▁league	-9812
▁pestic	-9813
▁prince	-9814
▁scaled	-9815
▁towers	-9816
▁underm	-9817
▁blowing	-9818
▁browser	-9819
▁cardiac	-9820
▁cholera	-9821
▁compreh	-9822
▁condoms	-9823
▁decides	-9824
▁digging	-9825
▁eternal	-9826
▁exagger	-9827
▁filling	-9828
▁folding	-9829
▁menstru	-9830
▁nonviol	-9831
▁ordered	-9832
▁pouring	-9833
▁richest	-9834
▁shaking	-9835
▁shorter	-9836
▁squares	-9837
▁trusted	-9838
▁adoption	-9839
▁ambition	-9840
▁assemble	-9841
▁autonomy	-9842
▁checking	-9843
▁frontier	-9844
▁habitats	-9845
▁marathon	-9846
▁officers	-9847
▁outbreak	-9848
▁pleasant	-9849
▁regional	-9850
▁seawater	-9851
▁targeted	-9852
▁triangle	-9853
▁visually	-9854
▁answering	-9855
▁celebrity	-9856
▁champions	-9857
▁converted	-9858
▁embracing	-9859
▁lightning	-9860
▁longevity	-9861
▁mushrooms	-9862
▁screening	-9863
▁delivering	-9864
▁employment	-9865
▁horizontal	-9866
▁ingredient	-9867
▁opposition	-9868
▁practicing	-9869
▁preventing	-9870
▁sculptures	-9871
▁systematic	-9872
▁undergradu	-9873
▁distinguish	-9874
▁integration	-9875
▁practically	-9876
▁statistical	-9877
▁investigation	-9878
jud	-9879
lar	-9880
nis	-9881
rey	-9882
▁48	-9883
▁gg	-9884
▁ka	-9885
▁uh	-9886
mass	-9887
page	-9888
phia	-9889
teen	-9890
uced	-9891
▁asp	-9892
▁bip	-9893
▁cul	-9894
▁kit	-9895
▁roo	-9896
aters	-9897
built	-9898
matic	-9899
owder	-9900
piece	-9901
thood	-9902
▁1930	-9903
▁brad	-9904
▁mixt	-9905
▁narc	-9906
▁piss	-9907
▁pops	-9908
▁solo	-9909
▁surg	-9910
▁toll	-9911
▁unst	-9912
▁wage	-9913
alysis	-9914
shaped	-9915
▁2003,	-9916
▁acute	-9917
▁cloth	-9918
▁craig	-9919
▁ethan	-9920
▁harry	-9921
▁infra	-9922
▁knees	-9923
▁laden	-9924
▁marks	-9925
▁ridge	-9926
▁sarah	-9927
▁scans	-9928
▁simul	-9929
▁tunis	-9930
▁unint	-9931
ilation	-9932
itating	-9933
umbling	-9934
▁boards	-9935
▁brands	-9936
▁cables	-9937
▁cataly	-9938
▁digest	-9939
▁floors	-9940
▁joseph	-9941
▁michel	-9942
▁prepar	-9943
▁prohib	-9944
▁refuse	-9945
▁salmon	-9946
▁soccer	-9947
▁wright	-9948
adelphia	-9949
▁archive	-9950
▁compute	-9951
▁cooling	-9952
▁gardens	-9953
▁generic	-9954
▁masters	-9955
▁rescued	-9956
▁segment	-9957
▁spatial	-9958
▁trailer	-9959
▁weekend	-9960
▁acoustic	-9961
▁basement	-9962
▁chickens	-9963
▁cocktail	-9964
▁concentr	-9965
▁cylinder	-9966
▁deciding	-9967
▁entities	-9968
▁interpre	-9969
▁memorial	-9970
▁modeling	-9971
▁nigerian	-9972
▁olympics	-9973
▁peripher	-9974
▁siblings	-9975
▁singular	-9976
▁sometime	-9977
▁stressed	-9978
▁analyzing	-9979
▁cardboard	-9980
▁contained	-9981
▁diplomacy	-9982
▁inclusive	-9983
▁integrity	-9984
▁negotiate	-9985
▁resilient	-9986
▁secondary	-9987
▁conceptual	-9988
▁congestion	-9989
▁empowering	-9990
▁fertilizer	-9991
▁interfaces	-9992
▁invitation	-9993
▁politician	-9994
▁cooperative	-9995
▁palestinian	-9996
▁philadelphia	-9997
▁philosophers	-9998
▁prostitution	-9999
▁philosophical	-10000
bc	-10001
bt	-10002
bul	-10003
cha	-10004
kyo	-10005
pos	-10006
run	-10007
tim	-10008
urt	-10009
▁4.	-10010
▁bm	-10011
▁oz	-10012
▁pc	-10013
▁rm	-10014
anut	-10015
isan	-10016
offs	-10017
robi	-10018
udge	-10019
▁1.2	-10020
▁12-	-10021
▁203	-10022
▁awe	-10023
▁caf	-10024
▁fog	-10025
▁jaw	-10026
▁mun	-10027
▁wre	-10028
afric	-10029
digit	-10030
vania	-10031
would	-10032
▁aims	-10033
▁buzz	-10034
▁cups	-10035
▁dick	-10036
▁fans	-10037
▁folk	-10038
▁nons	-10039
▁orth	-10040
▁pond	-10041
▁reck	-10042
▁seam	-10043
▁slog	-10044
▁slum	-10045
▁tags	-10046
▁vene	-10047
boards	-10048
ergart	-10049
normal	-10050
orters	-10051
stairs	-10052
violet	-10053
▁acids	-10054
▁ambul	-10055
▁bonob	-10056
▁bulbs	-10057
▁cares	-10058
▁carib	-10059
▁chess	-10060
▁drain	-10061
▁entit	-10062
▁greet	-10063
▁mater	-10064
▁paste	-10065
▁snake	-10066
▁spite	-10067
▁stare	-10068
▁tanks	-10069
▁tokyo	-10070
ounding	-10071
tically	-10072
▁abroad	-10073
▁apples	-10074
▁cinema	-10075
▁exquis	-10076
▁jersey	-10077
▁luther	-10078
▁mapped	-10079
▁marrow	-10080
▁mozart	-10081
▁overse	-10082
▁precip	-10083
▁queens	-10084
▁reader	-10085
▁submit	-10086
aggering	-10087
ountered	-10088
▁acquire	-10089
▁budgets	-10090
▁clarity	-10091
▁counted	-10092
▁cousins	-10093
▁damaged	-10094
▁fantasy	-10095
▁filters	-10096
▁fingert	-10097
▁lebanon	-10098
▁legally	-10099
▁logging	-10100
▁mexican	-10101
▁motions	-10102
▁penalty	-10103
▁rehabil	-10104
▁shepher	-10105
▁shining	-10106
▁squeeze	-10107
▁substit	-10108
▁surveys	-10109
▁swallow	-10110
▁torture	-10111
ationally	-10112
▁acquired	-10113
▁angiogen	-10114
▁champion	-10115
▁entrance	-10116
▁festival	-10117
▁gasoline	-10118
▁minerals	-10119
▁reflects	-10120
▁revenues	-10121
▁scaffold	-10122
▁tangible	-10123
▁variable	-10124
▁associate	-10125
▁dictators	-10126
▁discussed	-10127
▁emergence	-10128
▁greenland	-10129
▁hurricane	-10130
▁isolation	-10131
▁processor	-10132
▁reasoning	-10133
▁addressing	-10134
▁households	-10135
▁networking	-10136
▁priorities	-10137
▁protective	-10138
▁encountered	-10139
▁functioning	-10140
▁progression	-10141
▁projections	-10142
▁transported	-10143
▁ultraviolet	-10144
▁appreciation	-10145
▁prescription	-10146
▁significance	-10147
▁authoritarian	-10148
▁participating	-10149
▁rehabilitation	-10150
▁scientifically	-10151
ki	-10152
nia	-10153
rin	-10154
sor	-10155
syl	-10156
▁ow	-10157
▁vo	-10158
hara	-10159
held	-10160
hell	-10161
nedy	-10162
onds	-10163
plan	-10164
umbs	-10165
▁'50	-10166
▁130	-10167
▁30,	-10168
▁kos	-10169
▁soy	-10170
▁vin	-10171
brush	-10172
iumph	-10173
naiss	-10174
▁2010	-10175
▁adds	-10176
▁alar	-10177
▁anth	-10178
▁beam	-10179
▁cher	-10180
▁dood	-10181
▁glow	-10182
▁harr	-10183
▁mead	-10184
▁odor	-10185
▁rank	-10186
▁ster	-10187
▁unac	-10188
ailand	-10189
commun	-10190
ements	-10191
minded	-10192
solete	-10193
▁2012,	-10194
▁8,000	-10195
▁advis	-10196
▁alice	-10197
▁arena	-10198
▁colom	-10199
▁cyrus	-10200
▁furth	-10201
▁lakes	-10202
▁morph	-10203
▁paths	-10204
▁reper	-10205
▁rigid	-10206
▁wives	-10207
abulary	-10208
rection	-10209
▁angles	-10210
▁beetle	-10211
▁brutal	-10212
▁cement	-10213
▁circul	-10214
▁graphs	-10215
▁hacker	-10216
▁imagin	-10217
▁ironic	-10218
▁mating	-10219
▁mixing	-10220
▁nicely	-10221
▁peanut	-10222
▁purely	-10223
▁rolled	-10224
▁sierra	-10225
▁themes	-10226
▁tribal	-10227
▁unfair	-10228
▁viewed	-10229
▁weighs	-10230
computer	-10231
sylvania	-10232
▁charlie	-10233
▁charter	-10234
▁dancers	-10235
▁desires	-10236
▁heating	-10237
▁kennedy	-10238
▁playful	-10239
▁pleased	-10240
▁reforms	-10241
▁strikes	-10242
▁travels	-10243
naissance	-10244
▁admitted	-10245
▁dreaming	-10246
▁envision	-10247
▁famously	-10248
▁inventor	-10249
▁maneuver	-10250
▁motivate	-10251
▁parasite	-10252
▁pathways	-10253
▁prosecut	-10254
▁simulate	-10255
▁thailand	-10256
▁thinkers	-10257
▁artifacts	-10258
▁blueprint	-10259
▁finishing	-10260
▁judgments	-10261
▁observing	-10262
▁parenting	-10263
▁therapist	-10264
▁vegetable	-10265
▁wandering	-10266
▁warehouse	-10267
▁accounting	-10268
▁accumulate	-10269
▁altogether	-10270
▁apartments	-10271
▁critically	-10272
▁disturbing	-10273
▁enormously	-10274
▁intentions	-10275
▁kindergart	-10276
▁locomotion	-10277
▁powerpoint	-10278
▁presenting	-10279
▁procedures	-10280
▁prosthetic	-10281
▁relativity	-10282
▁renewables	-10283
▁staggering	-10284
▁christopher	-10285
▁disciplines	-10286
▁empowerment	-10287
▁medications	-10288
▁preparation	-10289
▁researching	-10290
▁sensitivity	-10291
▁stimulation	-10292
▁substantial	-10293
▁chemotherapy	-10294
▁dictionaries	-10295
▁encyclopedia	-10296
▁individually	-10297
▁partnerships	-10298
▁pennsylvania	-10299
▁reproductive	-10300
▁satisfaction	-10301
▁exponentially	-10302
bet	-10303
elf	-10304
ete	-10305
rah	-10306
sex	-10307
▁dp	-10308
▁eu	-10309
▁ku	-10310
cked	-10311
ican	-10312
ithm	-10313
laim	-10314
tent	-10315
velt	-10316
ylac	-10317
▁900	-10318
▁cad	-10319
▁zim	-10320
idesp	-10321
ivals	-10322
pling	-10323
▁2008	-10324
▁abed	-10325
▁apes	-10326
▁beef	-10327
▁bugs	-10328
▁calc	-10329
▁ceos	-10330
▁coca	-10331
▁dome	-10332
▁fame	-10333
depend	-10334
estone	-10335
▁2006,	-10336
▁anecd	-10337
▁arise	-10338
▁asset	-10339
▁awake	-10340
▁clues	-10341
▁crows	-10342
▁discl	-10343
▁frogs	-10344
▁guine	-10345
▁indus	-10346
▁inexp	-10347
▁macro	-10348
▁rises	-10349
▁roofs	-10350
▁slept	-10351
▁sudan	-10352
▁towns	-10353
▁zeros	-10354
frontal	-10355
▁absurd	-10356
▁admire	-10357
▁behold	-10358
▁beside	-10359
▁checks	-10360
▁contag	-10361
▁copied	-10362
▁copper	-10363
▁eighth	-10364
▁famine	-10365
▁filmed	-10366
▁firing	-10367
▁grains	-10368
▁hubble	-10369
▁intric	-10370
▁jungle	-10371
▁monday	-10372
▁mutual	-10373
▁potent	-10374
▁steady	-10375
▁storms	-10376
▁tagged	-10377
▁thylac	-10378
▁traces	-10379
▁treaty	-10380
▁voters	-10381
▁widesp	-10382
breaking	-10383
ffective	-10384
▁applies	-10385
▁dismiss	-10386
▁dispers	-10387
▁episode	-10388
▁fossils	-10389
▁grabbed	-10390
▁greatly	-10391
▁iranian	-10392
▁matches	-10393
▁pathway	-10394
▁portray	-10395
▁relates	-10396
▁sadness	-10397
▁sounded	-10398
▁swedish	-10399
▁thereby	-10400
▁touches	-10401
▁utility	-10402
▁wounded	-10403
izational	-10404
mentation	-10405
▁ancestor	-10406
▁balloons	-10407
▁canadian	-10408
▁cheating	-10409
▁consists	-10410
▁deserves	-10411
▁diamonds	-10412
▁displays	-10413
▁headline	-10414
▁humility	-10415
▁intimacy	-10416
▁obsolete	-10417
▁operates	-10418
▁passions	-10419
▁persuade	-10420
▁pipeline	-10421
▁primates	-10422
▁uniquely	-10423
▁visitors	-10424
▁apologize	-10425
▁countless	-10426
▁elizabeth	-10427
▁emphasize	-10428
▁fireflies	-10429
▁involving	-10430
▁magazines	-10431
▁projected	-10432
▁replacing	-10433
▁struggled	-10434
▁successes	-10435
▁accurately	-10436
▁chromosome	-10437
▁disconnect	-10438
▁disruptive	-10439
▁friendship	-10440
▁millimeter	-10441
▁profitable	-10442
▁programmed	-10443
▁translator	-10444
▁vocabulary	-10445
▁widespread	-10446
▁celebration	-10447
▁chromosomes	-10448
▁considering	-10449
▁correlation	-10450
▁frustration	-10451
▁replacement	-10452
▁disappointed	-10453
▁improvements	-10454
▁statistically	-10455
▁traditionally	-10456
▁characteristic	-10457
bia	-10458
hah	-10459
izz	-10460
lla	-10461
oto	-10462
pay	-10463
wis	-10464
zzy	-10465
▁eh	-10466
▁jc	-10467
▁lu	-10468
▁ny	-10469
▁ov	-10470
▁oy	-10471
amas	-10472
beat	-10473
lets	-10474
oped	-10475
oven	-10476
wall	-10477
▁1.5	-10478
▁arc	-10479
▁blo	-10480
▁cav	-10481
▁cum	-10482
▁syl	-10483
conds	-10484
elect	-10485
oding	-10486
pound	-10487
▁ardu	-10488
▁dens	-10489
▁dorm	-10490
▁epip	-10491
▁herd	-10492
▁liby	-10493
▁lith	-10494
▁merg	-10495
▁oven	-10496
▁peru	-10497
▁pose	-10498
▁rays	-10499
▁sang	-10500
▁semi	-10501
▁tale	-10502
engers	-10503
ilated	-10504
inates	-10505
ograms	-10506
second	-10507
▁brick	-10508
▁clips	-10509
▁kidna	-10510
▁kosov	-10511
▁nepal	-10512
▁noisy	-10513
▁occas	-10514
▁octop	-10515
▁penis	-10516
▁shuff	-10517
▁slave	-10518
▁squid	-10519
▁sucks	-10520
▁tibet	-10521
▁veloc	-10522
iterate	-10523
▁apollo	-10524
▁assure	-10525
▁asthma	-10526
▁biases	-10527
▁cambod	-10528
▁candle	-10529
▁cathed	-10530
▁cracks	-10531
▁edward	-10532
▁enrich	-10533
▁folded	-10534
▁fundra	-10535
▁guinea	-10536
▁guitar	-10537
▁insult	-10538
▁lately	-10539
▁psycho	-10540
▁reflex	-10541
▁reserv	-10542
▁spiral	-10543
▁stairs	-10544
▁tricky	-10545
▁unseen	-10546
▁altered	-10547
▁blessed	-10548
▁checked	-10549
▁deficit	-10550
▁equator	-10551
▁everest	-10552
▁flights	-10553
▁iceberg	-10554
▁lighter	-10555
▁montana	-10556
▁persons	-10557
▁praying	-10558
▁talents	-10559
▁tightly	-10560
▁triumph	-10561
▁warrior	-10562
▁winners	-10563
inational	-10564
▁abundant	-10565
▁friction	-10566
▁gestures	-10567
▁gigantic	-10568
▁goodness	-10569
▁infrared	-10570
▁lectures	-10571
▁marginal	-10572
▁overseas	-10573
▁regulate	-10574
▁supports	-10575
ographical	-10576
▁activated	-10577
▁committee	-10578
▁execution	-10579
▁fishermen	-10580
▁indicates	-10581
▁libraries	-10582
▁massively	-10583
▁millennia	-10584
▁nightmare	-10585
▁producers	-10586
▁promoting	-10587
▁surviving	-10588
▁adaptation	-10589
▁convincing	-10590
▁developers	-10591
▁diagnostic	-10592
▁identities	-10593
▁intriguing	-10594
▁metabolism	-10595
▁pedestrian	-10596
▁predicting	-10597
▁calculating	-10598
▁dysfunction	-10599
▁frequencies	-10600
▁maintenance	-10601
▁orientation	-10602
▁renaissance	-10603
▁revolutions	-10604
▁angiogenesis	-10605
▁catastrophic	-10606
▁kindergarten	-10607
▁perspectives	-10608
je	-10609
su	-10610
eem	-10611
ena	-10612
irm	-10613
jan	-10614
lah	-10615
lon	-10616
nas	-10617
▁um	-10618
acle	-10619
copy	-10620
hors	-10621
iasm	-10622
ieve	-10623
inch	-10624
oton	-10625
pler	-10626
pted	-10627
rose	-10628
ucks	-10629
with	-10630
▁140	-10631
▁160	-10632
▁dod	-10633
▁dvd	-10634
▁glo	-10635
▁huh	-10636
▁nai	-10637
▁oak	-10638
▁reh	-10639
arial	-10640
gency	-10641
graph	-10642
ieval	-10643
opian	-10644
roots	-10645
▁cram	-10646
▁disk	-10647
▁ease	-10648
▁foie	-10649
▁kite	-10650
▁lane	-10651
▁leak	-10652
▁node	-10653
▁pete	-10654
▁pron	-10655
▁rend	-10656
▁slam	-10657
▁trap	-10658
▁tues	-10659
▁whoa	-10660
iverse	-10661
orship	-10662
resist	-10663
▁alike	-10664
▁chord	-10665
▁ethic	-10666
▁fuzzy	-10667
▁guerr	-10668
▁jumps	-10669
▁linux	-10670
▁midst	-10671
▁moist	-10672
▁namib	-10673
▁nanop	-10674
▁slope	-10675
▁alaska	-10676
▁alumin	-10677
▁calend	-10678
▁census	-10679
▁crispr	-10680
▁earned	-10681
▁ethics	-10682
▁humble	-10683
▁injust	-10684
▁joshua	-10685
▁metals	-10686
▁norden	-10687
▁pilots	-10688
▁punish	-10689
▁racial	-10690
▁resemb	-10691
▁sahara	-10692
▁scarce	-10693
▁shoots	-10694
▁singer	-10695
▁snakes	-10696
▁thrive	-10697
▁viable	-10698
▁virtue	-10699
restrial	-10700
▁airline	-10701
▁anytime	-10702
▁ashamed	-10703
▁beetles	-10704
▁buttons	-10705
▁chemist	-10706
▁columns	-10707
▁desktop	-10708
▁diamond	-10709
▁dreamed	-10710
▁editors	-10711
▁enthusi	-10712
▁georgia	-10713
▁honored	-10714
▁mastery	-10715
▁nairobi	-10716
▁neglect	-10717
▁reclaim	-10718
▁somalia	-10719
▁superno	-10720
▁thermal	-10721
▁tickets	-10722
▁tuesday	-10723
▁warfare	-10724
▁detected	-10725
▁elevator	-10726
▁envelope	-10727
▁nonsense	-10728
▁numerous	-10729
▁obstacle	-10730
▁pursuing	-10731
▁receptor	-10732
▁referred	-10733
▁stealing	-10734
▁superher	-10735
▁survivor	-10736
▁bacterium	-10737
▁displaced	-10738
▁impressed	-10739
▁intervene	-10740
▁metabolic	-10741
▁pressures	-10742
▁sexuality	-10743
▁skeptical	-10744
▁variables	-10745
engineering	-10746
▁australian	-10747
▁beneficial	-10748
▁enthusiasm	-10749
▁physiology	-10750
▁thankfully	-10751
▁accountable	-10752
▁controversy	-10753
▁corresponds	-10754
▁embarrassed	-10755
▁existential	-10756
▁financially	-10757
▁questioning	-10758
▁symmetrical	-10759
▁deliberately	-10760
▁disabilities	-10761
▁disappearing	-10762
▁incidentally	-10763
▁collaborators	-10764
▁multinational	-10765
99	-10766
▁]	-10767
rer	-10768
sea	-10769
sur	-10770
▁7,	-10771
aire	-10772
alay	-10773
educ	-10774
gage	-10775
mann	-10776
ptic	-10777
rend	-10778
sens	-10779
size	-10780
▁15,	-10781
▁50-	-10782
▁ape	-10783
▁ark	-10784
▁gel	-10785
▁mes	-10786
▁naz	-10787
▁rna	-10788
allas	-10789
aning	-10790
appro	-10791
aurus	-10792
avors	-10793
ccoli	-10794
found	-10795
owden	-10796
▁bali	-10797
▁bore	-10798
▁fled	-10799
▁fred	-10800
▁grim	-10801
▁hood	-10802
▁puff	-10803
▁rust	-10804
▁uber	-10805
advant	-10806
formed	-10807
school	-10808
▁2001,	-10809
▁chore	-10810
▁dates	-10811
▁fungi	-10812
▁hence	-10813
▁jokes	-10814
▁larry	-10815
▁laund	-10816
▁manus	-10817
▁milky	-10818
▁newly	-10819
▁offsh	-10820
▁sells	-10821
▁smugg	-10822
▁tesla	-10823
▁venus	-10824
▁wiped	-10825
▁yeast	-10826
umental	-10827
▁12,000	-10828
▁ambass	-10829
▁angels	-10830
▁bitter	-10831
▁cookie	-10832
▁cooler	-10833
▁dancer	-10834
▁fruits	-10835
▁hatred	-10836
▁improb	-10837
▁mouths	-10838
▁resort	-10839
▁slaves	-10840
▁spends	-10841
▁sylvia	-10842
▁tomato	-10843
▁upward	-10844
▁viscer	-10845
▁washed	-10846
▁alright	-10847
▁anxious	-10848
▁appoint	-10849
▁auditor	-10850
▁confirm	-10851
▁crystal	-10852
▁explode	-10853
▁gallons	-10854
▁himalay	-10855
▁honesty	-10856
▁mammoth	-10857
▁migrate	-10858
▁pricing	-10859
▁settled	-10860
▁shadows	-10861
▁shelves	-10862
▁stewart	-10863
▁subsequ	-10864
▁volumes	-10865
▁accommod	-10866
▁applause	-10867
▁autistic	-10868
▁baseline	-10869
▁broccoli	-10870
▁columbia	-10871
▁confined	-10872
▁enabling	-10873
▁invasion	-10874
▁missions	-10875
▁pressing	-10876
▁stepping	-10877
▁surgical	-10878
▁tedtalks	-10879
▁upstream	-10880
▁veterans	-10881
▁weakness	-10882
controlled	-10883
ifications	-10884
▁addressed	-10885
▁ambulance	-10886
▁caribbean	-10887
▁container	-10888
▁demograph	-10889
▁disadvant	-10890
▁egyptians	-10891
▁humankind	-10892
▁illusions	-10893
▁ingenuity	-10894
▁instances	-10895
▁jefferson	-10896
▁marijuana	-10897
▁northeast	-10898
▁obsession	-10899
▁stimulate	-10900
▁strengths	-10901
▁sustained	-10902
▁celebrated	-10903
▁disappears	-10904
▁fingertips	-10905
▁generosity	-10906
▁inventions	-10907
▁regenerate	-10908
▁repeatedly	-10909
▁symmetries	-10910
▁destructive	-10911
▁efficiently	-10912
▁flexibility	-10913
▁perceptions	-10914
▁problematic	-10915
▁remembering	-10916
▁republicans	-10917
▁stereotypes	-10918
▁unemployment	-10919
▁urbanization	-10920
▁experimenting	-10921
▁spontaneously	-10922
▁hallucinations	-10923
▁:	-10924
300	-10925
cam	-10926
cet	-10927
gle	-10928
idi	-10929
iva	-10930
nik	-10931
wid	-10932
▁52	-10933
asha	-10934
aver	-10935
bbit	-10936
bles	-10937
celi	-10938
gram	-10939
have	-10940
intu	-10941
rels	-10942
wait	-10943
▁dal	-10944
▁eru	-10945
▁fee	-10946
▁kle	-10947
▁osc	-10948
▁owe	-10949
▁vig	-10950
▁von	-10951
babwe	-10952
ellig	-10953
enter	-10954
erent	-10955
ilibr	-10956
negie	-10957
rants	-10958
▁alan	-10959
▁beck	-10960
▁conj	-10961
▁cuba	-10962
▁eats	-10963
▁ebay	-10964
▁edit	-10965
▁heck	-10966
▁lips	-10967
▁plum	-10968
▁ross	-10969
▁slip	-10970
▁tips	-10971
aching	-10972
aining	-10973
celium	-10974
rogram	-10975
ulture	-10976
unting	-10977
▁drama	-10978
▁forum	-10979
▁holoc	-10980
▁hurts	-10981
▁lagos	-10982
▁merit	-10983
▁noble	-10984
▁pipes	-10985
▁pitts	-10986
▁rover	-10987
▁trait	-10988
▁wavel	-10989
because	-10990
develop	-10991
holders	-10992
▁archae	-10993
▁avenue	-10994
▁banned	-10995
▁fights	-10996
▁hooked	-10997
▁irrele	-10998
▁kepler	-10999
▁ladder	-11000
▁legend	-11001
▁mature	-11002
▁powder	-11003
▁prejud	-11004
▁respir	-11005
▁salary	-11006
▁slowed	-11007
▁truths	-11008
▁warren	-11009
ensively	-11010
ilibrium	-11011
▁anatomy	-11012
▁bankers	-11013
▁contest	-11014
▁descend	-11015
▁devoted	-11016
▁mixture	-11017
▁phrases	-11018
▁quietly	-11019
▁seafood	-11020
▁skilled	-11021
▁upright	-11022
▁viewing	-11023
istically	-11024
▁aluminum	-11025
▁blocking	-11026
▁carnegie	-11027
▁chapters	-11028
▁commonly	-11029
▁endeavor	-11030
▁exploded	-11031
▁explorer	-11032
▁governor	-11033
▁indirect	-11034
▁mattered	-11035
▁michigan	-11036
▁moreover	-11037
▁mycelium	-11038
▁patience	-11039
▁petition	-11040
▁plankton	-11041
▁purchase	-11042
▁sneakers	-11043
▁symbolic	-11044
▁thorough	-11045
▁zimbabwe	-11046
generation	-11047
ustainable	-11048
▁accepting	-11049
▁breakdown	-11050
▁cigarette	-11051
▁consuming	-11052
▁enlighten	-11053
▁exclusive	-11054
▁graduates	-11055
▁implanted	-11056
▁inherited	-11057
▁injustice	-11058
▁intersect	-11059
▁pervasive	-11060
▁promising	-11061
▁qualified	-11062
▁recovered	-11063
▁respected	-11064
▁summarize	-11065
▁worldview	-11066
▁anesthesia	-11067
▁assessment	-11068
▁grassroots	-11069
▁loneliness	-11070
▁prevalence	-11071
▁propaganda	-11072
▁quantities	-11073
▁specialist	-11074
▁supportive	-11075
▁calculation	-11076
▁citizenship	-11077
▁conferences	-11078
▁frustrating	-11079
▁measurement	-11080
▁psychiatric	-11081
▁explanations	-11082
▁manipulation	-11083
▁metropolitan	-11084
▁reproduction	-11085
▁consideration	-11086
▁gravitational	-11087
▁improvisation	-11088
▁independently	-11089
zi	-11090
▁#	-11091
▁/	-11092
100	-11093
add	-11094
ali	-11095
ano	-11096
cup	-11097
isc	-11098
low	-11099
vet	-11100
weg	-11101
▁38	-11102
▁43	-11103
▁44	-11104
▁mm	-11105
elle	-11106
icut	-11107
last	-11108
mile	-11109
roid	-11110
zuel	-11111
▁24-	-11112
▁50,	-11113
▁ngo	-11114
▁tai	-11115
actic	-11116
arity	-11117
borne	-11118
ceton	-11119
essim	-11120
story	-11121
thals	-11122
▁2005	-11123
▁extr	-11124
▁font	-11125
▁gaze	-11126
▁gram	-11127
▁horn	-11128
▁jean	-11129
▁keen	-11130
▁mega	-11131
▁milo	-11132
▁mund	-11133
▁oecd	-11134
▁skip	-11135
▁sums	-11136
▁yard	-11137
esters	-11138
ghetti	-11139
handed	-11140
lahoma	-11141
redict	-11142
screen	-11143
tering	-11144
ussani	-11145
▁angel	-11146
▁baker	-11147
▁divid	-11148
▁draws	-11149
▁dwell	-11150
▁fails	-11151
▁faint	-11152
▁firms	-11153
▁hobby	-11154
▁idiot	-11155
▁intro	-11156
▁oppon	-11157
▁paulo	-11158
▁pearl	-11159
▁pumps	-11160
▁recur	-11161
▁rolls	-11162
▁roman	-11163
▁scand	-11164
▁siber	-11165
▁snaps	-11166
▁teddy	-11167
▁toast	-11168
▁wells	-11169
acities	-11170
conomic	-11171
inators	-11172
million	-11173
ocratic	-11174
version	-11175
▁benign	-11176
▁bloody	-11177
▁bucket	-11178
▁bypass	-11179
▁crocod	-11180
▁dallas	-11181
▁defect	-11182
▁embass	-11183
▁enters	-11184
▁fixing	-11185
▁freeze	-11186
▁heroic	-11187
▁hypoth	-11188
▁norweg	-11189
▁pollut	-11190
▁remitt	-11191
▁routes	-11192
▁sticky	-11193
▁stigma	-11194
▁submar	-11195
▁syrian	-11196
▁undert	-11197
▁urgent	-11198
▁amateur	-11199
▁blocked	-11200
▁catalog	-11201
▁copying	-11202
▁cracked	-11203
▁divorce	-11204
▁donated	-11205
▁easiest	-11206
▁emerges	-11207
▁grammar	-11208
▁inspect	-11209
▁joining	-11210
▁leopard	-11211
▁markers	-11212
▁minimal	-11213
▁needing	-11214
▁newborn	-11215
▁outdoor	-11216
▁premise	-11217
▁reveals	-11218
▁sailing	-11219
▁sulfide	-11220
▁victory	-11221
efficient	-11222
▁colorful	-11223
▁commands	-11224
▁declared	-11225
▁embodied	-11226
▁equipped	-11227
▁giussani	-11228
▁juvenile	-11229
▁magician	-11230
▁misunder	-11231
▁modified	-11232
▁noticing	-11233
▁portugal	-11234
▁register	-11235
▁shepherd	-11236
▁superior	-11237
▁unaccept	-11238
▁velocity	-11239
▁venezuel	-11240
▁williams	-11241
▁affection	-11242
▁aggregate	-11243
▁assembled	-11244
▁assistant	-11245
▁automatic	-11246
▁filmmaker	-11247
▁fragments	-11248
▁kilometer	-11249
▁paralysis	-11250
▁princeton	-11251
▁processed	-11252
▁routinely	-11253
▁spaghetti	-11254
▁unpredict	-11255
▁acceptance	-11256
▁attributes	-11257
▁auditorium	-11258
▁brainstorm	-11259
▁frightened	-11260
▁playground	-11261
▁reasonably	-11262
▁reflective	-11263
▁wavelength	-11264
▁connecticut	-11265
▁documenting	-11266
▁equilibrium	-11267
▁microscopic	-11268
▁transferred	-11269
▁illustration	-11270
▁neanderthals	-11271
▁personalities	-11272
▁entrepreneurial	-11273
-2	-11274
ju	-11275
eel	-11276
erk	-11277
eys	-11278
flu	-11279
mia	-11280
una	-11281
▁lh	-11282
cale	-11283
cola	-11284
dest	-11285
eman	-11286
fing	-11287
flow	-11288
grad	-11289
neum	-11290
oler	-11291
rays	-11292
umen	-11293
wear	-11294
▁16,	-11295
▁18,	-11296
▁450	-11297
▁als	-11298
▁eco	-11299
▁hug	-11300
▁lee	-11301
▁muh	-11302
▁plu	-11303
▁sap	-11304
▁thy	-11305
▁wig	-11306
arium	-11307
fight	-11308
ibati	-11309
illas	-11310
illes	-11311
leans	-11312
ppers	-11313
verts	-11314
white	-11315
▁adul	-11316
▁beds	-11317
▁belo	-11318
▁cafe	-11319
▁cort	-11320
▁dave	-11321
▁goss	-11322
▁grey	-11323
▁hect	-11324
▁jama	-11325
▁lump	-11326
▁reun	-11327
▁sixt	-11328
▁sque	-11329
▁tedx	-11330
govern	-11331
iately	-11332
irable	-11333
rhythm	-11334
▁2010.	-11335
▁attor	-11336
▁bribe	-11337
▁deple	-11338
▁desce	-11339
▁empir	-11340
▁fleet	-11341
▁gamma	-11342
▁guilt	-11343
▁hatch	-11344
▁heter	-11345
▁inert	-11346
▁intel	-11347
▁libya	-11348
▁myths	-11349
▁qaeda	-11350
▁roose	-11351
▁savan	-11352
▁scope	-11353
▁sting	-11354
▁swing	-11355
▁tread	-11356
▁votes	-11357
genesis	-11358
ologies	-11359
sterdam	-11360
▁arrows	-11361
▁biased	-11362
▁bounce	-11363
▁coding	-11364
▁depths	-11365
▁elders	-11366
▁entity	-11367
▁facult	-11368
▁fierce	-11369
▁greeks	-11370
▁heroin	-11371
▁issued	-11372
▁kansas	-11373
▁laying	-11374
▁marked	-11375
▁pessim	-11376
▁potato	-11377
▁spouse	-11378
▁tennis	-11379
▁update	-11380
oriented	-11381
▁abandon	-11382
▁barbers	-11383
▁chaotic	-11384
▁compens	-11385
▁crashes	-11386
▁frontal	-11387
▁heights	-11388
▁holiday	-11389
▁impulse	-11390
▁linking	-11391
▁needles	-11392
▁notions	-11393
▁orleans	-11394
▁primate	-11395
▁reviews	-11396
▁romance	-11397
▁shaping	-11398
▁symptom	-11399
▁thirdly	-11400
▁tracked	-11401
▁vitamin	-11402
▁wonders	-11403
▁activism	-11404
▁civilian	-11405
▁contents	-11406
▁degraded	-11407
▁diagnose	-11408
▁doubling	-11409
▁executed	-11410
▁glaciers	-11411
▁kiribati	-11412
▁migrants	-11413
▁oklahoma	-11414
▁paradise	-11415
▁passport	-11416
▁planting	-11417
▁promises	-11418
▁quantity	-11419
▁rainfall	-11420
▁sections	-11421
▁societal	-11422
▁suburban	-11423
▁terminal	-11424
▁arbitrary	-11425
▁attacking	-11426
▁cybercrim	-11427
▁demanding	-11428
▁executive	-11429
▁exercises	-11430
▁galleries	-11431
▁illnesses	-11432
▁launching	-11433
▁pediatric	-11434
▁pregnancy	-11435
▁preserved	-11436
▁roosevelt	-11437
▁satisfied	-11438
▁scenarios	-11439
▁simulated	-11440
▁acceptable	-11441
▁antibiotic	-11442
▁compressed	-11443
▁disgusting	-11444
▁explicitly	-11445
▁innovators	-11446
▁passengers	-11447
▁pittsburgh	-11448
▁recognizes	-11449
▁accelerated	-11450
▁celebrating	-11451
▁circulation	-11452
▁commodities	-11453
▁eradication	-11454
▁expectation	-11455
▁initiatives	-11456
▁willingness	-11457
▁wonderfully	-11458
▁developments	-11459
▁disconnected	-11460
▁tremendously	-11461
▁configuration	-11462
▁electromagnetic	-11463
600	-11464
800	-11465
bee	-11466
bro	-11467
dog	-11468
emi	-11469
fig	-11470
fit	-11471
omp	-11472
sis	-11473
zer	-11474
▁'8	-11475
▁4,	-11476
▁98	-11477
▁cn	-11478
▁cs	-11479
▁dm	-11480
▁dy	-11481
acre	-11482
agan	-11483
aste	-11484
axis	-11485
bone	-11486
bral	-11487
cium	-11488
fund	-11489
hops	-11490
nutr	-11491
onal	-11492
pace	-11493
soon	-11494
uled	-11495
▁12.	-11496
▁14,	-11497
▁180	-11498
▁dug	-11499
▁heh	-11500
▁hij	-11501
▁lem	-11502
▁pav	-11503
▁sms	-11504
▁sue	-11505
asant	-11506
berty	-11507
erers	-11508
icism	-11509
meter	-11510
nders	-11511
style	-11512
uddin	-11513
ulent	-11514
▁anom	-11515
▁auto	-11516
▁brig	-11517
▁cops	-11518
▁debr	-11519
▁deci	-11520
▁dual	-11521
▁gosh	-11522
▁hump	-11523
▁jury	-11524
▁lama	-11525
▁prag	-11526
▁stir	-11527
▁swar	-11528
▁taxi	-11529
▁trek	-11530
angelo	-11531
apagos	-11532
forced	-11533
irling	-11534
ocracy	-11535
ranean	-11536
▁9/11,	-11537
▁arous	-11538
▁backs	-11539
▁beast	-11540
▁bonus	-11541
▁booth	-11542
▁chunk	-11543
▁crust	-11544
▁danny	-11545
▁diego	-11546
▁gifts	-11547
▁grind	-11548
▁incon	-11549
▁insur	-11550
▁kilos	-11551
▁kings	-11552
▁leone	-11553
▁marri	-11554
▁piles	-11555
▁pneum	-11556
▁races	-11557
▁repet	-11558
▁riots	-11559
▁sanct	-11560
▁stole	-11561
▁traff	-11562
▁tuber	-11563
▁tuned	-11564
▁wrink	-11565
ilizing	-11566
thetics	-11567
▁buddha	-11568
▁differ	-11569
▁eighty	-11570
▁firmly	-11571
▁harass	-11572
▁helmet	-11573
▁johnny	-11574
▁kosovo	-11575
▁lastly	-11576
▁learns	-11577
▁nathan	-11578
▁poorly	-11579
▁prayer	-11580
▁shares	-11581
▁smiles	-11582
▁statue	-11583
▁syring	-11584
▁taiwan	-11585
▁thrust	-11586
friendly	-11587
▁bananas	-11588
▁cleaned	-11589
▁compact	-11590
▁denmark	-11591
▁deserts	-11592
▁enzymes	-11593
▁ethanol	-11594
▁examine	-11595
▁expense	-11596
▁liberia	-11597
▁morally	-11598
▁motorcy	-11599
▁mundane	-11600
▁nucleus	-11601
▁octopus	-11602
▁perpetr	-11603
▁philipp	-11604
▁ratings	-11605
▁reduces	-11606
▁snowden	-11607
▁spheres	-11608
▁squared	-11609
▁strains	-11610
▁wasting	-11611
▁whisper	-11612
▁worship	-11613
▁adaptive	-11614
▁advertis	-11615
▁backpack	-11616
▁composed	-11617
▁constitu	-11618
▁contacts	-11619
▁daylight	-11620
▁duration	-11621
▁embraced	-11622
▁horrific	-11623
▁imprison	-11624
▁infinity	-11625
▁insisted	-11626
▁midnight	-11627
▁obtained	-11628
▁operated	-11629
▁operator	-11630
▁reporter	-11631
▁responds	-11632
▁unstable	-11633
▁attempted	-11634
▁civilians	-11635
▁delighted	-11636
▁galapagos	-11637
▁gratitude	-11638
▁practiced	-11639
▁prevented	-11640
▁releasing	-11641
▁submitted	-11642
▁voluntary	-11643
▁astronauts	-11644
▁comparable	-11645
▁coordinate	-11646
▁courageous	-11647
▁guaranteed	-11648
▁parameters	-11649
▁republican	-11650
▁adolescence	-11651
▁aspirations	-11652
▁battlefield	-11653
▁coincidence	-11654
▁complaining	-11655
▁countryside	-11656
▁identifying	-11657
▁illustrates	-11658
▁interdepend	-11659
▁introducing	-11660
▁meaningless	-11661
▁rainforests	-11662
▁threatening	-11663
▁biologically	-11664
▁presidential	-11665
▁quantitative	-11666
▁unacceptable	-11667
▁contributions	-11668
▁developmental	-11669
▁manufacturers	-11670
▁photographers	-11671
▁organizational	-11672
▁environmentally	-11673
fu	-11674
ão	-11675
non	-11676
ria	-11677
sen	-11678
▁dj	-11679
▁mw	-11680
▁sb	-11681
▁wk	-11682
core	-11683
eard	-11684
know	-11685
obic	-11686
orth	-11687
risk	-11688
spec	-11689
ucky	-11690
urbs	-11691
▁1.3	-11692
▁18-	-11693
▁187	-11694
▁bun	-11695
▁cer	-11696
▁hay	-11697
▁jay	-11698
▁kim	-11699
▁lak	-11700
▁obe	-11701
▁pee	-11702
▁sha	-11703
▁sid	-11704
▁wax	-11705
,000.	-11706
ached	-11707
ammad	-11708
amous	-11709
bands	-11710
crast	-11711
cture	-11712
eties	-11713
ffiti	-11714
ilson	-11715
imony	-11716
izona	-11717
liers	-11718
oping	-11719
opoly	-11720
tends	-11721
these	-11722
vance	-11723
width	-11724
▁2009	-11725
▁argu	-11726
▁barn	-11727
▁boun	-11728
▁crab	-11729
▁dash	-11730
▁edin	-11731
▁encl	-11732
▁gait	-11733
▁inqu	-11734
▁jenn	-11735
▁jill	-11736
▁lamb	-11737
▁lgbt	-11738
▁mang	-11739
▁menu	-11740
▁owns	-11741
▁rais	-11742
▁rhet	-11743
▁symb	-11744
ending	-11745
iments	-11746
opardy	-11747
▁2008.	-11748
▁biote	-11749
▁compr	-11750
▁congr	-11751
▁dalai	-11752
▁dealt	-11753
▁drift	-11754
▁elbow	-11755
▁files	-11756
▁forty	-11757
▁glory	-11758
▁goats	-11759
▁halls	-11760
▁incub	-11761
▁keith	-11762
▁lexic	-11763
▁monet	-11764
▁parap	-11765
▁poses	-11766
▁recip	-11767
▁resid	-11768
▁rides	-11769
▁saint	-11770
▁sands	-11771
▁shack	-11772
▁simon	-11773
▁skype	-11774
▁spike	-11775
▁steer	-11776
▁templ	-11777
▁tenth	-11778
▁towel	-11779
centric	-11780
culosis	-11781
▁condom	-11782
▁divine	-11783
▁finite	-11784
▁hollow	-11785
▁lasted	-11786
▁lenses	-11787
▁ninety	-11788
▁panthe	-11789
▁poured	-11790
▁scroll	-11791
▁shield	-11792
▁slogan	-11793
▁strang	-11794
▁tastes	-11795
▁tender	-11796
▁thirds	-11797
▁timber	-11798
▁toxins	-11799
▁underp	-11800
▁unimag	-11801
▁violin	-11802
▁voyage	-11803
▁wished	-11804
▁wolves	-11805
specific	-11806
▁arizona	-11807
▁calcium	-11808
▁categor	-11809
▁crushed	-11810
▁dragged	-11811
▁gaining	-11812
▁jewelry	-11813
▁justify	-11814
▁knocked	-11815
▁mentors	-11816
▁namibia	-11817
▁posters	-11818
▁puberty	-11819
▁regrets	-11820
▁shipped	-11821
▁submers	-11822
▁tourist	-11823
▁weighed	-11824
condition	-11825
▁assigned	-11826
▁avoiding	-11827
▁buddhist	-11828
▁bureaucr	-11829
▁flourish	-11830
▁genomics	-11831
▁glorious	-11832
▁guardian	-11833
▁matching	-11834
▁miracles	-11835
▁muhammad	-11836
▁mustache	-11837
▁offshore	-11838
▁optimize	-11839
▁photosyn	-11840
▁prevents	-11841
▁producer	-11842
▁province	-11843
▁releases	-11844
▁sacrific	-11845
▁sweeping	-11846
▁threaten	-11847
▁weekends	-11848
▁workshop	-11849
▁afterward	-11850
▁amsterdam	-11851
▁bombsight	-11852
▁certainty	-11853
▁confirmed	-11854
▁confusion	-11855
▁continuum	-11856
▁corridors	-11857
▁democrats	-11858
▁directors	-11859
▁edinburgh	-11860
▁educators	-11861
▁epidemics	-11862
▁holocaust	-11863
▁honeybees	-11864
▁imperfect	-11865
▁marvelous	-11866
▁parasites	-11867
▁sovereign	-11868
▁strangely	-11869
▁tasmanian	-11870
▁cigarettes	-11871
▁connectome	-11872
▁conscience	-11873
▁dependence	-11874
▁distribute	-11875
▁expressing	-11876
▁hypotheses	-11877
▁imperative	-11878
▁infinitely	-11879
▁irrelevant	-11880
▁meditation	-11881
▁vegetation	-11882
▁dragonflies	-11883
▁operational	-11884
▁requirement	-11885
▁storyteller	-11886
▁consistently	-11887
▁michelangelo	-11888
▁stratosphere	-11889
▁tuberculosis	-11890
▁breakthroughs	-11891
▁contradiction	-11892
▁undergraduate	-11893
▁nanotechnology	-11894
fa	-11895
kel	-11896
may	-11897
tha	-11898
ths	-11899
tic	-11900
▁86	-11901
▁cp	-11902
▁zo	-11903
asma	-11904
chel	-11905
code	-11906
esty	-11907
etts	-11908
love	-11909
ocks	-11910
olas	-11911
olis	-11912
owan	-11913
rina	-11914
text	-11915
zler	-11916
▁17,	-11917
▁185	-11918
▁360	-11919
▁40-	-11920
▁bah	-11921
▁bib	-11922
▁dur	-11923
▁gru	-11924
▁gym	-11925
▁han	-11926
▁rud	-11927
▁rus	-11928
▁syd	-11929
achus	-11930
alore	-11931
cuses	-11932
gebra	-11933
geria	-11934
idity	-11935
ilage	-11936
integ	-11937
liath	-11938
phing	-11939
shirt	-11940
ucked	-11941
▁$100	-11942
▁alab	-11943
▁brow	-11944
▁chin	-11945
▁cues	-11946
▁dean	-11947
▁eros	-11948
▁ipad	-11949
▁nail	-11950
▁rear	-11951
▁rode	-11952
▁sham	-11953
▁yale	-11954
ermore	-11955
hythms	-11956
igrade	-11957
lethal	-11958
lights	-11959
ogenic	-11960
▁1990,	-11961
▁1998,	-11962
▁2000.	-11963
▁7,000	-11964
▁arrog	-11965
▁arter	-11966
▁bands	-11967
▁blade	-11968
▁blend	-11969
▁canal	-11970
▁chalk	-11971
▁clich	-11972
▁crank	-11973
▁crawl	-11974
▁daddy	-11975
▁emily	-11976
▁extro	-11977
▁folds	-11978
▁guest	-11979
▁hairs	-11980
▁inade	-11981
▁jerry	-11982
▁lasts	-11983
▁lewis	-11984
▁lined	-11985
▁moons	-11986
▁perse	-11987
▁petro	-11988
▁poles	-11989
▁radar	-11990
▁skies	-11991
▁sword	-11992
idental	-11993
illions	-11994
keeping	-11995
rospect	-11996
usively	-11997
▁academ	-11998
▁avatar	-11999
▁copern	-12000
▁debris	-12001
▁defeat	-12002
▁hammer	-12003
▁impose	-12004
▁intend	-12005
▁julian	-12006
▁listed	-12007
▁loaded	-12008
▁miscon	-12009
▁mosque	-12010
▁nicole	-12011
▁nuclei	-12012
▁obsess	-12013
▁philip	-12014
▁priest	-12015
▁racism	-12016
▁reluct	-12017
▁rooted	-12018
▁solemn	-12019
▁stocks	-12020
▁tablet	-12021
▁taller	-12022
▁theirs	-12023
▁titles	-12024
▁tweets	-12025
▁vastly	-12026
▁waking	-12027
assembly	-12028
chemical	-12029
communic	-12030
ictional	-12031
lessness	-12032
vascular	-12033
▁250,000	-12034
▁300,000	-12035
▁accused	-12036
▁arduino	-12037
▁basking	-12038
▁bluefin	-12039
▁complim	-12040
▁defines	-12041
▁embassy	-12042
▁finland	-12043
▁francis	-12044
▁funeral	-12045
▁goliath	-12046
▁hallway	-12047
▁humming	-12048
▁hunters	-12049
▁lesbian	-12050
▁metrics	-12051
▁mineral	-12052
▁multipl	-12053
▁natasha	-12054
▁novelty	-12055
▁partial	-12056
▁posture	-12057
▁prevail	-12058
▁reconst	-12059
▁redisco	-12060
▁rhythms	-12061
▁rockets	-12062
▁scanned	-12063
▁shuttle	-12064
▁suburbs	-12065
▁summary	-12066
▁teszler	-12067
▁unified	-12068
achusetts	-12069
intuitive	-12070
▁abnormal	-12071
▁abortion	-12072
▁altruism	-12073
▁approval	-12074
▁balanced	-12075
▁bicycles	-12076
▁calendar	-12077
▁cerebral	-12078
▁certific	-12079
▁commerce	-12080
▁delicate	-12081
▁emergent	-12082
▁employee	-12083
▁evaluate	-12084
▁happiest	-12085
▁hypothet	-12086
▁impaired	-12087
▁inviting	-12088
▁observer	-12089
▁orbiting	-12090
▁potatoes	-12091
▁presents	-12092
▁resolved	-12093
▁tedsters	-12094
▁temporal	-12095
performing	-12096
▁bangalore	-12097
▁campaigns	-12098
▁cartilage	-12099
▁cathedral	-12100
▁decentral	-12101
▁declining	-12102
▁employers	-12103
▁exhausted	-12104
▁followers	-12105
▁histories	-12106
▁improvise	-12107
▁injection	-12108
▁intrinsic	-12109
▁limestone	-12110
▁marriages	-12111
▁mythology	-12112
▁pathogens	-12113
▁resonance	-12114
▁southeast	-12115
▁spaceship	-12116
▁attraction	-12117
▁capitalist	-12118
▁censorship	-12119
▁harvesting	-12120
▁multiverse	-12121
▁prefrontal	-12122
▁statements	-12123
▁unintended	-12124
▁backgrounds	-12125
▁catastrophe	-12126
▁competitors	-12127
▁conclusions	-12128
▁interviewer	-12129
▁maintaining	-12130
▁permanently	-12131
▁preferences	-12132
▁preventable	-12133
▁progressive	-12134
▁publication	-12135
▁specialists	-12136
▁refrigerator	-12137
▁similarities	-12138
▁appropriately	-12139
▁comprehensive	-12140
▁conservatives	-12141
▁determination	-12142
▁enlightenment	-12143
▁mathematically	-12144
▁representatives	-12145
▁transformations	-12146
ni	-12147
alg	-12148
cur	-12149
exp	-12150
fts	-12151
hel	-12152
ika	-12153
ili	-12154
lem	-12155
nie	-12156
rim	-12157
▁jr	-12158
▁rs	-12159
▁tb	-12160
ctar	-12161
eren	-12162
iner	-12163
mble	-12164
otto	-12165
ousy	-12166
rine	-12167
tell	-12168
then	-12169
▁14-	-12170
▁bou	-12171
▁geo	-12172
▁hoo	-12173
▁isa	-12174
▁kib	-12175
▁lag	-12176
▁lhc	-12177
▁lyn	-12178
▁ren	-12179
▁tig	-12180
ected	-12181
ensed	-12182
frame	-12183
gered	-12184
igate	-12185
lical	-12186
ocate	-12187
plete	-12188
shine	-12189
sight	-12190
stick	-12191
wired	-12192
▁100,	-12193
▁2006	-12194
▁adja	-12195
▁aged	-12196
▁anch	-12197
▁bach	-12198
▁barb	-12199
▁bulk	-12200
▁bund	-12201
▁dude	-12202
▁eman	-12203
▁epic	-12204
▁exit	-12205
▁heel	-12206
▁moma	-12207
▁moth	-12208
▁myri	-12209
▁pity	-12210
▁sher	-12211
▁sket	-12212
▁tink	-12213
▁todd	-12214
▁ucla	-12215
▁unne	-12216
▁uran	-12217
▁wets	-12218
abytes	-12219
carbon	-12220
ignant	-12221
master	-12222
timore	-12223
vering	-12224
▁2050,	-12225
▁cairo	-12226
▁cheet	-12227
▁costa	-12228
▁cried	-12229
▁epile	-12230
▁excer	-12231
▁gangs	-12232
▁grief	-12233
▁landf	-12234
▁matth	-12235
▁ninth	-12236
▁oblig	-12237
▁pools	-12238
▁spine	-12239
▁stiff	-12240
▁verge	-12241
▁versa	-12242
appropr	-12243
balance	-12244
growing	-12245
nostics	-12246
respect	-12247
▁agrees	-12248
▁banana	-12249
▁bionic	-12250
▁bosnia	-12251
▁denied	-12252
▁erotic	-12253
▁expose	-12254
▁feared	-12255
▁humane	-12256
▁labels	-12257
▁larvae	-12258
▁louder	-12259
▁nectar	-12260
▁norman	-12261
▁orgasm	-12262
▁puppet	-12263
▁rented	-12264
▁retina	-12265
▁sulfur	-12266
▁sydney	-12267
▁thesis	-12268
▁throat	-12269
▁verbal	-12270
▁walker	-12271
▁writes	-12272
building	-12273
intellig	-12274
▁alabama	-12275
▁algebra	-12276
▁aquatic	-12277
▁babbage	-12278
▁babylon	-12279
▁beaches	-12280
▁beloved	-12281
▁cabinet	-12282
▁crowded	-12283
▁curator	-12284
▁editing	-12285
▁epidemi	-12286
▁excuses	-12287
▁founder	-12288
▁hawking	-12289
▁heavens	-12290
▁intimid	-12291
▁laundry	-12292
▁legitim	-12293
▁literal	-12294
▁malnutr	-12295
▁monthly	-12296
▁recycle	-12297
▁replied	-12298
▁seasons	-12299
▁secular	-12300
▁singers	-12301
▁slowing	-12302
▁withdra	-12303
resistant	-12304
▁addicted	-12305
▁adjacent	-12306
▁alliance	-12307
▁annoying	-12308
▁cambodia	-12309
▁diplomat	-12310
▁entitled	-12311
▁extremes	-12312
▁fighters	-12313
▁graffiti	-12314
▁grounded	-12315
▁guidance	-12316
▁highways	-12317
▁implicit	-12318
▁needless	-12319
▁overlook	-12320
▁pantheon	-12321
▁policing	-12322
▁portable	-12323
▁receiver	-12324
▁redefine	-12325
▁sensible	-12326
▁shouting	-12327
▁sketches	-12328
▁stumbled	-12329
▁unimagin	-12330
▁unnecess	-12331
resolution	-12332
▁automated	-12333
▁bandwidth	-12334
▁belonging	-12335
▁cockroach	-12336
▁developer	-12337
▁explorers	-12338
▁geometric	-12339
▁imaginary	-12340
▁prejudice	-12341
▁schooling	-12342
▁supercond	-12343
▁synthesis	-12344
▁triangles	-12345
▁varieties	-12346
▁visionary	-12347
▁waterfall	-12348
▁advantages	-12349
▁analytical	-12350
▁beginnings	-12351
▁conception	-12352
▁contagious	-12353
▁influences	-12354
▁liberation	-12355
▁registered	-12356
▁restricted	-12357
▁standpoint	-12358
▁temptation	-12359
▁unemployed	-12360
▁departments	-12361
▁furthermore	-12362
▁inefficient	-12363
▁inexpensive	-12364
▁instability	-12365
▁methodology	-12366
▁scholarship	-12367
▁acceleration	-12368
▁conditioning	-12369
▁demographics	-12370
▁exploitation	-12371
▁malnutrition	-12372
▁neurological	-12373
▁restrictions	-12374
▁surroundings	-12375
▁massachusetts	-12376
▁presentations	-12377
.5	-12378
di	-12379
ko	-12380
rh	-12381
aba	-12382
abs	-12383
awi	-12384
ols	-12385
raz	-12386
rot	-12387
sim	-12388
was	-12389
▁34	-12390
▁47	-12391
▁53	-12392
▁74	-12393
▁eg	-12394
▁mg	-12395
▁pd	-12396
▁yr	-12397
acco	-12398
arat	-12399
atts	-12400
eled	-12401
imed	-12402
kill	-12403
lord	-12404
mach	-12405
mail	-12406
orse	-12407
otal	-12408
oter	-12409
pres	-12410
tebr	-12411
verb	-12412
▁13,	-12413
▁bac	-12414
▁cue	-12415
▁eag	-12416
▁gag	-12417
▁kan	-12418
▁len	-12419
▁mcc	-12420
▁piv	-12421
▁quo	-12422
▁tid	-12423
▁tou	-12424
apses	-12425
backs	-12426
first	-12427
hello	-12428
kings	-12429
lined	-12430
ocamp	-12431
oster	-12432
owned	-12433
wheel	-12434
▁2007	-12435
▁amph	-12436
▁aust	-12437
▁axes	-12438
▁balk	-12439
▁dian	-12440
▁doaa	-12441
▁echo	-12442
▁ethn	-12443
▁lazy	-12444
▁marg	-12445
▁moms	-12446
▁nerd	-12447
▁rept	-12448
▁stap	-12449
▁stub	-12450
▁swap	-12451
▁tire	-12452
▁unin	-12453
▁vest	-12454
▁wipe	-12455
acious	-12456
agraph	-12457
ateral	-12458
belief	-12459
funded	-12460
igible	-12461
itters	-12462
izable	-12463
listen	-12464
oulder	-12465
strong	-12466
worthy	-12467
▁allen	-12468
▁arose	-12469
▁bumps	-12470
▁burns	-12471
▁cheer	-12472
▁delta	-12473
▁doses	-12474
▁eager	-12475
▁icons	-12476
▁loops	-12477
▁maria	-12478
▁olive	-12479
▁overt	-12480
▁ozone	-12481
▁rhino	-12482
▁roger	-12483
▁rooft	-12484
▁scuba	-12485
▁secre	-12486
▁serge	-12487
▁slipp	-12488
▁spawn	-12489
▁swamp	-12490
▁theft	-12491
▁unity	-12492
▁vapor	-12493
▁vegas	-12494
▁volat	-12495
▁wreck	-12496
fashion	-12497
icating	-12498
massive	-12499
ocative	-12500
ometers	-12501
product	-12502
writing	-12503
▁acumen	-12504
▁aerial	-12505
▁coined	-12506
▁condem	-12507
▁digits	-12508
▁drinks	-12509
▁falcon	-12510
▁forbid	-12511
▁gallon	-12512
▁indoor	-12513
▁misery	-12514
▁myriad	-12515
▁potter	-12516
▁reimag	-12517
▁sought	-12518
▁thumbs	-12519
▁turing	-12520
▁ultras	-12521
▁venice	-12522
▁weekly	-12523
▁wilson	-12524
▁400,000	-12525
▁abusive	-12526
▁biotech	-12527
▁caltech	-12528
▁congrat	-12529
▁dangers	-12530
▁exhilar	-12531
▁forcing	-12532
▁grandma	-12533
▁katrina	-12534
▁manages	-12535
▁mediter	-12536
▁millise	-12537
▁nurture	-12538
▁painter	-12539
▁reperto	-12540
▁retired	-12541
▁satisfy	-12542
▁surplus	-12543
▁suscept	-12544
▁thunder	-12545
▁tropics	-12546
▁tunisia	-12547
▁watches	-12548
organized	-12549
▁amateurs	-12550
▁arriving	-12551
▁attorney	-12552
▁aviation	-12553
▁contexts	-12554
▁crashing	-12555
▁crawling	-12556
▁employed	-12557
▁flooding	-12558
▁founding	-12559
▁franklin	-12560
▁interrog	-12561
▁liberals	-12562
▁meantime	-12563
▁mobilize	-12564
▁occupied	-12565
▁princess	-12566
▁pristine	-12567
▁reacting	-12568
▁reactors	-12569
▁receives	-12570
▁rotating	-12571
▁russians	-12572
▁scottish	-12573
▁sessions	-12574
▁sunshine	-12575
▁thriving	-12576
▁tortured	-12577
▁visceral	-12578
▁volcanic	-12579
▁baltimore	-12580
▁combining	-12581
▁conductor	-12582
▁digitally	-12583
▁eradicate	-12584
▁fictional	-12585
▁firsthand	-12586
▁hippocamp	-12587
▁instincts	-12588
▁kilograms	-12589
▁mentality	-12590
▁norwegian	-12591
▁packaging	-12592
▁paragraph	-12593
▁rejection	-12594
▁relevance	-12595
▁selective	-12596
▁sequenced	-12597
▁streaming	-12598
▁stressful	-12599
▁venezuela	-12600
▁culturally	-12601
▁disruption	-12602
▁encryption	-12603
▁executives	-12604
▁fulfilling	-12605
▁globalized	-12606
▁homosexual	-12607
▁improbable	-12608
▁incomplete	-12609
▁indication	-12610
▁ironically	-12611
▁irrigation	-12612
▁perfection	-12613
▁pesticides	-12614
▁pollutants	-12615
▁presumably	-12616
▁propulsion	-12617
▁superpower	-12618
▁suspicious	-12619
▁vaccinated	-12620
▁worthwhile	-12621
▁abstraction	-12622
▁accompanied	-12623
▁anticipated	-12624
▁continually	-12625
▁friendships	-12626
▁fundraising	-12627
▁integrating	-12628
▁negotiating	-12629
▁negotiation	-12630
▁spontaneous	-12631
▁collaborator	-12632
▁combinations	-12633
▁requirements	-12634
▁resurrection	-12635
▁biotechnology	-12636
▁corresponding	-12637
▁incarceration	-12638
▁mediterranean	-12639
▁unpredictable	-12640
▁internationally	-12641
aud	-12642
bas	-12643
hmm	-12644
pot	-12645
roc	-12646
ulu	-12647
▁4:	-12648
▁82	-12649
▁iq	-12650
▁sr	-12651
airy	-12652
arer	-12653
bons	-12654
give	-12655
inas	-12656
ingo	-12657
isha	-12658
ller	-12659
omen	-12660
omin	-12661
onto	-12662
uate	-12663
uels	-12664
uten	-12665
weed	-12666
worm	-12667
▁125	-12668
▁16-	-12669
▁2.5	-12670
▁25,	-12671
▁99.	-12672
▁cem	-12673
▁edi	-12674
▁lol	-12675
▁mcg	-12676
▁ott	-12677
▁umb	-12678
ashes	-12679
bound	-12680
brain	-12681
olith	-12682
onica	-12683
woman	-12684
▁100-	-12685
▁1800	-12686
▁200-	-12687
▁asym	-12688
▁blob	-12689
▁bunk	-12690
▁coma	-12691
▁corp	-12692
▁grip	-12693
▁hats	-12694
▁hers	-12695
▁lied	-12696
▁lobe	-12697
▁lure	-12698
▁mash	-12699
▁numb	-12700
▁pets	-12701
▁pine	-12702
▁plun	-12703
▁rage	-12704
▁resh	-12705
▁retr	-12706
▁sabb	-12707
▁sars	-12708
▁skys	-12709
▁snap	-12710
▁spra	-12711
▁sput	-12712
▁swam	-12713
▁unve	-12714
▁warn	-12715
atized	-12716
charge	-12717
cripts	-12718
esteem	-12719
houses	-12720
imated	-12721
ocated	-12722
ospher	-12723
resses	-12724
▁2002,	-12725
▁agile	-12726
▁amput	-12727
▁appet	-12728
▁beeth	-12729
▁bever	-12730
▁bloom	-12731
▁blows	-12732
▁boson	-12733
▁bruce	-12734
▁essay	-12735
▁flown	-12736
▁fount	-12737
▁geeks	-12738
▁irish	-12739
▁kelly	-12740
▁kyoto	-12741
▁livel	-12742
▁orang	-12743
▁peaks	-12744
▁posts	-12745
▁ruins	-12746
▁scare	-12747
▁swear	-12748
▁urine	-12749
▁ushah	-12750
creatic	-12751
tension	-12752
▁antide	-12753
▁backup	-12754
▁balcon	-12755
▁barack	-12756
▁burial	-12757
▁compli	-12758
▁costly	-12759
▁crafts	-12760
▁crises	-12761
▁crowds	-12762
▁dining	-12763
▁elites	-12764
▁enzyme	-12765
▁floods	-12766
▁heated	-12767
▁hotels	-12768
▁hotter	-12769
▁ideals	-12770
▁incons	-12771
▁inputs	-12772
▁intest	-12773
▁joyful	-12774
▁lester	-12775
▁marcus	-12776
▁melody	-12777
▁noises	-12778
▁petals	-12779
▁poetic	-12780
▁polite	-12781
▁proves	-12782
▁quotes	-12783
▁spades	-12784
▁tapirs	-12785
▁triple	-12786
▁valued	-12787
▁wilder	-12788
cellular	-12789
conflict	-12790
osterone	-12791
sourcing	-12792
▁500,000	-12793
▁austria	-12794
▁battles	-12795
▁broadly	-12796
▁cleaner	-12797
▁crosses	-12798
▁customs	-12799
▁epiphan	-12800
▁erosion	-12801
▁escaped	-12802
▁evident	-12803
▁faculty	-12804
▁favelas	-12805
▁influen	-12806
▁margins	-12807
▁miracul	-12808
▁modules	-12809
▁monsoon	-12810
▁municip	-12811
▁mustard	-12812
▁placebo	-12813
▁railway	-12814
▁refined	-12815
▁relaxed	-12816
▁sapiens	-12817
▁scholar	-12818
▁siberia	-12819
▁signing	-12820
▁textile	-12821
▁unaware	-12822
▁unequal	-12823
▁vicious	-12824
▁volcano	-12825
roportion	-12826
▁biofuels	-12827
▁bleeding	-12828
▁blogging	-12829
▁borrowed	-12830
▁catalyst	-12831
▁climbers	-12832
▁develops	-12833
▁drowning	-12834
▁husbands	-12835
▁improves	-12836
▁invasive	-12837
▁juggling	-12838
▁lifelong	-12839
▁likewise	-12840
▁medieval	-12841
▁minimize	-12842
▁mistaken	-12843
▁murdered	-12844
▁procrast	-12845
▁protects	-12846
▁quarters	-12847
▁realizes	-12848
▁requests	-12849
▁scotland	-12850
▁searches	-12851
▁shortcut	-12852
▁smartest	-12853
▁solitary	-12854
▁synapses	-12855
▁treasure	-12856
▁underway	-12857
▁addresses	-12858
▁attending	-12859
▁attribute	-12860
▁beethoven	-12861
▁cellphone	-12862
▁charities	-12863
▁cognition	-12864
▁contracts	-12865
▁exquisite	-12866
▁hamburger	-12867
▁inventors	-12868
▁mysteries	-12869
▁northwest	-12870
▁nurturing	-12871
▁palestine	-12872
▁partially	-12873
▁personnel	-12874
▁predatory	-12875
▁preferred	-12876
▁reconnect	-12877
▁revealing	-12878
▁shrinking	-12879
▁stabilize	-12880
▁adventures	-12881
▁ambassador	-12882
▁criticized	-12883
▁divergence	-12884
▁geological	-12885
▁humanities	-12886
▁intangible	-12887
▁internship	-12888
▁nonviolent	-12889
▁pancreatic	-12890
▁programmer	-12891
▁randomness	-12892
▁reflecting	-12893
▁repertoire	-12894
▁responsive	-12895
▁translates	-12896
▁antidepress	-12897
▁appreciated	-12898
▁arrangement	-12899
▁automobiles	-12900
▁constrained	-12901
▁convenience	-12902
▁exceptional	-12903
▁lightweight	-12904
▁mammography	-12905
▁neighboring	-12906
▁prototyping	-12907
▁reinventing	-12908
▁acknowledged	-12909
▁astronomical	-12910
▁broadcasting	-12911
▁hypothetical	-12912
▁manufacturer	-12913
▁negotiations	-12914
▁neurogenesis	-12915
▁preservation	-12916
▁testosterone	-12917
▁differentiate	-12918
▁investigating	-12919
▁underestimate	-12920
▁cybercriminals	-12921
▁experimentation	-12922
hu	-12923
zo	-12924
400	-12925
aho	-12926
aic	-12927
chs	-12928
cko	-12929
eur	-12930
fur	-12931
iza	-12932
obi	-12933
ods	-12934
ois	-12935
pit	-12936
ppy	-12937
▁54	-12938
▁64	-12939
▁bc	-12940
▁kr	-12941
acks	-12942
amen	-12943
arin	-12944
atin	-12945
enti	-12946
high	-12947
home	-12948
ikes	-12949
nals	-12950
obia	-12951
only	-12952
opsy	-12953
phal	-12954
real	-12955
rust	-12956
some	-12957
type	-12958
vens	-12959
ymph	-12960
▁13.	-12961
▁189	-12962
▁abu	-12963
▁bmw	-12964
▁bog	-12965
▁gur	-12966
▁hes	-12967
▁hmm	-12968
▁nud	-12969
▁ove	-12970
▁phd	-12971
▁pup	-12972
▁seb	-12973
▁sri	-12974
▁são	-12975
▁tay	-12976
arthe	-12977
herom	-12978
ihood	-12979
names	-12980
otive	-12981
start	-12982
▁asyl	-12983
▁bass	-12984
▁beep	-12985
▁clut	-12986
▁deer	-12987
▁deny	-12988
▁emma	-12989
▁envy	-12990
▁feas	-12991
▁flop	-12992
▁gord	-12993
▁jaze	-12994
▁lent	-12995
▁pist	-12996
▁quiz	-12997
▁ramp	-12998
▁shir	-12999
▁tang	-13000
▁tect	-13001
▁watt	-13002
▁whip	-13003
▁worn	-13004
atemal	-13005
bility	-13006
energy	-13007
health	-13008
iously	-13009
uctive	-13010
ulsive	-13011
▁annoy	-13012
▁armor	-13013
▁beans	-13014
▁beats	-13015
▁bikes	-13016
▁billy	-13017
▁cubic	-13018
▁darpa	-13019
▁desal	-13020
▁exams	-13021
▁fairy	-13022
▁fatty	-13023
▁frees	-13024
▁holog	-13025
▁jeans	-13026
▁juris	-13027
▁lover	-13028
▁merch	-13029
▁milit	-13030
▁pixar	-13031
▁rabbi	-13032
▁relie	-13033
▁reuse	-13034
▁souls	-13035
▁spear	-13036
▁susan	-13037
▁synes	-13038
▁tails	-13039
▁teens	-13040
▁tutor	-13041
amation	-13042
artheid	-13043
ulously	-13044
▁abused	-13045
▁arises	-13046
▁biomim	-13047
▁brakes	-13048
▁camels	-13049
▁cardio	-13050
▁clicks	-13051
▁closet	-13052
▁compat	-13053
▁cruise	-13054
▁dissem	-13055
▁easter	-13056
▁evergl	-13057
▁gossip	-13058
▁jacket	-13059
▁makeup	-13060
▁parked	-13061
▁pherom	-13062
▁poland	-13063
▁poorer	-13064
▁praise	-13065
▁prizes	-13066
▁radius	-13067
▁rubble	-13068
▁samuel	-13069
▁serial	-13070
▁strand	-13071
▁suburb	-13072
▁throws	-13073
▁wounds	-13074
▁yields	-13075
ospheric	-13076
positive	-13077
▁barrels	-13078
▁bombing	-13079
▁convent	-13080
▁disagre	-13081
▁erectus	-13082
▁excerpt	-13083
▁filming	-13084
▁fishery	-13085
▁focuses	-13086
▁germans	-13087
▁indoors	-13088
▁jazeera	-13089
▁kidneys	-13090
▁lasting	-13091
▁lithium	-13092
▁mounted	-13093
▁optimal	-13094
▁rabbits	-13095
▁ranging	-13096
▁springs	-13097
▁strokes	-13098
▁toronto	-13099
▁tourism	-13100
▁unthink	-13101
▁veterin	-13102
▁worries	-13103
americans	-13104
▁airports	-13105
▁aquarium	-13106
▁archives	-13107
▁composer	-13108
▁currents	-13109
▁deterior	-13110
▁distress	-13111
▁donation	-13112
▁dragging	-13113
▁emission	-13114
▁employer	-13115
▁estrogen	-13116
▁guatemal	-13117
▁ignorant	-13118
▁insecure	-13119
▁journals	-13120
▁lawrence	-13121
▁margaret	-13122
▁marshall	-13123
▁maximize	-13124
▁meanings	-13125
▁monopoly	-13126
▁mortgage	-13127
▁pentagon	-13128
▁recreate	-13129
▁rewarded	-13130
▁schedule	-13131
▁settings	-13132
▁steering	-13133
▁stewards	-13134
▁strictly	-13135
▁ushahidi	-13136
industrial	-13137
▁academics	-13138
▁adulthood	-13139
▁appearing	-13140
▁confusing	-13141
▁distorted	-13142
▁intricate	-13143
▁intrigued	-13144
▁inventing	-13145
▁metaphors	-13146
▁pneumonia	-13147
▁preschool	-13148
▁providers	-13149
▁rectangle	-13150
▁reinforce	-13151
▁remembers	-13152
▁rendering	-13153
▁southwest	-13154
▁struggles	-13155
▁surprises	-13156
▁vibrating	-13157
▁viewpoint	-13158
▁accidental	-13159
▁animations	-13160
▁appliances	-13161
▁articulate	-13162
▁centigrade	-13163
▁centimeter	-13164
▁conspiracy	-13165
▁depressing	-13166
▁excellence	-13167
▁foreground	-13168
▁limitation	-13169
▁livelihood	-13170
▁outrageous	-13171
▁perceptual	-13172
▁prioritize	-13173
▁questioned	-13174
▁satisfying	-13175
▁simplistic	-13176
▁solidarity	-13177
▁starvation	-13178
▁adolescents	-13179
▁centimeters	-13180
▁distinctive	-13181
▁hippocampus	-13182
▁remittances	-13183
▁respiratory	-13184
▁smartphones	-13185
▁achievements	-13186
▁difficulties	-13187
▁interconnect	-13188
▁interviewing	-13189
▁disproportion	-13190
hs	-13191
ji	-13192
yo	-13193
awa	-13194
eye	-13195
fre	-13196
six	-13197
uan	-13198
▁1:	-13199
▁91	-13200
▁ao	-13201
▁cc	-13202
▁fg	-13203
▁gw	-13204
abad	-13205
cile	-13206
enet	-13207
gher	-13208
grou	-13209
hill	-13210
hire	-13211
ilst	-13212
kers	-13213
odox	-13214
prot	-13215
ques	-13216
rape	-13217
shot	-13218
stra	-13219
them	-13220
thet	-13221
tics	-13222
tles	-13223
wire	-13224
ylan	-13225
▁110	-13226
▁24/	-13227
▁aar	-13228
▁aur	-13229
▁aus	-13230
▁cia	-13231
▁cmu	-13232
▁cyn	-13233
▁nun	-13234
▁rou	-13235
ahren	-13236
eland	-13237
ieces	-13238
otent	-13239
ouver	-13240
pable	-13241
regon	-13242
ridge	-13243
watch	-13244
women	-13245
write	-13246
▁bald	-13247
▁boil	-13248
▁bono	-13249
▁cane	-13250
▁casc	-13251
▁clap	-13252
▁cran	-13253
▁doct	-13254
▁dodo	-13255
▁ella	-13256
▁fade	-13257
▁fung	-13258
▁geek	-13259
▁gira	-13260
▁kitt	-13261
▁lett	-13262
▁merc	-13263
▁peps	-13264
▁pope	-13265
▁quot	-13266
▁reli	-13267
▁riot	-13268
▁risd	-13269
▁rows	-13270
▁sank	-13271
▁seiz	-13272
▁tilt	-13273
▁writ	-13274
alling	-13275
asking	-13276
atical	-13277
cation	-13278
consum	-13279
giving	-13280
linear	-13281
rating	-13282
ulates	-13283
verbal	-13284
weeney	-13285
▁amino	-13286
▁cease	-13287
▁comed	-13288
▁deleg	-13289
▁dried	-13290
▁dylan	-13291
▁eyebr	-13292
▁freud	-13293
▁handy	-13294
▁hears	-13295
▁hitch	-13296
▁homin	-13297
▁idaho	-13298
▁iraqi	-13299
▁julia	-13300
▁leaks	-13301
▁lymph	-13302
▁neutr	-13303
▁nickn	-13304
▁niece	-13305
▁penic	-13306
▁poets	-13307
▁polls	-13308
▁quadr	-13309
▁reads	-13310
▁reply	-13311
▁ruled	-13312
▁saves	-13313
▁scrap	-13314
▁scrib	-13315
▁setup	-13316
▁spong	-13317
▁stagn	-13318
▁tales	-13319
▁trump	-13320
▁trunk	-13321
▁vinci	-13322
atively	-13323
chester	-13324
comfort	-13325
renched	-13326
▁affirm	-13327
▁asylum	-13328
▁backed	-13329
▁banker	-13330
▁behead	-13331
▁bookst	-13332
▁bumble	-13333
▁chunks	-13334
▁collar	-13335
▁comets	-13336
▁cooked	-13337
▁darfur	-13338
▁decomp	-13339
▁edited	-13340
▁embark	-13341
▁hacked	-13342
▁hiring	-13343
▁joints	-13344
▁junior	-13345
▁kenyan	-13346
▁lander	-13347
▁mantra	-13348
▁novels	-13349
▁openly	-13350
▁oregon	-13351
▁pirate	-13352
▁popped	-13353
▁portal	-13354
▁ripped	-13355
▁rushed	-13356
▁stated	-13357
▁taxpay	-13358
▁taylor	-13359
▁transf	-13360
▁wallet	-13361
▁wander	-13362
▁whilst	-13363
attering	-13364
educated	-13365
ithmetic	-13366
▁addicts	-13367
▁apprent	-13368
▁athlete	-13369
▁curtain	-13370
▁devised	-13371
▁drowned	-13372
▁fission	-13373
▁flipped	-13374
▁fractal	-13375
▁genital	-13376
▁incomes	-13377
▁invaded	-13378
▁janitor	-13379
▁justine	-13380
▁magnets	-13381
▁mandate	-13382
▁missile	-13383
▁overlap	-13384
▁paleont	-13385
▁payment	-13386
▁pension	-13387
▁proving	-13388
▁rehears	-13389
▁rightly	-13390
▁ringing	-13391
▁scripts	-13392
▁shallow	-13393
▁spirits	-13394
▁upwards	-13395
▁veteran	-13396
▁wolfram	-13397
ographing	-13398
▁absorbed	-13399
▁backward	-13400
▁behaving	-13401
▁blessing	-13402
▁clicking	-13403
▁coherent	-13404
▁collider	-13405
▁colombia	-13406
▁colonial	-13407
▁colorado	-13408
▁conceive	-13409
▁creators	-13410
▁crystall	-13411
▁demanded	-13412
▁depended	-13413
▁discrete	-13414
▁drilling	-13415
▁elevated	-13416
▁fairness	-13417
▁frequent	-13418
▁guessing	-13419
▁hierarch	-13420
▁literary	-13421
▁migraine	-13422
▁notebook	-13423
▁periodic	-13424
▁reminder	-13425
▁resemble	-13426
▁respects	-13427
▁scalable	-13428
▁secretly	-13429
▁severely	-13430
▁shortage	-13431
▁switches	-13432
▁sympathy	-13433
▁timeline	-13434
▁trusting	-13435
▁ambiguity	-13436
▁appealing	-13437
▁balancing	-13438
▁checklist	-13439
▁criticism	-13440
▁cultivate	-13441
▁darwinian	-13442
▁databases	-13443
▁defending	-13444
▁detectors	-13445
▁discourse	-13446
▁donations	-13447
▁educating	-13448
▁enjoyable	-13449
▁europeans	-13450
▁extensive	-13451
▁himalayas	-13452
▁historian	-13453
▁ministers	-13454
▁offensive	-13455
▁promotion	-13456
▁recruited	-13457
▁slaughter	-13458
▁stretched	-13459
▁triggered	-13460
▁trillions	-13461
▁whistling	-13462
▁aesthetics	-13463
▁aspiration	-13464
▁caregivers	-13465
▁devastated	-13466
▁downloaded	-13467
▁eliminated	-13468
▁eradicated	-13469
▁expressive	-13470
▁filmmakers	-13471
▁inadequate	-13472
▁indicators	-13473
▁obligation	-13474
▁officially	-13475
▁protesters	-13476
▁retrospect	-13477
▁settlement	-13478
▁synthesize	-13479
▁undercover	-13480
▁unfinished	-13481
▁diagnostics	-13482
▁exclusively	-13483
▁ideological	-13484
▁immigration	-13485
▁implication	-13486
▁incremental	-13487
▁suggestions	-13488
▁accidentally	-13489
▁constructive	-13490
▁contaminated	-13491
▁descriptions	-13492
▁psychiatrist	-13493
communications	-13494
▁decentralized	-13495
▁intrinsically	-13496
▁manifestation	-13497
▁unsustainable	-13498
▁cardiovascular	-13499
▁industrialized	-13500
▁reconstruction	-13501
▁neuroscientists	-13502
-'	-13503
ho	-13504
ng	-13505
sl	-13506
▁+	-13507
cro	-13508
fro	-13509
lit	-13510
mob	-13511
pol	-13512
squ	-13513
tan	-13514
tar	-13515
voc	-13516
▁41	-13517
▁58	-13518
▁68	-13519
▁8,	-13520
▁93	-13521
▁96	-13522
▁fm	-13523
▁ft	-13524
▁hg	-13525
▁nl	-13526
aser	-13527
bear	-13528
burn	-13529
coal	-13530
dles	-13531
heit	-13532
hran	-13533
hrir	-13534
icry	-13535
ilia	-13536
ippi	-13537
link	-13538
omon	-13539
orig	-13540
peer	-13541
pons	-13542
rett	-13543
tion	-13544
vana	-13545
▁11.	-13546
▁alf	-13547
▁bak	-13548
▁bid	-13549
▁bil	-13550
▁bye	-13551
▁cel	-13552
▁cnn	-13553
▁coh	-13554
▁dor	-13555
▁gum	-13556
▁heb	-13557
▁kel	-13558
▁nba	-13559
▁nih	-13560
▁sug	-13561
▁ups	-13562
▁viv	-13563
▁wil	-13564
5,000	-13565
ambia	-13566
ascar	-13567
aunch	-13568
bucks	-13569
cribe	-13570
forms	-13571
iotic	-13572
maybe	-13573
oplan	-13574
pical	-13575
raged	-13576
rians	-13577
setta	-13578
▁2001	-13579
▁apoc	-13580
▁bark	-13581
▁buys	-13582
▁carn	-13583
▁hull	-13584
▁jets	-13585
▁lava	-13586
▁marx	-13587
▁memo	-13588
▁merm	-13589
▁mism	-13590
▁myst	-13591
▁navy	-13592
▁neph	-13593
▁peel	-13594
▁prol	-13595
▁rift	-13596
▁ripp	-13597
▁sony	-13598
▁tops	-13599
▁unch	-13600
▁vanc	-13601
▁veil	-13602
ancies	-13603
anting	-13604
astian	-13605
icides	-13606
ivable	-13607
nessee	-13608
social	-13609
terior	-13610
terror	-13611
ulence	-13612
▁1995,	-13613
▁2013,	-13614
▁acron	-13615
▁banjo	-13616
▁beard	-13617
▁brink	-13618
▁cough	-13619
▁dunes	-13620
▁flame	-13621
▁geese	-13622
▁germs	-13623
▁grabs	-13624
▁hindu	-13625
▁hurry	-13626
▁impat	-13627
▁indef	-13628
▁indul	-13629
▁miami	-13630
▁motto	-13631
▁obliv	-13632
▁overd	-13633
▁rearr	-13634
▁shade	-13635
▁sober	-13636
▁stain	-13637
▁stein	-13638
▁stink	-13639
alities	-13640
discipl	-13641
driving	-13642
hearted	-13643
issippi	-13644
mission	-13645
ressive	-13646
sharing	-13647
▁80,000	-13648
▁bricks	-13649
▁carrot	-13650
▁creepy	-13651
▁discou	-13652
▁drople	-13653
▁dumped	-13654
▁enroll	-13655
▁gifted	-13656
▁indiff	-13657
▁innate	-13658
▁invade	-13659
▁mangro	-13660
▁meadow	-13661
▁microw	-13662
▁murray	-13663
▁oyster	-13664
▁pixels	-13665
▁primal	-13666
▁pushes	-13667
▁rabbit	-13668
▁racist	-13669
▁reagan	-13670
▁sealed	-13671
▁senate	-13672
▁shells	-13673
▁stockp	-13674
▁tahrir	-13675
▁tigers	-13676
▁turtle	-13677
▁unexpl	-13678
▁varied	-13679
▁wiring	-13680
aculture	-13681
jeopardy	-13682
▁boiling	-13683
▁cemeter	-13684
▁claimed	-13685
▁compart	-13686
▁crashed	-13687
▁elastic	-13688
▁exoplan	-13689
▁freeway	-13690
▁imposed	-13691
▁oakland	-13692
▁payload	-13693
▁pioneer	-13694
▁placing	-13695
▁rainbow	-13696
▁regimes	-13697
▁rosetta	-13698
▁servers	-13699
▁sneaker	-13700
▁sputnik	-13701
▁sterile	-13702
▁sticker	-13703
▁suffers	-13704
▁tiniest	-13705
▁tipping	-13706
▁titanic	-13707
▁uncover	-13708
▁vending	-13709
▁vibrant	-13710
▁virtues	-13711
ahrenheit	-13712
fashioned	-13713
generated	-13714
sensitive	-13715
wandering	-13716
▁adequate	-13717
▁ancestry	-13718
▁auditory	-13719
▁charcoal	-13720
▁communal	-13721
▁damaging	-13722
▁disposal	-13723
▁efficacy	-13724
▁emphasis	-13725
▁forehead	-13726
▁immersed	-13727
▁pinpoint	-13728
▁predicts	-13729
▁predomin	-13730
▁reconcil	-13731
▁rendered	-13732
▁rhetoric	-13733
▁richness	-13734
▁searched	-13735
▁speeches	-13736
▁starving	-13737
▁stimulus	-13738
▁stunning	-13739
▁suitable	-13740
▁survives	-13741
▁tensions	-13742
▁toughest	-13743
▁uploaded	-13744
organizing	-13745
▁certified	-13746
▁collapses	-13747
▁commander	-13748
▁extracted	-13749
▁fertility	-13750
▁genuinely	-13751
▁guatemala	-13752
▁horrified	-13753
▁immensely	-13754
▁inconsist	-13755
▁intermedi	-13756
▁monitored	-13757
▁orphanage	-13758
▁penetrate	-13759
▁repeating	-13760
▁starbucks	-13761
▁swallowed	-13762
▁switching	-13763
▁tennessee	-13764
▁thylacine	-13765
▁undermine	-13766
▁vancouver	-13767
▁victorian	-13768
appropriate	-13769
▁antibodies	-13770
▁attachment	-13771
▁calculator	-13772
▁capacities	-13773
▁cartoonist	-13774
▁complained	-13775
▁cumulative	-13776
▁deliberate	-13777
▁discomfort	-13778
▁everglades	-13779
▁illiterate	-13780
▁preserving	-13781
▁relational	-13782
▁supposedly	-13783
▁transforms	-13784
▁transistor	-13785
▁collections	-13786
▁counterpart	-13787
▁enlightened	-13788
▁fingerprint	-13789
▁flourishing	-13790
▁humiliation	-13791
▁immortality	-13792
▁mississippi	-13793
▁transistors	-13794
▁variability	-13795
▁announcement	-13796
▁fluctuations	-13797
▁incarcerated	-13798
▁effectiveness	-13799
▁establishment	-13800
▁functionality	-13801
▁installations	-13802
▁bioluminescence	-13803
-3	-13804
?]	-13805
mr	-13806
abe	-13807
ben	-13808
bly	-13809
fol	-13810
oqu	-13811
otr	-13812
pop	-13813
tun	-13814
uay	-13815
uci	-13816
urp	-13817
yer	-13818
▁3:	-13819
▁57	-13820
▁ps	-13821
▁rl	-13822
▁sj	-13823
amil	-13824
anor	-13825
arse	-13826
atma	-13827
bags	-13828
bell	-13829
chet	-13830
elve	-13831
glob	-13832
hole	-13833
iflu	-13834
iper	-13835
mies	-13836
opes	-13837
rise	-13838
safe	-13839
than	-13840
xtap	-13841
▁1.4	-13842
▁188	-13843
▁bbc	-13844
▁gle	-13845
▁hou	-13846
▁inh	-13847
▁nev	-13848
▁nik	-13849
▁onc	-13850
▁tad	-13851
▁wag	-13852
▁wiz	-13853
atics	-13854
blood	-13855
cards	-13856
corps	-13857
death	-13858
fting	-13859
giene	-13860
heard	-13861
illin	-13862
lived	-13863
marks	-13864
oking	-13865
rists	-13866
rovir	-13867
stood	-13868
umber	-13869
▁abys	-13870
▁alle	-13871
▁bail	-13872
▁boot	-13873
▁cern	-13874
▁coer	-13875
▁doug	-13876
▁dwar	-13877
▁fuse	-13878
▁lank	-13879
▁liar	-13880
▁lind	-13881
▁magg	-13882
▁maid	-13883
▁mans	-13884
▁maur	-13885
▁mite	-13886
▁odys	-13887
▁ohio	-13888
▁oral	-13889
▁pads	-13890
▁peek	-13891
▁perf	-13892
▁weed	-13893
▁weep	-13894
aments	-13895
ellers	-13896
global	-13897
growth	-13898
ounced	-13899
rapeut	-13900
saving	-13901
thesis	-13902
uation	-13903
▁1980,	-13904
▁1997,	-13905
▁2020.	-13906
▁agnes	-13907
▁biode	-13908
▁bites	-13909
▁botan	-13910
▁brute	-13911
▁cardi	-13912
▁carve	-13913
▁claws	-13914
▁crush	-13915
▁deriv	-13916
▁dimin	-13917
▁drank	-13918
▁endow	-13919
▁fonts	-13920
▁gecko	-13921
▁haunt	-13922
▁hosts	-13923
▁hunch	-13924
▁isaac	-13925
▁madag	-13926
▁maize	-13927
▁melan	-13928
▁moses	-13929
▁perme	-13930
▁pries	-13931
▁rainy	-13932
▁scars	-13933
▁shiny	-13934
▁shook	-13935
▁slate	-13936
▁sniff	-13937
▁tunas	-13938
▁unple	-13939
▁veins	-13940
amiliar	-13941
emption	-13942
limited	-13943
markets	-13944
onymous	-13945
versely	-13946
western	-13947
▁absent	-13948
▁acquis	-13949
▁ballet	-13950
▁bronze	-13951
▁carcin	-13952
▁charts	-13953
▁cliffs	-13954
▁curved	-13955
▁depict	-13956
▁devote	-13957
▁edison	-13958
▁europa	-13959
▁frugal	-13960
▁galile	-13961
▁gamble	-13962
▁hitler	-13963
▁insign	-13964
▁jurisd	-13965
▁juxtap	-13966
▁kibera	-13967
▁levers	-13968
▁modify	-13969
▁oftent	-13970
▁oliver	-13971
▁phthal	-13972
▁rebell	-13973
▁redund	-13974
▁refers	-13975
▁ruling	-13976
▁sewage	-13977
▁shocks	-13978
▁slices	-13979
▁spills	-13980
▁stereo	-13981
▁stunts	-13982
▁tapest	-13983
▁tehran	-13984
▁traded	-13985
▁twelve	-13986
▁visits	-13987
▁zipcar	-13988
aterials	-13989
ceptions	-13990
▁acronym	-13991
▁apparat	-13992
▁asymmet	-13993
▁auction	-13994
▁blanket	-13995
▁bullets	-13996
▁cafeter	-13997
▁derived	-13998
▁emailed	-13999
▁expands	-14000
▁fellows	-14001
▁hygiene	-14002
▁ideally	-14003
▁learner	-14004
▁loyalty	-14005
▁madness	-14006
▁mahatma	-14007
▁migrant	-14008
▁modular	-14009
▁monarch	-14010
▁outward	-14011
▁pharmac	-14012
▁popping	-14013
▁revenge	-14014
▁rushing	-14015
▁russell	-14016
▁syringe	-14017
▁tagging	-14018
▁tamiflu	-14019
▁tattoos	-14020
▁untouch	-14021
▁upgrade	-14022
▁uranium	-14023
astically	-14024
▁alarming	-14025
▁americas	-14026
▁animated	-14027
▁arranged	-14028
▁arteries	-14029
▁athletic	-14030
▁barefoot	-14031
▁churches	-14032
▁clapping	-14033
▁cochlear	-14034
▁declined	-14035
▁dictator	-14036
▁digitize	-14037
▁displace	-14038
▁enhanced	-14039
▁epiphany	-14040
▁founders	-14041
▁freedoms	-14042
▁headache	-14043
▁iranians	-14044
▁journeys	-14045
▁moisture	-14046
▁monument	-14047
▁mutually	-14048
▁notation	-14049
▁printers	-14050
▁profiles	-14051
▁railroad	-14052
▁removing	-14053
▁reviewed	-14054
▁rigorous	-14055
▁seasonal	-14056
▁sediment	-14057
▁tolerate	-14058
▁troubled	-14059
▁virtuous	-14060
confidence	-14061
▁advancing	-14062
▁apartheid	-14063
▁armstrong	-14064
▁augmented	-14065
▁billboard	-14066
▁boyfriend	-14067
▁byproduct	-14068
▁circuitry	-14069
▁competent	-14070
▁concluded	-14071
▁contribut	-14072
▁crocodile	-14073
▁detecting	-14074
▁disbelief	-14075
▁disparate	-14076
▁dominance	-14077
▁ingenious	-14078
▁memorable	-14079
▁messaging	-14080
▁periphery	-14081
▁populated	-14082
▁premature	-14083
▁prevalent	-14084
▁provision	-14085
▁reconcile	-14086
▁simulator	-14087
▁strongest	-14088
▁superhero	-14089
▁therapeut	-14090
▁traumatic	-14091
▁volcanoes	-14092
▁workshops	-14093
▁arithmetic	-14094
▁automotive	-14095
▁beekeepers	-14096
▁casualties	-14097
▁classmates	-14098
▁confession	-14099
▁downstairs	-14100
▁evaluation	-14101
▁extraction	-14102
▁fahrenheit	-14103
▁forgetting	-14104
▁guidelines	-14105
▁immigrants	-14106
▁madagascar	-14107
▁motorcycle	-14108
▁occupation	-14109
▁oftentimes	-14110
▁penicillin	-14111
▁powerfully	-14112
▁presidents	-14113
▁rebuilding	-14114
▁storycorps	-14115
▁telephones	-14116
▁ultrasound	-14117
▁unfamiliar	-14118
▁unpleasant	-14119
▁wilderness	-14120
▁atmospheres	-14121
▁atmospheric	-14122
▁centralized	-14123
▁certificate	-14124
▁contributes	-14125
▁degradation	-14126
▁desperation	-14127
▁eliminating	-14128
▁imaginative	-14129
▁incorporate	-14130
▁inhabitants	-14131
▁intentional	-14132
▁involvement	-14133
▁residential	-14134
▁restoration	-14135
▁simulations	-14136
▁susceptible	-14137
▁translating	-14138
▁unnecessary	-14139
▁availability	-14140
▁christianity	-14141
▁circumstance	-14142
▁commandments	-14143
▁commissioned	-14144
▁hypertension	-14145
▁standardized	-14146
▁transactions	-14147
▁unimaginable	-14148
▁characterized	-14149
▁collaborating	-14150
▁instinctively	-14151
▁participatory	-14152
▁supercomputer	-14153
▁accomplishment	-14154
▁bioluminescent	-14155
▁identification	-14156
▁neuroscientist	-14157
▁desertification	-14158
aha	-14159
ais	-14160
dem	-14161
eve	-14162
fif	-14163
gel	-14164
hou	-14165
ige	-14166
ipe	-14167
lab	-14168
sky	-14169
sts	-14170
uri	-14171
▁39	-14172
▁6.	-14173
▁73	-14174
▁97	-14175
▁ai	-14176
▁dd	-14177
▁jl	-14178
adus	-14179
aven	-14180
bury	-14181
cils	-14182
icus	-14183
note	-14184
olia	-14185
omer	-14186
rock	-14187
will	-14188
▁15.	-14189
▁60,	-14190
▁adh	-14191
▁aph	-14192
▁exx	-14193
▁gib	-14194
▁ike	-14195
▁imf	-14196
▁kur	-14197
▁lip	-14198
▁lur	-14199
▁nod	-14200
▁pdf	-14201
▁rav	-14202
▁til	-14203
▁vic	-14204
acher	-14205
adder	-14206
after	-14207
artic	-14208
awatt	-14209
occup	-14210
ogene	-14211
onies	-14212
space	-14213
▁1940	-14214
▁andy	-14215
▁bolt	-14216
▁dove	-14217
▁duke	-14218
▁ecst	-14219
▁eden	-14220
▁exos	-14221
▁flap	-14222
▁fuck	-14223
▁gaza	-14224
▁ideo	-14225
▁isab	-14226
▁ivan	-14227
▁jaws	-14228
▁joel	-14229
▁kent	-14230
▁leds	-14231
▁mell	-14232
▁mola	-14233
▁mong	-14234
▁quar	-14235
▁ruin	-14236
▁shru	-14237
▁sync	-14238
▁temp	-14239
▁vend	-14240
atable	-14241
change	-14242
contin	-14243
cribed	-14244
gender	-14245
ialect	-14246
namese	-14247
ologic	-14248
veling	-14249
writer	-14250
▁1,100	-14251
▁2015,	-14252
▁2050.	-14253
▁arabs	-14254
▁avian	-14255
▁barry	-14256
▁basin	-14257
▁blobs	-14258
▁blues	-14259
▁datas	-14260
▁denom	-14261
▁dubai	-14262
▁enact	-14263
▁encel	-14264
▁erase	-14265
▁euros	-14266
▁excav	-14267
▁filed	-14268
▁greed	-14269
▁hedge	-14270
▁ivory	-14271
▁jesse	-14272
▁lemon	-14273
▁mates	-14274
▁mitch	-14275
▁nanos	-14276
▁nests	-14277
▁pavil	-14278
▁pepsi	-14279
▁qatar	-14280
▁rebel	-14281
▁sciss	-14282
▁snail	-14283
▁steak	-14284
▁sunny	-14285
▁tires	-14286
▁unite	-14287
▁valve	-14288
▁wears	-14289
▁weave	-14290
osaurus	-14291
▁aerody	-14292
▁append	-14293
▁artery	-14294
▁awards	-14295
▁ballot	-14296
▁basics	-14297
▁browse	-14298
▁carved	-14299
▁castle	-14300
▁cellul	-14301
▁consol	-14302
▁courty	-14303
▁delete	-14304
▁expend	-14305
▁fiscal	-14306
▁flickr	-14307
▁forens	-14308
▁fungus	-14309
▁gently	-14310
▁gloves	-14311
▁gordon	-14312
▁guests	-14313
▁hadron	-14314
▁hijack	-14315
▁liking	-14316
▁melted	-14317
▁mighty	-14318
▁mimics	-14319
▁multim	-14320
▁nevada	-14321
▁optics	-14322
▁pepper	-14323
▁polish	-14324
▁prints	-14325
▁retain	-14326
▁segreg	-14327
▁stakes	-14328
▁sucked	-14329
▁swarms	-14330
▁toyota	-14331
▁venter	-14332
▁zoning	-14333
gression	-14334
▁arrives	-14335
▁bonobos	-14336
▁breasts	-14337
▁cameron	-14338
▁cleared	-14339
▁critics	-14340
▁crochet	-14341
▁durable	-14342
▁empires	-14343
▁extends	-14344
▁formats	-14345
▁futures	-14346
▁galileo	-14347
▁houston	-14348
▁imitate	-14349
▁inherit	-14350
▁lengths	-14351
▁lesters	-14352
▁mermaid	-14353
▁nursing	-14354
▁plotted	-14355
▁polymer	-14356
▁primord	-14357
▁psychic	-14358
▁skyscra	-14359
▁spotted	-14360
▁surfing	-14361
▁tactics	-14362
▁tearing	-14363
▁tougher	-14364
▁urgency	-14365
▁viewers	-14366
effective	-14367
▁achilles	-14368
▁agnostic	-14369
▁arguably	-14370
▁believer	-14371
▁belonged	-14372
▁bothered	-14373
▁browsing	-14374
▁constell	-14375
▁crystals	-14376
▁deceased	-14377
▁destined	-14378
▁dominate	-14379
▁earnings	-14380
▁exposing	-14381
▁flashing	-14382
▁foremost	-14383
▁governed	-14384
▁handsome	-14385
▁ignoring	-14386
▁integral	-14387
▁jonathan	-14388
▁landfill	-14389
▁maryland	-14390
▁mismatch	-14391
▁portland	-14392
▁provider	-14393
▁resulted	-14394
▁snapshot	-14395
▁stripped	-14396
▁systemic	-14397
▁triggers	-14398
▁tutoring	-14399
▁veronica	-14400
▁adversity	-14401
▁antarctic	-14402
▁apparatus	-14403
▁capturing	-14404
▁coalition	-14405
▁communist	-14406
▁enceladus	-14407
▁encrypted	-14408
▁extending	-14409
▁generator	-14410
▁headaches	-14411
▁inability	-14412
▁incidents	-14413
▁interfere	-14414
▁lifetimes	-14415
▁nanopatch	-14416
▁notorious	-14417
▁photoshop	-14418
▁pragmatic	-14419
▁proposing	-14420
▁rainwater	-14421
▁reservoir	-14422
▁resulting	-14423
▁sebastian	-14424
▁shattered	-14425
▁sidewalks	-14426
▁supernova	-14427
▁unlimited	-14428
▁villagers	-14429
▁clinically	-14430
▁commentary	-14431
▁encounters	-14432
▁freshwater	-14433
▁performers	-14434
▁persistent	-14435
[...]
