{
  "<unk>": 0,
  "<pad>": 0,
  "<s>": 0,
  "</s>": 0,
  "\u2581t": 0,
  "\u2581th": 1,
  "\u2581a": 2,
  "\u2581i": 3,
  "\u2581w": 4,
  "\u2581the": 5,
  "\u2581s": 6,
  "re": 7,
  "\u2581o": 8,
  "in": 9,
  "at": 10,
  "nd": 11,
  "er": 12,
  "ou": 13,
  "\u2581c": 14,
  "\u2581b": 15,
  "\u2581m": 16,
  "\u2581h": 17,
  "ing": 18,
  "\u2581and": 19,
  "en": 20,
  "\u2581to": 21,
  "\u2581p": 22,
  "on": 23,
  "\u2581f": 24,
  "\u2581d": 25,
  "an": 26,
  "es": 27,
  "\u2581of": 28,
  "or": 29,
  "ll": 30,
  "\u2581in": 31,
  "\u2581l": 32,
  "ed": 33,
  "is": 34,
  "\u2581y": 35,
  "it": 36,
  "ar": 37,
  "\u2581that": 38,
  "\u2581g": 39,
  "\u2581we": 40,
  "\u2581n": 41,
  "om": 42,
  "\u2581you": 43,
  "as": 44,
  "\u2581wh": 45,
  "\u2581it": 46,
  "ic": 47,
  "le": 48,
  "ve": 49,
  "al": 50,
  "\u2581e": 51,
  "\u2581be": 52,
  "\u2581is": 53,
  "ow": 54,
  "us": 55,
  "ut": 56,
  "ion": 57,
  "ot": 58,
  "et": 59,
  "\u2581re": 60,
  "\u2581on": 61,
  "\u2581ha": 62,
  "ent": 63,
  "ct": 64,
  "\u2581this": 65,
  "ld": 66,
  "ver": 67,
  "\u2581so": 68,
  "ay": 69,
  "se": 70,
  "all": 71,
  "ro": 72,
  "\u2581st": 73,
  "st": 74,
  "id": 75,
  "ig": 76,
  "ur": 77,
  "ly": 78,
  "ch": 79,
  "\u2581he": 80,
  "ke": 81,
  "\u2581for": 82,
  "ce": 83,
  "\u2581they": 84,
  "\u2581was": 85,
  "ra": 86,
  "\u2581an": 87,
  "im": 88,
  "\u2581do": 89,
  "\u2581are": 90,
  "ir": 91,
  "\u2581u": 92,
  "\u2581li": 93,
  "th": 94,
  "\u2581go": 95,
  "ith": 96,
  "op": 97,
  "ally": 98,
  "\u2581k": 99,
  "\u2581with": 100,
  "\u2581have": 101,
  "am": 102,
  "\u2581se": 103,
  "\u2581ab": 104,
  "\u2581but": 105,
  "\u2581what": 106,
  "\u2581can": 107,
  "\u2581as": 108,
  "\u2581mo": 109,
  "\u2581-": 110,
  "\u2581--": 111,
  "ation": 112,
  "\u2581j": 113,
  "out": 114,
  "ht": 115,
  "\u2581sh": 116,
  "ol": 117,
  "\u2581wor": 118,
  "\u2581ne": 119,
  "\u2581com": 120,
  "ere": 121,
  "\u2581at": 122,
  "\u2581me": 123,
  "ad": 124,
  "very": 125,
  "ould": 126,
  "\u2581ch": 127,
  "\u2581there": 128,
  "\u2581not": 129,
  "\u2581about": 130,
  "\u2581r": 131,
  "\u2581all": 132,
  "ill": 133,
  "ant": 134,
  "ter": 135,
  "ge": 136,
  "il": 137,
  "\u2581fr": 138,
  "ust": 139,
  "ul": 140,
  "\u2581som": 141,
  "oo": 142,
  "\u2581ex": 143,
  "\u2581my": 144,
  "ers": 145,
  "\u2581or": 146,
  "\u2581pro": 147,
  "\u2581de": 148,
  "use": 149,
  "ight": 150,
  "\u2581pe": 151,
  "\u2581one": 152,
  "\u2581\"": 153,
  "\u2581con": 154,
  "art": 155,
  "\u2581peop": 156,
  "\u2581like": 157,
  "\u2581people": 158,
  "um": 159,
  "ear": 160,
  "\u2581bec": 161,
  "pp": 162,
  "ck": 163,
  "\u2581ma": 164,
  "ess": 165,
  "ate": 166,
  "ies": 167,
  "ure": 168,
  "\u2581if": 169,
  "ity": 170,
  "\u2581from": 171,
  "ive": 172,
  "est": 173,
  "\u2581al": 174,
  "\u2581kn": 175,
  "\u2581v": 176,
  "\u2581our": 177,
  "ect": 178,
  "nt": 179,
  "ist": 180,
  "if": 181,
  "ble": 182,
  "qu": 183,
  "\u2581now": 184,
  "\u2581just": 185,
  "\u2581us": 186,
  "\u2581te": 187,
  "ind": 188,
  "\u2581out": 189,
  "ink": 190,
  "\u2581these": 191,
  "\u2581int": 192,
  "\u2581know": 193,
  "rou": 194,
  "ause": 195,
  "un": 196,
  "ook": 197,
  "\u2581sp": 198,
  "od": 199,
  "\u2581when": 200,
  "\u2581thing": 201,
  "\u2581because": 202,
  "\u2581them": 203,
  "\u2581see": 204,
  "\u2581tr": 205,
  "\u2581who": 206,
  "and": 207,
  "\u2581very": 208,
  "\u2581think": 209,
  "ie": 210,
  "\u2581up": 211,
  "os": 212,
  "her": 213,
  "ort": 214,
  "\u2581pl": 215,
  "\u2581get": 216,
  "\u2581by": 217,
  "\u2581some": 218,
  "\u2581how": 219,
  "ci": 220,
  "ich": 221,
  "\u2581going": 222,
  "\u2581act": 223,
  "iv": 224,
  "one": 225,
  "ain": 226,
  "\u2581more": 227,
  "\u25811": 228,
  "\u2581your": 229,
  "\u2581had": 230,
  "\u2581im": 231,
  "el": 232,
  "og": 233,
  "\u2581sa": 234,
  "\u2581year": 235,
  "\u2581tim": 236,
  "\u2581would": 237,
  "\u2581were": 238,
  "em": 239,
  "\u2581look": 240,
  "\u2581which": 241,
  "\u2581su": 242,
  "\u2581en": 243,
  "\u2581their": 244,
  "\u2581ta": 245,
  "our": 246,
  "ine": 247,
  "00": 248,
  "\u2581here": 249,
  "\u2581comp": 250,
  "ment": 251,
  "ame": 252,
  "\u2581work": 253,
  "\u2581want": 254,
  "\u2581really": 255,
  "ast": 256,
  "\u2581co": 257,
  "ap": 258,
  "\u2581than": 259,
  "iz": 260,
  "ually": 261,
  "\u2581le": 262,
  "ous": 263,
  ".\"": 264,
  "ard": 265,
  "act": 266,
  "\u2581then": 267,
  "\u2581world": 268,
  "gh": 269,
  "ack": 270,
  "are": 271,
  "\u2581every": 272,
  "reat": 273,
  "\u2581way": 274,
  "ose": 275,
  "hing": 276,
  "\u2581man": 277,
  "\u2581per": 278,
  "\u2581has": 279,
  "\u2581time": 280,
  "\u2581un": 281,
  "ans": 282,
  "\u2581ev": 283,
  "ab": 284,
  "\u2581oth": 285,
  "\u2581don": 286,
  "\u2581qu": 287,
  "\u2581no": 288,
  "res": 289,
  "ag": 290,
  "\u2581exp": 291,
  "\u2581could": 292,
  "\u2581actually": 293,
  "\u2581will": 294,
  "\u2581where": 295,
  "ide": 296,
  "\u2581fe": 297,
  "\u2581into": 298,
  "ace": 299,
  "ions": 300,
  "\u2581ag": 301,
  "\u2581say": 302,
  "ong": 303,
  "ore": 304,
  "ild": 305,
  "\u2581did": 306,
  "ence": 307,
  "ud": 308,
  "\u2581other": 309,
  "\u2581things": 310,
  "\u2581years": 311,
  "itt": 312,
  "\u2581am": 313,
  "\u2581somet": 314,
  "age": 315,
  "alk": 316,
  "\u2581any": 317,
  "\u2581tw": 318,
  "\u2581af": 319,
  "\u2581cl": 320,
  "\u2581right": 321,
  "nder": 322,
  "iff": 323,
  "\u2581pr": 324,
  "ach": 325,
  "\u2581new": 326,
  "\u2581been": 327,
  "\u2581she": 328,
  "\u2581make": 329,
  "ical": 330,
  "\u2581diff": 331,
  "\u2581happ": 332,
  "\u2581ar": 333,
  "so": 334,
  "\u2581well": 335,
  "\u2581need": 336,
  "ip": 337,
  "\u2581start": 338,
  "\u2581over": 339,
  "\u2581po": 340,
  "\u2581part": 341,
  "\u2581fir": 342,
  "\u2581ro": 343,
  "\u2581bu": 344,
  "\u25812": 345,
  "fe": 346,
  "\u2581said": 347,
  "red": 348,
  "\u2581dis": 349,
  "\u2581something": 350,
  "\u2581those": 351,
  "\u2581first": 352,
  "\u2581imp": 353,
  "ree": 354,
  "ice": 355,
  "ia": 356,
  "own": 357,
  "\u2581two": 358,
  "\u2581mu": 359,
  "ry": 360,
  "\u2581back": 361,
  "ite": 362,
  "\u2581lo": 363,
  "ount": 364,
  "ory": 365,
  "pt": 366,
  "round": 367,
  "\u2581chan": 368,
  "orm": 369,
  "\u2581much": 370,
  "\u2581got": 371,
  "ens": 372,
  "\u2581call": 373,
  "olog": 374,
  "ign": 375,
  "\u2581also": 376,
  "\u2581differe": 377,
  "ater": 378,
  "de": 379,
  "ass": 380,
  "ff": 381,
  "\u2581most": 382,
  "ound": 383,
  "\u2581ph": 384,
  "\u2581kind": 385,
  "sel": 386,
  "cent": 387,
  "ittle": 388,
  "ib": 389,
  "\u2581lot": 390,
  "\u2581little": 391,
  "\u2581spe": 392,
  "\u2581ac": 393,
  "\u2581cont": 394,
  "ue": 395,
  "\u2581talk": 396,
  "ac": 397,
  "ght": 398,
  "\u2581even": 399,
  "\u2581bet": 400,
  "ome": 401,
  "ple": 402,
  "way": 403,
  "ult": 404,
  "\u2581des": 405,
  "ber": 406,
  "\u2581his": 407,
  "\u2581only": 408,
  "ves": 409,
  "\u2581res": 410,
  "king": 411,
  "\u2581ad": 412,
  "vel": 413,
  "\u2581under": 414,
  "\u2581sy": 415,
  "ell": 416,
  "\u2581life": 417,
  "ving": 418,
  "ody": 419,
  "ru": 420,
  "ated": 421,
  "\u2581day": 422,
  "co": 423,
  "\u2581many": 424,
  "\u2581bl": 425,
  "rain": 426,
  "\u2581hum": 427,
  "ep": 428,
  "able": 429,
  "\u2581take": 430,
  "\u2581ind": 431,
  "ations": 432,
  "\u2581her": 433,
  "\u2581let": 434,
  "\u2581br": 435,
  "\u2581good": 436,
  "ms": 437,
  "\u2581different": 438,
  "ick": 439,
  "ph": 440,
  "\u2581comm": 441,
  "\u2581does": 442,
  "ial": 443,
  "ict": 444,
  "other": 445,
  "rough": 446,
  "ish": 447,
  "ood": 448,
  "\u2581real": 449,
  "int": 450,
  "\u2581around": 451,
  "ase": 452,
  "\u2581through": 453,
  "ire": 454,
  "\u2581ide": 455,
  "\u2581inter": 456,
  "du": 457,
  "\u2581down": 458,
  "\u2581may": 459,
  "\u2581put": 460,
  "pl": 461,
  "\u2581sc": 462,
  "ents": 463,
  "\u2581pre": 464,
  "\u2581\u266b": 465,
  "urn": 466,
  "cess": 467,
  "\u2581em": 468,
  "\u2581use": 469,
  "\u2581why": 470,
  "\u2581show": 471,
  "\u2581ra": 472,
  "\u2581being": 473,
  "\u2581tell": 474,
  "day": 475,
  "ark": 476,
  "\u2581off": 477,
  "\u2581fl": 478,
  "form": 479,
  "ors": 480,
  "\u2581sm": 481,
  "ress": 482,
  "ob": 483,
  "\u2581same": 484,
  "ade": 485,
  "\u2581inc": 486,
  "ible": 487,
  "\u2581too": 488,
  "ether": 489,
  "\u2581thou": 490,
  "\u2581happen": 491,
  "ary": 492,
  "\u2581gen": 493,
  "\u2581count": 494,
  "\u2581try": 495,
  "pe": 496,
  "ak": 497,
  "\u2581come": 498,
  "\u2581proble": 499,
  "ject": 500,
  "\u2581great": 501,
  "ance": 502,
  "ath": 503,
  "\u2581big": 504,
  "wn": 505,
  "\u2581fact": 506,
  "chn": 507,
  "ars": 508,
  "stem": 509,
  "xt": 510,
  "\u2581three": 511,
  "ys": 512,
  "ful": 513,
  "\u2581human": 514,
  "ang": 515,
  "iver": 516,
  "ual": 517,
  "\u2581gr": 518,
  "\u2581techn": 519,
  "\u2581find": 520,
  "\u2581doing": 521,
  "ning": 522,
  "\u2581tra": 523,
  "ile": 524,
  "\u2581wr": 525,
  "ces": 526,
  "\u2581pers": 527,
  "ord": 528,
  "we": 529,
  "\u2581app": 530,
  "\u2581sur": 531,
  "ting": 532,
  "per": 533,
  "\u2581thank": 534,
  "\u2581gu": 535,
  "\u2581again": 536,
  "ved": 537,
  "ric": 538,
  "\u2581after": 539,
  "ower": 540,
  "\u2581system": 541,
  "ically": 542,
  "\u2581percent": 543,
  "\u2581dec": 544,
  "\u2581build": 545,
  "\u2581stud": 546,
  "ied": 547,
  "\u2581sim": 548,
  "\u2581child": 549,
  "illion": 550,
  "nds": 551,
  "ology": 552,
  "thing": 553,
  "body": 554,
  "igh": 555,
  "fore": 556,
  "ren": 557,
  "\u2581wom": 558,
  "\u2581called": 559,
  "ons": 560,
  "\u2581inv": 561,
  "self": 562,
  "\u2581rem": 563,
  "be": 564,
  "\u2581today": 565,
  "cial": 566,
  "\u2581quest": 567,
  "\u2581inst": 568,
  "\u2581long": 569,
  "ition": 570,
  "\u2581exper": 571,
  "\u2581bel": 572,
  "\u2581fo": 573,
  "\u2581made": 574,
  "ious": 575,
  "ities": 576,
  "\u2581ear": 577,
  "\u2581lear": 578,
  "ics": 579,
  "\u2581should": 580,
  "\u2581own": 581,
  "ating": 582,
  "\u2581ob": 583,
  "\u2581car": 584,
  "\u2581import": 585,
  "\u2581turn": 586,
  "ize": 587,
  "ft": 588,
  "te": 589,
  "\u2581underst": 590,
  "\u2581sci": 591,
  "ates": 592,
  "\u2581hel": 593,
  "les": 594,
  "oss": 595,
  "\u2581gl": 596,
  "\u2581bas": 597,
  "\u2581sch": 598,
  "\u2581change": 599,
  "con": 600,
  "wh": 601,
  "ian": 602,
  "\u2581didn": 603,
  "\u2581last": 604,
  "\u2581bo": 605,
  "erest": 606,
  "ub": 607,
  "\u2581design": 608,
  "\u2581another": 609,
  "\u2581feel": 610,
  "\u2581cour": 611,
  "ty": 612,
  "\u2581mean": 613,
  "\u2581started": 614,
  "\u2581ke": 615,
  "\u2581end": 616,
  "\u2581ask": 617,
  "\u2581person": 618,
  "av": 619,
  "\u2581thought": 620,
  "ction": 621,
  "\u2581important": 622,
  "000": 623,
  "\u2581cr": 624,
  "\u2581him": 625,
  "\u2581idea": 626,
  "als": 627,
  "\u2581its": 628,
  "\u2581interest": 629,
  "\u2581creat": 630,
  "\u2581gra": 631,
  "\u2581brain": 632,
  "\u2581rel": 633,
  "\u2581trans": 634,
  "ail": 635,
  "\u2581play": 636,
  "\u2581before": 637,
  "?\"": 638,
  "\u2581ins": 639,
  "gan": 640,
  "\u2581exam": 641,
  "\u2581fu": 642,
  "\u2581understand": 643,
  "\u2581coll": 644,
  "\u2581never": 645,
  "\u2581better": 646,
  "\u2581help": 647,
  "\u2581went": 648,
  "\u2581dr": 649,
  "ool": 650,
  "\u2581give": 651,
  "\u2581might": 652,
  ",000": 653,
  "ution": 654,
  "\u2581pol": 655,
  "\u2581mon": 656,
  "\u25813": 657,
  "\u2581cons": 658,
  "ily": 659,
  "\u2581imag": 660,
  "ists": 661,
  "ough": 662,
  "\u2581bit": 663,
  "ise": 664,
  "\u2581la": 665,
  "ility": 666,
  "\u2581problem": 667,
  "\u2581found": 668,
  "\u2581point": 669,
  "\u2581sl": 670,
  "\u2581power": 671,
  "ular": 672,
  "\u2581able": 673,
  "\u2581still": 674,
  "\u2581sol": 675,
  "\u2581plan": 676,
  "\u2581produ": 677,
  "\u2581course": 678,
  "\u2581tog": 679,
  "\u2581belie": 680,
  "\u2581story": 681,
  "\u2581together": 682,
  "\u2581commun": 683,
  "ros": 684,
  "\u2581ele": 685,
  "\u2581fam": 686,
  "\u2581school": 687,
  "\u2581num": 688,
  "lic": 689,
  "\u2581next": 690,
  "\u2581ent": 691,
  "atter": 692,
  "\u2581few": 693,
  "ert": 694,
  "kes": 695,
  "\u2581high": 696,
  "\u2581kid": 697,
  "\u2581each": 698,
  "\u2581hu": 699,
  "ix": 700,
  "\u2581med": 701,
  "\u2581eng": 702,
  "oth": 703,
  "\u2581water": 704,
  "\u2581art": 705,
  "eric": 706,
  "\u2581ago": 707,
  "alth": 708,
  "ited": 709,
  "\u2581str": 710,
  "\u2581place": 711,
  "\u2581sort": 712,
  "\u2581came": 713,
  "erg": 714,
  "\u2581dat": 715,
  "uc": 716,
  "atch": 717,
  "\u2581mod": 718,
  "velop": 719,
  "mo": 720,
  "\u2581fin": 721,
  "ave": 722,
  "ween": 723,
  "\u2581cent": 724,
  "arch": 725,
  "\u258119": 726,
  "\u2581ser": 727,
  "\u2581ter": 728,
  "\u2581comple": 729,
  "\u2581learn": 730,
  "\u258120": 731,
  "ather": 732,
  "\u2581seco": 733,
  "\u2581between": 734,
  "ense": 735,
  "\u2581rec": 736,
  "\u2581used": 737,
  "\u2581women": 738,
  "read": 739,
  "\u2581technology": 740,
  "iss": 741,
  "\u2581develop": 742,
  "ized": 743,
  "\u2581ext": 744,
  "ward": 745,
  "ness": 746,
  "\u2581four": 747,
  "\u2581met": 748,
  "ience": 749,
  "old": 750,
  "\u2581ed": 751,
  "\u2581min": 752,
  "\u2581question": 753,
  "\u2581data": 754,
  "\u2581nat": 755,
  "\u2581op": 756,
  "\u2581ok": 757,
  "\u2581small": 758,
  "\u258110": 759,
  "\u2581att": 760,
  "ork": 761,
  "\u2581love": 762,
  "\u2581cre": 763,
  ",\"": 764,
  "ures": 765,
  "\u2581mom": 766,
  "\u2581looking": 767,
  "\u2581old": 768,
  "\u2581maybe": 769,
  "ines": 770,
  "ets": 771,
  "\u2581grow": 772,
  "\u2581comput": 773,
  "az": 774,
  "ways": 775,
  "\u2581americ": 776,
  "\u2581care": 777,
  "ram": 778,
  "\u2581partic": 779,
  "\u2581el": 780,
  "\u2581example": 781,
  "ven": 782,
  "ger": 783,
  "\u2581doesn": 784,
  "ific": 785,
  "\u2581move": 786,
  "\u2581eff": 787,
  "\u2581light": 788,
  "ered": 789,
  "\u2581done": 790,
  "\u2581word": 791,
  "\u2581read": 792,
  "\u2581wanted": 793,
  "\u2581ever": 794,
  "\u2581rep": 795,
  "ced": 796,
  "\u2581bi": 797,
  "\u2581far": 798,
  "\u2581lar": 799,
  "ute": 800,
  "\u2581mus": 801,
  "iness": 802,
  "ably": 803,
  "cept": 804,
  "\u2581cap": 805,
  "\u2581hard": 806,
  "\u2581beh": 807,
  "\u2581bus": 808,
  "cy": 809,
  "\u2581stu": 810,
  "\u2581cell": 811,
  "\u2581whole": 812,
  "\u2581inform": 813,
  "\u2581reas": 814,
  "conom": 815,
  "\u2581war": 816,
  "\u2581live": 817,
  "\u2581children": 818,
  "\u2581chang": 819,
  "ross": 820,
  "\u2581health": 821,
  "\u2581second": 822,
  "\u2581trying": 823,
  "\u2581econom": 824,
  "\u2581poss": 825,
  "ings": 826,
  "\u2581million": 827,
  "ational": 828,
  "\u2581sk": 829,
  "\u2581less": 830,
  "\u2581expl": 831,
  "\u2581giv": 832,
  "ative": 833,
  "oney": 834,
  "\u2581gener": 835,
  "\u2581always": 836,
  "selves": 837,
  "ands": 838,
  "ah": 839,
  "\u2581supp": 840,
  "\u2581working": 841,
  "ote": 842,
  "\u2581away": 843,
  "\u2581project": 844,
  "ope": 845,
  "ism": 846,
  "\u2581country": 847,
  "\u2581believe": 848,
  "\u2581cor": 849,
  "ps": 850,
  "\u2581ca": 851,
  "\u2581univer": 852,
  "\u2581everything": 853,
  "ments": 854,
  "\u25815": 855,
  "..": 856,
  "\u2581resp": 857,
  "cer": 858,
  "\u2581afric": 859,
  "ural": 860,
  "\u2581book": 861,
  "\u2581five": 862,
  "ird": 863,
  "ne": 864,
  "\u2581space": 865,
  "ries": 866,
  "\u2581sub": 867,
  "\u2581open": 868,
  "\u2581form": 869,
  "\u2581using": 870,
  "\u2581number": 871,
  "\u2581anim": 872,
  "\u2581organ": 873,
  "\u2581cou": 874,
  "\u2581vis": 875,
  "\u2581run": 876,
  "\u2581frie": 877,
  "\u2581pict": 878,
  "no": 879,
  "\u2581home": 880,
  "\u2581inf": 881,
  "nect": 882,
  "vers": 883,
  "ruct": 884,
  "\u2581pres": 885,
  "hip": 886,
  "\u2581information": 887,
  "\u2581means": 888,
  "\u2581thinking": 889,
  "\u2581intern": 890,
  "\u2581money": 891,
  "ead": 892,
  "\u2581pub": 893,
  "ks": 894,
  "\u2581took": 895,
  "\u2581prob": 896,
  "\u2581lead": 897,
  "gin": 898,
  "\u2581times": 899,
  "\u2581acc": 900,
  "\u2581sing": 901,
  "\u2581hand": 902,
  "\u2581compan": 903,
  "led": 904,
  "vern": 905,
  "\u25814": 906,
  "\u2581kids": 907,
  "\u2581create": 908,
  "gg": 909,
  "\u2581prog": 910,
  "\u2581reg": 911,
  "\u2581doll": 912,
  "cr": 913,
  "its": 914,
  "ues": 915,
  "\u2581spec": 916,
  "\u2581walk": 917,
  "\u2581teach": 918,
  "\u2581become": 919,
  "aces": 920,
  "ract": 921,
  "\u2581process": 922,
  "\u2581mind": 923,
  "ital": 924,
  "ten": 925,
  "\u2581fut": 926,
  "\u2581govern": 927,
  "air": 928,
  "ock": 929,
  "\u2581glob": 930,
  "\u2581head": 931,
  "\u2581left": 932,
  "\u2581mark": 933,
  "\u2581cle": 934,
  "\u2581interesting": 935,
  "alf": 936,
  "ale": 937,
  "\u2581best": 938,
  "ouse": 939,
  "\u2581getting": 940,
  "\u2581energ": 941,
  "\u2581social": 942,
  "\u2581set": 943,
  "aut": 944,
  "\u2581enough": 945,
  "sw": 946,
  "\u2581quite": 947,
  "\u2581conf": 948,
  "pr": 949,
  "\u2581grou": 950,
  "\u2581future": 951,
  "\u2581pat": 952,
  "iew": 953,
  "ention": 954,
  "\u2581food": 955,
  "\u2581month": 956,
  "\u2581cam": 957,
  "\u2581wo": 958,
  "ull": 959,
  "iting": 960,
  "\u2581comes": 961,
  "\u2581jo": 962,
  "\u2581cur": 963,
  "\u2581contro": 964,
  "ew": 965,
  "\u2581probably": 966,
  "\u2581fun": 967,
  "\u2581earth": 968,
  "\u2581making": 969,
  "ories": 970,
  "\u2581energy": 971,
  "\u2581z": 972,
  "ont": 973,
  "\u2581city": 974,
  "\u2581connect": 975,
  "\u2581add": 976,
  "\u2581without": 977,
  "\u2581sign": 978,
  "\u2581sense": 979,
  "\u2581happened": 980,
  "\u2581gre": 981,
  "\u2581talking": 982,
  "\u2581answ": 983,
  "ety": 984,
  "\u2581pass": 985,
  "\u2581job": 986,
  "\u2581science": 987,
  "\u2581men": 988,
  "\u2581pop": 989,
  "\u2581building": 990,
  "ever": 991,
  "\u2581youn": 992,
  "\u2581pret": 993,
  "\u2581told": 994,
  "ertain": 995,
  "\u2581elect": 996,
  "\u2581countries": 997,
  "\u2581phys": 998,
  "ier": 999,
  "\u2581body": 1000,
  "\u2581hist": 1001,
  "\u2581keep": 1002,
  "ts": 1003,
  "\u2581room": 1004,
  "\u2581char": 1005,
  "\u2581sw": 1006,
  "\u2581begin": 1007,
  "ately": 1008,
  "vir": 1009,
  "\u2581model": 1010,
  "\u2581moment": 1011,
  "\u2581stuff": 1012,
  "cus": 1013,
  "\u2581eas": 1014,
  "\u2581wee": 1015,
  "\u2581pretty": 1016,
  "\u2581air": 1017,
  "\u2581prot": 1018,
  "ices": 1019,
  "\u2581half": 1020,
  "\u2581allow": 1021,
  "\u2581side": 1022,
  "\u2581soci": 1023,
  "\u2581col": 1024,
  "\u2581rese": 1025,
  "\u2581reason": 1026,
  "ient": 1027,
  "ying": 1028,
  "\u2581beaut": 1029,
  "\u2581business": 1030,
  "nce": 1031,
  "\u2581opp": 1032,
  "\u2581dist": 1033,
  "\u2581anything": 1034,
  "\u2581top": 1035,
  "\u2581such": 1036,
  "ner": 1037,
  "\u2581else": 1038,
  "\u2581coming": 1039,
  "\u2581dollars": 1040,
  "me": 1041,
  "\u2581stop": 1042,
  "\u2581lives": 1043,
  "\u2581ty": 1044,
  "\u2581par": 1045,
  "\u2581pie": 1046,
  "\u2581imagine": 1047,
  "viron": 1048,
  "\u2581amaz": 1049,
  "\u2581global": 1050,
  "\u2581scient": 1051,
  "\u2581environ": 1052,
  "arr": 1053,
  "\u2581across": 1054,
  "gs": 1055,
  "ogra": 1056,
  "\u2581bad": 1057,
  "ember": 1058,
  "\u2581once": 1059,
  "\u2581sound": 1060,
  "\u2581saw": 1061,
  "\u2581ord": 1062,
  "\u2581later": 1063,
  "\u2581research": 1064,
  "\u2581educ": 1065,
  "\u2581wa": 1066,
  "\u2581matter": 1067,
  "where": 1068,
  "\u2581aut": 1069,
  "\u2581hope": 1070,
  "\u2581det": 1071,
  "ality": 1072,
  "\u2581stand": 1073,
  "uring": 1074,
  "\u2581bring": 1075,
  "\u2581young": 1076,
  "\u2581rob": 1077,
  "\u2581family": 1078,
  "lf": 1079,
  "most": 1080,
  "fect": 1081,
  "ince": 1082,
  "\u2581while": 1083,
  "idd": 1084,
  "ior": 1085,
  "\u2581makes": 1086,
  "\u2581seen": 1087,
  "\u2581ey": 1088,
  "\u2581living": 1089,
  "\u2581face": 1090,
  "\u2581says": 1091,
  "\u2581having": 1092,
  "\u2581yet": 1093,
  "io": 1094,
  "\u2581200": 1095,
  "\u2581val": 1096,
  "\u2581fore": 1097,
  "\u2581simple": 1098,
  "ided": 1099,
  "\u2581fig": 1100,
  "\u2581particular": 1101,
  "\u2581asked": 1102,
  "\u2581share": 1103,
  "ortun": 1104,
  "olution": 1105,
  "ream": 1106,
  "\u2581hour": 1107,
  "man": 1108,
  "\u2581list": 1109,
  "\u2581africa": 1110,
  "\u2581experience": 1111,
  "\u2581bre": 1112,
  "\u2581case": 1113,
  "ken": 1114,
  "\u2581cult": 1115,
  "\u2581sit": 1116,
  "\u2581prof": 1117,
  "\u2581ways": 1118,
  "imes": 1119,
  "\u2581goes": 1120,
  "\u2581six": 1121,
  "\u2581equ": 1122,
  "\u2581mil": 1123,
  "\u2581watch": 1124,
  "\u2581happens": 1125,
  "\u2581mor": 1126,
  "\u2581complete": 1127,
  "irl": 1128,
  "ots": 1129,
  "ization": 1130,
  "\u2581days": 1131,
  "\u2581effect": 1132,
  "\u2581almost": 1133,
  "llow": 1134,
  "ught": 1135,
  "\u2581both": 1136,
  "\u2581computer": 1137,
  "\u2581wonder": 1138,
  "\u2581thous": 1139,
  "\u2581ref": 1140,
  "\u2581phot": 1141,
  "\u2581planet": 1142,
  "\u2581nothing": 1143,
  "\u2581picture": 1144,
  "the": 1145,
  "\u2581lab": 1146,
  "\u2581basically": 1147,
  "\u2581mach": 1148,
  "\u2581states": 1149,
  "\u2581polit": 1150,
  "\u2581sure": 1151,
  "oc": 1152,
  "\u2581public": 1153,
  "\u2581whether": 1154,
  "\u2581remember": 1155,
  "\u2581loc": 1156,
  "ready": 1157,
  "\u2581single": 1158,
  "ott": 1159,
  "\u2581environment": 1160,
  "iter": 1161,
  "\u2581level": 1162,
  "\u2581mem": 1163,
  "\u2581test": 1164,
  "\u2581inside": 1165,
  "\u2581dise": 1166,
  "\u2581already": 1167,
  "\u2581rest": 1168,
  "ilt": 1169,
  "ina": 1170,
  "\u2581within": 1171,
  "\u2581problems": 1172,
  "allen": 1173,
  "\u2581vide": 1174,
  "\u2581certain": 1175,
  "ash": 1176,
  "arent": 1177,
  "ants": 1178,
  "\u2581def": 1179,
  "\u2581okay": 1180,
  "\u2581lang": 1181,
  "\u2581age": 1182,
  "med": 1183,
  "aps": 1184,
  "ime": 1185,
  "\u2581unt": 1186,
  "\u2581saying": 1187,
  "\u2581someone": 1188,
  "orn": 1189,
  "\u2581community": 1190,
  "ank": 1191,
  "ograph": 1192,
  "\u2581langu": 1193,
  "ulation": 1194,
  "\u2581music": 1195,
  "\u2581state": 1196,
  "\u2581ge": 1197,
  "na": 1198,
  "\u2581hear": 1199,
  "\u2581sou": 1200,
  "cl": 1201,
  "\u2581everybody": 1202,
  "unch": 1203,
  "\u2581pain": 1204,
  "\u2581control": 1205,
  "\u2581suc": 1206,
  "\u2581looked": 1207,
  "\u2581billion": 1208,
  "ins": 1209,
  "\u2581girl": 1210,
  "\u2581answer": 1211,
  "\u2581disco": 1212,
  "\u2581che": 1213,
  "\u2581history": 1214,
  "ases": 1215,
  "\u2581possible": 1216,
  "ivid": 1217,
  "\u2581often": 1218,
  "osed": 1219,
  "\u2581ass": 1220,
  "\u2581exact": 1221,
  "\u2581contin": 1222,
  "\u2581challen": 1223,
  "\u2581incred": 1224,
  "ury": 1225,
  "\u2581amazing": 1226,
  "\u2581ideas": 1227,
  "less": 1228,
  "\u2581iss": 1229,
  "\u2581yes": 1230,
  "\u2581cost": 1231,
  "\u2581treat": 1232,
  "\u2581wrong": 1233,
  "\u2581looks": 1234,
  "work": 1235,
  "\u2581dev": 1236,
  "\u2581heart": 1237,
  "imate": 1238,
  "itive": 1239,
  "\u2581product": 1240,
  "\u2581dire": 1241,
  "\u2581true": 1242,
  "\u2581beautif": 1243,
  "ern": 1244,
  "ange": 1245,
  "\u2581sometimes": 1246,
  "\u2581guy": 1247,
  "\u2581sec": 1248,
  "\u2581net": 1249,
  "\u2581myself": 1250,
  "\u2581law": 1251,
  "\u2581[": 1252,
  "\u2581vir": 1253,
  "\u2581ted": 1254,
  "oice": 1255,
  "\u2581united": 1256,
  "ield": 1257,
  "\u2581news": 1258,
  "\u2581night": 1259,
  "\u2581di": 1260,
  "\u2581mag": 1261,
  "\u2581large": 1262,
  "\u2581months": 1263,
  "side": 1264,
  "nding": 1265,
  "\u2581instead": 1266,
  "\u2581self": 1267,
  "\u2581adv": 1268,
  "\u2581nor": 1269,
  "ware": 1270,
  "\u2581kill": 1271,
  "\u2581since": 1272,
  "ndred": 1273,
  "\u2581stre": 1274,
  "\u2581hundred": 1275,
  "lish": 1276,
  "pect": 1277,
  "ters": 1278,
  "ages": 1279,
  "cle": 1280,
  "ron": 1281,
  "ering": 1282,
  "aterial": 1283,
  "\u2581full": 1284,
  "\u2581class": 1285,
  "\u2581heard": 1286,
  "\u2581until": 1287,
  "\u2581entire": 1288,
  "\u2581group": 1289,
  "\u2581individ": 1290,
  "\u2581wasn": 1291,
  "\u2581cond": 1292,
  "\u2581figure": 1293,
  "\u2581government": 1294,
  "oy": 1295,
  "bers": 1296,
  "ians": 1297,
  "\u2581tre": 1298,
  "\u258115": 1299,
  "\u2581fil": 1300,
  "\u2581works": 1301,
  "utes": 1302,
  "\u2581house": 1303,
  "\u2581terr": 1304,
  "\u2581cells": 1305,
  "\u2581words": 1306,
  "\u2581beautiful": 1307,
  "uro": 1308,
  "\u2581isn": 1309,
  "\u2581friends": 1310,
  "ivity": 1311,
  "\u2581god": 1312,
  "\u2581100": 1313,
  "\u2581mic": 1314,
  "ired": 1315,
  "\u2581exc": 1316,
  "\u2581cra": 1317,
  "\u2581ris": 1318,
  "\u2581built": 1319,
  "vious": 1320,
  "\u2581order": 1321,
  "ives": 1322,
  "\u2581aud": 1323,
  "land": 1324,
  "iddle": 1325,
  "\u2581incre": 1326,
  "\u2581pay": 1327,
  "\u2581woman": 1328,
  "br": 1329,
  "\u258130": 1330,
  "\u25816": 1331,
  "\u2581appro": 1332,
  "\u2581couple": 1333,
  "\u2581must": 1334,
  "\u2581ret": 1335,
  "\u2581cancer": 1336,
  "\u2581individual": 1337,
  "\u2581internet": 1338,
  "ene": 1339,
  "\u2581result": 1340,
  "get": 1341,
  "\u2581front": 1342,
  "\u2581video": 1343,
  "\u2581material": 1344,
  "\u2581const": 1345,
  "\u2581'": 1346,
  "eah": 1347,
  "\u2581dra": 1348,
  "\u2581somebody": 1349,
  "\u258150": 1350,
  "\u2581nature": 1351,
  "\u2581line": 1352,
  "\u2581abs": 1353,
  "\u2581middle": 1354,
  "\u2581cal": 1355,
  "up": 1356,
  "\u2581follow": 1357,
  "\u2581market": 1358,
  "\u2581education": 1359,
  "\u2581deep": 1360,
  "\u2581land": 1361,
  "\u2581species": 1362,
  "aper": 1363,
  "\u2581quick": 1364,
  "\u2581piece": 1365,
  "\u2581language": 1366,
  "\u2581past": 1367,
  "ustr": 1368,
  "\u2581completely": 1369,
  "line": 1370,
  "\u2581name": 1371,
  "\u2581places": 1372,
  "\u2581though": 1373,
  "to": 1374,
  "\u2581av": 1375,
  "\u2581collect": 1376,
  "\u2581decided": 1377,
  "atic": 1378,
  "\u2581invest": 1379,
  "tern": 1380,
  "\u2581dru": 1381,
  "\u2581became": 1382,
  "\u2581view": 1383,
  "\u2581object": 1384,
  "\u2581knew": 1385,
  "\u2581inno": 1386,
  "\u2581exactly": 1387,
  "\u2581society": 1388,
  "ental": 1389,
  "bs": 1390,
  "ling": 1391,
  "\u2581experim": 1392,
  "\u2581stories": 1393,
  "\u25819": 1394,
  "\u2581free": 1395,
  "\u2581tool": 1396,
  "\u2581students": 1397,
  "\u2581oce": 1398,
  "\u2581everyone": 1399,
  "\u2581black": 1400,
  "\u2581study": 1401,
  "\u2581train": 1402,
  "\u2581engine": 1403,
  "he": 1404,
  "omes": 1405,
  "\u2581huge": 1406,
  "\u2581taking": 1407,
  "\u2581learned": 1408,
  "uck": 1409,
  "\u2581happening": 1410,
  "gest": 1411,
  "ats": 1412,
  "ond": 1413,
  "\u2581red": 1414,
  "\u2581turns": 1415,
  "cing": 1416,
  "\u2581bab": 1417,
  "\u2581america": 1418,
  "ined": 1419,
  "\u2581mother": 1420,
  "\u2581id": 1421,
  "\u2581mess": 1422,
  "\u2581bro": 1423,
  "\u2581gets": 1424,
  "\u2581animals": 1425,
  "\u2581success": 1426,
  "ared": 1427,
  "\u2581green": 1428,
  "\u2581third": 1429,
  "\u2581deal": 1430,
  "ator": 1431,
  "\u2581itself": 1432,
  "\u2581universe": 1433,
  "\u2581ant": 1434,
  "ibly": 1435,
  "ision": 1436,
  "\u2581against": 1437,
  "\u2581mass": 1438,
  "ien": 1439,
  "\u2581pos": 1440,
  "\u2581struct": 1441,
  "\u2581miss": 1442,
  "ane": 1443,
  "\u2581arch": 1444,
  "\u2581close": 1445,
  "\u2581rather": 1446,
  "\u2581har": 1447,
  "\u2581meet": 1448,
  "\u2581ones": 1449,
  "\u2581company": 1450,
  "\u2581along": 1451,
  "\u2581questions": 1452,
  "li": 1453,
  "\u2581leg": 1454,
  "ients": 1455,
  "\u2581ourselves": 1456,
  "\u2581themselves": 1457,
  "\u2581univers": 1458,
  "\u2581opportun": 1459,
  "\u2581clear": 1460,
  "\u2581bra": 1461,
  "ional": 1462,
  "ape": 1463,
  "dd": 1464,
  "\u25817": 1465,
  "\u2581kinds": 1466,
  "\u2581prov": 1467,
  "\u2581behav": 1468,
  "itting": 1469,
  "\u2581mar": 1470,
  "rop": 1471,
  "\u2581wind": 1472,
  "ogn": 1473,
  "\u2581hold": 1474,
  "\u2581sex": 1475,
  "\u2581meas": 1476,
  "sy": 1477,
  "vation": 1478,
  "\u2581dep": 1479,
  "\u2581rev": 1480,
  "\u2581hy": 1481,
  "acter": 1482,
  "\u2581yeah": 1483,
  "\u2581complex": 1484,
  "\u25818": 1485,
  "row": 1486,
  "etic": 1487,
  "\u2581team": 1488,
  "ident": 1489,
  "\u2581mill": 1490,
  "\u2581couldn": 1491,
  "\u2581step": 1492,
  "\u2581disease": 1493,
  "icult": 1494,
  "\u2581math": 1495,
  "\u2581india": 1496,
  "\u2581minutes": 1497,
  "aster": 1498,
  "\u2581jour": 1499,
  "ones": 1500,
  "\u2581ill": 1501,
  "\u2581hours": 1502,
  "\u2581parent": 1503,
  "\u2581created": 1504,
  "face": 1505,
  "\u2581sun": 1506,
  "...": 1507,
  "\u2581others": 1508,
  "\u2581norm": 1509,
  "\u2581pred": 1510,
  "\u2581focus": 1511,
  "\u2581protect": 1512,
  "haps": 1513,
  "\u2581ste": 1514,
  "ability": 1515,
  "\u2581worked": 1516,
  "\u2581perhaps": 1517,
  "\u2581fund": 1518,
  "\u2581es": 1519,
  "ctor": 1520,
  "\u2581relations": 1521,
  "\u2581thousands": 1522,
  "\u2581program": 1523,
  "\u2581vi": 1524,
  "\u2581fly": 1525,
  "\u2581rad": 1526,
  "att": 1527,
  "\u2581south": 1528,
  "\u2581bott": 1529,
  "\u2581early": 1530,
  "\u2581listen": 1531,
  "rib": 1532,
  "ming": 1533,
  "urs": 1534,
  "\u2581ve": 1535,
  "\u2581colle": 1536,
  "\u2581expect": 1537,
  "\u2581liter": 1538,
  "\u2581mot": 1539,
  "ush": 1540,
  "\u2581finally": 1541,
  "ames": 1542,
  "\u2581lots": 1543,
  "not": 1544,
  "\u2581won": 1545,
  "\u2581least": 1546,
  "\u2581guys": 1547,
  "\u2581difficult": 1548,
  "\u2581pot": 1549,
  "wards": 1550,
  "cc": 1551,
  "\u2581dem": 1552,
  "\u2581field": 1553,
  "\u2581game": 1554,
  "\u2581exist": 1555,
  "\u2581natural": 1556,
  "ples": 1557,
  "\u2581chr": 1558,
  "\u2581ho": 1559,
  "\u2581happy": 1560,
  "\u2581da": 1561,
  "\u2581cir": 1562,
  "\u2581death": 1563,
  "\u2581network": 1564,
  "\u2581speak": 1565,
  "\u2581recent": 1566,
  "istic": 1567,
  "\u2581var": 1568,
  "ake": 1569,
  "\u2581fre": 1570,
  "ither": 1571,
  "\u2581lim": 1572,
  "\u2581oper": 1573,
  "\u2581record": 1574,
  "ium": 1575,
  "ially": 1576,
  "\u2581gave": 1577,
  "\u2581seven": 1578,
  "\u2581outside": 1579,
  "\u2581systems": 1580,
  "ented": 1581,
  "\u2581sens": 1582,
  "ination": 1583,
  "\u2581fail": 1584,
  "\u2581taken": 1585,
  "\u2581extra": 1586,
  "\u2581amount": 1587,
  "\u2581learning": 1588,
  "olved": 1589,
  "\u2581euro": 1590,
  "\u2581super": 1591,
  "\u2581\u2014": 1592,
  "ider": 1593,
  "\u2581obvious": 1594,
  "\u2581york": 1595,
  "\u2581difference": 1596,
  "cul": 1597,
  "\u2581machine": 1598,
  "ns": 1599,
  "\u2581cities": 1600,
  "\u2581ple": 1601,
  "\u2581china": 1602,
  "\u2581changed": 1603,
  "\u2581support": 1604,
  "\u2581interact": 1605,
  "\u2581cut": 1606,
  "utions": 1607,
  "\u2581american": 1608,
  "gen": 1609,
  "\u2581dig": 1610,
  "ential": 1611,
  "\u2581during": 1612,
  "iqu": 1613,
  "\u2581typ": 1614,
  "\u2581incl": 1615,
  "\u2581leave": 1616,
  "\u2581behind": 1617,
  "ological": 1618,
  "well": 1619,
  "\u2581del": 1620,
  "\u2581area": 1621,
  "vered": 1622,
  "\u2581given": 1623,
  "\u2581...": 1624,
  "\u2581relationship": 1625,
  "\u2581dream": 1626,
  "\u2581century": 1627,
  "ature": 1628,
  "\u2581short": 1629,
  "\u2581demo": 1630,
  "\u2581hands": 1631,
  "\u2581squ": 1632,
  "\u2581eyes": 1633,
  "\u2581pick": 1634,
  "ster": 1635,
  "\u2581wall": 1636,
  "\u2581ident": 1637,
  "\u2581turned": 1638,
  "\u2581common": 1639,
  "\u2581grand": 1640,
  "\u2581europe": 1641,
  "\u2581low": 1642,
  "\u2581sym": 1643,
  "aking": 1644,
  "\u2581local": 1645,
  "\u2581arg": 1646,
  "ted": 1647,
  "ides": 1648,
  "\u2581eight": 1649,
  "\u2581communic": 1650,
  "\u2581beginning": 1651,
  "ully": 1652,
  "\u2581yourself": 1653,
  "ased": 1654,
  "\u2581behavior": 1655,
  "era": 1656,
  "\u2581blue": 1657,
  "\u2581north": 1658,
  "\u2581reach": 1659,
  "\u2581companies": 1660,
  "\u2581easy": 1661,
  "\u2581whatever": 1662,
  "\u2581non": 1663,
  "olute": 1664,
  "\u2581ocean": 1665,
  "\u2581takes": 1666,
  "\u2581seeing": 1667,
  "\u2581explain": 1668,
  "\u2581tem": 1669,
  "\u2581moving": 1670,
  "\u2581population": 1671,
  "inary": 1672,
  "\u2581sent": 1673,
  "\u2581trad": 1674,
  "what": 1675,
  "\u2581oil": 1676,
  "\u2581access": 1677,
  "\u2581stay": 1678,
  "verage": 1679,
  "\u2581extre": 1680,
  "\u2581break": 1681,
  "\u2581needed": 1682,
  "\u2581maj": 1683,
  "\u2581began": 1684,
  "\u2581event": 1685,
  "\u2581impro": 1686,
  "\u2581intell": 1687,
  "\u2581absolute": 1688,
  "astic": 1689,
  "\u2581serv": 1690,
  "ply": 1691,
  "inal": 1692,
  "year": 1693,
  "\u2581tot": 1694,
  "\u2581media": 1695,
  "\u258112": 1696,
  "sych": 1697,
  "\u2581patter": 1698,
  "\u2581cy": 1699,
  "itions": 1700,
  "\u2581culture": 1701,
  "\u2581audience": 1702,
  "ges": 1703,
  "\u2581instit": 1704,
  "\u2581opt": 1705,
  "elt": 1706,
  "ison": 1707,
  "pped": 1708,
  "\u2581simply": 1709,
  "\u2581perfect": 1710,
  "\u2581emot": 1711,
  "\u2581terms": 1712,
  "ney": 1713,
  "\u2581needs": 1714,
  "\u2581psych": 1715,
  "ude": 1716,
  "\u2581occ": 1717,
  "aring": 1718,
  "\u2581father": 1719,
  "\u2581white": 1720,
  "\u2581powerful": 1721,
  "itch": 1722,
  "\u2581parts": 1723,
  "\u2581cannot": 1724,
  "ret": 1725,
  "\u2581viol": 1726,
  "\u2581paper": 1727,
  "\u2581longer": 1728,
  "\u2581realized": 1729,
  "\u2581wonderful": 1730,
  "\u2581week": 1731,
  "\u2581civ": 1732,
  "\u2581ess": 1733,
  "idence": 1734,
  "\u2581national": 1735,
  "ode": 1736,
  "\u258118": 1737,
  "\u2581famil": 1738,
  "\u2581image": 1739,
  "\u2581poor": 1740,
  "\u2581friend": 1741,
  "\u2581reality": 1742,
  "ump": 1743,
  "\u2581ap": 1744,
  "\u2581chem": 1745,
  "\u2581major": 1746,
  "\u2581micro": 1747,
  "\u2581surv": 1748,
  "\u2581humans": 1749,
  "\u2581special": 1750,
  "ton": 1751,
  "iving": 1752,
  "\u2581robot": 1753,
  "\u2581economic": 1754,
  "pid": 1755,
  "\u2581fall": 1756,
  "\u2581size": 1757,
  "\u2581\u266a": 1758,
  "\u2581parents": 1759,
  "cra": 1760,
  "\u2581emb": 1761,
  "\u2581fish": 1762,
  "\u2581repres": 1763,
  "\u2581center": 1764,
  "\u2581press": 1765,
  "\u2581sea": 1766,
  "\u2581resour": 1767,
  "\u2581perform": 1768,
  "\u2581oh": 1769,
  "\u2581priv": 1770,
  "\u2581phone": 1771,
  "\u2581tried": 1772,
  "how": 1773,
  "\u2581felt": 1774,
  "\u2581blood": 1775,
  "\u2581pract": 1776,
  "\u2581buy": 1777,
  "cious": 1778,
  "\u2581conv": 1779,
  "\u2581dark": 1780,
  "\u2581ground": 1781,
  "ivers": 1782,
  "\u2581approach": 1783,
  "\u2581surpr": 1784,
  "\u2581quickly": 1785,
  "ised": 1786,
  "hood": 1787,
  "fully": 1788,
  "\u2581personal": 1789,
  "port": 1790,
  "rought": 1791,
  "\u2581either": 1792,
  "\u258140": 1793,
  "ibility": 1794,
  "\u2581growth": 1795,
  "\u2581gone": 1796,
  "\u2581requ": 1797,
  "ged": 1798,
  "\u2581situ": 1799,
  "\u2581present": 1800,
  "bo": 1801,
  "osp": 1802,
  "\u2581opportunity": 1803,
  "\u2581spend": 1804,
  "els": 1805,
  "\u2581strong": 1806,
  "\u2581political": 1807,
  "itect": 1808,
  "\u2581fight": 1809,
  "\u2581interested": 1810,
  "you": 1811,
  "\u2581sum": 1812,
  "ledge": 1813,
  "\u2581spent": 1814,
  "crib": 1815,
  "ilar": 1816,
  "\u2581feed": 1817,
  "\u2581leaders": 1818,
  "mer": 1819,
  "\u2581architect": 1820,
  "\u2581transform": 1821,
  "\u2581key": 1822,
  "\u2581fear": 1823,
  "\u2581scale": 1824,
  "\u2581climate": 1825,
  "ising": 1826,
  "\u2581recogn": 1827,
  "ived": 1828,
  "\u2581near": 1829,
  "\u2581weeks": 1830,
  "\u2581consum": 1831,
  "\u2581travel": 1832,
  "\u2581measure": 1833,
  "\u2581risk": 1834,
  "rodu": 1835,
  "\u2581direct": 1836,
  "\u2581extreme": 1837,
  "\u2581profess": 1838,
  "ife": 1839,
  "\u2581sitting": 1840,
  "\u2581eat": 1841,
  "\u2581vers": 1842,
  "\u2581ability": 1843,
  "app": 1844,
  "\u2581known": 1845,
  "avor": 1846,
  "\u2581enc": 1847,
  "dden": 1848,
  "\u2581sil": 1849,
  "\u2581bill": 1850,
  "\u2581medic": 1851,
  "ators": 1852,
  "\u2581wouldn": 1853,
  "oms": 1854,
  "\u2581sudden": 1855,
  "\u2581economy": 1856,
  "\u2581incredible": 1857,
  "ex": 1858,
  "\u2581street": 1859,
  "\u2581changes": 1860,
  "ax": 1861,
  "\u2581bar": 1862,
  "\u2581mult": 1863,
  "\u2581rich": 1864,
  "\u2581predict": 1865,
  "\u2581respons": 1866,
  "ains": 1867,
  "urb": 1868,
  "\u2581pen": 1869,
  "\u2581lost": 1870,
  "\u2581orig": 1871,
  "\u2581prin": 1872,
  "\u2581shows": 1873,
  "\u2581surface": 1874,
  "\u2581technolog": 1875,
  "\u2581obs": 1876,
  "\u2581insp": 1877,
  "\u2581slow": 1878,
  "\u2581dest": 1879,
  "\u2581impact": 1880,
  "\u2581cool": 1881,
  "\u2581morning": 1882,
  "sh": 1883,
  "rent": 1884,
  "\u2581challenge": 1885,
  "\u2581win": 1886,
  "\u2581fast": 1887,
  "bor": 1888,
  "end": 1889,
  "ards": 1890,
  "izing": 1891,
  "\u2581nice": 1892,
  "\u2581scientists": 1893,
  "\u2581write": 1894,
  "cially": 1895,
  "\u2581animal": 1896,
  "ouch": 1897,
  "\u2581cop": 1898,
  "\u2581ice": 1899,
  "\u2581vol": 1900,
  "oh": 1901,
  "\u2581caus": 1902,
  "\u2581rock": 1903,
  "\u2581based": 1904,
  "\u2581value": 1905,
  "of": 1906,
  "\u2581dna": 1907,
  "\u2581feet": 1908,
  "\u2581growing": 1909,
  "\u2581pur": 1910,
  "\u2581die": 1911,
  "\u2581areas": 1912,
  "\u2581civil": 1913,
  "zy": 1914,
  "ony": 1915,
  "\u2581feeling": 1916,
  "\u2581patients": 1917,
  "\u2581sat": 1918,
  "lt": 1919,
  "\u2581hosp": 1920,
  "ively": 1921,
  "\u2581indust": 1922,
  "iny": 1923,
  "ows": 1924,
  "ral": 1925,
  "\u2581ce": 1926,
  "\u2581hor": 1927,
  "\u2581structure": 1928,
  "by": 1929,
  "\u2581soft": 1930,
  "\u2581hundreds": 1931,
  "\u2581physical": 1932,
  "\u2581evolution": 1933,
  "ove": 1934,
  "\u2581arm": 1935,
  "\u2581foot": 1936,
  "hor": 1937,
  "anger": 1938,
  "entially": 1939,
  "\u2581similar": 1940,
  "ument": 1941,
  "\u2581draw": 1942,
  "\u2581pull": 1943,
  "\u2581bottom": 1944,
  "com": 1945,
  "ales": 1946,
  "\u2581anal": 1947,
  "\u2581redu": 1948,
  "\u2581average": 1949,
  "\u2581comb": 1950,
  "\u2581force": 1951,
  "\u2581color": 1952,
  "\u2581neigh": 1953,
  "\u2581voice": 1954,
  "\u2581photograph": 1955,
  "\u2581anyone": 1956,
  "\u2581box": 1957,
  "\u2581born": 1958,
  "\u2581development": 1959,
  "\u2581film": 1960,
  "\u2581numbers": 1961,
  "\u2581bene": 1962,
  "\u2581rele": 1963,
  "\u2581brought": 1964,
  "\u2581serious": 1965,
  "\u258125": 1966,
  "\u2581sho": 1967,
  "\u2581mole": 1968,
  "\u2581literally": 1969,
  "\u2581pa": 1970,
  "ny": 1971,
  "\u2581text": 1972,
  "\u2581attention": 1973,
  "\u2581movement": 1974,
  "\u2581understanding": 1975,
  "ler": 1976,
  "ateg": 1977,
  "\u2581unf": 1978,
  "\u2581ball": 1979,
  "\u2581camp": 1980,
  "\u2581main": 1981,
  "\u2581realize": 1982,
  "\u2581experiment": 1983,
  "eg": 1984,
  "erm": 1985,
  "ule": 1986,
  "\u2581scre": 1987,
  "uth": 1988,
  "\u2581stage": 1989,
  "lect": 1990,
  "\u2581map": 1991,
  "ustain": 1992,
  "\u2581sle": 1993,
  "\u2581knowledge": 1994,
  "\u2581ach": 1995,
  "\u2581deg": 1996,
  "\u2581soon": 1997,
  "\u2581vill": 1998,
  "ression": 1999,
  "\u2581millions": 2000,
  "\u2581absolutely": 2001,
  "\u2581technologies": 2002,
  "acy": 2003,
  "\u2581hot": 2004,
  "\u2581stra": 2005,
  "\u2581wrote": 2006,
  "\u2581tele": 2007,
  "\u2581guess": 2008,
  "\u2581running": 2009,
  "\u2581dead": 2010,
  "\u2581mount": 2011,
  "ford": 2012,
  "\u2581books": 2013,
  "\u2581meaning": 2014,
  "\u2581fac": 2015,
  "\u2581giving": 2016,
  "ified": 2017,
  "\u2581starting": 2018,
  "\u2581crit": 2019,
  "\u2581mov": 2020,
  "\u2581polic": 2021,
  "bon": 2022,
  "\u2581ir": 2023,
  "\u2581prom": 2024,
  "\u2581spread": 2025,
  "ids": 2026,
  "\u2581seems": 2027,
  "ored": 2028,
  "\u2581alone": 2029,
  "par": 2030,
  "\u2581sour": 2031,
  "\u2581flo": 2032,
  "\u2581tradition": 2033,
  "\u2581forest": 2034,
  "\u2581forward": 2035,
  "\u2581developed": 2036,
  "ned": 2037,
  "\u2581path": 2038,
  "ption": 2039,
  "\u2581cars": 2040,
  "\u2581miles": 2041,
  "\u2581tools": 2042,
  "\u2581favor": 2043,
  "\u2581includ": 2044,
  "\u2581circ": 2045,
  "\u2581current": 2046,
  "\u2581stat": 2047,
  "\u2581images": 2048,
  "bit": 2049,
  "ploy": 2050,
  "\u2581fundam": 2051,
  "\u2581telling": 2052,
  "aged": 2053,
  "ero": 2054,
  "omet": 2055,
  "\u2581depe": 2056,
  "\u2581post": 2057,
  "\u2581relig": 2058,
  "\u2581electric": 2059,
  "\u2581hig": 2060,
  "\u2581repl": 2061,
  "\u2581road": 2062,
  "\u2581issue": 2063,
  "\u2581theory": 2064,
  "\u2581describ": 2065,
  "\u2581revolution": 2066,
  "\u2581fire": 2067,
  "\u2581touch": 2068,
  "\u2581nobody": 2069,
  "ency": 2070,
  "\u2581visual": 2071,
  "lu": 2072,
  "ging": 2073,
  "\u2581baby": 2074,
  "oud": 2075,
  "por": 2076,
  "\u2581hon": 2077,
  "aw": 2078,
  "\u2581er": 2079,
  "ills": 2080,
  "\u2581sell": 2081,
  "\u2581girls": 2082,
  "\u2581proper": 2083,
  "ift": 2084,
  "iod": 2085,
  "\u2581sn": 2086,
  "\u2581among": 2087,
  "\u2581compet": 2088,
  "\u2581online": 2089,
  "\u2581recently": 2090,
  "chan": 2091,
  "\u2581web": 2092,
  "\u2581period": 2093,
  "ggest": 2094,
  "\u2581suff": 2095,
  "\u2581talked": 2096,
  "\u2581gives": 2097,
  "\u2581issues": 2098,
  "\u2581suggest": 2099,
  "\u2581sustain": 2100,
  "\u2581intellig": 2101,
  "\u2581emp": 2102,
  "ensive": 2103,
  "\u2581modern": 2104,
  "\u2581type": 2105,
  "\u2581worth": 2106,
  "\u2581chance": 2107,
  "\u2581convers": 2108,
  "ades": 2109,
  "\u2581est": 2110,
  "\u2581gal": 2111,
  "go": 2112,
  "\u2581dou": 2113,
  "\u2581ult": 2114,
  "\u2581avail": 2115,
  "\u2581medical": 2116,
  "\u2581industry": 2117,
  "\u2581arr": 2118,
  "amp": 2119,
  "\u2581rul": 2120,
  "\u2581achie": 2121,
  "\u2581truth": 2122,
  "\u2581general": 2123,
  "\u2581track": 2124,
  "\u2581mathem": 2125,
  "\u2581normal": 2126,
  "\u2581english": 2127,
  "\u2581innovation": 2128,
  "\u2581university": 2129,
  "amed": 2130,
  "vent": 2131,
  "\u2581sold": 2132,
  "\u2581showed": 2133,
  "pecially": 2134,
  "\u2581solution": 2135,
  "\u2581affect": 2136,
  "\u2581except": 2137,
  "ilities": 2138,
  "\u2581especially": 2139,
  "\u2581fur": 2140,
  "ung": 2141,
  "\u2581rate": 2142,
  "\u2581attack": 2143,
  "ances": 2144,
  "\u2581subject": 2145,
  "\u2581developing": 2146,
  "\u2581discovered": 2147,
  "\u2581phil": 2148,
  "\u2581prop": 2149,
  "iant": 2150,
  "\u2581capital": 2151,
  "gn": 2152,
  "\u2581benef": 2153,
  "\u2581poll": 2154,
  "\u2581concept": 2155,
  "\u2581creating": 2156,
  "\u2581resources": 2157,
  "\u2581fa": 2158,
  "head": 2159,
  "ites": 2160,
  "\u2581fem": 2161,
  "\u2581lay": 2162,
  "\u2581park": 2163,
  "\u2581sever": 2164,
  "\u2581experien": 2165,
  "\u2581vac": 2166,
  "urity": 2167,
  "\u2581obviously": 2168,
  "asing": 2169,
  "ished": 2170,
  "\u2581save": 2171,
  "po": 2172,
  "asc": 2173,
  "\u2581boy": 2174,
  "eed": 2175,
  "ique": 2176,
  "\u2581song": 2177,
  "\u2581react": 2178,
  "\u2581computers": 2179,
  "\u2581aw": 2180,
  "imens": 2181,
  "\u2581goog": 2182,
  "\u2581solve": 2183,
  "\u2581designed": 2184,
  "ug": 2185,
  "ther": 2186,
  "\u2581eye": 2187,
  "\u2581patient": 2188,
  "\u2581reasons": 2189,
  "\u2581situation": 2190,
  "\u2581plant": 2191,
  "like": 2192,
  "\u2581seem": 2193,
  "\u2581smart": 2194,
  "\u2581report": 2195,
  "\u2581anybody": 2196,
  "ped": 2197,
  "\u2581cit": 2198,
  "\u2581haven": 2199,
  "\u2581search": 2200,
  "\u2581asking": 2201,
  "\u2581sleep": 2202,
  "\u2581ast": 2203,
  "phere": 2204,
  "\u2581available": 2205,
  "come": 2206,
  "ences": 2207,
  "\u2581safe": 2208,
  "\u2581tiny": 2209,
  "\u2581solar": 2210,
  "\u2581mechan": 2211,
  "\u2581compass": 2212,
  "\u2581playing": 2213,
  "\u2581produce": 2214,
  "ival": 2215,
  "yond": 2216,
  "\u2581groups": 2217,
  "\u2581knows": 2218,
  "\u2581peace": 2219,
  "\u2581changing": 2220,
  "\u2581dom": 2221,
  "\u2581choo": 2222,
  "\u2581drive": 2223,
  "\u2581several": 2224,
  "\u2581evidence": 2225,
  "\u2581led": 2226,
  "\u2581shape": 2227,
  "\u2581beyond": 2228,
  "\u2581incredibly": 2229,
  "ma": 2230,
  "\u2581imm": 2231,
  "\u2581generation": 2232,
  "\u2581ox": 2233,
  "\u2581drugs": 2234,
  "\u2581trust": 2235,
  "ify": 2236,
  "unt": 2237,
  "\u2581port": 2238,
  "ipp": 2239,
  "erence": 2240,
  "\u2581journey": 2241,
  "\u2581pictures": 2242,
  "\u2581din": 2243,
  "\u2581neg": 2244,
  "\u2581emerg": 2245,
  "\u2581ec": 2246,
  "\u2581bigger": 2247,
  "\u2581involved": 2248,
  "\u2581rain": 2249,
  "\u2581table": 2250,
  "\u2581message": 2251,
  "erv": 2252,
  "\u2581fair": 2253,
  "\u2581office": 2254,
  "room": 2255,
  "\u2581flu": 2256,
  "\u2581carbon": 2257,
  "\u2581aren": 2258,
  "\u2581danger": 2259,
  "ires": 2260,
  "\u2581rights": 2261,
  "do": 2262,
  "iction": 2263,
  "\u2581becomes": 2264,
  "\u2581drug": 2265,
  "\u2581199": 2266,
  "inese": 2267,
  "oices": 2268,
  "\u2581ver": 2269,
  "ister": 2270,
  "\u2581send": 2271,
  "\u2581putting": 2272,
  "\u2581bird": 2273,
  "\u2581citiz": 2274,
  "\u2581choice": 2275,
  "\u2581sounds": 2276,
  "\u2581mob": 2277,
  "\u2581nine": 2278,
  "\u2581flow": 2279,
  "\u2581defin": 2280,
  "\u2581towards": 2281,
  "yn": 2282,
  "str": 2283,
  "book": 2284,
  "\u2581bed": 2285,
  "\u2581google": 2286,
  "\u2581basic": 2287,
  "\u2581lived": 2288,
  "\u2581likely": 2289,
  "apt": 2290,
  "\u2581lad": 2291,
  "\u2581digital": 2292,
  "\u2581lea": 2293,
  "istan": 2294,
  "\u2581cris": 2295,
  "arily": 2296,
  "ishing": 2297,
  "let": 2298,
  "here": 2299,
  "ze": 2300,
  "\u2581son": 2301,
  "\u2581indeed": 2302,
  "\u2581necess": 2303,
  "\u2581clos": 2304,
  "\u2581chinese": 2305,
  "\u2581function": 2306,
  "\u2581certainly": 2307,
  "ucle": 2308,
  "\u2581cross": 2309,
  "lo": 2310,
  "ips": 2311,
  "fort": 2312,
  "\u2581breat": 2313,
  "\u2581speed": 2314,
  "\u2581writing": 2315,
  "\u2581compassion": 2316,
  "\u258160": 2317,
  "lict": 2318,
  "oring": 2319,
  "\u2581security": 2320,
  "\u2581marr": 2321,
  "oph": 2322,
  "\u2581died": 2323,
  "\u2581rece": 2324,
  "\u2581stru": 2325,
  "ik": 2326,
  "ese": 2327,
  "light": 2328,
  "\u2581democra": 2329,
  "\u2581international": 2330,
  "une": 2331,
  "\u2581schools": 2332,
  "\u2581tend": 2333,
  "\u2581princi": 2334,
  "\u2581extraord": 2335,
  "\u2581software": 2336,
  "\u2581potential": 2337,
  "xic": 2338,
  "\u2581neighbor": 2339,
  "\u2581201": 2340,
  "\u2581lif": 2341,
  "\u2581log": 2342,
  "\u2581action": 2343,
  "\u2581device": 2344,
  "50": 2345,
  "\u2581bal": 2346,
  "ief": 2347,
  "ously": 2348,
  "\u2581virt": 2349,
  "medi": 2350,
  "\u2581hit": 2351,
  "\u2581activ": 2352,
  "\u2581block": 2353,
  "\u2581return": 2354,
  "\u2581eth": 2355,
  "\u2581pan": 2356,
  "\u2581tas": 2357,
  "\u2581west": 2358,
  "\u2581adm": 2359,
  "\u2581code": 2360,
  "\u2581neur": 2361,
  "\u2581please": 2362,
  "\u2581particip": 2363,
  "\u2581eventually": 2364,
  "\u2581communities": 2365,
  "\u2581mal": 2366,
  "\u2581interv": 2367,
  "\u2581progress": 2368,
  "\u2581bur": 2369,
  "for": 2370,
  "abor": 2371,
  "\u2581wish": 2372,
  "\u2581clean": 2373,
  "\u2581nucle": 2374,
  "\u2581particularly": 2375,
  "\u2581star": 2376,
  "\u2581account": 2377,
  "\u2581pu": 2378,
  "\u2581higher": 2379,
  "\u2581vision": 2380,
  "\u2581examples": 2381,
  "\u2581violence": 2382,
  "\u2581rules": 2383,
  "\u2581scientific": 2384,
  "uly": 2385,
  "rast": 2386,
  "\u2581quality": 2387,
  "ctors": 2388,
  "\u2581capt": 2389,
  "\u2581screen": 2390,
  "\u2581starts": 2391,
  "\u2581hospital": 2392,
  "\u2581bir": 2393,
  "\u2581virus": 2394,
  "\u2581walking": 2395,
  "\u2581character": 2396,
  "gth": 2397,
  "\u2581tar": 2398,
  "\u2581consider": 2399,
  "\u2581conscious": 2400,
  "\u2581onto": 2401,
  "\u2581bacter": 2402,
  "\u2581notice": 2403,
  "\u2581showing": 2404,
  "\u2581totally": 2405,
  "umb": 2406,
  "\u2581sam": 2407,
  "itary": 2408,
  "\u2581prim": 2409,
  "\u2581ready": 2410,
  "\u2581prison": 2411,
  "\u2581college": 2412,
  "\u2581suddenly": 2413,
  "\u2581camera": 2414,
  "\u2581materials": 2415,
  "ners": 2416,
  "ground": 2417,
  "\u2581effic": 2418,
  "\u2581moved": 2419,
  "onse": 2420,
  "\u2581syn": 2421,
  "\u2581plants": 2422,
  "\u2581biggest": 2423,
  "\u2581everywhere": 2424,
  "ext": 2425,
  "\u2581dan": 2426,
  "\u2581bank": 2427,
  "\u2581largest": 2428,
  "\u2581teachers": 2429,
  "eter": 2430,
  "\u2581jobs": 2431,
  "usion": 2432,
  "\u2581narr": 2433,
  "\u2581cause": 2434,
  "\u2581exciting": 2435,
  "\u2581extremely": 2436,
  "\u2581diag": 2437,
  "ressed": 2438,
  "\u2581results": 2439,
  "\u2581vari": 2440,
  "\u2581aware": 2441,
  "\u2581encou": 2442,
  "\u2581square": 2443,
  "ok": 2444,
  "iar": 2445,
  "\u2581anyway": 2446,
  "\u2581threat": 2447,
  "cuss": 2448,
  "\u2581represent": 2449,
  "idge": 2450,
  "\u2581gas": 2451,
  "\u2581skin": 2452,
  "\u2581wants": 2453,
  "\u2581detail": 2454,
  "\u2581response": 2455,
  "fer": 2456,
  "\u2581div": 2457,
  "antly": 2458,
  "\u2581link": 2459,
  "\u2581apart": 2460,
  "\u2581student": 2461,
  "\u2581sky": 2462,
  "\u2581role": 2463,
  "\u2581meant": 2464,
  "\u2581immedi": 2465,
  "\u2581creative": 2466,
  "\u2581individuals": 2467,
  "\u258180": 2468,
  "\u2581wait": 2469,
  "\u2581further": 2470,
  "\u2581projects": 2471,
  "\u2581essentially": 2472,
  "isions": 2473,
  "\u2581fix": 2474,
  "\u2581meth": 2475,
  "\u2581push": 2476,
  "\u2581check": 2477,
  "\u2581crazy": 2478,
  "osphere": 2479,
  "\u2581watching": 2480,
  "uit": 2481,
  "\u2581ban": 2482,
  "\u2581sal": 2483,
  "\u2581stick": 2484,
  "\u2581door": 2485,
  "\u2581birth": 2486,
  "\u2581games": 2487,
  "\u2581print": 2488,
  "oid": 2489,
  "\u2581adult": 2490,
  "\u2581labor": 2491,
  "\u2581village": 2492,
  "\u2581san": 2493,
  "\u2581models": 2494,
  "ey": 2495,
  "\u2581democracy": 2496,
  "verty": 2497,
  "\u2581east": 2498,
  "\u2581freed": 2499,
  "\u2581named": 2500,
  "\u2581context": 2501,
  "ims": 2502,
  "\u258111": 2503,
  "\u2581cold": 2504,
  "\u2581separ": 2505,
  "\u2581discover": 2506,
  "\u2581favorite": 2507,
  "nal": 2508,
  "rest": 2509,
  "\u2581ine": 2510,
  "\u2581tree": 2511,
  "\u2581waste": 2512,
  "\u2581chemical": 2513,
  "\u2581organization": 2514,
  "\u2581deb": 2515,
  "\u2581clin": 2516,
  "\u2581african": 2517,
  "\u2581allowed": 2518,
  "\u2581complic": 2519,
  "\u2581perspect": 2520,
  "\u2581cat": 2521,
  "\u2581finan": 2522,
  "\u2581trees": 2523,
  "\u2581doctor": 2524,
  "\u2581terror": 2525,
  "\u2581transl": 2526,
  "\u2581improve": 2527,
  "\u2581medicine": 2528,
  "\u2581fundamental": 2529,
  "icle": 2530,
  "\u2581dro": 2531,
  "\u2581mis": 2532,
  "\u2581carry": 2533,
  "\u2581robots": 2534,
  "\u2581colleag": 2535,
  "\u2581introdu": 2536,
  "\u2581supposed": 2537,
  "\u2581earl": 2538,
  "\u2581farm": 2539,
  "\u2581poverty": 2540,
  "\u2581strateg": 2541,
  "\u2581conflict": 2542,
  "\u2581connected": 2543,
  "\u2581luck": 2544,
  "itten": 2545,
  "oming": 2546,
  "ughter": 2547,
  "\u2581x": 2548,
  "\u2581los": 2549,
  "\u2581brit": 2550,
  "\u2581coun": 2551,
  "\u2581goal": 2552,
  "\u2581police": 2553,
  "\u2581passion": 2554,
  "\u2581continue": 2555,
  "ai": 2556,
  "enom": 2557,
  "\u2581jud": 2558,
  "urban": 2559,
  "\u2581choose": 2560,
  "\u2581objects": 2561,
  "\u2581grew": 2562,
  "\u2581trial": 2563,
  "\u2581fant": 2564,
  "\u2581imposs": 2565,
  "\u2581extraordinary": 2566,
  "erve": 2567,
  "\u2581dam": 2568,
  "\u2581sand": 2569,
  "\u2581accept": 2570,
  "\u2581wealth": 2571,
  "\u2581including": 2572,
  "\u2581fra": 2573,
  "\u2581joh": 2574,
  "\u2581assum": 2575,
  "\u2581somewhere": 2576,
  ".,": 2577,
  "\u2581fill": 2578,
  "\u2581tells": 2579,
  "\u2581memory": 2580,
  "\u2581buildings": 2581,
  "\u2581happiness": 2582,
  "apan": 2583,
  "\u2581ang": 2584,
  "\u2581bom": 2585,
  "\u2581graph": 2586,
  "\u2581minds": 2587,
  "\u2581shown": 2588,
  "ruction": 2589,
  "\u2581launch": 2590,
  "\u2581thanks": 2591,
  "\u2581families": 2592,
  "\u2581signific": 2593,
  "\u2581thousand": 2594,
  "ery": 2595,
  "\u2581late": 2596,
  "\u2581spir": 2597,
  "\u2581detect": 2598,
  "\u2581mathemat": 2599,
  "\u2581fing": 2600,
  "\u2581zero": 2601,
  "\u2581positive": 2602,
  "ring": 2603,
  "\u2581above": 2604,
  "\u2581usually": 2605,
  "more": 2606,
  "\u2581cart": 2607,
  "\u2581wife": 2608,
  "\u2581bunch": 2609,
  "\u2581cases": 2610,
  "\u2581collabor": 2611,
  "\u258116": 2612,
  "\u2581remark": 2613,
  "\u2581president": 2614,
  "\u2581fle": 2615,
  "phone": 2616,
  "\u2581japan": 2617,
  "\u2581movie": 2618,
  "\u2581discuss": 2619,
  "\u2581tom": 2620,
  "ulate": 2621,
  "\u2581sequ": 2622,
  "\u2581influ": 2623,
  "\u2581worse": 2624,
  "\u2581concer": 2625,
  "\u2581temper": 2626,
  "\u2581pattern": 2627,
  "\u2581teacher": 2628,
  "\u2581card": 2629,
  "\u2581magn": 2630,
  "\u2581allows": 2631,
  "\u2581faster": 2632,
  "\u2581taught": 2633,
  "iger": 2634,
  "ought": 2635,
  "\u2581mine": 2636,
  "\u2581wild": 2637,
  "\u2581crisis": 2638,
  "\u2581finding": 2639,
  "men": 2640,
  "\u2581enj": 2641,
  "\u2581conditions": 2642,
  "\u2581isl": 2643,
  "odies": 2644,
  "\u2581fine": 2645,
  "\u2581ended": 2646,
  "\u2581genes": 2647,
  "\u2581unfortun": 2648,
  "imp": 2649,
  "\u2581blind": 2650,
  "\u2581stars": 2651,
  "\u2581larger": 2652,
  "\u2581activity": 2653,
  "ee": 2654,
  "\u258114": 2655,
  "\u2581lose": 2656,
  "\u2581author": 2657,
  "\u2581killed": 2658,
  "\u2581source": 2659,
  "izations": 2660,
  "\u2581excited": 2661,
  "\u2581decision": 2662,
  "\u2581impossible": 2663,
  "nces": 2664,
  "\u2581ann": 2665,
  "\u2581bud": 2666,
  "\u2581brains": 2667,
  "\u2581manage": 2668,
  "\u2581central": 2669,
  "\u2581however": 2670,
  "\u2581standing": 2671,
  "ops": 2672,
  "\u2581webs": 2673,
  "\u2581chris": 2674,
  "\u2581somehow": 2675,
  "ana": 2676,
  "\u2581rid": 2677,
  "\u2581mars": 2678,
  "\u2581galax": 2679,
  "bol": 2680,
  "rage": 2681,
  "ured": 2682,
  "\u2581lower": 2683,
  "emic": 2684,
  "atory": 2685,
  "\u2581appear": 2686,
  "\u2581disapp": 2687,
  "\u2581rand": 2688,
  "ration": 2689,
  "\u2581truly": 2690,
  "\u2581minute": 2691,
  "\u2581studies": 2692,
  "\u2581kil": 2693,
  "\u2581pack": 2694,
  "\u2581older": 2695,
  "\u2581military": 2696,
  "\u2581traditional": 2697,
  "eth": 2698,
  "\u2581corre": 2699,
  "\u2581service": 2700,
  "\u2581increase": 2701,
  "\u2581conversation": 2702,
  "ued": 2703,
  "ffic": 2704,
  "mend": 2705,
  "ission": 2706,
  "\u2581christ": 2707,
  "\u2581freedom": 2708,
  "\u2581position": 2709,
  "\u2581products": 2710,
  "\u2581successful": 2711,
  "ipt": 2712,
  "cise": 2713,
  "\u2581hop": 2714,
  "\u2581king": 2715,
  "\u2581nuclear": 2716,
  "\u2581citizens": 2717,
  "\u258117": 2718,
  "akes": 2719,
  "\u2581lands": 2720,
  "\u2581infect": 2721,
  "\u2581secret": 2722,
  "\u2581sorts": 2723,
  "\u2581afford": 2724,
  "\u2581publish": 2725,
  "\u2581complicated": 2726,
  "!\"": 2727,
  "cape": 2728,
  "\u2581muse": 2729,
  "\u2581vict": 2730,
  "\u2581policy": 2731,
  "\u2581reading": 2732,
  "\u2581perspective": 2733,
  "put": 2734,
  "\u2581doc": 2735,
  "\u2581alth": 2736,
  "\u2581desp": 2737,
  "\u2581fram": 2738,
  "others": 2739,
  "\u2581achieve": 2740,
  "aur": 2741,
  "inct": 2742,
  "\u2581swe": 2743,
  "\u2581heav": 2744,
  "\u2581kept": 2745,
  "\u2581workers": 2746,
  "\u2581although": 2747,
  "\u2581gold": 2748,
  "\u2581site": 2749,
  "estern": 2750,
  "inated": 2751,
  "\u2581clearly": 2752,
  "isms": 2753,
  "\u2581alg": 2754,
  "\u2581lau": 2755,
  "ounds": 2756,
  "\u2581purp": 2757,
  "\u2581straight": 2758,
  "uss": 2759,
  "\u2581roll": 2760,
  "\u2581forms": 2761,
  "\u2581moral": 2762,
  "\u2581hur": 2763,
  "\u2581burn": 2764,
  "\u2581fasc": 2765,
  "\u2581series": 2766,
  "\u2581ger": 2767,
  "\u2581oxy": 2768,
  "\u2581town": 2769,
  "\u2581upon": 2770,
  "\u2581tv": 2771,
  "rams": 2772,
  "soci": 2773,
  "\u2581hiv": 2774,
  "\u2581term": 2775,
  "\u2581museum": 2776,
  "\u2581pieces": 2777,
  "\u2581points": 2778,
  "\u2581training": 2779,
  "owd": 2780,
  "\u2581ign": 2781,
  "ining": 2782,
  "\u2581cook": 2783,
  "\u2581region": 2784,
  "\u2581specific": 2785,
  "\u2581mist": 2786,
  "\u2581board": 2787,
  "ror": 2788,
  "fact": 2789,
  "\u2581throw": 2790,
  "\u2581urban": 2791,
  "\u2581distrib": 2792,
  "oke": 2793,
  "iers": 2794,
  "\u2581ran": 2795,
  "\u2581quant": 2796,
  "\u2581address": 2797,
  "\u2581contrib": 2798,
  "\u2581mention": 2799,
  "\u2581smaller": 2800,
  "\u2581electricity": 2801,
  "enomen": 2802,
  "\u2581governments": 2803,
  "zz": 2804,
  "\u2581dad": 2805,
  "\u2581page": 2806,
  "\u2581glass": 2807,
  "\u2581lines": 2808,
  "\u2581doctors": 2809,
  "\u2581phenomen": 2810,
  "\u2581treatment": 2811,
  "amm": 2812,
  "\u2581fort": 2813,
  "\u2581enorm": 2814,
  "\u2581prote": 2815,
  "\u2581biology": 2816,
  "\u2581therefore": 2817,
  "\u2581increasing": 2818,
  "\u2581throughout": 2819,
  "sect": 2820,
  "\u2581hom": 2821,
  "\u2581spect": 2822,
  "\u2581solutions": 2823,
  "\u2581alive": 2824,
  "\u2581employ": 2825,
  "\u2581engage": 2826,
  "\u2581anymore": 2827,
  "\u2581strange": 2828,
  "\u2581recognize": 2829,
  "rap": 2830,
  "vision": 2831,
  "\u2581cloud": 2832,
  "\u2581innov": 2833,
  "\u2581respect": 2834,
  "\u2581seconds": 2835,
  "\u2581machines": 2836,
  "\u2581dangerous": 2837,
  "\u2581decisions": 2838,
  "ama": 2839,
  "tend": 2840,
  "\u2581weren": 2841,
  "\u2581physics": 2842,
  "\u2581patterns": 2843,
  "ech": 2844,
  "\u2581mr": 2845,
  "\u2581beings": 2846,
  "\u2581strugg": 2847,
  "iversity": 2848,
  "\u2581journal": 2849,
  "\u2581bacteria": 2850,
  "\u2581sad": 2851,
  "\u2581gene": 2852,
  "\u2581magic": 2853,
  "\u2581effort": 2854,
  "\u2581slight": 2855,
  "\u2581becoming": 2856,
  "\u2581critical": 2857,
  "dom": 2858,
  "\u2581thr": 2859,
  "\u2581broad": 2860,
  "ologists": 2861,
  "\u2581healthy": 2862,
  "\u2581private": 2863,
  "\u2581anywhere": 2864,
  "iced": 2865,
  "\u2581198": 2866,
  "\u2581whe": 2867,
  "\u2581clim": 2868,
  "\u2581written": 2869,
  "\u258121": 2870,
  "\u2581actual": 2871,
  "\u2581associ": 2872,
  "\u2581intelligence": 2873,
  "sequ": 2874,
  "\u2581afgh": 2875,
  "\u2581mental": 2876,
  "\u2581comfort": 2877,
  "\u2581init": 2878,
  "\u2581price": 2879,
  "\u2581skills": 2880,
  "\u2581explore": 2881,
  "\u2581provide": 2882,
  "\u2581western": 2883,
  "\u2581atm": 2884,
  "\u2581loved": 2885,
  "\u2581calcul": 2886,
  "\u2581earlier": 2887,
  "\u2581version": 2888,
  "\u2581waiting": 2889,
  "\u2581americans": 2890,
  "\u2581listening": 2891,
  "\u2581immediately": 2892,
  "time": 2893,
  "\u2581vacc": 2894,
  "\u2581molec": 2895,
  "cies": 2896,
  "aging": 2897,
  "ently": 2898,
  "\u2581trou": 2899,
  "\u2581cover": 2900,
  "\u2581unique": 2901,
  "\u2581financial": 2902,
  "\u2581architecture": 2903,
  "\u2581unfortunately": 2904,
  "\u258113": 2905,
  "\u2581sus": 2906,
  "\u2581costs": 2907,
  "ike": 2908,
  "imately": 2909,
  "\u2581career": 2910,
  "\u2581famous": 2911,
  "\u2581content": 2912,
  "\u2581interview": 2913,
  "\u2581cry": 2914,
  "\u2581pal": 2915,
  "\u2581scr": 2916,
  "\u2581sor": 2917,
  "uments": 2918,
  "\u2581forth": 2919,
  "\u2581trick": 2920,
  "\u2581remind": 2921,
  "\u2581plastic": 2922,
  "\u2581expensive": 2923,
  "\u2581institutions": 2924,
  "\u2581neighborhood": 2925,
  "\u2581environmental": 2926,
  "\u2581exh": 2927,
  "\u2581laws": 2928,
  "\u2581shot": 2929,
  "\u2581match": 2930,
  "ustrial": 2931,
  "\u2581diseases": 2932,
  "\u2581transport": 2933,
  "iet": 2934,
  "lly": 2935,
  "oon": 2936,
  "\u2581cust": 2937,
  "\u2581trade": 2938,
  "\u2581bodies": 2939,
  "\u2581willing": 2940,
  "\u2581jump": 2941,
  "\u2581final": 2942,
  "itation": 2943,
  "\u2581dog": 2944,
  "iding": 2945,
  "\u2581hero": 2946,
  "\u2581offic": 2947,
  "\u2581worry": 2948,
  "inating": 2949,
  "\u2581afghan": 2950,
  "\u2581greater": 2951,
  "\u2581painting": 2952,
  "bb": 2953,
  "rep": 2954,
  "\u2581hous": 2955,
  "\u2581drink": 2956,
  "\u2581occur": 2957,
  "\u2581determ": 2958,
  "\u2581method": 2959,
  "\u2581weight": 2960,
  "\u2581direction": 2961,
  "\u2581fantastic": 2962,
  "ceed": 2963,
  "acity": 2964,
  "cient": 2965,
  "\u2581none": 2966,
  "\u2581autom": 2967,
  "\u2581humanity": 2968,
  "ays": 2969,
  "lebr": 2970,
  "\u2581fit": 2971,
  "\u2581river": 2972,
  "\u2581store": 2973,
  "\u2581celebr": 2974,
  "\u2581greatest": 2975,
  "ulf": 2976,
  "back": 2977,
  "ained": 2978,
  "iling": 2979,
  "\u2581catch": 2980,
  "\u2581liber": 2981,
  "\u2581himself": 2982,
  "\u2581neurons": 2983,
  "ira": 2984,
  "ball": 2985,
  "iest": 2986,
  "iven": 2987,
  "\u2581ara": 2988,
  "itude": 2989,
  "\u2581yell": 2990,
  "\u2581forget": 2991,
  "\u2581multip": 2992,
  "met": 2993,
  "amic": 2994,
  "\u2581income": 2995,
  "\u2581genetic": 2996,
  "\u2581familiar": 2997,
  "ried": 2998,
  "\u2581veh": 2999,
  "water": 3000,
  "\u2581floor": 3001,
  "\u2581saving": 3002,
  "\u2581services": 3003,
  "\u2581teaching": 3004,
  "mb": 3005,
  "oty": 3006,
  "\u2581den": 3007,
  "\u2581hol": 3008,
  "\u2581enjoy": 3009,
  "\u2581mobile": 3010,
  "\u2581nation": 3011,
  "\u2581driving": 3012,
  "0,": 3013,
  "\u2581tit": 3014,
  "\u2581rise": 3015,
  "\u2581apply": 3016,
  "\u2581oppos": 3017,
  "pro": 3018,
  "ube": 3019,
  "\u2581hall": 3020,
  "iation": 3021,
  "\u2581gradu": 3022,
  "\u2581walked": 3023,
  "\u2581massive": 3024,
  "gra": 3025,
  "rees": 3026,
  "\u2581ten": 3027,
  "atives": 3028,
  "\u2581surve": 3029,
  "\u2581levels": 3030,
  "\u2581random": 3031,
  "\u2581challenges": 3032,
  "resh": 3033,
  "\u2581pressure": 3034,
  "\u2581effective": 3035,
  "uted": 3036,
  "\u2581dyn": 3037,
  "\u2581email": 3038,
  "\u2581laugh": 3039,
  "\u2581raise": 3040,
  "\u2581range": 3041,
  "\u2581mid": 3042,
  "\u2581optim": 3043,
  "\u2581types": 3044,
  "\u2581decade": 3045,
  "\u2581values": 3046,
  "\u2581website": 3047,
  "\u2581production": 3048,
  "aly": 3049,
  "\u2581legs": 3050,
  "\u2581radio": 3051,
  "\u2581politics": 3052,
  "\u2581engineering": 3053,
  "\u2581aid": 3054,
  "attle": 3055,
  "eless": 3056,
  "\u2581harv": 3057,
  "istics": 3058,
  "\u2581integ": 3059,
  "ndon": 3060,
  "\u2581lat": 3061,
  "aries": 3062,
  "itted": 3063,
  "\u2581hell": 3064,
  "\u2581babies": 3065,
  "rastruct": 3066,
  "\u2581decades": 3067,
  "\u2581meeting": 3068,
  "sc": 3069,
  "\u2581fuel": 3070,
  "\u2581hair": 3071,
  "\u2581race": 3072,
  "\u2581beauty": 3073,
  "\u2581popular": 3074,
  "\u2581practice": 3075,
  "\u2581terrible": 3076,
  "\u2581infrastruct": 3077,
  "\u258190": 3078,
  "ping": 3079,
  "ables": 3080,
  "\u2581decide": 3081,
  "\u2581physic": 3082,
  "\u2581societ": 3083,
  "atically": 3084,
  "\u2581standard": 3085,
  "\u2581following": 3086,
  "\u2581demon": 3087,
  "\u2581honest": 3088,
  "\u2581mostly": 3089,
  "cope": 3090,
  "vert": 3091,
  "\u2581female": 3092,
  "\u2581spirit": 3093,
  "\u2581various": 3094,
  "\u2581industrial": 3095,
  "bel": 3096,
  "\u2581ut": 3097,
  "airs": 3098,
  "rene": 3099,
  "\u2581ken": 3100,
  "\u2581shap": 3101,
  "\u2581express": 3102,
  "\u2581programs": 3103,
  "iot": 3104,
  "\u2581male": 3105,
  "\u2581ahead": 3106,
  "\u2581useful": 3107,
  "\u2581effects": 3108,
  "\u2581performance": 3109,
  "zil": 3110,
  "\u2581tun": 3111,
  "\u2581surger": 3112,
  "\u2581choices": 3113,
  "\u2581remarkable": 3114,
  "unk": 3115,
  "\u2581base": 3116,
  "\u2581tiss": 3117,
  "\u2581flying": 3118,
  "\u2581consequ": 3119,
  "\u2581enormous": 3120,
  "\u2581mountain": 3121,
  "\u2581surround": 3122,
  "\u2581atmosphere": 3123,
  "iate": 3124,
  "\u2581prep": 3125,
  "\u2581rule": 3126,
  "\u2581wood": 3127,
  "ologist": 3128,
  "\u2581brazil": 3129,
  "\u2581colleagues": 3130,
  "\u2581connection": 3131,
  "ches": 3132,
  "\u2581dram": 3133,
  "\u2581shark": 3134,
  "\u2581german": 3135,
  "\u2581shared": 3136,
  "\u2581cultural": 3137,
  "iles": 3138,
  "itor": 3139,
  "\u2581pig": 3140,
  "\u2581tor": 3141,
  "ement": 3142,
  "epend": 3143,
  "\u2581simpl": 3144,
  "\u2581speech": 3145,
  "\u2581invented": 3146,
  "ica": 3147,
  "why": 3148,
  "\u2581nut": 3149,
  "\u2581pet": 3150,
  "\u2581beat": 3151,
  "\u2581uses": 3152,
  "\u2581weap": 3153,
  "\u2581austr": 3154,
  "\u2581commer": 3155,
  "\u2581helped": 3156,
  "\u2581relative": 3157,
  "\u2581organizations": 3158,
  "ils": 3159,
  "uct": 3160,
  "\u2581et": 3161,
  "aign": 3162,
  "\u2581500": 3163,
  "\u2581dar": 3164,
  "\u2581mut": 3165,
  "\u2581electr": 3166,
  "ises": 3167,
  "\u2581hus": 3168,
  "\u2581tax": 3169,
  "\u2581ton": 3170,
  "\u2581worst": 3171,
  "\u2581island": 3172,
  "\u2581london": 3173,
  "ervation": 3174,
  "\u2581instance": 3175,
  "\u2581condition": 3176,
  "key": 3177,
  "\u2581drop": 3178,
  "\u2581sick": 3179,
  "\u2581destro": 3180,
  "\u2581respond": 3181,
  "\u2581streets": 3182,
  "\u2581campaign": 3183,
  "antic": 3184,
  "erson": 3185,
  "\u2581john": 3186,
  "\u2581motiv": 3187,
  "\u2581whose": 3188,
  "ec": 3189,
  "used": 3190,
  "board": 3191,
  "\u2581below": 3192,
  "\u2581instr": 3193,
  "\u2581depend": 3194,
  "\u2581supply": 3195,
  "\u2581possibly": 3196,
  "\u2581understood": 3197,
  "\u2581hyd": 3198,
  "\u2581tens": 3199,
  "\u2581insect": 3200,
  "\u2581purpose": 3201,
  "\u2581washing": 3202,
  "\u2581slightly": 3203,
  "\u2581temperature": 3204,
  "ffe": 3205,
  "\u2581ben": 3206,
  "\u2581task": 3207,
  "\u2581concl": 3208,
  "\u2581custom": 3209,
  "\u2581demonstr": 3210,
  "\u2581independ": 3211,
  "\u2581infrastructure": 3212,
  "\u2581ur": 3213,
  "wise": 3214,
  "\u2581mos": 3215,
  "orrow": 3216,
  "\u2581speaking": 3217,
  "\u258170": 3218,
  "itter": 3219,
  "ufact": 3220,
  "ricult": 3221,
  "\u2581legal": 3222,
  "\u2581sorry": 3223,
  "\u2581stress": 3224,
  "\u2581television": 3225,
  "\u258124": 3226,
  "\u2581appl": 3227,
  "\u2581gent": 3228,
  "\u2581total": 3229,
  "\u2581stopped": 3230,
  "\u2581agricult": 3231,
  "\u2581electron": 3232,
  "ornia": 3233,
  "\u2581belief": 3234,
  "\u2581heat": 3235,
  "\u2581calif": 3236,
  "\u2581smell": 3237,
  "\u2581causes": 3238,
  "\u2581invent": 3239,
  "\u2581survive": 3240,
  "\u2581relationships": 3241,
  "ios": 3242,
  "\u2581boys": 3243,
  "\u2581doub": 3244,
  "\u2581mamm": 3245,
  "\u2581summer": 3246,
  "\u2581switch": 3247,
  "olve": 3248,
  "\u2581altern": 3249,
  "\u2581mission": 3250,
  "my": 3251,
  "\u2581slide": 3252,
  "\u2581prevent": 3253,
  "\u2581directly": 3254,
  "\u2581manufact": 3255,
  "\u2581biological": 3256,
  "\u2581creativity": 3257,
  "anc": 3258,
  "yle": 3259,
  "load": 3260,
  "\u2581ira": 3261,
  "inate": 3262,
  "\u2581bang": 3263,
  "\u2581twice": 3264,
  "reprene": 3265,
  "\u2581artist": 3266,
  "\u2581histor": 3267,
  "\u2581philos": 3268,
  "\u2581capacity": 3269,
  "\u2581conference": 3270,
  "\u2581responsibility": 3271,
  "fl": 3272,
  "\u2581197": 3273,
  "\u2581gun": 3274,
  "\u2581plat": 3275,
  "\u2581party": 3276,
  "\u2581visit": 3277,
  "\u2581meters": 3278,
  "\u2581california": 3279,
  "\u2581experiments": 3280,
  "nel": 3281,
  "\u2581swim": 3282,
  "\u2581microb": 3283,
  "\u2581members": 3284,
  "\u2581afghanistan": 3285,
  "\u2581cru": 3286,
  "arian": 3287,
  "gress": 3288,
  "\u2581hack": 3289,
  "\u2581paid": 3290,
  "\u2581displ": 3291,
  "\u2581despite": 3292,
  "\u2581controll": 3293,
  "\u2581profound": 3294,
  "\u2581communicate": 3295,
  "\u2581sustainable": 3296,
  "\u2581answers": 3297,
  "\u2581tremend": 3298,
  "\u2581communication": 3299,
  "band": 3300,
  "\u2581mix": 3301,
  "\u2581bord": 3302,
  "\u2581scan": 3303,
  "\u2581dimens": 3304,
  "\u2581oxygen": 3305,
  "\u2581symbol": 3306,
  "\u2581knowing": 3307,
  "\u2581markets": 3308,
  "\u2581networks": 3309,
  "cles": 3310,
  "\u2581cla": 3311,
  "\u2581coast": 3312,
  "\u2581dance": 3313,
  "\u2581shock": 3314,
  "\u2581depart": 3315,
  "\u2581easily": 3316,
  "\u2581degrees": 3317,
  "0.": 3318,
  "\u2581dav": 3319,
  "\u2581loss": 3320,
  "\u2581bought": 3321,
  "\u2581democr": 3322,
  "\u2581highly": 3323,
  "\u2581reduce": 3324,
  "\u2581societies": 3325,
  "\u2581entreprene": 3326,
  "\u2581surprising": 3327,
  "ray": 3328,
  "ancy": 3329,
  "\u2581tal": 3330,
  "\u2581conc": 3331,
  "\u2581applic": 3332,
  "\u2581reflect": 3333,
  "\u2581facebook": 3334,
  "\u2581emotional": 3335,
  "win": 3336,
  "oper": 3337,
  "uing": 3338,
  "house": 3339,
  "pping": 3340,
  "\u2581poet": 3341,
  "\u2581vast": 3342,
  "\u2581analy": 3343,
  "\u2581dying": 3344,
  "\u2581feels": 3345,
  "\u2581nations": 3346,
  "\u2581planets": 3347,
  "\u2581significant": 3348,
  "ls": 3349,
  "raid": 3350,
  "\u2581196": 3351,
  "\u2581arab": 3352,
  "\u2581blog": 3353,
  "\u2581habit": 3354,
  "\u2581gentle": 3355,
  "\u2581devices": 3356,
  "\u2581justice": 3357,
  "5,": 3358,
  "mon": 3359,
  "ste": 3360,
  "izes": 3361,
  "cules": 3362,
  "\u2581funny": 3363,
  "\u2581afraid": 3364,
  "\u2581window": 3365,
  "\u2581noticed": 3366,
  "\u2581daughter": 3367,
  "rew": 3368,
  "anced": 3369,
  "rench": 3370,
  "\u2581birds": 3371,
  "\u2581rapid": 3372,
  "\u2581shift": 3373,
  "\u2581broken": 3374,
  "\u2581expand": 3375,
  "\u2581played": 3376,
  "\u2581spaces": 3377,
  "\u2581yellow": 3378,
  "\u2581original": 3379,
  "icles": 3380,
  "\u2581hang": 3381,
  "\u2581hole": 3382,
  "\u2581closer": 3383,
  "\u2581corner": 3384,
  "\u2581forces": 3385,
  "\u2581resist": 3386,
  "\u2581volunt": 3387,
  "\u2581published": 3388,
  "\u2581differently": 3389,
  "rupt": 3390,
  "wood": 3391,
  "\u2581fat": 3392,
  "\u2581iraq": 3393,
  "\u2581wide": 3394,
  "\u2581foundation": 3395,
  "cks": 3396,
  "\u2581lack": 3397,
  "\u2581nearly": 3398,
  "\u2581evolved": 3399,
  "\u2581addition": 3400,
  "\u2581inspired": 3401,
  "\u2581designers": 3402,
  "\u2581ultimately": 3403,
  "gy": 3404,
  "\u2581je": 3405,
  "\u2581tur": 3406,
  "oting": 3407,
  "\u2581moon": 3408,
  "\u2581reco": 3409,
  "\u2581active": 3410,
  "\u2581desert": 3411,
  "\u2581contact": 3412,
  "\u2581efficient": 3413,
  "tle": 3414,
  "outh": 3415,
  "\u2581300": 3416,
  "aling": 3417,
  "\u2581crowd": 3418,
  "ception": 3419,
  "\u2581identity": 3420,
  "\u2581produced": 3421,
  "\u2581scientist": 3422,
  "kn": 3423,
  "ened": 3424,
  "ores": 3425,
  "ening": 3426,
  "orith": 3427,
  "othes": 3428,
  "\u2581fold": 3429,
  "\u2581trib": 3430,
  "\u2581frank": 3431,
  "\u2581target": 3432,
  "\u2581algorith": 3433,
  "\u2581differences": 3434,
  "cell": 3435,
  "empt": 3436,
  "atell": 3437,
  "\u2581core": 3438,
  "\u2581join": 3439,
  "ashion": 3440,
  "\u2581rough": 3441,
  "\u2581indian": 3442,
  "\u2581helping": 3443,
  "\u2581crim": 3444,
  "\u2581rare": 3445,
  "\u2581trip": 3446,
  "\u2581compon": 3447,
  "\u2581demand": 3448,
  "\u2581genome": 3449,
  "\u2581austral": 3450,
  "\u2581religion": 3451,
  "\u2581diversity": 3452,
  "\u2581molecules": 3453,
  "\u2581experiences": 3454,
  "look": 3455,
  "arter": 3456,
  "\u2581wire": 3457,
  "\u2581dreams": 3458,
  "\u2581flight": 3459,
  "ef": 3460,
  "\u2581fol": 3461,
  "\u2581magaz": 3462,
  "\u2581inspir": 3463,
  "\u2581seemed": 3464,
  "\u2581missing": 3465,
  "\u2581bringing": 3466,
  "aff": 3467,
  "anda": 3468,
  "term": 3469,
  "\u2581vul": 3470,
  "\u2581mich": 3471,
  "\u2581stem": 3472,
  "\u2581agree": 3473,
  "\u2581brill": 3474,
  "\u2581climb": 3475,
  "\u2581passed": 3476,
  "\u2581satell": 3477,
  "\u2581surgery": 3478,
  "\u2581trouble": 3479,
  "ius": 3480,
  "lim": 3481,
  "\u2581ju": 3482,
  "\u2581gotten": 3483,
  "\u2581virtual": 3484,
  "af": 3485,
  "\u2581host": 3486,
  "\u2581basis": 3487,
  "\u2581accord": 3488,
  "\u2581correct": 3489,
  "\u2581traffic": 3490,
  "\u2581alt": 3491,
  "\u2581inj": 3492,
  "\u2581mig": 3493,
  "idden": 3494,
  "right": 3495,
  "\u2581rout": 3496,
  "\u25811,000": 3497,
  "\u2581eating": 3498,
  "\u2581attract": 3499,
  "\u2581hearing": 3500,
  "gu": 3501,
  "rael": 3502,
  "\u2581fro": 3503,
  "\u2581copy": 3504,
  "\u2581russ": 3505,
  "\u2581seas": 3506,
  "\u2581avoid": 3507,
  "\u2581parad": 3508,
  "\u2581lights": 3509,
  "\u2581deliver": 3510,
  "\u2581forever": 3511,
  "\u2581partners": 3512,
  "\u2581spending": 3513,
  "hy": 3514,
  "la": 3515,
  "\u2581$": 3516,
  "set": 3517,
  "care": 3518,
  "\u2581nan": 3519,
  "\u2581ske": 3520,
  "ander": 3521,
  "\u2581bomb": 3522,
  "\u2581giant": 3523,
  "\u2581consid": 3524,
  "\u2581corpor": 3525,
  "\u2581studying": 3526,
  "\u2581background": 3527,
  "\u2581complexity": 3528,
  "orge": 3529,
  "\u2581etc": 3530,
  "\u2581fab": 3531,
  "\u2581teen": 3532,
  "icking": 3533,
  "\u2581coffe": 3534,
  "\u2581brother": 3535,
  "\u2581investment": 3536,
  "\u2581gh": 3537,
  "\u2581fed": 3538,
  "\u2581rom": 3539,
  "\u2581tum": 3540,
  "\u2581aspect": 3541,
  "\u2581amb": 3542,
  "\u2581ecos": 3543,
  "\u2581dinos": 3544,
  "\u2581metap": 3545,
  "\u2581weird": 3546,
  "eral": 3547,
  "\u2581enter": 3548,
  "\u2581fully": 3549,
  "\u2581stren": 3550,
  "\u2581opposite": 3551,
  "ding": 3552,
  "rate": 3553,
  "\u2581airpl": 3554,
  "\u2581photo": 3555,
  "\u2581raised": 3556,
  "\u2581unlike": 3557,
  "\u2581vulner": 3558,
  "\u2581creates": 3559,
  "\u2581commercial": 3560,
  "aced": 3561,
  "atures": 3562,
  "\u2581accom": 3563,
  "\u2581cooper": 3564,
  "pre": 3565,
  "ystem": 3566,
  "ifying": 3567,
  "\u2581mexic": 3568,
  "\u2581coffee": 3569,
  "\u2581easier": 3570,
  "\u2581sexual": 3571,
  "\u2581focused": 3572,
  "\u2581strength": 3573,
  "\u2581consciousness": 3574,
  "1,": 3575,
  "reci": 3576,
  "istry": 3577,
  "\u2581harm": 3578,
  "\u2581mort": 3579,
  "\u2581lucky": 3580,
  "\u2581matters": 3581,
  "\u2581opportunities": 3582,
  "uge": 3583,
  "\u2581boat": 3584,
  "\u2581gard": 3585,
  "\u2581describe": 3586,
  "\u2581tremendous": 3587,
  "arm": 3588,
  "cop": 3589,
  "roud": 3590,
  "\u2581wis": 3591,
  "\u2581prev": 3592,
  "\u2581failure": 3593,
  "\u2581leadership": 3594,
  "vit": 3595,
  "\u2581gar": 3596,
  "\u2581mad": 3597,
  "\u2581saf": 3598,
  "\u2581acad": 3599,
  "\u2581forg": 3600,
  "\u2581horr": 3601,
  "\u2581shop": 3602,
  "\u2581foreign": 3603,
  "\u2581ecosystem": 3604,
  "\u2581importantly": 3605,
  "ties": 3606,
  "rated": 3607,
  "\u2581iran": 3608,
  "\u2581teles": 3609,
  "\u2581ancient": 3610,
  "\u2581kilomet": 3611,
  "ya": 3612,
  "\u2581ep": 3613,
  "hand": 3614,
  "\u2581bag": 3615,
  "\u2581cred": 3616,
  "\u2581epid": 3617,
  "\u2581flag": 3618,
  "\u2581adapt": 3619,
  "\u2581invis": 3620,
  "\u2581mouth": 3621,
  "\u258110,000": 3622,
  "\u2581bright": 3623,
  "\u2581israel": 3624,
  "\u2581therap": 3625,
  "ulations": 3626,
  "\u2581artists": 3627,
  "\u2581sharing": 3628,
  "\u2581turning": 3629,
  "\u2581platform": 3630,
  "\u2581structures": 3631,
  "\u2581possibility": 3632,
  "\u25811.": 3633,
  "cript": 3634,
  "\u2581held": 3635,
  "\u2581puzz": 3636,
  "\u2581brings": 3637,
  "\u2581photos": 3638,
  "\u2581remain": 3639,
  "\u2581landscape": 3640,
  "ae": 3641,
  "fr": 3642,
  "\u2581repe": 3643,
  "\u2581proud": 3644,
  "\u2581fairly": 3645,
  "\u2581notion": 3646,
  "\u2581entirely": 3647,
  "8,": 3648,
  "ees": 3649,
  "mark": 3650,
  "this": 3651,
  "\u2581mas": 3652,
  "\u2581bees": 3653,
  "\u2581stuck": 3654,
  "\u2581advant": 3655,
  "\u2581breast": 3656,
  "\u2581transm": 3657,
  "\u2581benefits": 3658,
  "\u2581emotions": 3659,
  "\u2581brilliant": 3660,
  "\u2581imagination": 3661,
  "\u2581mit": 3662,
  "\u2581cand": 3663,
  "\u2581reve": 3664,
  "\u2581david": 3665,
  "\u2581according": 3666,
  "2,": 3667,
  "can": 3668,
  "wor": 3669,
  "iage": 3670,
  "based": 3671,
  "\u2581chur": 3672,
  "\u2581accur": 3673,
  "\u2581distance": 3674,
  "\u2581otherwise": 3675,
  "9,": 3676,
  "bu": 3677,
  "\u2581joy": 3678,
  "ipped": 3679,
  "itely": 3680,
  "\u2581band": 3681,
  "\u2581poem": 3682,
  "\u2581seed": 3683,
  "\u2581chick": 3684,
  "\u2581tough": 3685,
  "ography": 3686,
  "\u2581bridge": 3687,
  "\u2581disord": 3688,
  "\u2581remote": 3689,
  "\u2581concent": 3690,
  "\u2581husband": 3691,
  "\u2581billions": 3692,
  "\u2581negative": 3693,
  "\u2581religious": 3694,
  "bert": 3695,
  "\u2581cogn": 3696,
  "\u2581myster": 3697,
  "\u2581attempt": 3698,
  "\u2581regular": 3699,
  "ley": 3700,
  "off": 3701,
  "zen": 3702,
  "ysis": 3703,
  "\u2581egg": 3704,
  "\u2581scul": 3705,
  "\u2581calls": 3706,
  "\u2581diagn": 3707,
  "\u2581batter": 3708,
  "\u2581phones": 3709,
  "\u2581appreci": 3710,
  "\u2581fashion": 3711,
  "\u2581twitter": 3712,
  "\u2581discovery": 3713,
  "\u2581definition": 3714,
  "\u2581phenomenon": 3715,
  "\u2581necessarily": 3716,
  "isco": 3717,
  "celer": 3718,
  "rogen": 3719,
  "\u2581asia": 3720,
  "\u2581libr": 3721,
  "ulated": 3722,
  "\u2581sport": 3723,
  "\u2581opened": 3724,
  "\u2581counter": 3725,
  "\u2581moments": 3726,
  "\u2581collective": 3727,
  "cest": 3728,
  "\u2581bone": 3729,
  "\u2581disp": 3730,
  "\u2581exer": 3731,
  "\u2581bound": 3732,
  "\u2581brand": 3733,
  "\u2581gender": 3734,
  "\u2581tissue": 3735,
  "\u2581figured": 3736,
  "\u2581require": 3737,
  "\u2581european": 3738,
  "reg": 3739,
  "\u2581lin": 3740,
  "\u2581note": 3741,
  "\u2581mouse": 3742,
  "\u2581pleas": 3743,
  "connect": 3744,
  "\u2581events": 3745,
  "\u2581emotion": 3746,
  "\u2581argument": 3747,
  "\u2581elements": 3748,
  "\u2581suffering": 3749,
  "aria": 3750,
  "\u2581ble": 3751,
  "\u2581rot": 3752,
  "\u2581iron": 3753,
  "\u2581helps": 3754,
  "\u2581leads": 3755,
  "\u2581niger": 3756,
  "ifically": 3757,
  "\u2581destroy": 3758,
  "\u2581creatures": 3759,
  "\u2581necessary": 3760,
  "\u2581particles": 3761,
  "\u2581professor": 3762,
  "vere": 3763,
  "\u2581que": 3764,
  "\u2581appe": 3765,
  "\u2581bread": 3766,
  "\u2581cheap": 3767,
  "\u2581faith": 3768,
  "\u2581adults": 3769,
  "\u2581ancest": 3770,
  "\u2581failed": 3771,
  "\u2581sector": 3772,
  "\u2581stream": 3773,
  "\u2581transp": 3774,
  "\u2581farmers": 3775,
  "\u2581shouldn": 3776,
  "\u2581normally": 3777,
  "iber": 3778,
  "\u2581shr": 3779,
  "\u2581exch": 3780,
  "\u2581ship": 3781,
  "\u2581crime": 3782,
  "\u2581charge": 3783,
  "\u2581pounds": 3784,
  "\u2581holding": 3785,
  "\u2581leading": 3786,
  "\u2581studied": 3787,
  "\u2581compared": 3788,
  "\u2581previous": 3789,
  "\u2581influence": 3790,
  "\u2581responsible": 3791,
  "ked": 3792,
  "ager": 3793,
  "\u2581due": 3794,
  "\u2581jew": 3795,
  "\u2581mel": 3796,
  "print": 3797,
  "\u2581agre": 3798,
  "\u2581ange": 3799,
  "\u2581spot": 3800,
  "\u2581vall": 3801,
  "\u2581prior": 3802,
  "\u2581walls": 3803,
  "\u2581sculpt": 3804,
  "\u2581signal": 3805,
  "ada": 3806,
  "verse": 3807,
  "\u2581shel": 3808,
  "\u2581diver": 3809,
  "\u2581astron": 3810,
  "\u2581double": 3811,
  "\u2581letter": 3812,
  "\u2581volunte": 3813,
  "ha": 3814,
  "oun": 3815,
  "cons": 3816,
  "ears": 3817,
  "\u2581und": 3818,
  "\u2581bear": 3819,
  "\u2581lock": 3820,
  "\u2581tour": 3821,
  "\u2581cycle": 3822,
  "\u2581prost": 3823,
  "\u2581convin": 3824,
  "\u2581french": 3825,
  "\u2581restaur": 3826,
  "\u2581succeed": 3827,
  "\u2581childhood": 3828,
  "\u2581organisms": 3829,
  "\u2581competition": 3830,
  "7,": 3831,
  "\u2581400": 3832,
  "\u2581mer": 3833,
  "\u2581tast": 3834,
  "dimens": 3835,
  "\u2581lunch": 3836,
  "\u2581newsp": 3837,
  "\u2581stock": 3838,
  "\u2581wheel": 3839,
  "\u2581politic": 3840,
  "\u2581theater": 3841,
  "ification": 3842,
  "\u2581department": 3843,
  "\u2581cos": 3844,
  "\u2581mir": 3845,
  "\u2581embra": 3846,
  "\u2581equal": 3847,
  "\u2581fresh": 3848,
  "\u2581offer": 3849,
  "\u2581lesson": 3850,
  "\u2581master": 3851,
  "\u2581acceler": 3852,
  "\u2581strategy": 3853,
  "\u2581engineers": 3854,
  "\u2581businesses": 3855,
  "\u2581depression": 3856,
  "vant": 3857,
  "\u2581gay": 3858,
  "\u2581purs": 3859,
  "idents": 3860,
  "\u2581indic": 3861,
  "\u2581motor": 3862,
  "\u2581quote": 3863,
  "\u2581talks": 3864,
  "issions": 3865,
  "\u2581dollar": 3866,
  "\u2581oceans": 3867,
  "\u2581balance": 3868,
  "\u2581install": 3869,
  "\u2581leaving": 3870,
  "\u2581invisible": 3871,
  "\u2581philosoph": 3872,
  "\u2581washington": 3873,
  "\u25811,": 3874,
  "roll": 3875,
  "wide": 3876,
  "\u2581mur": 3877,
  "\u2581deeply": 3878,
  "\u2581typical": 3879,
  "ibilities": 3880,
  "\u2581fighting": 3881,
  "\u2581magazine": 3882,
  "ky": 3883,
  "lin": 3884,
  "rict": 3885,
  "\u2581cro": 3886,
  "inist": 3887,
  "\u2581edge": 3888,
  "\u2581camer": 3889,
  "\u2581eleph": 3890,
  "\u2581frequ": 3891,
  "\u2581subst": 3892,
  "lection": 3893,
  "quality": 3894,
  "\u2581hidden": 3895,
  "\u2581sister": 3896,
  "\u2581document": 3897,
  "\u2581currently": 3898,
  "stein": 3899,
  "\u2581exhib": 3900,
  "\u2581franc": 3901,
  "\u2581maint": 3902,
  "\u2581limited": 3903,
  "\u2581managed": 3904,
  "\u2581fascinating": 3905,
  "\u2581institution": 3906,
  "ses": 3907,
  "hold": 3908,
  "pper": 3909,
  "thes": 3910,
  "vity": 3911,
  "\u2581adop": 3912,
  "\u2581foss": 3913,
  "ctions": 3914,
  "\u2581argue": 3915,
  "\u2581noise": 3916,
  "\u2581belong": 3917,
  "\u2581colors": 3918,
  "\u2581degree": 3919,
  "\u2581compare": 3920,
  "\u2581creation": 3921,
  "\u2581construct": 3922,
  "\u2581hopefully": 3923,
  "gypt": 3924,
  "\u2581dry": 3925,
  "\u2581hyp": 3926,
  "throp": 3927,
  "\u2581egypt": 3928,
  "\u2581paint": 3929,
  "\u2581origin": 3930,
  "\u2581refuge": 3931,
  "\u2581british": 3932,
  "\u2581watched": 3933,
  "\u2581majority": 3934,
  "dimensional": 3935,
  "\u2581professional": 3936,
  "rad": 3937,
  "\u2581faces": 3938,
  "\u2581mosqu": 3939,
  "\u2581caught": 3940,
  "\u2581closed": 3941,
  "\u2581slowly": 3942,
  "\u2581insects": 3943,
  "\u2581related": 3944,
  "\u2581finished": 3945,
  "\u2581separate": 3946,
  "ami": 3947,
  "pes": 3948,
  "yes": 3949,
  "aker": 3950,
  "athy": 3951,
  "\u2581tow": 3952,
  "\u2581pros": 3953,
  "\u2581summ": 3954,
  "\u2581apple": 3955,
  "\u2581grass": 3956,
  "ruption": 3957,
  "\u2581believed": 3958,
  "\u2581seriously": 3959,
  "ston": 3960,
  "word": 3961,
  "\u2581pun": 3962,
  "iable": 3963,
  "\u2581ment": 3964,
  "\u2581folks": 3965,
  "\u2581steps": 3966,
  "\u2581fellow": 3967,
  "\u2581safety": 3968,
  "\u2581benefit": 3969,
  "\u2581prototy": 3970,
  "\u2581wearing": 3971,
  "\u2581metaphor": 3972,
  "\u2581intellect": 3973,
  "\u2581ug": 3974,
  "\u2581fif": 3975,
  "\u2581odd": 3976,
  "\u2581anti": 3977,
  "\u2581defe": 3978,
  "\u2581grown": 3979,
  "\u2581names": 3980,
  "\u2581prize": 3981,
  "\u2581church": 3982,
  "\u2581everyday": 3983,
  "\u2581followed": 3984,
  "\u2581whenever": 3985,
  "hi": 3986,
  "und": 3987,
  "agers": 3988,
  "ength": 3989,
  "\u2581opin": 3990,
  "\u2581finger": 3991,
  "\u2581leader": 3992,
  "\u2581unless": 3993,
  "\u2581artific": 3994,
  "\u2581element": 3995,
  "\u2581multiple": 3996,
  "\u2581soldiers": 3997,
  "\u2581concerned": 3998,
  "ta": 3999,
  "amb": 4000,
  "\u2581frag": 4001,
  "\u2581gall": 4002,
  "\u2581chair": 4003,
  "\u2581moves": 4004,
  "\u2581circle": 4005,
  "ographic": 4006,
  "\u2581capable": 4007,
  "\u2581quantum": 4008,
  "\u2581station": 4009,
  "\u2581trained": 4010,
  "\u2581surprise": 4011,
  "\u2581constantly": 4012,
  "\u2581mathematics": 4013,
  "\u2581disc": 4014,
  "\u2581hate": 4015,
  "\u2581soil": 4016,
  "\u2581novel": 4017,
  "\u2581breath": 4018,
  "\u2581fourth": 4019,
  "\u2581interaction": 4020,
  "bl": 4021,
  "ri": 4022,
  "ino": 4023,
  "oted": 4024,
  "\u2581150": 4025,
  "\u2581hun": 4026,
  "force": 4027,
  "\u2581chap": 4028,
  "\u2581gain": 4029,
  "\u2581wear": 4030,
  "\u2581heads": 4031,
  "\u2581begins": 4032,
  "\u2581fortun": 4033,
  "\u2581married": 4034,
  "\u2581accident": 4035,
  "\u2581sequence": 4036,
  "\u2581kilometers": 4037,
  "\u2581principles": 4038,
  "asa": 4039,
  "cket": 4040,
  "known": 4041,
  "\u2581fell": 4042,
  "\u2581lapt": 4043,
  "\u2581whom": 4044,
  "\u2581truck": 4045,
  "\u2581grandm": 4046,
  "\u2581highest": 4047,
  "\u2581launched": 4048,
  "\u2581received": 4049,
  "\u2581advantage": 4050,
  "\u2581described": 4051,
  "\u2581researchers": 4052,
  "irt": 4053,
  "enty": 4054,
  "uros": 4055,
  "\u2581gap": 4056,
  "apers": 4057,
  "illed": 4058,
  "\u2581paul": 4059,
  "\u2581court": 4060,
  "\u2581expert": 4061,
  "\u2581investig": 4062,
  "\u2581perfectly": 4063,
  "rel": 4064,
  "sec": 4065,
  "\u2581bon": 4066,
  "\u2581era": 4067,
  "\u2581fis": 4068,
  "\u2581arts": 4069,
  "\u2581cosm": 4070,
  "urally": 4071,
  "\u2581click": 4072,
  "\u2581goals": 4073,
  "\u2581pages": 4074,
  "\u2581attach": 4075,
  "\u2581valley": 4076,
  "\u2581factory": 4077,
  "\u2581replace": 4078,
  "\u2581weapons": 4079,
  "\u2581mentioned": 4080,
  "dp": 4081,
  "fo": 4082,
  "lex": 4083,
  "omy": 4084,
  "\u2581ax": 4085,
  "aked": 4086,
  "\u2581row": 4087,
  "tical": 4088,
  "\u2581grad": 4089,
  "\u2581kick": 4090,
  "terday": 4091,
  "\u2581march": 4092,
  "\u2581plane": 4093,
  "\u2581mothers": 4094,
  "\u2581cognitive": 4095,
  "\u2581operating": 4096,
  "\u2581surprised": 4097,
  "ulous": 4098,
  "\u2581roof": 4099,
  "\u2581seat": 4100,
  "forest": 4101,
  "\u2581brief": 4102,
  "\u2581crash": 4103,
  "oration": 4104,
  "\u2581exists": 4105,
  "\u2581fields": 4106,
  "\u2581reward": 4107,
  "\u2581insight": 4108,
  "\u2581invited": 4109,
  "\u2581precise": 4110,
  "\u2581identify": 4111,
  "\u2581survival": 4112,
  "ij": 4113,
  "asion": 4114,
  "essed": 4115,
  "\u2581bull": 4116,
  "\u2581coal": 4117,
  "\u2581myth": 4118,
  "\u2581nutr": 4119,
  "\u2581soph": 4120,
  "\u2581shoes": 4121,
  "\u2581signals": 4122,
  "\u2581principle": 4123,
  "\u2581healthcare": 4124,
  "\u2581consequences": 4125,
  "\u2581aids": 4126,
  "\u2581hasn": 4127,
  "\u2581intu": 4128,
  "\u2581tons": 4129,
  "ipping": 4130,
  "\u2581coral": 4131,
  "\u2581equip": 4132,
  "\u2581homes": 4133,
  "\u2581commit": 4134,
  "\u2581debate": 4135,
  "\u2581dinner": 4136,
  "\u2581micros": 4137,
  "\u2581paying": 4138,
  "\u2581article": 4139,
  "\u2581letters": 4140,
  "gar": 4141,
  "pher": 4142,
  "that": 4143,
  "\u2581spl": 4144,
  "\u2581daily": 4145,
  "\u2581protein": 4146,
  "\u2581galaxies": 4147,
  "\u2581marriage": 4148,
  "\u2581considered": 4149,
  "\u2581agriculture": 4150,
  "bi": 4151,
  "cil": 4152,
  "enn": 4153,
  "iat": 4154,
  "edia": 4155,
  "\u2581fal": 4156,
  "\u2581nav": 4157,
  "ortex": 4158,
  "\u2581empt": 4159,
  "\u2581stim": 4160,
  "\u2581wave": 4161,
  "ushing": 4162,
  "\u2581surge": 4163,
  "\u2581battle": 4164,
  "\u2581harder": 4165,
  "\u2581reform": 4166,
  "\u2581australia": 4167,
  "\u2581civilization": 4168,
  "mm": 4169,
  "emy": 4170,
  "hab": 4171,
  "anes": 4172,
  "\u2581smo": 4173,
  "\u2581ves": 4174,
  "icity": 4175,
  "uries": 4176,
  "\u2581ants": 4177,
  "\u2581lady": 4178,
  "\u2581beach": 4179,
  "\u2581galaxy": 4180,
  "\u2581implic": 4181,
  "\u2581versus": 4182,
  "\u2581curious": 4183,
  "\u2581experts": 4184,
  "\u2581economics": 4185,
  "\u2581yesterday": 4186,
  "\u2581associated": 4187,
  "\u2581increasingly": 4188,
  "ume": 4189,
  "\u2581gdp": 4190,
  "\u2581lie": 4191,
  "\u2581sla": 4192,
  "\u2581arms": 4193,
  "\u2581diet": 4194,
  "\u2581meat": 4195,
  "\u2581nerv": 4196,
  "\u2581scen": 4197,
  "\u2581tick": 4198,
  "\u2581vent": 4199,
  "\u2581limit": 4200,
  "\u2581mexico": 4201,
  "\u2581testing": 4202,
  "\u2581shut": 4203,
  "\u2581finish": 4204,
  "\u2581ladies": 4205,
  "\u2581leaves": 4206,
  "\u2581motion": 4207,
  "\u2581weather": 4208,
  "\u2581worried": 4209,
  "\u2581feedback": 4210,
  "\u2581planning": 4211,
  "\u2581dol": 4212,
  "\u2581org": 4213,
  "\u2581sen": 4214,
  "craft": 4215,
  "\u2581lies": 4216,
  "\u2581wake": 4217,
  "\u2581neuro": 4218,
  "\u2581forced": 4219,
  "\u2581incent": 4220,
  "\u2581spring": 4221,
  "\u2581stupid": 4222,
  "\u2581wisdom": 4223,
  "\u2581drawing": 4224,
  "\u2581illustr": 4225,
  "\u2581congress": 4226,
  "\u2581contract": 4227,
  "\u2581classroom": 4228,
  "\u2581existence": 4229,
  "\u2581mountains": 4230,
  "\u2581universal": 4231,
  "\u2581alternative": 4232,
  "\u2581comfortable": 4233,
  "der": 4234,
  "uous": 4235,
  "\u2581rub": 4236,
  "\u2581load": 4237,
  "\u2581subm": 4238,
  "\u2581round": 4239,
  "\u2581autism": 4240,
  "\u2581desire": 4241,
  "\u2581vessel": 4242,
  "\u2581equival": 4243,
  "\u2581organic": 4244,
  "\u2581treated": 4245,
  "\u2581equipment": 4246,
  "\u2581statistics": 4247,
  "\u2581generations": 4248,
  "\u2581independent": 4249,
  "mp": 4250,
  "yl": 4251,
  "\u2581exec": 4252,
  "\u2581rein": 4253,
  "\u2581infin": 4254,
  "\u2581layer": 4255,
  "\u2581rural": 4256,
  "\u2581sympt": 4257,
  "\u2581voices": 4258,
  "\u2581england": 4259,
  "\u2581molecule": 4260,
  "\u2581struggle": 4261,
  "\u2581continent": 4262,
  "ago": 4263,
  "pir": 4264,
  "life": 4265,
  "odes": 4266,
  "anted": 4267,
  "\u2581date": 4268,
  "\u2581maps": 4269,
  "\u2581categ": 4270,
  "\u2581recon": 4271,
  "\u2581darwin": 4272,
  "\u2581gather": 4273,
  "\u2581sending": 4274,
  "\u2581designer": 4275,
  "\u2581consumption": 4276,
  "new": 4277,
  "pet": 4278,
  "point": 4279,
  "\u2581army": 4280,
  "\u2581warm": 4281,
  "encies": 4282,
  "thetic": 4283,
  "\u2581lifet": 4284,
  "\u2581scene": 4285,
  "\u2581stood": 4286,
  "\u2581frustr": 4287,
  "\u2581calling": 4288,
  "\u2581nervous": 4289,
  "\u2581resource": 4290,
  "\u2581emissions": 4291,
  "\u2581processes": 4292,
  "\u2581technical": 4293,
  "\u2581artificial": 4294,
  "\u2581management": 4295,
  "3,": 4296,
  "dy": 4297,
  "hey": 4298,
  "apse": 4299,
  "\u2581rat": 4300,
  "\u2581flat": 4301,
  "\u2581snow": 4302,
  "itness": 4303,
  "\u2581quiet": 4304,
  "\u2581spoke": 4305,
  "\u2581picked": 4306,
  "\u2581select": 4307,
  "\u2581contain": 4308,
  "\u2581partner": 4309,
  "\u2581release": 4310,
  "\u2581warming": 4311,
  "\u2581engineer": 4312,
  "\u2581ordinary": 4313,
  "\u2581tomorrow": 4314,
  "\u2581institute": 4315,
  "\u2581interface": 4316,
  "\u2581languages": 4317,
  "\u2581experienced": 4318,
  "4,": 4319,
  "aled": 4320,
  "roph": 4321,
  "\u2581bul": 4322,
  "\u2581bits": 4323,
  "\u2581kore": 4324,
  "ensity": 4325,
  "\u25812,000": 4326,
  "\u2581antib": 4327,
  "\u2581chain": 4328,
  "\u2581saved": 4329,
  "\u2581circum": 4330,
  "\u2581symmet": 4331,
  "\u2581videos": 4332,
  "\u2581100,000": 4333,
  "\u2581germany": 4334,
  "\u2581keeping": 4335,
  "\u2581expected": 4336,
  "\u2581sentence": 4337,
  "\u2581ah": 4338,
  "ests": 4339,
  "estic": 4340,
  "olves": 4341,
  "\u2581isol": 4342,
  "\u2581lawy": 4343,
  "\u2581puts": 4344,
  "\u2581unit": 4345,
  "\u2581vote": 4346,
  "\u2581weak": 4347,
  "\u2581brown": 4348,
  "\u2581facts": 4349,
  "\u2581inner": 4350,
  "\u2581poetry": 4351,
  "\u2581shapes": 4352,
  "\u2581malaria": 4353,
  "\u2581vehicle": 4354,
  "\u2581clinical": 4355,
  "\u2581criminal": 4356,
  "ara": 4357,
  "ibr": 4358,
  "now": 4359,
  "oom": 4360,
  "rum": 4361,
  "\u258135": 4362,
  "bble": 4363,
  "cast": 4364,
  "iors": 4365,
  "\u2581pil": 4366,
  "\u2581pip": 4367,
  "\u2581dial": 4368,
  "\u2581gang": 4369,
  "\u2581hadn": 4370,
  "\u2581illeg": 4371,
  "\u2581filled": 4372,
  "\u2581analysis": 4373,
  "\u2581property": 4374,
  "\u2581organized": 4375,
  "\u2581importance": 4376,
  "\u2581distribution": 4377,
  "place": 4378,
  "\u2581wond": 4379,
  "\u2581toward": 4380,
  "\u2581covered": 4381,
  "\u2581dealing": 4382,
  "\u2581dynamic": 4383,
  "\u2581privile": 4384,
  "\u2581richard": 4385,
  "\u2581selling": 4386,
  "\u2581setting": 4387,
  "\u2581collection": 4388,
  "\u2581transition": 4389,
  "\u2581intelligent": 4390,
  "\u2581ein": 4391,
  "\u2581caused": 4392,
  "\u2581george": 4393,
  "\u2581movies": 4394,
  "\u2581cameras": 4395,
  "\u2581airplane": 4396,
  "\u2581movements": 4397,
  "\u2581equivalent": 4398,
  "\u2581connections": 4399,
  "\u2581specifically": 4400,
  "esome": 4401,
  "neath": 4402,
  "\u2581abst": 4403,
  "\u2581hung": 4404,
  "\u2581qual": 4405,
  "\u2581reef": 4406,
  "\u2581tall": 4407,
  "\u2581chimp": 4408,
  "\u2581dolph": 4409,
  "\u2581kenya": 4410,
  "\u2581solid": 4411,
  "\u2581users": 4412,
  "\u2581thinks": 4413,
  "\u2581arrived": 4414,
  "\u2581reaction": 4415,
  "\u2581convinced": 4416,
  "\u2581wondering": 4417,
  "\u2581underneath": 4418,
  "ux": 4419,
  "cap": 4420,
  "gged": 4421,
  "otic": 4422,
  "semb": 4423,
  "\u2581cow": 4424,
  "\u2581poo": 4425,
  "\u2581blow": 4426,
  "\u2581hide": 4427,
  "\u2581shad": 4428,
  "elling": 4429,
  "\u2581heavy": 4430,
  "\u2581rates": 4431,
  "\u2581risks": 4432,
  "\u2581player": 4433,
  "\u2581factors": 4434,
  "\u2581advanced": 4435,
  "\u2581exchange": 4436,
  "sa": 4437,
  "\u2581mc": 4438,
  "down": 4439,
  "rete": 4440,
  "\u2581atl": 4441,
  "\u2581mat": 4442,
  "\u2581hurt": 4443,
  "\u2581surf": 4444,
  "\u2581tail": 4445,
  "lation": 4446,
  "\u2581prove": 4447,
  "\u2581sites": 4448,
  "\u2581toile": 4449,
  "\u2581losing": 4450,
  "\u2581neuros": 4451,
  "\u2581southern": 4452,
  "\u2581convention": 4453,
  "\u2581dimensions": 4454,
  "don": 4455,
  "iev": 4456,
  "ocol": 4457,
  "sour": 4458,
  "zing": 4459,
  "\u2581smile": 4460,
  "\u2581stone": 4461,
  "osition": 4462,
  "\u2581houses": 4463,
  "\u2581medium": 4464,
  "\u2581cutting": 4465,
  "\u2581players": 4466,
  "\u2581whereas": 4467,
  "\u2581feelings": 4468,
  "\u2581requires": 4469,
  "\u2581satellite": 4470,
  "\u2581democratic": 4471,
  ".'": 4472,
  "ogen": 4473,
  "\u2581pow": 4474,
  "\u2581wars": 4475,
  "ession": 4476,
  "\u2581honor": 4477,
  "\u2581hyper": 4478,
  "\u2581veget": 4479,
  "\u2581damage": 4480,
  "\u2581garden": 4481,
  "\u2581muscle": 4482,
  "\u2581conduct": 4483,
  "\u2581illness": 4484,
  "\u2581einstein": 4485,
  "\u2581japanese": 4486,
  "\u2581released": 4487,
  "6,": 4488,
  "eng": 4489,
  "mber": 4490,
  "\u2581cha": 4491,
  "\u2581bush": 4492,
  "\u2581ends": 4493,
  "\u2581driver": 4494,
  "\u2581extend": 4495,
  "\u2581height": 4496,
  "\u2581review": 4497,
  "\u2581opening": 4498,
  "\u2581suppose": 4499,
  "\u2581messages": 4500,
  "\u2581electrical": 4501,
  "just": 4502,
  "\u2581toy": 4503,
  "iency": 4504,
  "itals": 4505,
  "\u2581bare": 4506,
  "\u2581evil": 4507,
  "\u2581mart": 4508,
  "\u2581resc": 4509,
  "\u2581swed": 4510,
  "icated": 4511,
  "\u2581cards": 4512,
  "\u2581colon": 4513,
  "\u2581signs": 4514,
  "\u2581waves": 4515,
  "\u2581deeper": 4516,
  "\u2581explan": 4517,
  "\u2581fossil": 4518,
  "\u2581battery": 4519,
  "\u2581killing": 4520,
  "\u2581northern": 4521,
  "\u2581essential": 4522,
  "\u2581properties": 4523,
  "\u2581construction": 4524,
  "car": 4525,
  "cont": 4526,
  "onym": 4527,
  "\u2581jan": 4528,
  "\u2581auth": 4529,
  "\u2581valu": 4530,
  "ension": 4531,
  "stream": 4532,
  "\u2581estab": 4533,
  "akistan": 4534,
  "\u2581appropr": 4535,
  "\u2581victims": 4536,
  "\u2581designing": 4537,
  "\u2581inequality": 4538,
  "\u2581represents": 4539,
  "\u2581intellectual": 4540,
  "\u2581entrepreneurs": 4541,
  "cipl": 4542,
  "\u2581bow": 4543,
  "\u2581ped": 4544,
  "erves": 4545,
  "\u2581pray": 4546,
  "\u2581suit": 4547,
  "acters": 4548,
  "lement": 4549,
  "\u2581awful": 4550,
  "\u2581broke": 4551,
  "\u2581chart": 4552,
  "\u2581perce": 4553,
  "\u2581amazon": 4554,
  "\u2581budget": 4555,
  "\u2581credit": 4556,
  "\u2581member": 4557,
  "\u2581harvard": 4558,
  "\u2581rapidly": 4559,
  "\u2581reprodu": 4560,
  "\u2581witness": 4561,
  "\u2581epidemic": 4562,
  "\u2581graduate": 4563,
  "\u2581sophistic": 4564,
  "\u2581worldwide": 4565,
  "\u2581characters": 4566,
  "\u2581expression": 4567,
  "col": 4568,
  "fish": 4569,
  "irty": 4570,
  "\u25812000": 4571,
  "\u2581lift": 4572,
  "\u2581pure": 4573,
  "\u2581recy": 4574,
  "\u2581empty": 4575,
  "\u2581promise": 4576,
  "\u2581variety": 4577,
  "\u2581emerging": 4578,
  "\u2581trillion": 4579,
  "2.": 4580,
  "\u2581hey": 4581,
  "\u2581van": 4582,
  "iques": 4583,
  "\u2581holes": 4584,
  "\u2581liked": 4585,
  "\u2581negot": 4586,
  "\u2581prime": 4587,
  "\u2581advert": 4588,
  "\u2581facing": 4589,
  "\u2581former": 4590,
  "\u2581trials": 4591,
  "\u2581britain": 4592,
  "\u2581exercise": 4593,
  "\u2581microbes": 4594,
  "\u2581pakistan": 4595,
  "\u2581entertain": 4596,
  "\u2581francisco": 4597,
  "\u2581corruption": 4598,
  "\u2581possibilities": 4599,
  "gl": 4600,
  "ett": 4601,
  "\u2581pac": 4602,
  "\u2581wel": 4603,
  "\u2581flex": 4604,
  "\u2581gree": 4605,
  "\u2581spin": 4606,
  "\u2581manip": 4607,
  "\u2581prefer": 4608,
  "\u2581display": 4609,
  "\u2581library": 4610,
  "\u2581radical": 4611,
  "\u2581thoughts": 4612,
  "\u2581carefully": 4613,
  "\u2581chemistry": 4614,
  "\u2581telescope": 4615,
  "\u2581protection": 4616,
  "\u2581effectively": 4617,
  "\u2581conservation": 4618,
  "ca": 4619,
  "min": 4620,
  "zed": 4621,
  "anze": 4622,
  "aurs": 4623,
  "\u2581dip": 4624,
  "\u2581ing": 4625,
  "\u2581cave": 4626,
  "\u2581decl": 4627,
  "\u2581nasa": 4628,
  "\u2581claim": 4629,
  "\u2581ideal": 4630,
  "\u2581occup": 4631,
  "\u2581sweet": 4632,
  "ulating": 4633,
  "\u2581capture": 4634,
  "\u2581forests": 4635,
  "\u2581sources": 4636,
  "\u2581official": 4637,
  "\u2581chimpanze": 4638,
  "\u2581gentlemen": 4639,
  "\u2581typically": 4640,
  "\u2581grandmother": 4641,
  "\u2581mathematical": 4642,
  "ss": 4643,
  "pan": 4644,
  "gets": 4645,
  "\u2581ded": 4646,
  "\u2581mak": 4647,
  "\u2581hunt": 4648,
  "\u2581intr": 4649,
  "\u2581plus": 4650,
  "\u2581pole": 4651,
  "\u2581remo": 4652,
  "\u2581shif": 4653,
  "\u2581minim": 4654,
  "\u2581cultures": 4655,
  "\u2581required": 4656,
  "\u2581politicians": 4657,
  "prof": 4658,
  "\u2581lic": 4659,
  "akers": 4660,
  "\u2581dots": 4661,
  "\u2581gift": 4662,
  "\u2581liqu": 4663,
  "\u2581peak": 4664,
  "\u2581ride": 4665,
  "pected": 4666,
  "\u2581horse": 4667,
  "\u2581pengu": 4668,
  "\u2581sight": 4669,
  "\u2581length": 4670,
  "\u2581centers": 4671,
  "\u2581lessons": 4672,
  "\u2581roughly": 4673,
  "\u2581minister": 4674,
  "\u2581introduce": 4675,
  "\u2581profession": 4676,
  "\u2581relatively": 4677,
  "30": 4678,
  "rs": 4679,
  "\u2581'9": 4680,
  "osis": 4681,
  "\u2581wik": 4682,
  "\u2581club": 4683,
  "\u2581mira": 4684,
  "\u2581user": 4685,
  "\u2581kitch": 4686,
  "\u2581profit": 4687,
  "\u2581depends": 4688,
  "\u2581details": 4689,
  "\u2581extract": 4690,
  "\u2581generate": 4691,
  "\u2581lifetime": 4692,
  "\u2581disappear": 4693,
  "\u2581vulnerable": 4694,
  "ael": 4695,
  "bur": 4696,
  "cal": 4697,
  "icy": 4698,
  "\u2581bee": 4699,
  "\u2581jack": 4700,
  "\u2581loud": 4701,
  "\u2581shall": 4702,
  "itarian": 4703,
  "\u2581assist": 4704,
  "\u2581buying": 4705,
  "\u2581define": 4706,
  "\u2581command": 4707,
  "\u2581mosquit": 4708,
  "\u2581nigeria": 4709,
  "\u2581convince": 4710,
  "\u2581location": 4711,
  "\u2581generally": 4712,
  "\u2581producing": 4713,
  "\u2581definitely": 4714,
  "\u2581participate": 4715,
  "ded": 4716,
  "spe": 4717,
  "\u2581py": 4718,
  "cers": 4719,
  "\u2581jail": 4720,
  "\u2581unex": 4721,
  "\u2581unus": 4722,
  "\u2581compl": 4723,
  "\u2581crack": 4724,
  "\u2581serve": 4725,
  "\u2581tumor": 4726,
  "\u2581status": 4727,
  "\u2581survey": 4728,
  "\u2581consist": 4729,
  "\u2581circumst": 4730,
  "\u2581chemicals": 4731,
  "\u2581dinosaurs": 4732,
  "\u2581encourage": 4733,
  "\u2581techniques": 4734,
  "bre": 4735,
  "\u258145": 4736,
  "nded": 4737,
  "uary": 4738,
  "\u2581aff": 4739,
  "\u2581phr": 4740,
  "icago": 4741,
  "rooms": 4742,
  "\u2581diam": 4743,
  "\u2581drag": 4744,
  "\u2581mand": 4745,
  "\u2581domin": 4746,
  "\u2581shame": 4747,
  "\u2581staff": 4748,
  "\u2581canada": 4749,
  "\u2581interp": 4750,
  "\u2581engaged": 4751,
  "\u2581funding": 4752,
  "\u2581anderson": 4753,
  "\u2581molecular": 4754,
  "but": 4755,
  "\u2581bg": 4756,
  "abet": 4757,
  "stic": 4758,
  "\u2581cub": 4759,
  "usive": 4760,
  "\u2581bran": 4761,
  "\u2581hill": 4762,
  "\u2581sees": 4763,
  "\u2581fewer": 4764,
  "\u2581grade": 4765,
  "\u2581pregn": 4766,
  "\u2581steel": 4767,
  "\u2581sugar": 4768,
  "\u2581formed": 4769,
  "\u2581regard": 4770,
  "\u2581sharks": 4771,
  "\u2581accompl": 4772,
  "\u2581awesome": 4773,
  "\u2581cartoon": 4774,
  "\u2581encoura": 4775,
  "\u2581consumer": 4776,
  "\u2581personally": 4777,
  "\u2581transformation": 4778,
  "1.": 4779,
  "oes": 4780,
  "ole": 4781,
  "\u2581eld": 4782,
  "\u2581les": 4783,
  "\u2581cure": 4784,
  "\u2581desk": 4785,
  "\u2581orch": 4786,
  "\u2581cyber": 4787,
  "\u2581grain": 4788,
  "\u2581metal": 4789,
  "\u2581teeth": 4790,
  "\u2581advent": 4791,
  "\u2581forgot": 4792,
  "\u2581winter": 4793,
  "\u2581actions": 4794,
  "\u2581applied": 4795,
  "\u2581chicago": 4796,
  "\u2581courage": 4797,
  "\u2581spectrum": 4798,
  "\u2581fundament": 4799,
  "\u2581invention": 4800,
  "\u2581combination": 4801,
  "60": 4802,
  "uls": 4803,
  "oles": 4804,
  "\u2581oct": 4805,
  "\u2581dogs": 4806,
  "\u2581james": 4807,
  "\u2581pitch": 4808,
  "\u2581reven": 4809,
  "\u2581bottle": 4810,
  "\u2581bubble": 4811,
  "\u2581studio": 4812,
  "\u2581primary": 4813,
  "\u2581valuable": 4814,
  "\u2581hospitals": 4815,
  "\u2581manufacturing": 4816,
  "ox": 4817,
  "\u2581ru": 4818,
  "bors": 4819,
  "olds": 4820,
  "tube": 4821,
  "\u2581bath": 4822,
  "\u2581cast": 4823,
  "\u2581nose": 4824,
  "urance": 4825,
  "\u2581auton": 4826,
  "\u2581obser": 4827,
  "\u2581polar": 4828,
  "\u2581refer": 4829,
  "\u2581shoot": 4830,
  "\u2581inevit": 4831,
  "\u2581illegal": 4832,
  "\u2581include": 4833,
  "\u2581outcome": 4834,
  "\u2581vaccine": 4835,
  "\u2581apparent": 4836,
  "\u2581disaster": 4837,
  "\u2581environments": 4838,
  "ka": 4839,
  "\u2581nur": 4840,
  "\u2581grid": 4841,
  "\u2581lect": 4842,
  "cience": 4843,
  "\u2581flies": 4844,
  "\u2581genet": 4845,
  "\u2581horiz": 4846,
  "\u2581sides": 4847,
  "\u2581arrest": 4848,
  "\u2581compar": 4849,
  "\u2581fisher": 4850,
  "\u2581marine": 4851,
  "\u2581season": 4852,
  "\u2581kitchen": 4853,
  "\u2581quarter": 4854,
  "\u2581establish": 4855,
  "\u2581increased": 4856,
  "\u2581naturally": 4857,
  "\u2581discussion": 4858,
  "\u2581instrument": 4859,
  "\u2581situations": 4860,
  "\u2581evolutionary": 4861,
  "au": 4862,
  "hyth": 4863,
  "icip": 4864,
  "\u2581ens": 4865,
  "\u2581wat": 4866,
  "alled": 4867,
  "\u2581diss": 4868,
  "\u2581aging": 4869,
  "\u2581assign": 4870,
  "\u2581blocks": 4871,
  "\u2581mirror": 4872,
  "\u2581worlds": 4873,
  "\u2581chicken": 4874,
  "\u2581opinion": 4875,
  "abilities": 4876,
  "\u2581affected": 4877,
  "\u2581carrying": 4878,
  "\u2581symptoms": 4879,
  "\u2581authority": 4880,
  "\u2581awareness": 4881,
  "\u2581employees": 4882,
  "\u2581potentially": 4883,
  "dr": 4884,
  "ym": 4885,
  "van": 4886,
  "\u2581ber": 4887,
  "\u2581pin": 4888,
  "eline": 4889,
  "porary": 4890,
  "\u2581atoms": 4891,
  "\u2581analog": 4892,
  "\u2581drives": 4893,
  "\u2581empathy": 4894,
  "\u2581gravity": 4895,
  "\u2581viruses": 4896,
  "\u2581youtube": 4897,
  "\u2581interests": 4898,
  "\u2581neighbors": 4899,
  "\u2581restaurant": 4900,
  "iti": 4901,
  "mas": 4902,
  "\u258175": 4903,
  "\u258199": 4904,
  "\u2581ii": 4905,
  "iend": 4906,
  "\u2581jer": 4907,
  "ament": 4908,
  "child": 4909,
  "icing": 4910,
  "ublic": 4911,
  "\u2581fert": 4912,
  "\u2581thin": 4913,
  "father": 4914,
  "ternal": 4915,
  "\u2581added": 4916,
  "\u2581input": 4917,
  "\u2581boston": 4918,
  "\u2581factor": 4919,
  "\u2581liquid": 4920,
  "\u2581option": 4921,
  "\u2581regions": 4922,
  "\u2581unusual": 4923,
  "\u2581recorded": 4924,
  "\u2581behaviors": 4925,
  "\u2581newspaper": 4926,
  "\u2581radiation": 4927,
  "\u2581traveling": 4928,
  "\u2581components": 4929,
  "\u2581introduced": 4930,
  "\u2581physically": 4931,
  "\u2581biom": 4932,
  "\u2581impl": 4933,
  "\u2581ring": 4934,
  "\u2581runs": 4935,
  "\u2581soul": 4936,
  "olving": 4937,
  "\u2581islam": 4938,
  "\u2581notes": 4939,
  "\u2581renew": 4940,
  "\u2581organs": 4941,
  "\u2581pulled": 4942,
  "\u2581attacks": 4943,
  "\u2581channel": 4944,
  "\u2581mistake": 4945,
  "\u2581reached": 4946,
  "\u2581existing": 4947,
  "\u2581maintain": 4948,
  "\u2581password": 4949,
  "\u2581prepared": 4950,
  "\u2581fundamentally": 4951,
  "\u2581sophisticated": 4952,
  "rog": 4953,
  "\u2581bat": 4954,
  "\u2581rit": 4955,
  "\u2581mile": 4956,
  "\u2581milk": 4957,
  "\u2581perm": 4958,
  "\u2581pian": 4959,
  "\u2581estim": 4960,
  "\u2581false": 4961,
  "\u2581goods": 4962,
  "\u2581keeps": 4963,
  "\u2581lying": 4964,
  "\u2581muslim": 4965,
  "\u2581sample": 4966,
  "\u2581sports": 4967,
  "\u2581empower": 4968,
  "\u2581brothers": 4969,
  "\u2581rational": 4970,
  "\u2581mortality": 4971,
  "\u2581pollution": 4972,
  "\u2581protected": 4973,
  "\u2581laboratory": 4974,
  "\u2581conversations": 4975,
  "hes": 4976,
  "log": 4977,
  "uits": 4978,
  "\u2581sco": 4979,
  "build": 4980,
  "lying": 4981,
  "\u2581hotel": 4982,
  "\u2581storm": 4983,
  "\u2581critic": 4984,
  "\u2581severe": 4985,
  "\u2581fishing": 4986,
  "\u2581silence": 4987,
  "\u2581pleasure": 4988,
  "\u2581stronger": 4989,
  "\u2581transfer": 4990,
  "\u2581activities": 4991,
  "\u2581innovative": 4992,
  "\u2581meaningful": 4993,
  "\u2581na": 4994,
  "\u2581cup": 4995,
  "ework": 4996,
  "\u2581acqu": 4997,
  "\u2581span": 4998,
  "\u2581clinic": 4999,
  "\u2581conver": 5000,
  "\u2581desper": 5001,
  "\u2581france": 5002,
  "\u2581ingred": 5003,
  "\u2581laptop": 5004,
  "\u2581perman": 5005,
  "\u2581feature": 5006,
  "\u2581harvest": 5007,
  "\u2581housing": 5008,
  "\u2581michael": 5009,
  "\u2581operate": 5010,
  "\u2581hydrogen": 5011,
  "\u2581framework": 5012,
  "\u2581providing": 5013,
  "ald": 5014,
  "esh": 5015,
  "whel": 5016,
  "\u2581194": 5017,
  "\u2581gut": 5018,
  "abled": 5019,
  "icate": 5020,
  "\u2581barr": 5021,
  "\u2581reci": 5022,
  "anging": 5023,
  "\u2581clock": 5024,
  "\u2581curve": 5025,
  "\u2581satis": 5026,
  "\u2581topic": 5027,
  "\u2581union": 5028,
  "\u2581driven": 5029,
  "\u2581scared": 5030,
  "\u2581senses": 5031,
  "\u2581sphere": 5032,
  "\u2581privacy": 5033,
  "\u2581overwhel": 5034,
  "\u2581ultimate": 5035,
  "\u2581practical": 5036,
  "\u2581destruction": 5037,
  "uel": 5038,
  "cond": 5039,
  "\u2581ath": 5040,
  "organ": 5041,
  "\u2581alex": 5042,
  "\u2581clip": 5043,
  "\u2581pair": 5044,
  "angers": 5045,
  "\u2581doubt": 5046,
  "\u2581steve": 5047,
  "\u2581toxic": 5048,
  "\u2581joined": 5049,
  "\u2581neither": 5050,
  "\u2581abstract": 5051,
  "\u2581administ": 5052,
  "\u2581equality": 5053,
  "\u2581features": 5054,
  "\u2581vehicles": 5055,
  "\u2581computing": 5056,
  "\u2581mechanism": 5057,
  "\u2581algorithms": 5058,
  "\u2581efficiency": 5059,
  "\u2581literature": 5060,
  "\u2581inspiration": 5061,
  "\u2581technological": 5062,
  "\u2581bes": 5063,
  "\u2581las": 5064,
  "\u2581rig": 5065,
  "\u2581spo": 5066,
  "\u2581eggs": 5067,
  "\u2581hits": 5068,
  "\u2581coord": 5069,
  "\u2581score": 5070,
  "\u2581clever": 5071,
  "\u2581russia": 5072,
  "\u2581afterno": 5073,
  "\u2581equally": 5074,
  "\u2581islands": 5075,
  "\u2581records": 5076,
  "\u2581remains": 5077,
  "\u2581singing": 5078,
  "\u2581antibiot": 5079,
  "\u2581mathematic": 5080,
  "\u2581processing": 5081,
  "\u2581collaboration": 5082,
  "\u2581transportation": 5083,
  "da": 5084,
  "ams": 5085,
  "igm": 5086,
  "umps": 5087,
  "\u2581aug": 5088,
  "\u2581bio": 5089,
  "\u2581max": 5090,
  "\u2581meg": 5091,
  "\u2581pool": 5092,
  "\u2581scar": 5093,
  "\u2581songs": 5094,
  "\u2581hoping": 5095,
  "\u2581solved": 5096,
  "\u2581figures": 5097,
  "\u2581largely": 5098,
  "\u2581tonight": 5099,
  "\u2581windows": 5100,
  "\u2581dramatic": 5101,
  "\u2581election": 5102,
  "\u2581internal": 5103,
  "\u2581policies": 5104,
  "\u2581terrorism": 5105,
  "\u2581productive": 5106,
  "lom": 5107,
  "aren": 5108,
  "ront": 5109,
  "\u2581anx": 5110,
  "\u2581bay": 5111,
  "\u2581tan": 5112,
  "\u2581ven": 5113,
  "gment": 5114,
  "\u2581mont": 5115,
  "\u2581nurs": 5116,
  "\u2581subs": 5117,
  "\u2581zone": 5118,
  "\u2581ought": 5119,
  "\u2581upper": 5120,
  "\u2581acting": 5121,
  "\u2581patent": 5122,
  "\u2581amounts": 5123,
  "\u2581clothes": 5124,
  "\u2581electro": 5125,
  "\u2581musical": 5126,
  "\u2581contrast": 5127,
  "\u2581printing": 5128,
  "\u2581relevant": 5129,
  "\u2581ancestors": 5130,
  "\u2581passionate": 5131,
  "\u2581perception": 5132,
  "\u2581underwater": 5133,
  "20": 5134,
  "500": 5135,
  "ham": 5136,
  "nes": 5137,
  "opia": 5138,
  "\u2581sem": 5139,
  "\u2581twe": 5140,
  "enced": 5141,
  "orous": 5142,
  "\u2581bell": 5143,
  "\u2581dece": 5144,
  "\u2581tape": 5145,
  "isters": 5146,
  "\u2581tests": 5147,
  "\u2581contem": 5148,
  "\u2581cortex": 5149,
  "\u2581remove": 5150,
  "\u2581rocket": 5151,
  "\u2581borders": 5152,
  "\u2581breathe": 5153,
  "\u2581charles": 5154,
  "\u2581combine": 5155,
  "\u2581dropped": 5156,
  "\u2581nowhere": 5157,
  "\u2581unknown": 5158,
  "\u2581concrete": 5159,
  "\u2581confront": 5160,
  "\u2581director": 5161,
  "\u2581swimming": 5162,
  "\u2581collected": 5163,
  "\u2581operation": 5164,
  "\u2581psychology": 5165,
  "\u2581surrounded": 5166,
  "\u2581photographs": 5167,
  "\u2581sustainability": 5168,
  "sem": 5169,
  "\u25812.": 5170,
  "\u2581ip": 5171,
  "\u2581pm": 5172,
  "\u2581cere": 5173,
  "\u2581glam": 5174,
  "\u2581joke": 5175,
  "\u2581embed": 5176,
  "\u2581frame": 5177,
  "\u2581initi": 5178,
  "\u2581navig": 5179,
  "\u2581paris": 5180,
  "\u2581plate": 5181,
  "\u2581ridic": 5182,
  "\u2581skill": 5183,
  "\u2581diplom": 5184,
  "\u2581fabric": 5185,
  "\u2581puzzle": 5186,
  "\u2581reject": 5187,
  "\u2581eastern": 5188,
  "\u2581visible": 5189,
  "\u2581younger": 5190,
  "\u2581memories": 5191,
  "\u2581republic": 5192,
  "\u2581functions": 5193,
  "za": 5194,
  "ums": 5195,
  "crim": 5196,
  "ingu": 5197,
  "gging": 5198,
  "\u2581grab": 5199,
  "\u2581lens": 5200,
  "\u2581mere": 5201,
  "\u2581wine": 5202,
  "\u2581stret": 5203,
  "llywood": 5204,
  "\u2581anonym": 5205,
  "\u2581parall": 5206,
  "\u2581comment": 5207,
  "\u2581fingers": 5208,
  "\u2581intense": 5209,
  "\u2581wireless": 5210,
  "\u2581afternoon": 5211,
  "\u2581explained": 5212,
  "\u2581narrative": 5213,
  "que": 5214,
  "berg": 5215,
  "olic": 5216,
  "oses": 5217,
  "\u2581dot": 5218,
  "\u2581tab": 5219,
  "being": 5220,
  "\u2581bicy": 5221,
  "\u2581lake": 5222,
  "\u25813,000": 5223,
  "\u2581angry": 5224,
  "\u2581dress": 5225,
  "\u2581honey": 5226,
  "\u2581judge": 5227,
  "\u2581taste": 5228,
  "\u2581theme": 5229,
  "\u2581thick": 5230,
  "\u2581youth": 5231,
  "inction": 5232,
  "\u2581advice": 5233,
  "\u2581agreed": 5234,
  "\u2581announ": 5235,
  "\u2581worker": 5236,
  "\u2581defense": 5237,
  "\u2581discipl": 5238,
  "\u2581falling": 5239,
  "\u2581sunlight": 5240,
  "\u2581appreciate": 5241,
  "\u2581mechanical": 5242,
  "\u2581resistance": 5243,
  "\u2581challenging": 5244,
  "\u2581applications": 5245,
  "80": 5246,
  "\u2581mice": 5247,
  "\u2581stan": 5248,
  "arrass": 5249,
  "\u2581depth": 5250,
  "\u2581button": 5251,
  "\u2581handle": 5252,
  "\u2581stayed": 5253,
  "\u2581tested": 5254,
  "\u2581diction": 5255,
  "\u2581fiction": 5256,
  "\u2581constant": 5257,
  "\u2581horrible": 5258,
  "\u2581infected": 5259,
  "\u2581mistakes": 5260,
  "\u2581organism": 5261,
  "\u2581proteins": 5262,
  "\u2581embarrass": 5263,
  "\u2581interpret": 5264,
  "\u2581greenhouse": 5265,
  "hips": 5266,
  "uses": 5267,
  "\u2581haw": 5268,
  "scale": 5269,
  "\u2581horm": 5270,
  "\u2581outc": 5271,
  "\u2581silk": 5272,
  "\u2581trig": 5273,
  "americ": 5274,
  "\u2581chose": 5275,
  "\u2581dynam": 5276,
  "\u2581border": 5277,
  "\u2581boring": 5278,
  "\u2581deaths": 5279,
  "\u2581iphone": 5280,
  "\u2581evening": 5281,
  "\u2581violent": 5282,
  "\u2581accurate": 5283,
  "\u2581occurred": 5284,
  "\u2581emergency": 5285,
  "\u2581marketing": 5286,
  "\u2581capitalism": 5287,
  "\u2581circumstances": 5288,
  "ita": 5289,
  "rom": 5290,
  "\u2581mac": 5291,
  "ended": 5292,
  "lands": 5293,
  "\u2581busy": 5294,
  "\u2581fake": 5295,
  "\u2581obst": 5296,
  "\u2581sept": 5297,
  "\u2581zoom": 5298,
  "\u2581falls": 5299,
  "\u2581resil": 5300,
  "\u2581title": 5301,
  "\u2581trend": 5302,
  "\u2581deploy": 5303,
  "cription": 5304,
  "\u2581constit": 5305,
  "\u2581cooking": 5306,
  "\u2581defined": 5307,
  "\u2581options": 5308,
  "\u2581overall": 5309,
  "\u2581sensors": 5310,
  "\u2581birthday": 5311,
  "\u2581occasion": 5312,
  "\u2581confidence": 5313,
  "5.": 5314,
  "ih": 5315,
  "pa": 5316,
  "gue": 5317,
  "vis": 5318,
  "anta": 5319,
  "foot": 5320,
  "greg": 5321,
  "\u2581hem": 5322,
  "\u2581sir": 5323,
  "\u2581cock": 5324,
  "\u2581cord": 5325,
  "\u2581flew": 5326,
  "\u2581label": 5327,
  "\u2581rocks": 5328,
  "\u2581split": 5329,
  "\u2581uncom": 5330,
  "\u2581monkey": 5331,
  "\u2581virgin": 5332,
  "\u2581parking": 5333,
  "\u2581scratch": 5334,
  "\u2581allowing": 5335,
  "\u2581combined": 5336,
  "\u2581download": 5337,
  "\u2581somewhat": 5338,
  "\u2581implement": 5339,
  "\u2581sensitive": 5340,
  "\u2581conclusion": 5341,
  "\u2581percentage": 5342,
  "\u2581exploration": 5343,
  "\u2581presentation": 5344,
  "box": 5345,
  "\u2581dut": 5346,
  "\u2581gps": 5347,
  "\u2581ham": 5348,
  "\u2581ric": 5349,
  "\u2581hook": 5350,
  "\u2581thom": 5351,
  "iosity": 5352,
  "\u2581multi": 5353,
  "\u2581roads": 5354,
  "\u2581rooms": 5355,
  "\u2581divide": 5356,
  "\u2581linked": 5357,
  "aneously": 5358,
  "\u2581advance": 5359,
  "\u2581closely": 5360,
  "\u2581tracking": 5361,
  "\u2581constrain": 5362,
  "\u2581selection": 5363,
  "\u2581statement": 5364,
  "\u2581controlled": 5365,
  "\u2581educational": 5366,
  "\u2581psychological": 5367,
  "gr": 5368,
  "han": 5369,
  "mal": 5370,
  "ula": 5371,
  "\u2581hi": 5372,
  "\u2581ze": 5373,
  "ault": 5374,
  "lock": 5375,
  "\u2581ack": 5376,
  "\u2581cath": 5377,
  "\u2581clus": 5378,
  "\u2581excl": 5379,
  "\u2581furn": 5380,
  "\u2581item": 5381,
  "\u2581poly": 5382,
  "\u2581pump": 5383,
  "\u2581tack": 5384,
  "\u2581wash": 5385,
  "illing": 5386,
  "source": 5387,
  "\u2581cents": 5388,
  "\u2581datab": 5389,
  "\u2581faced": 5390,
  "\u2581films": 5391,
  "\u2581flood": 5392,
  "\u2581memor": 5393,
  "\u2581phase": 5394,
  "\u2581recom": 5395,
  "\u2581assume": 5396,
  "\u2581signed": 5397,
  "\u2581spider": 5398,
  "\u2581volume": 5399,
  "\u2581circuit": 5400,
  "\u2581federal": 5401,
  "\u2581reverse": 5402,
  "\u2581presence": 5403,
  "\u2581wherever": 5404,
  "\u2581recording": 5405,
  "\u2581september": 5406,
  "\u2581unc": 5407,
  "icide": 5408,
  "\u2581limb": 5409,
  "herent": 5410,
  "making": 5411,
  "\u2581absor": 5412,
  "\u2581abuse": 5413,
  "\u2581bones": 5414,
  "\u2581fixed": 5415,
  "\u2581globe": 5416,
  "\u2581excell": 5417,
  "\u2581flower": 5418,
  "\u2581inject": 5419,
  "\u2581suffer": 5420,
  "\u2581angeles": 5421,
  "\u2581burning": 5422,
  "\u2581finance": 5423,
  "\u2581provided": 5424,
  "\u2581determine": 5425,
  "\u2581architects": 5426,
  "\u2581electronic": 5427,
  "\u2581explanation": 5428,
  "8.": 5429,
  "bal": 5430,
  "ups": 5431,
  "\u258123": 5432,
  "cend": 5433,
  "pass": 5434,
  "\u2581aqu": 5435,
  "\u2581pra": 5436,
  "\u2581tap": 5437,
  "\u2581wow": 5438,
  "\u2581chip": 5439,
  "\u2581mush": 5440,
  "\u2581pink": 5441,
  "\u2581rush": 5442,
  "\u2581sets": 5443,
  "\u2581wikip": 5444,
  "\u2581string": 5445,
  "\u2581whales": 5446,
  "\u2581frankly": 5447,
  "\u2581pacific": 5448,
  "\u2581receive": 5449,
  "\u2581therapy": 5450,
  "\u2581collapse": 5451,
  "\u2581hypothes": 5452,
  "\u2581centuries": 5453,
  "\u2581spiritual": 5454,
  "\u2581economists": 5455,
  "\u2581unexpected": 5456,
  "\u2581appropriate": 5457,
  "\u2581interestingly": 5458,
  "vi": 5459,
  "tech": 5460,
  "yeah": 5461,
  "\u2581raw": 5462,
  "\u2581uns": 5463,
  "iture": 5464,
  "\u2581dust": 5465,
  "\u2581ears": 5466,
  "\u2581mall": 5467,
  "\u2581pill": 5468,
  "ateful": 5469,
  "\u2581boxes": 5470,
  "\u2581flash": 5471,
  "\u2581plans": 5472,
  "\u2581teams": 5473,
  "\u2581weigh": 5474,
  "\u2581encoun": 5475,
  "\u2581explos": 5476,
  "\u2581ritual": 5477,
  "\u2581balloon": 5478,
  "\u2581conserv": 5479,
  "\u2581embrace": 5480,
  "\u2581solving": 5481,
  "\u2581transpl": 5482,
  "\u2581creature": 5483,
  "\u2581instruct": 5484,
  "\u2581outcomes": 5485,
  "\u2581subjects": 5486,
  "\u2581treating": 5487,
  "\u2581villages": 5488,
  "\u2581standards": 5489,
  "alu": 5490,
  "uce": 5491,
  "ctic": 5492,
  "itors": 5493,
  "sters": 5494,
  "\u2581bike": 5495,
  "\u2581gulf": 5496,
  "\u25815,000": 5497,
  "\u2581piano": 5498,
  "\u2581shell": 5499,
  "\u2581owners": 5500,
  "\u2581script": 5501,
  "\u2581causing": 5502,
  "\u2581flowers": 5503,
  "\u2581pushing": 5504,
  "\u2581vessels": 5505,
  "\u2581measured": 5506,
  "\u2581customers": 5507,
  "\u2581economies": 5508,
  "\u2581application": 5509,
  "ads": 5510,
  "bed": 5511,
  "des": 5512,
  "keys": 5513,
  "oint": 5514,
  "\u2581nic": 5515,
  "arant": 5516,
  "uting": 5517,
  "\u2581mary": 5518,
  "\u2581logic": 5519,
  "\u2581males": 5520,
  "\u2581lifest": 5521,
  "\u2581scenar": 5522,
  "\u2581struck": 5523,
  "\u2581airport": 5524,
  "\u2581existed": 5525,
  "\u2581extinct": 5526,
  "connected": 5527,
  "\u2581suggests": 5528,
  "\u2581wondered": 5529,
  "\u2581algorithm": 5530,
  "\u2581breathing": 5531,
  "\u2581celebrate": 5532,
  "\u2581wikipedia": 5533,
  "nda": 5534,
  "\u2581600": 5535,
  "\u2581irr": 5536,
  "\u2581tro": 5537,
  "\u2581vag": 5538,
  "\u2581voc": 5539,
  "eness": 5540,
  "\u2581coin": 5541,
  "\u2581stri": 5542,
  "\u2581admit": 5543,
  "\u2581expon": 5544,
  "\u2581queen": 5545,
  "\u2581clouds": 5546,
  "\u2581enable": 5547,
  "\u2581extent": 5548,
  "\u2581genius": 5549,
  "\u2581papers": 5550,
  "\u2581classes": 5551,
  "\u2581decline": 5552,
  "\u2581feeding": 5553,
  "\u2581offered": 5554,
  "\u2581disorder": 5555,
  "\u2581drinking": 5556,
  "\u2581elephant": 5557,
  "\u2581floating": 5558,
  "\u2581destroyed": 5559,
  "\u2581technique": 5560,
  "\u2581translate": 5561,
  "\u2581transformed": 5562,
  "ov": 5563,
  "wr": 5564,
  "ris": 5565,
  "iled": 5566,
  "okay": 5567,
  "oons": 5568,
  "over": 5569,
  "\u2581gla": 5570,
  "eding": 5571,
  "icted": 5572,
  "\u2581corn": 5573,
  "\u2581firm": 5574,
  "\u2581icon": 5575,
  "\u2581nest": 5576,
  "\u2581stro": 5577,
  "called": 5578,
  "\u2581humor": 5579,
  "\u2581ignor": 5580,
  "\u2581legis": 5581,
  "\u2581obama": 5582,
  "\u2581acknow": 5583,
  "\u2581agency": 5584,
  "\u2581corres": 5585,
  "\u2581portra": 5586,
  "ographer": 5587,
  "\u2581aspects": 5588,
  "\u2581proport": 5589,
  "\u2581savings": 5590,
  "\u2581distinct": 5591,
  "\u2581domestic": 5592,
  "\u2581identical": 5593,
  "\u2581instruments": 5594,
  "\u2581implications": 5595,
  "\u2581q": 5596,
  "hour": 5597,
  "iety": 5598,
  "omic": 5599,
  "iring": 5600,
  "night": 5601,
  "\u2581ages": 5602,
  "\u2581elim": 5603,
  "owered": 5604,
  "\u2581colum": 5605,
  "\u2581fifth": 5606,
  "\u2581silic": 5607,
  "\u2581whale": 5608,
  "\u2581limits": 5609,
  "\u2581scream": 5610,
  "\u2581thomas": 5611,
  "\u2581anticip": 5612,
  "\u2581samples": 5613,
  "\u2581welcome": 5614,
  "\u2581district": 5615,
  "\u2581engaging": 5616,
  "\u2581grateful": 5617,
  "\u2581shoulder": 5618,
  "\u2581conventional": 5619,
  "ias": 5620,
  "\u258127": 5621,
  "tail": 5622,
  "\u2581jul": 5623,
  "hythm": 5624,
  "iters": 5625,
  "\u2581acts": 5626,
  "\u2581adam": 5627,
  "\u2581cash": 5628,
  "\u2581dign": 5629,
  "\u2581gras": 5630,
  "\u2581june": 5631,
  "\u2581lets": 5632,
  "\u2581neut": 5633,
  "\u2581ours": 5634,
  "\u2581root": 5635,
  "athers": 5636,
  "\u2581accum": 5637,
  "\u2581advoc": 5638,
  "\u2581chief": 5639,
  "\u2581error": 5640,
  "\u2581explo": 5641,
  "\u2581pharm": 5642,
  "\u2581relate": 5643,
  "\u2581secure": 5644,
  "\u2581toilet": 5645,
  "inations": 5646,
  "\u2581careful": 5647,
  "\u2581carried": 5648,
  "\u2581stretch": 5649,
  "\u2581instinct": 5650,
  "\u2581paradigm": 5651,
  "\u2581romantic": 5652,
  "\u2581vaccines": 5653,
  "\u2581arguments": 5654,
  "\u2581continued": 5655,
  "\u2581curiosity": 5656,
  "\u2581measuring": 5657,
  "\u2581precisely": 5658,
  "\u2581privilege": 5659,
  "\u2581grandfather": 5660,
  "\u2581populations": 5661,
  "/1": 5662,
  "hop": 5663,
  "uum": 5664,
  "\u2581[\"": 5665,
  "\u2581du": 5666,
  "\u2581fan": 5667,
  "\u2581gam": 5668,
  "\u2581tea": 5669,
  "ounce": 5670,
  "\u2581lone": 5671,
  "phones": 5672,
  "profit": 5673,
  "\u2581anger": 5674,
  "\u2581antar": 5675,
  "\u2581aston": 5676,
  "\u2581grows": 5677,
  "\u2581korea": 5678,
  "\u2581latin": 5679,
  "\u2581liver": 5680,
  "\u2581whist": 5681,
  "eration": 5682,
  "\u2581stands": 5683,
  "\u2581storyt": 5684,
  "\u2581prosper": 5685,
  "conscious": 5686,
  "\u2581equation": 5687,
  "\u2581footprint": 5688,
  "\u2581apparently": 5689,
  "\u2581microscope": 5690,
  "\u2581represented": 5691,
  "\u2581dramatically": 5692,
  "hen": 5693,
  "iox": 5694,
  "yal": 5695,
  "kind": 5696,
  "soft": 5697,
  "\u2581cab": 5698,
  "\u2581gro": 5699,
  "\u2581jim": 5700,
  "\u2581lun": 5701,
  "\u2581tri": 5702,
  "cence": 5703,
  "osing": 5704,
  "while": 5705,
  "\u2581seek": 5706,
  "\u2581ther": 5707,
  "\u2581aster": 5708,
  "\u2581fruit": 5709,
  "\u2581stack": 5710,
  "\u2581stere": 5711,
  "\u2581assemb": 5712,
  "\u2581chocol": 5713,
  "\u2581colony": 5714,
  "\u2581heroes": 5715,
  "\u2581millenn": 5716,
  "\u2581orchest": 5717,
  "\u2581academic": 5718,
  "\u2581infinite": 5719,
  "\u2581christmas": 5720,
  "\u2581consumers": 5721,
  "\u2581increases": 5722,
  "\u2581insurance": 5723,
  "\u2581presented": 5724,
  "\u2581prototype": 5725,
  "\u2581spreading": 5726,
  "\u2581automatically": 5727,
  "ba": 5728,
  "ek": 5729,
  "cred": 5730,
  "heim": 5731,
  "nday": 5732,
  "\u2581gon": 5733,
  "there": 5734,
  "\u2581golf": 5735,
  "\u2581gray": 5736,
  "\u2581leap": 5737,
  "\u2581pace": 5738,
  "\u2581shar": 5739,
  "\u2581tent": 5740,
  "\u2581dense": 5741,
  "\u2581dozen": 5742,
  "\u2581polio": 5743,
  "\u2581style": 5744,
  "\u2581tired": 5745,
  "\u2581traum": 5746,
  "\u2581evolve": 5747,
  "\u2581fright": 5748,
  "\u2581interf": 5749,
  "\u2581mainly": 5750,
  "\u2581phrase": 5751,
  "\u2581rising": 5752,
  "\u2581classic": 5753,
  "\u2581impress": 5754,
  "\u2581january": 5755,
  "\u2581robotic": 5756,
  "\u2581behavioral": 5757,
  "\u2581performing": 5758,
  "\u2581distributed": 5759,
  "\u2581entertainment": 5760,
  "hr": 5761,
  "oll": 5762,
  "ost": 5763,
  "vas": 5764,
  "\u258122": 5765,
  "bage": 5766,
  "rets": 5767,
  "rors": 5768,
  "\u258110,": 5769,
  "\u2581250": 5770,
  "\u2581sne": 5771,
  "itory": 5772,
  "using": 5773,
  "\u2581cens": 5774,
  "\u2581tech": 5775,
  "imeter": 5776,
  "struct": 5777,
  "\u2581champ": 5778,
  "\u2581knock": 5779,
  "\u2581unbel": 5780,
  "\u2581crying": 5781,
  "\u2581hunger": 5782,
  "\u2581pollen": 5783,
  "\u2581sweden": 5784,
  "\u2581authent": 5785,
  "\u2581citizen": 5786,
  "\u2581designs": 5787,
  "\u2581guarant": 5788,
  "\u2581mammals": 5789,
  "\u2581mystery": 5790,
  "\u2581spectac": 5791,
  "\u2581complain": 5792,
  "\u2581parallel": 5793,
  "\u2581traveled": 5794,
  "\u2581committed": 5795,
  "\u2581component": 5796,
  "\u2581corporate": 5797,
  "\u2581journalist": 5798,
  "\u2581personality": 5799,
  "\u2581recognition": 5800,
  "4.": 5801,
  "hol": 5802,
  "tes": 5803,
  "\u2581ba": 5804,
  "\u2581dh": 5805,
  "aret": 5806,
  "keep": 5807,
  "rary": 5808,
  "\u2581hat": 5809,
  "\u2581sed": 5810,
  "clear": 5811,
  "think": 5812,
  "\u25811950": 5813,
  "\u2581boom": 5814,
  "\u2581gest": 5815,
  "\u2581prem": 5816,
  "\u2581aside": 5817,
  "\u2581banks": 5818,
  "\u2581smoke": 5819,
  "\u2581walks": 5820,
  "\u2581wound": 5821,
  "\u2581hearts": 5822,
  "\u2581ignore": 5823,
  "\u2581pocket": 5824,
  "\u2581robert": 5825,
  "\u2581spinal": 5826,
  "\u2581surely": 5827,
  "\u2581habitat": 5828,
  "\u2581methods": 5829,
  "\u2581monkeys": 5830,
  "\u2581poorest": 5831,
  "\u2581surgeon": 5832,
  "\u2581africans": 5833,
  "\u2581obsessed": 5834,
  "\u2581overcome": 5835,
  "\u2581pregnant": 5836,
  "\u2581properly": 5837,
  "\u2581exploring": 5838,
  "\u2581controlling": 5839,
  "\u2581universities": 5840,
  "ev": 5841,
  "def": 5842,
  "lymp": 5843,
  "\u2581mim": 5844,
  "\u2581sar": 5845,
  "\u2581bias": 5846,
  "\u2581till": 5847,
  "\u2581vibr": 5848,
  "ashing": 5849,
  "\u2581blank": 5850,
  "\u2581bombs": 5851,
  "\u2581enemy": 5852,
  "\u2581persu": 5853,
  "\u2581scary": 5854,
  "\u2581units": 5855,
  "\u2581candid": 5856,
  "\u2581immune": 5857,
  "\u2581placed": 5858,
  "\u2581proced": 5859,
  "\u2581repair": 5860,
  "\u2581thrown": 5861,
  "\u2581traged": 5862,
  "\u2581dancing": 5863,
  "\u2581earthqu": 5864,
  "\u2581kingdom": 5865,
  "\u2581silicon": 5866,
  "\u2581wanting": 5867,
  "\u2581achieved": 5868,
  "\u2581produces": 5869,
  "\u2581reaching": 5870,
  "\u2581unbeliev": 5871,
  "\u2581colleague": 5872,
  "\u2581depending": 5873,
  "\u2581reference": 5874,
  "\u2581virtually": 5875,
  "\u2581exhibition": 5876,
  "\u2581strategies": 5877,
  "\u2581fortunately": 5878,
  "70": 5879,
  "ket": 5880,
  "\u2581rw": 5881,
  "ille": 5882,
  "oned": 5883,
  "uity": 5884,
  "wich": 5885,
  "\u2581fib": 5886,
  "\u2581hal": 5887,
  "\u2581hub": 5888,
  "lines": 5889,
  "opher": 5890,
  "\u2581loop": 5891,
  "\u2581manh": 5892,
  "\u2581decre": 5893,
  "\u2581ghana": 5894,
  "\u2581olymp": 5895,
  "\u2581orbit": 5896,
  "\u2581roots": 5897,
  "\u2581tight": 5898,
  "\u2581vital": 5899,
  "illance": 5900,
  "\u2581prices": 5901,
  "\u2581diverse": 5902,
  "\u2581efforts": 5903,
  "\u2581entered": 5904,
  "\u2581license": 5905,
  "\u2581raising": 5906,
  "\u2581appeared": 5907,
  "\u2581organize": 5908,
  "\u2581household": 5909,
  "\u2581connecting": 5910,
  "\u2581interacting": 5911,
  "oe": 5912,
  "ota": 5913,
  "war": 5914,
  "udes": 5915,
  "\u2581pul": 5916,
  "\u2581tip": 5917,
  "acing": 5918,
  "stand": 5919,
  "\u2581axis": 5920,
  "\u2581carr": 5921,
  "\u2581lung": 5922,
  "\u2581plot": 5923,
  "\u2581rail": 5924,
  "\u2581tube": 5925,
  "arency": 5926,
  "\u2581delic": 5927,
  "\u2581gates": 5928,
  "\u2581metab": 5929,
  "\u2581shake": 5930,
  "\u2581tasks": 5931,
  "\u2581toler": 5932,
  "\u2581tries": 5933,
  "anthrop": 5934,
  "iveness": 5935,
  "through": 5936,
  "\u2581corals": 5937,
  "\u2581golden": 5938,
  "\u2581invite": 5939,
  "\u2581missed": 5940,
  "\u2581native": 5941,
  "\u2581obstac": 5942,
  "\u2581powers": 5943,
  "children": 5944,
  "\u2581inspire": 5945,
  "\u2581painful": 5946,
  "\u2581astronom": 5947,
  "\u2581embedded": 5948,
  "\u2581imagined": 5949,
  "\u2581meetings": 5950,
  "\u2581disorders": 5951,
  "\u2581permanent": 5952,
  "\u2581telephone": 5953,
  "\u2581collecting": 5954,
  "\u2581directions": 5955,
  "\u2581underground": 5956,
  "\u2581surveillance": 5957,
  "\u2581transparency": 5958,
  "agn": 5959,
  "ban": 5960,
  "gic": 5961,
  "hib": 5962,
  "itz": 5963,
  "pal": 5964,
  "gers": 5965,
  "ogue": 5966,
  "\u2581gig": 5967,
  "\u2581spr": 5968,
  "mates": 5969,
  "\u2581boss": 5970,
  "\u2581flor": 5971,
  "\u2581jeff": 5972,
  "\u2581peer": 5973,
  "\u2581drove": 5974,
  "\u2581remem": 5975,
  "\u2581seeds": 5976,
  "erences": 5977,
  "\u2581barely": 5978,
  "\u2581orange": 5979,
  "\u2581plenty": 5980,
  "\u2581appears": 5981,
  "\u2581cheaper": 5982,
  "\u2581removed": 5983,
  "\u2581darkness": 5984,
  "\u2581globally": 5985,
  "\u2581microsoft": 5986,
  "\u2581practices": 5987,
  "\u2581philosophy": 5988,
  "org": 5989,
  "vin": 5990,
  "etch": 5991,
  "llar": 5992,
  "otes": 5993,
  "\u2581aim": 5994,
  "\u2581der": 5995,
  "\u2581wal": 5996,
  "attan": 5997,
  "\u2581dict": 5998,
  "\u2581disg": 5999,
  "\u2581elev": 6000,
  "\u2581ethi": 6001,
  "\u2581pand": 6002,
  "\u2581trop": 6003,
  "arters": 6004,
  "\u2581guard": 6005,
  "\u2581higgs": 6006,
  "\u2581plays": 6007,
  "\u2581pyram": 6008,
  "\u2581schol": 6009,
  "raction": 6010,
  "\u2581geomet": 6011,
  "\u2581legacy": 6012,
  "\u2581narrow": 6013,
  "\u2581pushed": 6014,
  "\u2581repeat": 6015,
  "\u2581collaps": 6016,
  "\u2581concern": 6017,
  "\u2581concert": 6018,
  "\u2581density": 6019,
  "\u2581muscles": 6020,
  "\u2581accepted": 6021,
  "\u2581attached": 6022,
  "\u2581breaking": 6023,
  "\u2581concepts": 6024,
  "\u2581illusion": 6025,
  "\u2581narrator": 6026,
  "\u2581penguins": 6027,
  "\u2581recovery": 6028,
  "\u2581shooting": 6029,
  "\u2581vertical": 6030,
  "\u2581furniture": 6031,
  "\u2581commitment": 6032,
  "\u2581controvers": 6033,
  "\u2581fascinated": 6034,
  "\u2581rainforest": 6035,
  "\u2581recognized": 6036,
  "\u2581interactive": 6037,
  "gun": 6038,
  "rous": 6039,
  "\u2581cas": 6040,
  "\u2581syr": 6041,
  "\u2581tex": 6042,
  "esity": 6043,
  "iform": 6044,
  "leton": 6045,
  "power": 6046,
  "\u2581alph": 6047,
  "\u2581erad": 6048,
  "\u2581sacr": 6049,
  "\u2581imper": 6050,
  "\u2581recru": 6051,
  "\u2581route": 6052,
  "\u2581sales": 6053,
  "\u2581veter": 6054,
  "\u2581devast": 6055,
  "\u2581diabet": 6056,
  "\u2581escape": 6057,
  "\u2581facial": 6058,
  "\u2581fertil": 6059,
  "\u2581filter": 6060,
  "\u2581lovely": 6061,
  "\u2581rescue": 6062,
  "\u2581retire": 6063,
  "\u2581chapter": 6064,
  "\u2581herself": 6065,
  "\u2581hardware": 6066,
  "\u2581isolated": 6067,
  "\u2581secondly": 6068,
  "\u2581textbook": 6069,
  "\u2581apartment": 6070,
  "\u2581manhattan": 6071,
  "\u2581sculpture": 6072,
  "\u2581searching": 6073,
  "\u2581contribute": 6074,
  "\u2581engagement": 6075,
  "\u2581entrepreneur": 6076,
  "\u2581interactions": 6077,
  "\u2581productivity": 6078,
  "3.": 6079,
  "tw": 6080,
  "azz": 6081,
  "son": 6082,
  "val": 6083,
  "amin": 6084,
  "esis": 6085,
  "nels": 6086,
  "ship": 6087,
  "\u2581bob": 6088,
  "\u2581wed": 6089,
  "iders": 6090,
  "\u2581flip": 6091,
  "\u2581pour": 6092,
  "\u2581adopt": 6093,
  "\u2581elder": 6094,
  "\u2581sheep": 6095,
  "century": 6096,
  "\u2581hungry": 6097,
  "\u2581latest": 6098,
  "\u2581needle": 6099,
  "\u2581oldest": 6100,
  "\u2581writer": 6101,
  "\u2581amongst": 6102,
  "\u2581diagram": 6103,
  "\u2581divided": 6104,
  "\u2581synthes": 6105,
  "\u2581captured": 6106,
  "\u2581involves": 6107,
  "\u2581psychiat": 6108,
  "\u2581chocolate": 6109,
  "\u2581lifestyle": 6110,
  "\u2581volunteers": 6111,
  "\u2581antibiotics": 6112,
  "\u2581manufacture": 6113,
  "\u2581expectations": 6114,
  "\u2581neighborhoods": 6115,
  "aks": 6116,
  "bra": 6117,
  "ida": 6118,
  "osh": 6119,
  "aust": 6120,
  "illy": 6121,
  "rect": 6122,
  "walk": 6123,
  "\u2581eve": 6124,
  "\u2581jes": 6125,
  "\u2581lux": 6126,
  "\u2581tag": 6127,
  "eared": 6128,
  "\u2581diox": 6129,
  "\u2581emph": 6130,
  "\u2581fulf": 6131,
  "\u2581mold": 6132,
  "\u2581tank": 6133,
  "ptions": 6134,
  "\u2581aband": 6135,
  "\u2581aspir": 6136,
  "\u2581coach": 6137,
  "\u2581crops": 6138,
  "\u2581dirty": 6139,
  "\u2581fluid": 6140,
  "\u2581glaci": 6141,
  "\u2581texas": 6142,
  "\u2581usual": 6143,
  "\u2581adjust": 6144,
  "\u2581hardly": 6145,
  "\u2581shadow": 6146,
  "\u2581slides": 6147,
  "\u2581dignity": 6148,
  "\u2581granted": 6149,
  "\u2581monitor": 6150,
  "\u2581obesity": 6151,
  "\u2581section": 6152,
  "\u2581suicide": 6153,
  "\u2581controls": 6154,
  "\u2581laughing": 6155,
  "\u2581magnetic": 6156,
  "\u2581sandwich": 6157,
  "\u2581stations": 6158,
  "\u2581elsewhere": 6159,
  "\u2581paintings": 6160,
  "7.": 6161,
  "va": 6162,
  "cut": 6163,
  "iac": 6164,
  "uff": 6165,
  "case": 6166,
  "uman": 6167,
  "\u2581dim": 6168,
  "agger": 6169,
  "cause": 6170,
  "isons": 6171,
  "\u2581cous": 6172,
  "ivered": 6173,
  "\u2581alien": 6174,
  "\u2581chaos": 6175,
  "\u2581minor": 6176,
  "\u2581purch": 6177,
  "\u2581sheet": 6178,
  "\u2581utter": 6179,
  "\u2581wired": 6180,
  "\u2581yield": 6181,
  "ishment": 6182,
  "\u2581behave": 6183,
  "\u2581conven": 6184,
  "\u2581farmer": 6185,
  "\u2581martin": 6186,
  "\u2581islamic": 6187,
  "\u2581estimate": 6188,
  "\u2581reported": 6189,
  "\u2581stanford": 6190,
  "\u2581uncertain": 6191,
  "\u2581operations": 6192,
  "\u2581cooperation": 6193,
  "ds": 6194,
  "list": 6195,
  "vest": 6196,
  "\u25819/1": 6197,
  "\u2581cod": 6198,
  "\u2581nin": 6199,
  "\u2581wip": 6200,
  "angle": 6201,
  "class": 6202,
  "copes": 6203,
  "flies": 6204,
  "\u2581cute": 6205,
  "\u2581salt": 6206,
  "\u2581congo": 6207,
  "\u2581likes": 6208,
  "section": 6209,
  "\u2581borrow": 6210,
  "\u2581weapon": 6211,
  "\u2581autonom": 6212,
  "\u2581beliefs": 6213,
  "\u2581council": 6214,
  "\u2581dioxide": 6215,
  "\u2581exposed": 6216,
  "\u2581impacts": 6217,
  "\u2581lecture": 6218,
  "\u2581parties": 6219,
  "\u2581rebuild": 6220,
  "\u2581provides": 6221,
  "\u2581refugees": 6222,
  "ologically": 6223,
  "\u2581hollywood": 6224,
  "\u2581functional": 6225,
  "\u2581historical": 6226,
  "\u2581protecting": 6227,
  "6.": 6228,
  "wa": 6229,
  "iel": 6230,
  "vey": 6231,
  "free": 6232,
  "happ": 6233,
  "icop": 6234,
  "iday": 6235,
  "lete": 6236,
  "\u2581doz": 6237,
  "ckets": 6238,
  "eters": 6239,
  "orter": 6240,
  "osure": 6241,
  "otion": 6242,
  "\u2581beer": 6243,
  "\u2581budd": 6244,
  "\u2581fool": 6245,
  "\u2581hire": 6246,
  "\u2581migr": 6247,
  "\u2581rely": 6248,
  "\u2581actor": 6249,
  "\u2581maxim": 6250,
  "\u2581nobel": 6251,
  "\u2581reput": 6252,
  "\u2581skull": 6253,
  "\u2581tears": 6254,
  "\u2581wings": 6255,
  "attered": 6256,
  "\u2581agenda": 6257,
  "\u2581capita": 6258,
  "\u2581layers": 6259,
  "\u2581locked": 6260,
  "\u2581scales": 6261,
  "\u2581anthrop": 6262,
  "\u2581delight": 6263,
  "\u2581disgust": 6264,
  "\u2581fortune": 6265,
  "\u2581opposed": 6266,
  "\u2581recover": 6267,
  "\u2581visited": 6268,
  "\u2581atlantic": 6269,
  "\u2581diabetes": 6270,
  "\u2581dolphins": 6271,
  "\u2581external": 6272,
  "\u2581football": 6273,
  "\u2581particle": 6274,
  "\u2581dedicated": 6275,
  "\u2581delivered": 6276,
  "\u2581encounter": 6277,
  "\u2581generated": 6278,
  "\u2581intention": 6279,
  "\u2581intuitive": 6280,
  "\u2581recommend": 6281,
  "\u2581accessible": 6282,
  "\u2581incentives": 6283,
  "\u2581resolution": 6284,
  "\u2581simplicity": 6285,
  "\u2581communications": 6286,
  "nic": 6287,
  "\u2581ts": 6288,
  "fall": 6289,
  "lies": 6290,
  "lims": 6291,
  "\u2581ate": 6292,
  "\u2581reb": 6293,
  "\u25811990": 6294,
  "\u2581clar": 6295,
  "\u2581glad": 6296,
  "\u2581rent": 6297,
  "\u2581suck": 6298,
  "\u2581guide": 6299,
  "\u2581willi": 6300,
  "\u2581yours": 6301,
  "\u2581attrib": 6302,
  "\u2581expans": 6303,
  "\u2581frozen": 6304,
  "\u2581paraly": 6305,
  "\u2581spoken": 6306,
  "\u2581talent": 6307,
  "\u2581ceiling": 6308,
  "\u2581charity": 6309,
  "\u2581crucial": 6310,
  "\u2581disrupt": 6311,
  "\u2581synthetic": 6312,
  "\u2581uncomfort": 6313,
  "\u2581optimistic": 6314,
  "\u2581programming": 6315,
  "\u2581spectacular": 6316,
  "-1": 6317,
  "den": 6318,
  "pox": 6319,
  "tery": 6320,
  "\u2581ash": 6321,
  "going": 6322,
  "owing": 6323,
  "\u2581haiti": 6324,
  "\u2581meter": 6325,
  "\u2581ultra": 6326,
  "\u2581upset": 6327,
  "unclear": 6328,
  "\u2581attend": 6329,
  "\u2581commod": 6330,
  "\u2581integr": 6331,
  "\u2581silent": 6332,
  "\u2581distant": 6333,
  "\u2581focusing": 6334,
  "\u2581animation": 6335,
  "\u2581investing": 6336,
  "\u2581reduction": 6337,
  "\u2581governance": 6338,
  "\u2581integrated": 6339,
  "\u2581terrorists": 6340,
  "\u2581transplant": 6341,
  "\u2581disappeared": 6342,
  "\u2581philanthrop": 6343,
  "\u2581transparent": 6344,
  "9.": 6345,
  "aa": 6346,
  "aws": 6347,
  "nam": 6348,
  "sum": 6349,
  "\u258165": 6350,
  "aint": 6351,
  "ener": 6352,
  "\u2581aer": 6353,
  "aming": 6354,
  "archy": 6355,
  "level": 6356,
  "\u2581quad": 6357,
  "\u2581tort": 6358,
  "lessly": 6359,
  "\u2581chest": 6360,
  "\u2581digit": 6361,
  "\u2581drawn": 6362,
  "\u2581manif": 6363,
  "\u2581pilot": 6364,
  "uration": 6365,
  "\u258150,000": 6366,
  "\u2581dozens": 6367,
  "\u2581palest": 6368,
  "\u2581surviv": 6369,
  "\u2581drivers": 6370,
  "\u2581helicop": 6371,
  "\u2581initial": 6372,
  "\u2581instant": 6373,
  "\u2581printed": 6374,
  "\u2581suspect": 6375,
  "\u2581backwards": 6376,
  "\u2581confident": 6377,
  "\u2581affordable": 6378,
  "\u2581commission": 6379,
  "\u2581chimpanzees": 6380,
  "\u2581ingredients": 6381,
  "\u2581neuroscience": 6382,
  "sey": 6383,
  "born": 6384,
  "elly": 6385,
  "osen": 6386,
  "\u2581195": 6387,
  "\u2581lob": 6388,
  "\u2581obl": 6389,
  "\u2581rio": 6390,
  "\u2581unp": 6391,
  "inals": 6392,
  "\u2581biod": 6393,
  "\u2581bron": 6394,
  "\u2581debt": 6395,
  "\u2581dere": 6396,
  "\u2581knee": 6397,
  "\u2581pale": 6398,
  "\u2581rice": 6399,
  "\u2581ugly": 6400,
  "dollar": 6401,
  "\u2581abund": 6402,
  "\u2581fuels": 6403,
  "\u2581gonna": 6404,
  "\u2581opens": 6405,
  "\u2581paras": 6406,
  "\u2581strip": 6407,
  "\u2581views": 6408,
  "forward": 6409,
  "\u2581adding": 6410,
  "\u2581chosen": 6411,
  "\u2581intent": 6412,
  "\u2581margin": 6413,
  "\u2581nurses": 6414,
  "\u2581output": 6415,
  "\u2581satisf": 6416,
  "\u2581smooth": 6417,
  "\u2581theore": 6418,
  "\u2581trends": 6419,
  "american": 6420,
  "\u2581bicycle": 6421,
  "\u2581hanging": 6422,
  "\u2581officer": 6423,
  "\u2581refugee": 6424,
  "\u2581touched": 6425,
  "\u2581baseball": 6426,
  "\u2581contains": 6427,
  "\u2581database": 6428,
  "\u2581dynamics": 6429,
  "\u2581laughter": 6430,
  "\u2581sciences": 6431,
  "\u2581symmetry": 6432,
  "\u2581theories": 6433,
  "\u2581announced": 6434,
  "\u2581anonymous": 6435,
  "\u2581christian": 6436,
  "\u2581conflicts": 6437,
  "\u2581uncomfortable": 6438,
  "edy": 6439,
  "rus": 6440,
  "\u2581$1": 6441,
  "\u2581rh": 6442,
  "ione": 6443,
  "\u2581hip": 6444,
  "iated": 6445,
  "\u2581emer": 6446,
  "\u2581pupp": 6447,
  "\u2581conce": 6448,
  "\u2581doors": 6449,
  "\u2581legit": 6450,
  "\u2581naked": 6451,
  "\u2581peter": 6452,
  "\u2581scott": 6453,
  "\u2581spark": 6454,
  "\u2581stops": 6455,
  "\u2581tower": 6456,
  "\u2581actors": 6457,
  "\u2581extrem": 6458,
  "\u2581neural": 6459,
  "\u2581senior": 6460,
  "\u2581anxiety": 6461,
  "\u2581essence": 6462,
  "\u2581muslims": 6463,
  "\u2581slavery": 6464,
  "\u2581agencies": 6465,
  "\u2581continues": 6466,
  "\u2581inspiring": 6467,
  "\u2581afterwards": 6468,
  "\u2581biologists": 6469,
  "\u2581motivation": 6470,
  "\u2581struggling": 6471,
  "\u2581advertising": 6472,
  "\u2581discoveries": 6473,
  "\u2581participants": 6474,
  "\u2581characteristics": 6475,
  "ja": 6476,
  "oma": 6477,
  "thal": 6478,
  "\u2581enh": 6479,
  "\u2581ray": 6480,
  "cling": 6481,
  "stage": 6482,
  "under": 6483,
  "\u25811980": 6484,
  "\u2581bubb": 6485,
  "\u2581dear": 6486,
  "\u2581earn": 6487,
  "\u2581sink": 6488,
  "\u2581tied": 6489,
  "\u2581toys": 6490,
  "heimer": 6491,
  "usions": 6492,
  "\u2581angle": 6493,
  "\u2581chrom": 6494,
  "\u2581finds": 6495,
  "\u2581laser": 6496,
  "\u2581proof": 6497,
  "\u2581punch": 6498,
  "\u2581titan": 6499,
  "\u258120,000": 6500,
  "\u2581observ": 6501,
  "\u2581richer": 6502,
  "\u2581subtle": 6503,
  "\u2581chances": 6504,
  "\u2581letting": 6505,
  "\u2581passing": 6506,
  "\u2581protest": 6507,
  "\u2581sisters": 6508,
  "\u2581speaker": 6509,
  "\u2581tragedy": 6510,
  "\u2581attitude": 6511,
  "\u2581crossing": 6512,
  "\u2581dominant": 6513,
  "\u2581surfaces": 6514,
  "\u2581diagnosed": 6515,
  "\u2581boundaries": 6516,
  "\u2581earthquake": 6517,
  "\u2581mechanisms": 6518,
  "\u2581ridiculous": 6519,
  "\u2581improvement": 6520,
  "\u2581photography": 6521,
  "\u2581probability": 6522,
  "\u2581agricultural": 6523,
  "\u2581breakthrough": 6524,
  "har": 6525,
  "ares": 6526,
  "ober": 6527,
  "sing": 6528,
  "view": 6529,
  "when": 6530,
  "\u258110-": 6531,
  "\u2581nit": 6532,
  "\u2581wet": 6533,
  "\u2581wra": 6534,
  "ctica": 6535,
  "enger": 6536,
  "\u2581cham": 6537,
  "\u2581dish": 6538,
  "\u2581kiss": 6539,
  "\u2581labs": 6540,
  "\u2581quit": 6541,
  "\u2581wise": 6542,
  "\u2581cliff": 6543,
  "\u2581craft": 6544,
  "\u2581drill": 6545,
  "\u2581evalu": 6546,
  "\u2581hello": 6547,
  "\u2581hemis": 6548,
  "\u2581lungs": 6549,
  "\u2581relax": 6550,
  "\u2581smith": 6551,
  "\u2581spell": 6552,
  "\u2581uncle": 6553,
  "\u2581county": 6554,
  "\u2581emphas": 6555,
  "\u2581heaven": 6556,
  "\u2581partly": 6557,
  "\u2581perpet": 6558,
  "\u2581robust": 6559,
  "\u2581stable": 6560,
  "\u2581circles": 6561,
  "\u2581clients": 6562,
  "\u2581painted": 6563,
  "\u2581picking": 6564,
  "\u2581reports": 6565,
  "\u2581traject": 6566,
  "\u2581facility": 6567,
  "\u2581lighting": 6568,
  "\u2581dependent": 6569,
  "\u2581dimension": 6570,
  "\u2581elephants": 6571,
  "\u2581musicians": 6572,
  "\u2581terrorist": 6573,
  "\u2581antarctica": 6574,
  "\u2581demonstrate": 6575,
  "\u2581innovations": 6576,
  "sp": 6577,
  "udd": 6578,
  "mers": 6579,
  "\u2581aes": 6580,
  "front": 6581,
  "\u25811970": 6582,
  "\u2581alco": 6583,
  "\u2581dive": 6584,
  "\u2581hier": 6585,
  "\u2581mail": 6586,
  "\u2581mood": 6587,
  "\u2581viet": 6588,
  "\u25814,000": 6589,
  "\u2581schem": 6590,
  "\u2581skept": 6591,
  "ughters": 6592,
  "\u2581jewish": 6593,
  "\u2581rarely": 6594,
  "\u2581rating": 6595,
  "\u2581sacred": 6596,
  "\u2581served": 6597,
  "\u2581settle": 6598,
  "\u2581consume": 6599,
  "\u2581disturb": 6600,
  "\u2581october": 6601,
  "\u2581pointed": 6602,
  "\u2581reduced": 6603,
  "\u2581educated": 6604,
  "\u2581repeated": 6605,
  "\u2581calculate": 6606,
  "\u2581elections": 6607,
  "\u2581highlight": 6608,
  "\u2581ignorance": 6609,
  "\u2581mechanics": 6610,
  "\u2581objective": 6611,
  "\u2581identified": 6612,
  "\u2581originally": 6613,
  "\u2581suggesting": 6614,
  "\u2581consequence": 6615,
  "\u2581electronics": 6616,
  "\u2581intervention": 6617,
  "bar": 6618,
  "hal": 6619,
  "lyn": 6620,
  "\u2581ak": 6621,
  "\u2581alz": 6622,
  "\u2581ceo": 6623,
  "\u2581dow": 6624,
  "\u2581pad": 6625,
  "alian": 6626,
  "\u2581bars": 6627,
  "\u2581nets": 6628,
  "\u2581nick": 6629,
  "\u2581tear": 6630,
  "\u2581wing": 6631,
  "makers": 6632,
  "\u2581bears": 6633,
  "\u2581bible": 6634,
  "\u2581cryst": 6635,
  "\u2581edges": 6636,
  "\u2581gases": 6637,
  "\u2581links": 6638,
  "\u2581monit": 6639,
  "\u2581athlet": 6640,
  "\u2581emerge": 6641,
  "\u2581landed": 6642,
  "\u2581lawyer": 6643,
  "\u2581linear": 6644,
  "\u2581neuron": 6645,
  "\u2581poison": 6646,
  "\u2581reveal": 6647,
  "\u2581shrimp": 6648,
  "\u2581simult": 6649,
  "\u2581stages": 6650,
  "\u2581uganda": 6651,
  "\u2581victim": 6652,
  "\u2581briefly": 6653,
  "\u2581sensory": 6654,
  "\u2581smoking": 6655,
  "\u2581aircraft": 6656,
  "\u2581dinosaur": 6657,
  "\u2581incident": 6658,
  "\u2581returned": 6659,
  "\u2581alzheimer": 6660,
  "\u2581excellent": 6661,
  "\u2581strangers": 6662,
  "\u2581assumptions": 6663,
  "\u2581participation": 6664,
  "wow": 6665,
  "\u25810.": 6666,
  "\u2581mi": 6667,
  "\u2581od": 6668,
  "\u2581bol": 6669,
  "\u2581boo": 6670,
  "\u2581sin": 6671,
  "\u2581bats": 6672,
  "\u2581dump": 6673,
  "\u2581eleg": 6674,
  "\u2581laid": 6675,
  "\u2581pile": 6676,
  "\u2581soap": 6677,
  "parent": 6678,
  "utical": 6679,
  "\u2581chron": 6680,
  "\u2581exped": 6681,
  "\u2581flows": 6682,
  "\u2581italy": 6683,
  "\u2581marry": 6684,
  "\u2581panel": 6685,
  "\u2581pione": 6686,
  "\u2581seats": 6687,
  "\u2581threw": 6688,
  "\u2581thumb": 6689,
  "astroph": 6690,
  "\u2581injury": 6691,
  "\u2581regret": 6692,
  "\u2581tribes": 6693,
  "\u2581tricks": 6694,
  "\u2581consult": 6695,
  "\u2581failing": 6696,
  "\u2581promote": 6697,
  "\u2581soldier": 6698,
  "\u2581statist": 6699,
  "\u2581figuring": 6700,
  "\u2581includes": 6701,
  "\u2581informed": 6702,
  "\u2581manifest": 6703,
  "\u2581variation": 6704,
  "\u2581additional": 6705,
  "\u2581capability": 6706,
  "\u2581dictionary": 6707,
  "\u2581treatments": 6708,
  "\u2581predictions": 6709,
  "\u2581biodiversity": 6710,
  "\u2581photographer": 6711,
  "\u2581unbelievable": 6712,
  "ari": 6713,
  "aze": 6714,
  "hus": 6715,
  "\u258132": 6716,
  "ardo": 6717,
  "fold": 6718,
  "phor": 6719,
  "\u2581'60": 6720,
  "\u2581191": 6721,
  "\u2581wid": 6722,
  "\u25811960": 6723,
  "\u2581caps": 6724,
  "\u2581clay": 6725,
  "\u2581neat": 6726,
  "\u2581sits": 6727,
  "\u2581disag": 6728,
  "\u2581fract": 6729,
  "\u2581realm": 6730,
  "\u2581respo": 6731,
  "unction": 6732,
  "\u2581confir": 6733,
  "\u2581merely": 6734,
  "\u2581prosec": 6735,
  "\u2581twenty": 6736,
  "\u2581happier": 6737,
  "\u2581pulling": 6738,
  "aceutical": 6739,
  "\u2581artistic": 6740,
  "\u2581inherent": 6741,
  "\u2581reminded": 6742,
  "\u2581speakers": 6743,
  "\u2581gradually": 6744,
  "\u2581physicist": 6745,
  "\u2581separated": 6746,
  "\u2581catastroph": 6747,
  "\u2581ecosystems": 6748,
  "\u2581mysterious": 6749,
  "\u2581experimental": 6750,
  "\u2581globalization": 6751,
  "\u2581grandchildren": 6752,
  "ua": 6753,
  "wl": 6754,
  "ato": 6755,
  "rid": 6756,
  "top": 6757,
  "\u2581ol": 6758,
  "izer": 6759,
  "talk": 6760,
  "\u2581120": 6761,
  "\u2581ain": 6762,
  "capes": 6763,
  "igned": 6764,
  "third": 6765,
  "\u2581beet": 6766,
  "\u2581cats": 6767,
  "\u2581cott": 6768,
  "\u2581mate": 6769,
  "\u2581neck": 6770,
  "\u2581prec": 6771,
  "\u2581rose": 6772,
  "mingly": 6773,
  "\u2581array": 6774,
  "\u2581arrow": 6775,
  "\u2581begun": 6776,
  "\u2581blame": 6777,
  "\u2581mayor": 6778,
  "\u2581nerve": 6779,
  "\u2581reefs": 6780,
  "\u2581branch": 6781,
  "\u2581combat": 6782,
  "\u2581funded": 6783,
  "\u2581poster": 6784,
  "chnology": 6785,
  "\u2581chromos": 6786,
  "\u2581ethical": 6787,
  "\u2581hackers": 6788,
  "\u2581lawyers": 6789,
  "\u2581symbols": 6790,
  "\u2581warning": 6791,
  "\u2581flexible": 6792,
  "\u2581restrict": 6793,
  "\u2581accidents": 6794,
  "\u2581adventure": 6795,
  "\u2581expanding": 6796,
  "\u2581frequency": 6797,
  "\u2581immediate": 6798,
  "\u2581initially": 6799,
  "\u2581nutrition": 6800,
  "\u2581positions": 6801,
  "\u2581predicted": 6802,
  "\u2581prisoners": 6803,
  "\u2581teenagers": 6804,
  "\u2581geographic": 6805,
  "\u2581permission": 6806,
  "\u2581reputation": 6807,
  "\u2581underlying": 6808,
  "rix": 6809,
  "\u258195": 6810,
  "ilit": 6811,
  "part": 6812,
  "yard": 6813,
  "bered": 6814,
  "field": 6815,
  "\u2581adap": 6816,
  "\u2581gand": 6817,
  "\u2581meal": 6818,
  "\u2581stom": 6819,
  "\u2581algae": 6820,
  "\u2581balls": 6821,
  "\u2581carol": 6822,
  "\u2581genoc": 6823,
  "\u2581johns": 6824,
  "\u2581reson": 6825,
  "\u2581trail": 6826,
  "igation": 6827,
  "\u2581adoles": 6828,
  "\u2581assess": 6829,
  "\u2581breaks": 6830,
  "\u2581ensure": 6831,
  "\u2581rivers": 6832,
  "\u2581rwanda": 6833,
  "\u2581stores": 6834,
  "\u2581turkey": 6835,
  "\u2581volcan": 6836,
  "fficient": 6837,
  "\u2581analyze": 6838,
  "\u2581automob": 6839,
  "\u2581besides": 6840,
  "\u2581helpful": 6841,
  "\u2581origami": 6842,
  "\u2581pyramid": 6843,
  "\u2581conclude": 6844,
  "\u2581ethiopia": 6845,
  "\u2581scenario": 6846,
  "\u2581shopping": 6847,
  "\u2581smallpox": 6848,
  "\u2581depressed": 6849,
  "\u2581documents": 6850,
  "\u2581suggested": 6851,
  "\u2581determined": 6852,
  "\u2581hemisphere": 6853,
  "\u2581connectivity": 6854,
  "\u2581collaborative": 6855,
  "\u25812,": 6856,
  "\u2581ng": 6857,
  "\u2581ub": 6858,
  "ubes": 6859,
  "west": 6860,
  "\u2581ink": 6861,
  "iment": 6862,
  "state": 6863,
  "\u2581bure": 6864,
  "\u2581gods": 6865,
  "\u2581guns": 6866,
  "\u2581cambr": 6867,
  "\u2581flour": 6868,
  "\u2581holds": 6869,
  "\u2581joint": 6870,
  "\u2581schiz": 6871,
  "related": 6872,
  "\u2581arctic": 6873,
  "\u2581decent": 6874,
  "\u2581thresh": 6875,
  "\u2581waters": 6876,
  "\u2581comprom": 6877,
  "\u2581enterpr": 6878,
  "\u2581fastest": 6879,
  "\u2581session": 6880,
  "\u2581shelter": 6881,
  "\u2581smarter": 6882,
  "\u2581targets": 6883,
  "\u2581entering": 6884,
  "\u2581extended": 6885,
  "\u2581sleeping": 6886,
  "\u2581copyright": 6887,
  "\u2581daughters": 6888,
  "\u2581exception": 6889,
  "\u2581passwords": 6890,
  "\u2581supported": 6891,
  "\u2581industries": 6892,
  "\u2581inevitable": 6893,
  "\u2581satellites": 6894,
  "\u2581astonishing": 6895,
  "\u2581experiencing": 6896,
  "\u2581surprisingly": 6897,
  "\u2581significantly": 6898,
  "mod": 6899,
  "apor": 6900,
  "oids": 6901,
  "osal": 6902,
  "\u2581ell": 6903,
  "\u2581lit": 6904,
  "clock": 6905,
  "iance": 6906,
  "ilize": 6907,
  "inder": 6908,
  "\u2581brut": 6909,
  "\u2581sole": 6910,
  "encing": 6911,
  "market": 6912,
  "\u2581brave": 6913,
  "\u2581civic": 6914,
  "\u2581jelly": 6915,
  "\u2581owner": 6916,
  "\u2581safer": 6917,
  "\u2581basket": 6918,
  "\u2581buried": 6919,
  "\u2581caring": 6920,
  "\u2581domain": 6921,
  "\u2581fought": 6922,
  "\u2581killer": 6923,
  "\u2581oxford": 6924,
  "\u2581sensor": 6925,
  "\u2581alcohol": 6926,
  "\u2581enforce": 6927,
  "\u2581females": 6928,
  "\u2581imaging": 6929,
  "\u2581persist": 6930,
  "\u2581wheelch": 6931,
  "\u2581throwing": 6932,
  "\u2581unlikely": 6933,
  "\u2581wildlife": 6934,
  "\u2581abilities": 6935,
  "\u2581economist": 6936,
  "\u2581investors": 6937,
  "\u2581radically": 6938,
  "\u2581autonomous": 6939,
  "\u2581translated": 6940,
  "\u2581constructed": 6941,
  "ga": 6942,
  "hh": 6943,
  "vy": 6944,
  "opy": 6945,
  "toc": 6946,
  "\u258126": 6947,
  "\u2581lg": 6948,
  "\u2581os": 6949,
  "half": 6950,
  "ulum": 6951,
  "viet": 6952,
  "\u2581700": 6953,
  "\u2581amy": 6954,
  "\u2581bos": 6955,
  "\u2581gab": 6956,
  "erved": 6957,
  "ifice": 6958,
  "tocin": 6959,
  "\u2581acid": 6960,
  "\u2581penn": 6961,
  "\u2581tuna": 6962,
  "\u2581award": 6963,
  "\u2581mixed": 6964,
  "\u2581screw": 6965,
  "\u2581silly": 6966,
  "\u2581spots": 6967,
  "\u2581metric": 6968,
  "\u2581panels": 6969,
  "\u2581pursue": 6970,
  "\u2581sevent": 6971,
  "\u2581shaped": 6972,
  "\u2581shrink": 6973,
  "\u2581vacuum": 6974,
  "\u2581aggress": 6975,
  "\u2581florida": 6976,
  "\u2581fragile": 6977,
  "\u2581revenue": 6978,
  "\u2581routine": 6979,
  "\u2581shocked": 6980,
  "\u2581threats": 6981,
  "\u2581answered": 6982,
  "\u2581arrested": 6983,
  "\u2581dialogue": 6984,
  "\u2581invested": 6985,
  "\u2581oxytocin": 6986,
  "\u2581expansion": 6987,
  "\u2581primarily": 6988,
  "\u2581sentences": 6989,
  "\u2581volunteer": 6990,
  "\u2581occasionally": 6991,
  ".]": 6992,
  "ela": 6993,
  "fin": 6994,
  "ocr": 6995,
  "oir": 6996,
  "ura": 6997,
  "\u2581bf": 6998,
  "\u2581mt": 6999,
  "bits": 7000,
  "iens": 7001,
  "rich": 7002,
  "umes": 7003,
  "\u2581dys": 7004,
  "\u2581hen": 7005,
  "\u2581ooh": 7006,
  "inson": 7007,
  "\u2581duck": 7008,
  "\u2581mode": 7009,
  "\u2581publ": 7010,
  "\u2581rome": 7011,
  "\u2581whis": 7012,
  "itudes": 7013,
  "othing": 7014,
  "\u2581agent": 7015,
  "\u2581audio": 7016,
  "\u2581burst": 7017,
  "\u2581fiber": 7018,
  "\u2581miser": 7019,
  "\u2581parli": 7020,
  "\u2581tribe": 7021,
  "ication": 7022,
  "\u2581compos": 7023,
  "\u2581curren": 7024,
  "\u2581insist": 7025,
  "\u2581sticks": 7026,
  "\u2581contrad": 7027,
  "\u2581convert": 7028,
  "\u2581deliber": 7029,
  "\u2581founded": 7030,
  "\u2581imagery": 7031,
  "\u2581immense": 7032,
  "\u2581liberal": 7033,
  "\u2581observe": 7034,
  "\u2581paradox": 7035,
  "\u2581printer": 7036,
  "\u2581december": 7037,
  "\u2581leverage": 7038,
  "\u2581measures": 7039,
  "\u2581neurolog": 7040,
  "\u2581proposed": 7041,
  "\u2581schizoph": 7042,
  "\u2581forgotten": 7043,
  "forestation": 7044,
  "\u2581frustrated": 7045,
  "\u2581proportion": 7046,
  "\u2581observation": 7047,
  "\u2581architectural": 7048,
  "\u2581professionals": 7049,
  "ata": 7050,
  "cel": 7051,
  "dam": 7052,
  "\u25813.": 7053,
  "\u2581nu": 7054,
  "iece": 7055,
  "\u2581800": 7056,
  "\u2581cig": 7057,
  "\u2581spa": 7058,
  "\u2581tut": 7059,
  "cking": 7060,
  "\u2581bags": 7061,
  "\u2581file": 7062,
  "\u2581stab": 7063,
  "\u2581chips": 7064,
  "\u2581elite": 7065,
  "\u2581index": 7066,
  "\u2581lifes": 7067,
  "\u2581opera": 7068,
  "\u2581enthus": 7069,
  "\u2581intrig": 7070,
  "\u2581trucks": 7071,
  "\u2581widely": 7072,
  "\u2581farming": 7073,
  "\u2581forming": 7074,
  "\u2581hunting": 7075,
  "\u2581involve": 7076,
  "\u2581magical": 7077,
  "\u2581miracle": 7078,
  "\u2581category": 7079,
  "\u2581climbing": 7080,
  "\u2581confused": 7081,
  "\u2581robotics": 7082,
  "\u2581skeleton": 7083,
  "\u2581broadcast": 7084,
  "\u2581disappoint": 7085,
  "\u2581resilience": 7086,
  "\u2581journalists": 7087,
  "\u2581capabilities": 7088,
  "\u2581transmission": 7089,
  "\u2581administration": 7090,
  "\u2581pharmaceutical": 7091,
  "ann": 7092,
  "bru": 7093,
  "ecd": 7094,
  "ndr": 7095,
  "ras": 7096,
  "\u2581tu": 7097,
  "ache": 7098,
  "agon": 7099,
  "arre": 7100,
  "edge": 7101,
  "olit": 7102,
  "play": 7103,
  "\u2581alb": 7104,
  "\u2581dub": 7105,
  "\u2581tes": 7106,
  "ville": 7107,
  "\u2581beij": 7108,
  "\u2581buff": 7109,
  "\u2581butt": 7110,
  "\u2581chim": 7111,
  "\u2581crew": 7112,
  "\u2581gate": 7113,
  "\u2581lamp": 7114,
  "\u2581murd": 7115,
  "\u2581sulf": 7116,
  "apping": 7117,
  "friend": 7118,
  "soever": 7119,
  "\u2581bored": 7120,
  "\u2581cable": 7121,
  "\u2581crick": 7122,
  "\u2581grace": 7123,
  "\u2581nurse": 7124,
  "\u2581parks": 7125,
  "\u2581physi": 7126,
  "\u2581sharp": 7127,
  "\u2581weeke": 7128,
  "athered": 7129,
  "\u2581approx": 7130,
  "\u2581arrive": 7131,
  "\u2581august": 7132,
  "\u2581curric": 7133,
  "\u2581regime": 7134,
  "\u2581soviet": 7135,
  "\u2581stroke": 7136,
  "\u2581tackle": 7137,
  "\u2581adopted": 7138,
  "\u2581deserve": 7139,
  "\u2581elderly": 7140,
  "\u2581pretend": 7141,
  "\u2581regener": 7142,
  "\u2581spanish": 7143,
  "\u2581writers": 7144,
  "\u2581articles": 7145,
  "\u2581choosing": 7146,
  "\u2581fabulous": 7147,
  "\u2581included": 7148,
  "\u2581innocent": 7149,
  "\u2581reducing": 7150,
  "\u2581stereoty": 7151,
  "\u2581versions": 7152,
  "\u2581gathering": 7153,
  "\u2581instantly": 7154,
  "\u2581primitive": 7155,
  "\u2581similarly": 7156,
  "\u2581approaches": 7157,
  "\u2581explaining": 7158,
  "\u2581hypothesis": 7159,
  "\u2581medication": 7160,
  "\u2581simulation": 7161,
  "\u2581whatsoever": 7162,
  "\u2581authorities": 7163,
  "\u2581schizophren": 7164,
  "\u2581translation": 7165,
  "\u2581contemporary": 7166,
  "\u2581successfully": 7167,
  "\u2581representation": 7168,
  "\u2581gi": 7169,
  "agos": 7170,
  "bola": 7171,
  "conf": 7172,
  "erer": 7173,
  "\u2581biz": 7174,
  "\u2581bug": 7175,
  "\u2581fer": 7176,
  "\u2581kar": 7177,
  "\u2581pix": 7178,
  "\u2581sew": 7179,
  "\u2581upd": 7180,
  "adays": 7181,
  "athan": 7182,
  "happy": 7183,
  "oning": 7184,
  "oying": 7185,
  "riger": 7186,
  "world": 7187,
  "worth": 7188,
  "\u2581brib": 7189,
  "\u2581leaf": 7190,
  "\u2581plug": 7191,
  "\u2581tone": 7192,
  "icious": 7193,
  "mented": 7194,
  "ortion": 7195,
  "semble": 7196,
  "\u2581caves": 7197,
  "\u2581ebola": 7198,
  "\u2581foods": 7199,
  "\u2581immig": 7200,
  "\u2581pairs": 7201,
  "\u2581stake": 7202,
  "\u2581wider": 7203,
  "\u2581burned": 7204,
  "\u2581chairs": 7205,
  "\u2581cheese": 7206,
  "\u2581inches": 7207,
  "\u2581matrix": 7208,
  "\u2581recept": 7209,
  "\u2581silver": 7210,
  "\u2581affects": 7211,
  "\u2581bubbles": 7212,
  "\u2581closing": 7213,
  "\u2581elected": 7214,
  "\u2581emerged": 7215,
  "\u2581garbage": 7216,
  "\u2581graphic": 7217,
  "\u2581rolling": 7218,
  "\u2581selfish": 7219,
  "\u2581wealthy": 7220,
  "\u2581channels": 7221,
  "\u2581colonies": 7222,
  "\u2581covering": 7223,
  "\u2581fraction": 7224,
  "\u2581judgment": 7225,
  "\u2581mosquito": 7226,
  "\u2581nowadays": 7227,
  "\u2581openness": 7228,
  "\u2581refriger": 7229,
  "\u2581strongly": 7230,
  "\u2581survived": 7231,
  "\u2581infection": 7232,
  "\u2581physician": 7233,
  "\u2581attractive": 7234,
  "\u2581consistent": 7235,
  "\u2581difficulty": 7236,
  "\u2581parliament": 7237,
  "\u2581association": 7238,
  "\u2581demonstration": 7239,
  "\"]": 7240,
  "och": 7241,
  "see": 7242,
  "who": 7243,
  "bing": 7244,
  "road": 7245,
  "zero": 7246,
  "\u2581'90": 7247,
  "\u2581mri": 7248,
  "\u2581nom": 7249,
  "\u2581sel": 7250,
  "maker": 7251,
  "\u2581asks": 7252,
  "\u2581dies": 7253,
  "\u2581grat": 7254,
  "\u2581hind": 7255,
  "\u2581inex": 7256,
  "\u2581loan": 7257,
  "\u2581odds": 7258,
  "icient": 7259,
  "\u2581arist": 7260,
  "\u2581armed": 7261,
  "\u2581excit": 7262,
  "\u2581greek": 7263,
  "\u2581indig": 7264,
  "\u2581plain": 7265,
  "\u2581rehab": 7266,
  "\u2581shout": 7267,
  "\u2581squee": 7268,
  "\u2581arabic": 7269,
  "\u2581norway": 7270,
  "\u2581orient": 7271,
  "\u2581saturn": 7272,
  "\u2581ticket": 7273,
  "\u2581tracks": 7274,
  "\u2581unable": 7275,
  "\u2581bizarre": 7276,
  "\u2581discrim": 7277,
  "\u2581enables": 7278,
  "\u2581luckily": 7279,
  "\u2581prepare": 7280,
  "\u2581request": 7281,
  "\u2581tedtalk": 7282,
  "\u2581tissues": 7283,
  "\u2581optimism": 7284,
  "\u2581stranger": 7285,
  "\u2581healthier": 7286,
  "\u2581nutrients": 7287,
  "\u2581reactions": 7288,
  "\u2581compelling": 7289,
  "\u2581disability": 7290,
  "\u2581traditions": 7291,
  "\u2581wheelchair": 7292,
  "\u2581genetically": 7293,
  "\u2581unconscious": 7294,
  "\u2581instructions": 7295,
  "ani": 7296,
  "che": 7297,
  "ania": 7298,
  "eday": 7299,
  "four": 7300,
  "icks": 7301,
  "oded": 7302,
  "\u2581'70": 7303,
  "\u2581bin": 7304,
  "\u2581loo": 7305,
  "ading": 7306,
  "amine": 7307,
  "emics": 7308,
  "lings": 7309,
  "opard": 7310,
  "otted": 7311,
  "\u2581anes": 7312,
  "\u2581brun": 7313,
  "\u2581dism": 7314,
  "\u2581forb": 7315,
  "\u2581hipp": 7316,
  "\u2581hors": 7317,
  "\u2581phos": 7318,
  "\u2581pige": 7319,
  "bruary": 7320,
  "engine": 7321,
  "\u2581cabin": 7322,
  "\u2581fraud": 7323,
  "\u2581gotta": 7324,
  "\u2581incor": 7325,
  "\u2581intim": 7326,
  "\u2581spray": 7327,
  "\u2581supre": 7328,
  "\u2581tweet": 7329,
  "\u2581unpre": 7330,
  "parents": 7331,
  "\u2581convey": 7332,
  "\u2581ending": 7333,
  "\u2581formal": 7334,
  "\u2581garage": 7335,
  "\u2581jumped": 7336,
  "changing": 7337,
  "\u2581beneath": 7338,
  "\u2581dolphin": 7339,
  "\u2581drought": 7340,
  "\u2581footage": 7341,
  "\u2581hitting": 7342,
  "\u2581methane": 7343,
  "\u2581minimum": 7344,
  "\u2581periods": 7345,
  "\u2581prisons": 7346,
  "\u2581secrets": 7347,
  "\u2581someday": 7348,
  "\u2581staying": 7349,
  "\u2581accounts": 7350,
  "\u2581contrary": 7351,
  "\u2581february": 7352,
  "\u2581homework": 7353,
  "\u2581keyboard": 7354,
  "\u2581socially": 7355,
  "\u2581suffered": 7356,
  "\u2581cambridge": 7357,
  "\u2581intuition": 7358,
  "\u2581paralyzed": 7359,
  "\u2581perceived": 7360,
  "\u2581qualities": 7361,
  "\u2581realizing": 7362,
  "\u2581renewable": 7363,
  "\u2581threshold": 7364,
  "\u2581extinction": 7365,
  "\u2581initiative": 7366,
  "\u2581structural": 7367,
  "\u2581supporting": 7368,
  "\u2581trajectory": 7369,
  "\u2581competitive": 7370,
  "\u2581description": 7371,
  "\u2581conservative": 7372,
  "\u2581mathematicians": 7373,
  "\u2581simultaneously": 7374,
  "tr": 7375,
  "eds": 7376,
  "\u2581kb": 7377,
  "emen": 7378,
  "lers": 7379,
  "\u2581jet": 7380,
  "\u2581lou": 7381,
  "\u2581vel": 7382,
  "human": 7383,
  "rical": 7384,
  "stone": 7385,
  "\u2581cert": 7386,
  "\u2581cree": 7387,
  "\u2581dumb": 7388,
  "\u2581triv": 7389,
  "\u2581zeal": 7390,
  "asters": 7391,
  "employ": 7392,
  "rained": 7393,
  "\u2581asian": 7394,
  "\u2581downt": 7395,
  "\u2581fears": 7396,
  "\u2581jesus": 7397,
  "\u2581kills": 7398,
  "\u2581pride": 7399,
  "\u2581ships": 7400,
  "\u2581stunt": 7401,
  "\u2581tempt": 7402,
  "\u2581twist": 7403,
  "\u2581valid": 7404,
  "inarily": 7405,
  "tending": 7406,
  "\u2581column": 7407,
  "\u2581dragon": 7408,
  "\u2581export": 7409,
  "\u2581scores": 7410,
  "\u2581strike": 7411,
  "\u2581tumors": 7412,
  "cedented": 7413,
  "quarters": 7414,
  "\u2581demands": 7415,
  "\u2581prostit": 7416,
  "\u2581russian": 7417,
  "\u2581serving": 7418,
  "\u2581drawings": 7419,
  "\u2581genocide": 7420,
  "\u2581improved": 7421,
  "\u2581navigate": 7422,
  "\u2581scholars": 7423,
  "\u2581tendency": 7424,
  "\u2581expertise": 7425,
  "\u2581fortunate": 7426,
  "\u2581improving": 7427,
  "\u2581curriculum": 7428,
  "\u2581excitement": 7429,
  "\u2581interviewed": 7430,
  "\u2581corporations": 7431,
  "\u2581institutional": 7432,
  "\u2581unprecedented": 7433,
  "\u2581vulnerability": 7434,
  "bow": 7435,
  "ctu": 7436,
  "\u2581ga": 7437,
  "aded": 7438,
  "agen": 7439,
  "aran": 7440,
  "char": 7441,
  "lson": 7442,
  "viol": 7443,
  "\u2581gir": 7444,
  "\u2581jam": 7445,
  "\u2581jon": 7446,
  "\u2581lap": 7447,
  "itous": 7448,
  "\u2581bond": 7449,
  "\u2581deli": 7450,
  "\u2581frog": 7451,
  "\u2581gaps": 7452,
  "\u2581germ": 7453,
  "\u2581infl": 7454,
  "\u2581irre": 7455,
  "\u2581mild": 7456,
  "\u2581rats": 7457,
  "\u2581sail": 7458,
  "nostic": 7459,
  "\u25812009,": 7460,
  "\u2581anten": 7461,
  "\u2581chile": 7462,
  "\u2581devil": 7463,
  "\u2581herit": 7464,
  "\u2581owned": 7465,
  "\u2581satur": 7466,
  "\u2581shots": 7467,
  "\u2581tends": 7468,
  "\u2581trash": 7469,
  "angible": 7470,
  "working": 7471,
  "\u258130,000": 7472,
  "\u2581assets": 7473,
  "\u2581binary": 7474,
  "\u2581empire": 7475,
  "\u2581makers": 7476,
  "\u2581mining": 7477,
  "\u2581rhythm": 7478,
  "\u2581upside": 7479,
  "\u2581beating": 7480,
  "\u2581glasses": 7481,
  "\u2581restore": 7482,
  "\u2581applying": 7483,
  "\u2581clothing": 7484,
  "\u2581detailed": 7485,
  "\u2581distingu": 7486,
  "\u2581genetics": 7487,
  "\u2581homeless": 7488,
  "\u2581mobility": 7489,
  "\u2581pandemic": 7490,
  "\u2581remained": 7491,
  "\u2581completed": 7492,
  "\u2581factories": 7493,
  "\u2581microbial": 7494,
  "\u2581ownership": 7495,
  "\u2581replicate": 7496,
  "\u2581expectancy": 7497,
  "\u2581prediction": 7498,
  "\u2581profoundly": 7499,
  "\u2581prosperity": 7500,
  "\u2581remembered": 7501,
  "\u2581terrifying": 7502,
  "\u2581threatened": 7503,
  "\u2581computation": 7504,
  "\u2581exponential": 7505,
  "asy": 7506,
  "isy": 7507,
  "lfr": 7508,
  "rol": 7509,
  "sah": 7510,
  "ague": 7511,
  "illa": 7512,
  "imag": 7513,
  "kins": 7514,
  "leep": 7515,
  "pled": 7516,
  "rant": 7517,
  "uded": 7518,
  "wind": 7519,
  "xual": 7520,
  "\u258120,": 7521,
  "\u2581fbi": 7522,
  "aving": 7523,
  "\u2581brid": 7524,
  "\u2581fest": 7525,
  "\u2581gore": 7526,
  "\u2581orph": 7527,
  "\u2581palm": 7528,
  "\u2581soup": 7529,
  "minute": 7530,
  "theast": 7531,
  "urable": 7532,
  "\u2581brows": 7533,
  "\u2581bucks": 7534,
  "\u2581membr": 7535,
  "\u2581outer": 7536,
  "\u2581tooth": 7537,
  "\u2581annual": 7538,
  "\u2581cosmic": 7539,
  "\u2581excuse": 7540,
  "\u2581pedest": 7541,
  "\u2581tragic": 7542,
  "\u2581tunnel": 7543,
  "andering": 7544,
  "\u2581compete": 7545,
  "\u2581harness": 7546,
  "\u2581highway": 7547,
  "\u2581neutral": 7548,
  "\u2581profits": 7549,
  "\u2581spreads": 7550,
  "\u2581trigger": 7551,
  "\u2581winning": 7552,
  "\u2581activist": 7553,
  "\u2581friendly": 7554,
  "\u2581honestly": 7555,
  "\u2581intended": 7556,
  "\u2581peaceful": 7557,
  "\u2581striking": 7558,
  "\u2581unemploy": 7559,
  "\u2581detection": 7560,
  "\u2581explosion": 7561,
  "\u2581gentleman": 7562,
  "\u2581remaining": 7563,
  "\u2581substance": 7564,
  "\u2581facilities": 7565,
  "\u2581physicians": 7566,
  "\u2581reasonable": 7567,
  "\u2581telescopes": 7568,
  "\u2581achievement": 7569,
  "\u2581approaching": 7570,
  "\u2581beautifully": 7571,
  "\u2581demographic": 7572,
  "\u2581established": 7573,
  "\u2581uncertainty": 7574,
  "\u2581collectively": 7575,
  "\u2581humanitarian": 7576,
  "\u2581photographed": 7577,
  "\u2581deforestation": 7578,
  "].": 7579,
  "gi": 7580,
  "aid": 7581,
  "eda": 7582,
  "ini": 7583,
  "ola": 7584,
  "\u2581gy": 7585,
  "ails": 7586,
  "away": 7587,
  "cost": 7588,
  "iban": 7589,
  "ifer": 7590,
  "long": 7591,
  "made": 7592,
  "\u2581'80": 7593,
  "\u2581sna": 7594,
  "\u2581une": 7595,
  "chool": 7596,
  "heart": 7597,
  "lades": 7598,
  "umble": 7599,
  "\u2581arth": 7600,
  "\u2581bold": 7601,
  "\u2581cake": 7602,
  "\u2581damn": 7603,
  "\u2581lean": 7604,
  "\u2581lord": 7605,
  "\u2581nurt": 7606,
  "\u2581pigs": 7607,
  "\u2581sett": 7608,
  "\u2581fancy": 7609,
  "\u2581spont": 7610,
  "\u2581steal": 7611,
  "\u2581aggreg": 7612,
  "\u2581claims": 7613,
  "\u2581cotton": 7614,
  "\u2581defend": 7615,
  "\u2581headed": 7616,
  "\u2581loving": 7617,
  "\u2581negoti": 7618,
  "interest": 7619,
  "\u2581beijing": 7620,
  "\u2581cigaret": 7621,
  "\u2581courses": 7622,
  "\u2581horizon": 7623,
  "\u2581manager": 7624,
  "\u2581mapping": 7625,
  "\u2581percept": 7626,
  "\u2581portion": 7627,
  "\u2581customer": 7628,
  "\u2581delivery": 7629,
  "\u2581explains": 7630,
  "\u2581historic": 7631,
  "\u2581musician": 7632,
  "\u2581preserve": 7633,
  "\u2581purposes": 7634,
  "\u2581agreement": 7635,
  "\u2581banglades": 7636,
  "\u2581diagnosis": 7637,
  "\u2581expecting": 7638,
  "\u2581extension": 7639,
  "\u2581meanwhile": 7640,
  "\u2581responses": 7641,
  "\u2581challenged": 7642,
  "\u2581comparison": 7643,
  "\u2581helicopter": 7644,
  "\u2581physicists": 7645,
  "ati": 7646,
  "udi": 7647,
  "\u2581rb": 7648,
  "fast": 7649,
  "gent": 7650,
  "neys": 7651,
  "onic": 7652,
  "take": 7653,
  "\u2581dop": 7654,
  "\u2581joe": 7655,
  "\u2581luc": 7656,
  "\u2581rac": 7657,
  "\u2581vit": 7658,
  "anged": 7659,
  "etics": 7660,
  "opath": 7661,
  "\u2581dawn": 7662,
  "\u2581susp": 7663,
  "iences": 7664,
  "\u25812000,": 7665,
  "\u25812008,": 7666,
  "\u25812010,": 7667,
  "\u2581badly": 7668,
  "\u2581brook": 7669,
  "\u2581camps": 7670,
  "\u2581derek": 7671,
  "\u2581hired": 7672,
  "\u2581inhab": 7673,
  "\u2581moore": 7674,
  "\u2581patch": 7675,
  "\u2581pound": 7676,
  "\u2581ratio": 7677,
  "\u2581shore": 7678,
  "\u2581winds": 7679,
  "otherap": 7680,
  "\u2581beaten": 7681,
  "\u2581dating": 7682,
  "\u2581luxury": 7683,
  "\u2581nearby": 7684,
  "\u2581occurs": 7685,
  "\u2581recess": 7686,
  "\u2581safely": 7687,
  "\u2581skelet": 7688,
  "\u2581subway": 7689,
  "\u2581tongue": 7690,
  "\u2581bottles": 7691,
  "\u2581charges": 7692,
  "\u2581engines": 7693,
  "\u2581offices": 7694,
  "\u2581uniform": 7695,
  "\u2581correspo": 7696,
  "\u2581listened": 7697,
  "\u2581morality": 7698,
  "\u2581perceive": 7699,
  "\u2581precious": 7700,
  "\u2581substant": 7701,
  "\u2581conducted": 7702,
  "\u2581workforce": 7703,
  "\u2581categories": 7704,
  "\u2581continuing": 7705,
  "\u2581continuous": 7706,
  "\u2581discipline": 7707,
  "\u2581encouraged": 7708,
  "\u2581impressive": 7709,
  "\u2581influenced": 7710,
  "\u2581newspapers": 7711,
  "\u2581researcher": 7712,
  "\u2581psychologists": 7713,
  "auc": 7714,
  "dle": 7715,
  "gal": 7716,
  "ora": 7717,
  "two": 7718,
  "\u258185": 7719,
  "\u2581ja": 7720,
  "ilty": 7721,
  "pend": 7722,
  "\u2581202": 7723,
  "\u2581ner": 7724,
  "\u2581piz": 7725,
  "\u2581ros": 7726,
  "arest": 7727,
  "burgh": 7728,
  "\u25812050": 7729,
  "\u2581bend": 7730,
  "\u2581genu": 7731,
  "\u2581homo": 7732,
  "\u2581indo": 7733,
  "\u2581july": 7734,
  "\u2581melt": 7735,
  "\u2581pref": 7736,
  "\u2581rabb": 7737,
  "\u2581tsun": 7738,
  "\u2581urge": 7739,
  "\u2581woke": 7740,
  "active": 7741,
  "mental": 7742,
  "\u25812007,": 7743,
  "\u2581fault": 7744,
  "\u2581items": 7745,
  "\u2581loves": 7746,
  "\u2581plast": 7747,
  "\u2581poems": 7748,
  "\u2581spain": 7749,
  "\u2581spons": 7750,
  "\u2581stair": 7751,
  "looking": 7752,
  "perform": 7753,
  "saharan": 7754,
  "\u2581butter": 7755,
  "\u2581canopy": 7756,
  "\u2581client": 7757,
  "\u2581crimes": 7758,
  "\u2581degrad": 7759,
  "\u2581hiding": 7760,
  "\u2581insane": 7761,
  "\u2581rubber": 7762,
  "\u2581sketch": 7763,
  "\u2581sunday": 7764,
  "\u2581vagina": 7765,
  "\u2581analogy": 7766,
  "\u2581arrange": 7767,
  "\u2581dressed": 7768,
  "\u2581educate": 7769,
  "\u2581fluores": 7770,
  "\u2581hardest": 7771,
  "\u2581leather": 7772,
  "\u2581located": 7773,
  "\u2581mindset": 7774,
  "\u2581downtown": 7775,
  "\u2581failures": 7776,
  "\u2581shipping": 7777,
  "\u2581terribly": 7778,
  "\u2581airplanes": 7779,
  "\u2581magnitude": 7780,
  "\u2581orchestra": 7781,
  "\u2581passenger": 7782,
  "\u2581strategic": 7783,
  "\u2581aggressive": 7784,
  "\u2581regardless": 7785,
  "\u2581discovering": 7786,
  "\u2581enforcement": 7787,
  "\u2581restaurants": 7788,
  "\u2581concentration": 7789,
  "],": 7790,
  "ker": 7791,
  "law": 7792,
  "mar": 7793,
  "\u2581uk": 7794,
  "asty": 7795,
  "oran": 7796,
  "outs": 7797,
  "star": 7798,
  "\u2581awk": 7799,
  "\u2581hob": 7800,
  "\u2581tie": 7801,
  "bling": 7802,
  "break": 7803,
  "ester": 7804,
  "grade": 7805,
  "licit": 7806,
  "\u2581acou": 7807,
  "\u2581aunt": 7808,
  "\u2581bind": 7809,
  "\u2581blah": 7810,
  "\u2581gear": 7811,
  "\u2581leon": 7812,
  "\u2581mike": 7813,
  "\u2581rape": 7814,
  "\u2581charl": 7815,
  "\u2581drown": 7816,
  "\u2581funds": 7817,
  "\u2581incar": 7818,
  "\u2581loans": 7819,
  "\u2581proto": 7820,
  "\u2581royal": 7821,
  "\u2581santa": 7822,
  "\u2581sixth": 7823,
  "\u2581addict": 7824,
  "\u2581campus": 7825,
  "\u2581drones": 7826,
  "\u2581estate": 7827,
  "\u2581excess": 7828,
  "\u2581girlfr": 7829,
  "\u2581improv": 7830,
  "\u2581motors": 7831,
  "\u2581parach": 7832,
  "\u2581proved": 7833,
  "\u2581purple": 7834,
  "\u2581awkward": 7835,
  "\u2581barrier": 7836,
  "\u2581enlight": 7837,
  "\u2581ignored": 7838,
  "\u2581italian": 7839,
  "\u2581landing": 7840,
  "\u2581metabol": 7841,
  "\u2581profile": 7842,
  "\u2581propose": 7843,
  "\u2581pursuit": 7844,
  "\u2581taliban": 7845,
  "\u2581bathroom": 7846,
  "\u2581believes": 7847,
  "\u2581cartoons": 7848,
  "\u2581concerns": 7849,
  "\u2581connects": 7850,
  "\u2581gathered": 7851,
  "\u2581insights": 7852,
  "\u2581supplies": 7853,
  "\u2581medicines": 7854,
  "\u2581nonprofit": 7855,
  "\u2581obstacles": 7856,
  "\u2581sacrifice": 7857,
  "\u2581temporary": 7858,
  "\u2581assistance": 7859,
  "\u2581assumption": 7860,
  "\u2581previously": 7861,
  "\u2581legislation": 7862,
  "\u2581limitations": 7863,
  "\u2581storytelling": 7864,
  "\u2581straightforward": 7865,
  "bm": 7866,
  "bye": 7867,
  "ema": 7868,
  "iro": 7869,
  "\u258128": 7870,
  "\u258133": 7871,
  "\u258136": 7872,
  "\u2581si": 7873,
  "chem": 7874,
  "ugal": 7875,
  "utan": 7876,
  "\u2581bot": 7877,
  "\u2581tox": 7878,
  "attoo": 7879,
  "icial": 7880,
  "itzer": 7881,
  "rence": 7882,
  "\u2581bust": 7883,
  "\u2581chop": 7884,
  "\u2581dile": 7885,
  "\u2581eric": 7886,
  "\u2581heal": 7887,
  "\u2581holy": 7888,
  "\u2581jose": 7889,
  "\u2581ngos": 7890,
  "\u2581thus": 7891,
  "\u2581tune": 7892,
  "\u2581wrap": 7893,
  "orious": 7894,
  "\u2581amate": 7895,
  "\u2581comet": 7896,
  "\u2581cruel": 7897,
  "\u2581fires": 7898,
  "\u2581ingen": 7899,
  "\u2581phant": 7900,
  "\u2581redes": 7901,
  "\u2581shelf": 7902,
  "\u2581syndr": 7903,
  "\u2581wheat": 7904,
  "\u2581apolog": 7905,
  "\u2581burden": 7906,
  "\u2581chains": 7907,
  "\u2581endang": 7908,
  "\u2581entrop": 7909,
  "\u2581execut": 7910,
  "\u2581harbor": 7911,
  "\u2581manner": 7912,
  "\u2581manual": 7913,
  "\u2581nights": 7914,
  "\u2581planes": 7915,
  "\u2581propag": 7916,
  "\u2581subsid": 7917,
  "\u2581tattoo": 7918,
  "\u2581traits": 7919,
  "\u2581upload": 7920,
  "\u2581closest": 7921,
  "\u2581flowing": 7922,
  "\u2581genuine": 7923,
  "\u2581patents": 7924,
  "\u2581pockets": 7925,
  "\u2581rethink": 7926,
  "\u2581screens": 7927,
  "\u2581stepped": 7928,
  "\u2581supreme": 7929,
  "\u2581venture": 7930,
  "\u2581zealand": 7931,
  "\u2581counting": 7932,
  "\u2581dopamine": 7933,
  "\u2581generous": 7934,
  "\u2581interven": 7935,
  "\u2581mushroom": 7936,
  "\u2581palestin": 7937,
  "\u2581portrait": 7938,
  "\u2581prostate": 7939,
  "\u2581reliable": 7940,
  "\u2581alexander": 7941,
  "\u2581glamorous": 7942,
  "\u2581graduated": 7943,
  "\u2581residents": 7944,
  "otechnology": 7945,
  "\u2581accomplish": 7946,
  "\u2581classrooms": 7947,
  "\u2581constraints": 7948,
  "\u2581encouraging": 7949,
  "\u2581reconstruct": 7950,
  "\u2581grandparents": 7951,
  "ye": 7952,
  "aby": 7953,
  "asm": 7954,
  "fly": 7955,
  "\u2581lt": 7956,
  "good": 7957,
  "quis": 7958,
  "\u2581coc": 7959,
  "\u2581jar": 7960,
  "\u2581tin": 7961,
  "\u2581voy": 7962,
  "arrhe": 7963,
  "enous": 7964,
  "pless": 7965,
  "\u2581fits": 7966,
  "\u2581josh": 7967,
  "\u2581rick": 7968,
  "\u2581stor": 7969,
  "\u2581tanz": 7970,
  "weight": 7971,
  "\u2581drone": 7972,
  "\u2581entry": 7973,
  "\u2581grave": 7974,
  "\u2581incom": 7975,
  "\u2581inher": 7976,
  "\u2581lions": 7977,
  "\u2581pause": 7978,
  "\u2581redef": 7979,
  "\u2581trace": 7980,
  "\u2581ubiqu": 7981,
  "\u2581argent": 7982,
  "\u2581bullet": 7983,
  "\u2581ethnic": 7984,
  "\u2581halluc": 7985,
  "\u2581infant": 7986,
  "\u2581nelson": 7987,
  "\u2581recipe": 7988,
  "\u2581speaks": 7989,
  "\u2581voting": 7990,
  "otherapy": 7991,
  "\u2581despair": 7992,
  "\u2581diarrhe": 7993,
  "\u2581exhaust": 7994,
  "\u2581gallery": 7995,
  "\u2581glacier": 7996,
  "\u2581indians": 7997,
  "\u2581reminds": 7998,
  "\u2581rituals": 7999,
  "\u2581scanner": 8000,
  "\u2581stomach": 8001,
  "\u2581vietnam": 8002,
  "\u2581comments": 8003,
  "\u2581currency": 8004,
  "\u2581graphics": 8005,
  "\u2581heritage": 8006,
  "\u2581managers": 8007,
  "\u2581observed": 8008,
  "\u2581pointing": 8009,
  "\u2581promised": 8010,
  "\u2581reinvent": 8011,
  "\u2581teenager": 8012,
  "\u2581tropical": 8013,
  "\u2581activists": 8014,
  "\u2581amazingly": 8015,
  "\u2581classical": 8016,
  "\u2581stability": 8017,
  "\u2581succeeded": 8018,
  "\u2581chimpanzee": 8019,
  "\u2581continents": 8020,
  "\u2581endangered": 8021,
  "\u2581yourselves": 8022,
  "\u2581acknowledge": 8023,
  "\u2581desperately": 8024,
  "\u2581partnership": 8025,
  "\u2581philosopher": 8026,
  "\u2581proposition": 8027,
  "\u2581specialized": 8028,
  "\u2581personalized": 8029,
  "\u2581temperatures": 8030,
  "\u2581interpretation": 8031,
  ".'\"": 8032,
  "bie": 8033,
  "hot": 8034,
  "nat": 8035,
  "yan": 8036,
  "atar": 8037,
  "city": 8038,
  "cled": 8039,
  "fram": 8040,
  "onge": 8041,
  "pers": 8042,
  "rian": 8043,
  "stop": 8044,
  "\u2581via": 8045,
  "ashed": 8046,
  "chron": 8047,
  "icked": 8048,
  "inter": 8049,
  "iogen": 8050,
  "ogram": 8051,
  "\u2581ampl": 8052,
  "\u2581batt": 8053,
  "\u2581drew": 8054,
  "\u2581dung": 8055,
  "\u2581fate": 8056,
  "\u2581lion": 8057,
  "\u2581neoc": 8058,
  "\u2581shan": 8059,
  "\u2581shit": 8060,
  "\u2581turb": 8061,
  "\u2581ambit": 8062,
  "\u2581bless": 8063,
  "\u2581blogs": 8064,
  "\u2581bronx": 8065,
  "\u2581coinc": 8066,
  "\u2581eaten": 8067,
  "\u2581encry": 8068,
  "\u2581immun": 8069,
  "\u2581peers": 8070,
  "\u2581revol": 8071,
  "\u2581wires": 8072,
  "\u2581builds": 8073,
  "\u2581errors": 8074,
  "\u2581habits": 8075,
  "\u2581lowest": 8076,
  "\u2581magnet": 8077,
  "\u2581orders": 8078,
  "\u2581preval": 8079,
  "\u2581static": 8080,
  "\u2581stimul": 8081,
  "\u2581trains": 8082,
  "\u2581clinics": 8083,
  "\u2581cluster": 8084,
  "\u2581commons": 8085,
  "\u2581hormone": 8086,
  "\u2581mandela": 8087,
  "\u2581ongoing": 8088,
  "\u2581passive": 8089,
  "\u2581peoples": 8090,
  "\u2581readers": 8091,
  "\u2581reserve": 8092,
  "\u2581storage": 8093,
  "\u2581teenage": 8094,
  "\u2581cellular": 8095,
  "\u2581circuits": 8096,
  "\u2581compound": 8097,
  "\u2581earliest": 8098,
  "\u2581magnific": 8099,
  "\u2581offering": 8100,
  "\u2581affecting": 8101,
  "\u2581audiences": 8102,
  "\u2581distances": 8103,
  "\u2581guarantee": 8104,
  "\u2581overnight": 8105,
  "\u2581procedure": 8106,
  "\u2581signature": 8107,
  "\u2581impression": 8108,
  "\u2581indigenous": 8109,
  "\u2581landscapes": 8110,
  "\u2581surrounding": 8111,
  "\u2581alternatives": 8112,
  "\u2581constitution": 8113,
  "\u2581compassionate": 8114,
  "fi": 8115,
  "ador": 8116,
  "aids": 8117,
  "aine": 8118,
  "ghai": 8119,
  "umin": 8120,
  "\u2581dil": 8121,
  "\u2581pir": 8122,
  "\u2581ski": 8123,
  "\u2581wol": 8124,
  "gence": 8125,
  "ingly": 8126,
  "\u2581crop": 8127,
  "\u2581enzy": 8128,
  "\u2581ford": 8129,
  "\u2581inch": 8130,
  "\u2581ipod": 8131,
  "\u2581subt": 8132,
  "\u2581brian": 8133,
  "\u2581divor": 8134,
  "\u2581dutch": 8135,
  "\u2581henry": 8136,
  "\u2581knife": 8137,
  "\u2581saudi": 8138,
  "\u2581agents": 8139,
  "\u2581diving": 8140,
  "\u2581guilty": 8141,
  "\u2581howard": 8142,
  "\u2581marvel": 8143,
  "\u2581namely": 8144,
  "\u2581newton": 8145,
  "\u2581proven": 8146,
  "\u2581recall": 8147,
  "\u2581trauma": 8148,
  "\u2581yorker": 8149,
  "\u2581johnson": 8150,
  "\u2581package": 8151,
  "\u2581seeking": 8152,
  "\u2581decrease": 8153,
  "\u2581distract": 8154,
  "\u2581exposure": 8155,
  "\u2581geometry": 8156,
  "\u2581momentum": 8157,
  "\u2581ambitious": 8158,
  "\u2581estimates": 8159,
  "\u2581incentive": 8160,
  "\u2581locations": 8161,
  "\u2581motivated": 8162,
  "\u2581performed": 8163,
  "\u2581receiving": 8164,
  "\u2581religions": 8165,
  "\u2581reproduce": 8166,
  "\u2581appearance": 8167,
  "\u2581ecological": 8168,
  "\u2581elementary": 8169,
  "\u2581expedition": 8170,
  "\u2581generating": 8171,
  "\u2581illustrate": 8172,
  "\u2581monitoring": 8173,
  "\u2581retirement": 8174,
  "\u2581sufficient": 8175,
  "\u2581independence": 8176,
  "\u2581interconnected": 8177,
  "ona": 8178,
  "tra": 8179,
  "\u2581bh": 8180,
  "\u2581ss": 8181,
  "aken": 8182,
  "mart": 8183,
  "sell": 8184,
  "step": 8185,
  "\u258115-": 8186,
  "\u258120-": 8187,
  "\u2581ads": 8188,
  "\u2581fox": 8189,
  "\u2581ire": 8190,
  "\u2581pit": 8191,
  "aches": 8192,
  "emies": 8193,
  "great": 8194,
  "inery": 8195,
  "produ": 8196,
  "uther": 8197,
  "\u2581carp": 8198,
  "\u2581guid": 8199,
  "\u2581keys": 8200,
  "\u2581logo": 8201,
  "\u2581nuts": 8202,
  "aneous": 8203,
  "ilized": 8204,
  "thesia": 8205,
  "\u2581altru": 8206,
  "\u2581boats": 8207,
  "\u2581cared": 8208,
  "\u2581defic": 8209,
  "\u2581delhi": 8210,
  "\u2581farms": 8211,
  "\u2581flags": 8212,
  "\u2581gorge": 8213,
  "\u2581numer": 8214,
  "\u2581pants": 8215,
  "\u2581pizza": 8216,
  "\u2581risky": 8217,
  "\u2581sauce": 8218,
  "\u2581straw": 8219,
  "\u2581tubes": 8220,
  "itative": 8221,
  "\u2581compre": 8222,
  "\u2581cycles": 8223,
  "\u2581freely": 8224,
  "\u2581friday": 8225,
  "\u2581livest": 8226,
  "\u2581summit": 8227,
  "\u2581tempor": 8228,
  "controll": 8229,
  "\u2581200,000": 8230,
  "\u2581absence": 8231,
  "\u2581academy": 8232,
  "\u2581banking": 8233,
  "\u2581counsel": 8234,
  "\u2581destiny": 8235,
  "\u2581entropy": 8236,
  "\u2581hacking": 8237,
  "\u2581heading": 8238,
  "\u2581indones": 8239,
  "\u2581logical": 8240,
  "\u2581phantom": 8241,
  "\u2581proceed": 8242,
  "\u2581retreat": 8243,
  "\u2581wedding": 8244,
  "\u2581branches": 8245,
  "\u2581catching": 8246,
  "\u2581explicit": 8247,
  "\u2581interior": 8248,
  "\u2581phosphor": 8249,
  "\u2581shifting": 8250,
  "\u2581transmit": 8251,
  "\u2581addiction": 8252,
  "\u2581astronaut": 8253,
  "\u2581formation": 8254,
  "\u2581headlines": 8255,
  "\u2581miserable": 8256,
  "\u2581phenomena": 8257,
  "\u2581preparing": 8258,
  "\u2581recycling": 8259,
  "\u2581territory": 8260,
  "\u2581approached": 8261,
  "\u2581bangladesh": 8262,
  "\u2581manipulate": 8263,
  "\u2581marketplace": 8264,
  "\u2581extraordinarily": 8265,
  "mn": 8266,
  "\u2581.": 8267,
  "cip": 8268,
  "dig": 8269,
  "dis": 8270,
  "enh": 8271,
  "neg": 8272,
  "\u2581eb": 8273,
  "abul": 8274,
  "bled": 8275,
  "grow": 8276,
  "ipts": 8277,
  "lend": 8278,
  "onia": 8279,
  "reen": 8280,
  "\u2581gif": 8281,
  "\u2581jih": 8282,
  "\u2581por": 8283,
  "\u2581rib": 8284,
  "\u2581sav": 8285,
  "\u2581sud": 8286,
  "enses": 8287,
  "izers": 8288,
  "phony": 8289,
  "press": 8290,
  "pring": 8291,
  "sized": 8292,
  "ushed": 8293,
  "\u2581anat": 8294,
  "\u2581anno": 8295,
  "\u2581chat": 8296,
  "\u2581clue": 8297,
  "\u2581coke": 8298,
  "\u2581cows": 8299,
  "\u2581deck": 8300,
  "\u2581epis": 8301,
  "\u2581hybr": 8302,
  "\u2581jazz": 8303,
  "\u2581jung": 8304,
  "\u2581junk": 8305,
  "\u2581toes": 8306,
  "\u2581whit": 8307,
  "arians": 8308,
  "driven": 8309,
  "\u2581hated": 8310,
  "\u2581hydro": 8311,
  "\u2581lever": 8312,
  "\u2581loose": 8313,
  "\u2581sadly": 8314,
  "\u2581shine": 8315,
  "\u2581shirt": 8316,
  "\u2581slime": 8317,
  "\u2581stays": 8318,
  "\u2581viral": 8319,
  "\u2581zones": 8320,
  "fulness": 8321,
  "\u2581accent": 8322,
  "\u2581carpet": 8323,
  "\u2581gained": 8324,
  "\u2581nerves": 8325,
  "\u2581offers": 8326,
  "\u2581relief": 8327,
  "\u2581scenes": 8328,
  "\u2581wheels": 8329,
  "\u2581artwork": 8330,
  "\u2581corrupt": 8331,
  "\u2581ecology": 8332,
  "\u2581enabled": 8333,
  "\u2581enemies": 8334,
  "\u2581formula": 8335,
  "\u2581glamour": 8336,
  "\u2581redwood": 8337,
  "\u2581tension": 8338,
  "\u2581tsunami": 8339,
  "\u2581william": 8340,
  "\u2581carolina": 8341,
  "\u2581clusters": 8342,
  "\u2581democrat": 8343,
  "\u2581horizont": 8344,
  "\u2581replaced": 8345,
  "\u2581shanghai": 8346,
  "\u2581smallest": 8347,
  "\u2581syndrome": 8348,
  "\u2581blindness": 8349,
  "\u2581describes": 8350,
  "\u2581estimated": 8351,
  "\u2581officials": 8352,
  "\u2581seemingly": 8353,
  "\u2581terrified": 8354,
  "\u2581assignment": 8355,
  "\u2581mainstream": 8356,
  "\u2581prevention": 8357,
  "\u2581remarkably": 8358,
  "\u2581spacecraft": 8359,
  "\u2581variations": 8360,
  "\u2581vegetables": 8361,
  "\u2581concentrated": 8362,
  "py": 8363,
  "uk": 8364,
  "cla": 8365,
  "cor": 8366,
  "god": 8367,
  "\u25812:": 8368,
  "coln": 8369,
  "mony": 8370,
  "oked": 8371,
  "stru": 8372,
  "\u258130-": 8373,
  "\u2581ech": 8374,
  "\u2581mud": 8375,
  "\u2581obt": 8376,
  "\u2581orb": 8377,
  "\u2581ram": 8378,
  "\u2581rap": 8379,
  "\u2581shy": 8380,
  "\u2581sib": 8381,
  "allow": 8382,
  "aware": 8383,
  "copic": 8384,
  "elled": 8385,
  "storm": 8386,
  "\u2581chef": 8387,
  "\u2581drum": 8388,
  "\u2581rect": 8389,
  "\u2581rope": 8390,
  "\u2581sons": 8391,
  "\u2581spat": 8392,
  "\u2581unre": 8393,
  "comput": 8394,
  "\u2581bench": 8395,
  "\u2581blink": 8396,
  "\u2581conqu": 8397,
  "\u2581grabb": 8398,
  "\u2581maker": 8399,
  "\u2581overl": 8400,
  "\u2581proph": 8401,
  "\u2581raped": 8402,
  "\u2581slums": 8403,
  "\u2581sperm": 8404,
  "\u2581spill": 8405,
  "\u2581stead": 8406,
  "\u2581andrew": 8407,
  "\u2581correl": 8408,
  "\u2581covers": 8409,
  "\u2581editor": 8410,
  "\u2581fallen": 8411,
  "\u2581mentor": 8412,
  "\u2581packed": 8413,
  "\u2581stones": 8414,
  "\u2581strain": 8415,
  "\u2581thread": 8416,
  "\u2581troops": 8417,
  "\u2581arguing": 8418,
  "\u2581elegant": 8419,
  "\u2581halfway": 8420,
  "\u2581neander": 8421,
  "\u2581puzzles": 8422,
  "\u2581resolve": 8423,
  "\u2581seattle": 8424,
  "\u2581shortly": 8425,
  "\u2581smiling": 8426,
  "\u2581staring": 8427,
  "\u2581trivial": 8428,
  "\u2581unhappy": 8429,
  "\u2581relation": 8430,
  "\u2581selected": 8431,
  "\u2581stopping": 8432,
  "\u2581synchron": 8433,
  "\u2581biologist": 8434,
  "\u2581breakfast": 8435,
  "\u2581collapsed": 8436,
  "\u2581empowered": 8437,
  "\u2581equations": 8438,
  "\u2581installed": 8439,
  "\u2581jellyfish": 8440,
  "\u2581mosquitos": 8441,
  "\u2581transcend": 8442,
  "\u2581electrodes": 8443,
  "\u2581infections": 8444,
  "\u2581interviews": 8445,
  "\u2581phosphorus": 8446,
  "\u2581publishing": 8447,
  "\u2581reflection": 8448,
  "\u2581contributed": 8449,
  "\u2581predictable": 8450,
  "\u2581supermarket": 8451,
  "\u2581historically": 8452,
  "\u2581intersection": 8453,
  "\u2581measurements": 8454,
  "\u2581psychologist": 8455,
  "200": 8456,
  "dad": 8457,
  "ugg": 8458,
  "\u2581ye": 8459,
  "cycl": 8460,
  "gend": 8461,
  "oral": 8462,
  "\u2581bru": 8463,
  "\u2581hut": 8464,
  "\u2581mah": 8465,
  "\u2581moz": 8466,
  "\u2581nap": 8467,
  "\u2581nar": 8468,
  "\u2581sty": 8469,
  "\u2581zoo": 8470,
  "eries": 8471,
  "ifact": 8472,
  "ipher": 8473,
  "rance": 8474,
  "three": 8475,
  "\u2581biof": 8476,
  "\u2581bowl": 8477,
  "\u2581calm": 8478,
  "\u2581dent": 8479,
  "\u2581dirt": 8480,
  "\u2581jord": 8481,
  "\u2581mini": 8482,
  "\u2581nove": 8483,
  "\u2581pear": 8484,
  "\u2581sexy": 8485,
  "\u2581stad": 8486,
  "\u2581ward": 8487,
  "ancing": 8488,
  "gments": 8489,
  "ometer": 8490,
  "umines": 8491,
  "\u25812011,": 8492,
  "\u25816,000": 8493,
  "\u2581bruno": 8494,
  "\u2581depos": 8495,
  "\u2581drops": 8496,
  "\u2581exerc": 8497,
  "\u2581jihad": 8498,
  "\u2581koran": 8499,
  "\u2581nodes": 8500,
  "\u2581param": 8501,
  "\u2581resur": 8502,
  "\u2581swiss": 8503,
  "\u2581wrist": 8504,
  "ometown": 8505,
  "umented": 8506,
  "\u2581asleep": 8507,
  "\u2581atomic": 8508,
  "\u2581fibers": 8509,
  "\u2581murder": 8510,
  "\u2581shakes": 8511,
  "\u2581stored": 8512,
  "\u2581strict": 8513,
  "\u2581victor": 8514,
  "\u2581aristot": 8515,
  "\u2581bridges": 8516,
  "\u2581bureauc": 8517,
  "\u2581cocaine": 8518,
  "\u2581continu": 8519,
  "\u2581crossed": 8520,
  "\u2581fathers": 8521,
  "\u2581intrins": 8522,
  "\u2581ireland": 8523,
  "\u2581locally": 8524,
  "criptions": 8525,
  "\u2581advances": 8526,
  "\u2581altitude": 8527,
  "\u2581artifact": 8528,
  "\u2581asteroid": 8529,
  "\u2581attacked": 8530,
  "\u2581barriers": 8531,
  "\u2581breeding": 8532,
  "\u2581incarcer": 8533,
  "\u2581plastics": 8534,
  "\u2581predator": 8535,
  "\u2581spinning": 8536,
  "\u2581undergra": 8537,
  "\u2581statistic": 8538,
  "\u2581convenient": 8539,
  "\u2581describing": 8540,
  "\u2581infectious": 8541,
  "\u2581punishment": 8542,
  "\u2581ubiquitous": 8543,
  "\u2581devastating": 8544,
  "\u2581politically": 8545,
  "\u2581installation": 8546,
  "\u2581transforming": 8547,
  "\u2581schizophrenia": 8548,
  "bod": 8549,
  "mun": 8550,
  "obs": 8551,
  "\u258142": 8552,
  "\u2581dv": 8553,
  "...\"": 8554,
  "cher": 8555,
  "hist": 8556,
  "oman": 8557,
  "ules": 8558,
  "\u2581cyl": 8559,
  "\u2581kat": 8560,
  "\u2581nam": 8561,
  "\u2581rod": 8562,
  "\u2581tam": 8563,
  "\u2581zip": 8564,
  "erals": 8565,
  "inent": 8566,
  "irect": 8567,
  "omics": 8568,
  "owers": 8569,
  "vable": 8570,
  "\u2581cage": 8571,
  "\u2581coat": 8572,
  "\u2581hans": 8573,
  "\u2581meme": 8574,
  "\u2581vary": 8575,
  "\u2581welf": 8576,
  "itable": 8577,
  "\u2581bills": 8578,
  "\u2581deals": 8579,
  "\u2581embry": 8580,
  "\u2581fatal": 8581,
  "\u2581fifty": 8582,
  "\u2581grasp": 8583,
  "\u2581hawai": 8584,
  "\u2581hopes": 8585,
  "\u2581insul": 8586,
  "\u2581minus": 8587,
  "\u2581outdo": 8588,
  "\u2581recre": 8589,
  "\u2581sched": 8590,
  "\u2581syria": 8591,
  "\u2581taxes": 8592,
  "\u2581worms": 8593,
  "ativity": 8594,
  "\u2581amazed": 8595,
  "\u2581appeal": 8596,
  "\u2581bother": 8597,
  "\u2581columb": 8598,
  "\u2581contam": 8599,
  "\u2581emails": 8600,
  "\u2581fusion": 8601,
  "\u2581grocer": 8602,
  "\u2581immers": 8603,
  "\u2581lonely": 8604,
  "\u2581unlock": 8605,
  "\u2581chamber": 8606,
  "\u2581envelop": 8607,
  "\u2581israeli": 8608,
  "\u2581lincoln": 8609,
  "\u2581onstage": 8610,
  "\u2581sectors": 8611,
  "\u2581terrain": 8612,
  "\u2581trapped": 8613,
  "\u2581useless": 8614,
  "\u2581whistle": 8615,
  "\u2581accuracy": 8616,
  "\u2581backyard": 8617,
  "\u2581brooklyn": 8618,
  "\u2581diameter": 8619,
  "\u2581feminist": 8620,
  "\u2581hometown": 8621,
  "\u2581november": 8622,
  "\u2581sidewalk": 8623,
  "\u2581worrying": 8624,
  "\u2581believing": 8625,
  "\u2581criminals": 8626,
  "\u2581intensive": 8627,
  "\u2581interrupt": 8628,
  "\u2581planetary": 8629,
  "\u2581predators": 8630,
  "\u2581relatives": 8631,
  "\u2581responded": 8632,
  "\u2581screaming": 8633,
  "\u2581sensation": 8634,
  "\u2581frequently": 8635,
  "\u2581inevitably": 8636,
  "\u2581organizing": 8637,
  "\u2581foundations": 8638,
  "\u2581investments": 8639,
  "\u2581magnificent": 8640,
  "\u2581technically": 8641,
  "ila": 8642,
  "isa": 8643,
  "lor": 8644,
  "\u258155": 8645,
  "aped": 8646,
  "irts": 8647,
  "\u2581350": 8648,
  "\u2581cin": 8649,
  "ested": 8650,
  "uctor": 8651,
  "\u2581abra": 8652,
  "\u2581bamb": 8653,
  "\u2581bion": 8654,
  "\u2581bite": 8655,
  "\u2581bump": 8656,
  "\u2581jane": 8657,
  "\u2581offs": 8658,
  "\u2581radi": 8659,
  "\u2581tony": 8660,
  "\u2581vice": 8661,
  "\u2581ware": 8662,
  "culiar": 8663,
  "income": 8664,
  "\u2581clint": 8665,
  "\u2581comic": 8666,
  "\u2581donor": 8667,
  "\u2581femin": 8668,
  "\u2581gabby": 8669,
  "\u2581gross": 8670,
  "\u2581humil": 8671,
  "\u2581impul": 8672,
  "\u2581leban": 8673,
  "\u2581locom": 8674,
  "\u2581mines": 8675,
  "\u2581penet": 8676,
  "\u2581pills": 8677,
  "\u2581pulse": 8678,
  "\u2581rings": 8679,
  "\u2581roles": 8680,
  "\u2581sheer": 8681,
  "\u2581sweep": 8682,
  "powered": 8683,
  "\u2581albert": 8684,
  "\u2581berlin": 8685,
  "\u2581comedy": 8686,
  "\u2581config": 8687,
  "\u2581equity": 8688,
  "\u2581format": 8689,
  "\u2581horses": 8690,
  "\u2581marath": 8691,
  "\u2581posted": 8692,
  "\u2581render": 8693,
  "\u2581revers": 8694,
  "\u2581summar": 8695,
  "function": 8696,
  "\u2581adapted": 8697,
  "\u2581bedroom": 8698,
  "\u2581belongs": 8699,
  "\u2581couples": 8700,
  "\u2581earning": 8701,
  "\u2581follows": 8702,
  "\u2581gesture": 8703,
  "\u2581healing": 8704,
  "\u2581implant": 8705,
  "\u2581laptops": 8706,
  "\u2581welfare": 8707,
  "\u2581approved": 8708,
  "\u2581calories": 8709,
  "\u2581gorgeous": 8710,
  "\u2581hormones": 8711,
  "\u2581mentally": 8712,
  "\u2581peculiar": 8713,
  "\u2581randomly": 8714,
  "\u2581revealed": 8715,
  "\u2581surgeons": 8716,
  "\u2581tanzania": 8717,
  "\u2581aesthetic": 8718,
  "\u2581brazilian": 8719,
  "\u2581cooperate": 8720,
  "\u2581correctly": 8721,
  "\u2581indonesia": 8722,
  "\u2581parachute": 8723,
  "\u2581regularly": 8724,
  "\u2581workplace": 8725,
  "\u2581girlfriend": 8726,
  "\u2581sanitation": 8727,
  "\u2581consciously": 8728,
  "\u2581understands": 8729,
  "\u2581contribution": 8730,
  "\u2581demonstrated": 8731,
  "\u2581civilizations": 8732,
  "\u2581communicating": 8733,
  ",'": 8734,
  "eu": 8735,
  "any": 8736,
  "bot": 8737,
  "lan": 8738,
  "zes": 8739,
  "\u2581mk": 8740,
  "ason": 8741,
  "five": 8742,
  "ials": 8743,
  "irst": 8744,
  "mill": 8745,
  "olen": 8746,
  "your": 8747,
  "\u2581dun": 8748,
  "\u2581lam": 8749,
  "asses": 8750,
  "eller": 8751,
  "ifies": 8752,
  "\u2581athe": 8753,
  "\u2581cass": 8754,
  "\u2581dose": 8755,
  "\u2581hong": 8756,
  "\u2581outs": 8757,
  "\u2581sale": 8758,
  "cyclop": 8759,
  "lihood": 8760,
  "person": 8761,
  "\u2581jewel": 8762,
  "\u2581kevin": 8763,
  "\u2581limbs": 8764,
  "\u2581lobby": 8765,
  "\u2581messy": 8766,
  "\u2581steam": 8767,
  "\u2581sweat": 8768,
  "\u2581tiles": 8769,
  "\u2581behalf": 8770,
  "\u2581corrid": 8771,
  "\u2581cousin": 8772,
  "\u2581curves": 8773,
  "\u2581orphan": 8774,
  "\u2581pencil": 8775,
  "\u2581sheets": 8776,
  "\u2581slower": 8777,
  "\u2581topics": 8778,
  "\u2581worthy": 8779,
  "\u2581broader": 8780,
  "\u2581captain": 8781,
  "\u2581chronic": 8782,
  "\u2581colored": 8783,
  "\u2581consens": 8784,
  "\u2581cricket": 8785,
  "\u2581doubled": 8786,
  "\u2581enjoyed": 8787,
  "\u2581harmony": 8788,
  "\u2581injured": 8789,
  "\u2581mankind": 8790,
  "\u2581utterly": 8791,
  "\u2581assembly": 8792,
  "\u2581catholic": 8793,
  "\u2581consumed": 8794,
  "\u2581disabled": 8795,
  "\u2581disagree": 8796,
  "\u2581encyclop": 8797,
  "\u2581enjoying": 8798,
  "\u2581evolving": 8799,
  "\u2581findings": 8800,
  "\u2581leonardo": 8801,
  "\u2581priority": 8802,
  "\u2581prospect": 8803,
  "\u2581simplest": 8804,
  "\u2581touching": 8805,
  "\u2581websites": 8806,
  "\u2581abandoned": 8807,
  "\u2581candidate": 8808,
  "\u2581competing": 8809,
  "\u2581delicious": 8810,
  "\u2581electrons": 8811,
  "\u2581fisheries": 8812,
  "\u2581machinery": 8813,
  "\u2581protocell": 8814,
  "\u2581reporting": 8815,
  "\u2581shoulders": 8816,
  "\u2581automobile": 8817,
  "\u2581compromise": 8818,
  "\u2581legitimate": 8819,
  "\u2581corporation": 8820,
  "\u2581accomplished": 8821,
  "\u2581calculations": 8822,
  "\u2581observations": 8823,
  "\u2581philanthropy": 8824,
  "ado": 8825,
  "ava": 8826,
  "mes": 8827,
  "yon": 8828,
  "\u2581jh": 8829,
  "\u2581ms": 8830,
  "bian": 8831,
  "ette": 8832,
  "mind": 8833,
  "qual": 8834,
  "racy": 8835,
  "they": 8836,
  "\u2581193": 8837,
  "\u2581bor": 8838,
  "\u2581jup": 8839,
  "cover": 8840,
  "creat": 8841,
  "ctive": 8842,
  "ucose": 8843,
  "\u25811900": 8844,
  "\u2581atom": 8845,
  "\u2581belt": 8846,
  "\u2581biol": 8847,
  "\u2581buck": 8848,
  "\u2581cape": 8849,
  "\u2581deaf": 8850,
  "\u2581pitt": 8851,
  "\u2581scal": 8852,
  "\u2581seal": 8853,
  "\u2581shoe": 8854,
  "\u2581tact": 8855,
  "\u2581verb": 8856,
  "uction": 8857,
  "ulsion": 8858,
  "\u2581alarm": 8859,
  "\u2581alter": 8860,
  "\u2581ambig": 8861,
  "\u2581artic": 8862,
  "\u2581blown": 8863,
  "\u2581boots": 8864,
  "\u2581cream": 8865,
  "\u2581dread": 8866,
  "\u2581fired": 8867,
  "\u2581float": 8868,
  "\u2581illum": 8869,
  "\u2581meals": 8870,
  "\u2581memes": 8871,
  "\u2581obese": 8872,
  "\u2581regul": 8873,
  "\u2581sizes": 8874,
  "ictions": 8875,
  "\u2581elabor": 8876,
  "\u2581exotic": 8877,
  "\u2581horror": 8878,
  "\u2581pigeon": 8879,
  "\u2581retail": 8880,
  "\u2581singap": 8881,
  "\u2581stolen": 8882,
  "\u2581thirty": 8883,
  "\u2581unfold": 8884,
  "\u2581viewer": 8885,
  "\u2581wishes": 8886,
  "\u2581cancers": 8887,
  "\u2581congest": 8888,
  "\u2581deepest": 8889,
  "\u2581genomes": 8890,
  "\u2581glucose": 8891,
  "\u2581insulin": 8892,
  "\u2581jupiter": 8893,
  "\u2581origins": 8894,
  "\u2581switzer": 8895,
  "\u2581toilets": 8896,
  "\u2581wrapped": 8897,
  "\u2581division": 8898,
  "\u2581expanded": 8899,
  "\u2581nitrogen": 8900,
  "\u2581opinions": 8901,
  "\u2581prisoner": 8902,
  "\u2581protocol": 8903,
  "\u2581reserves": 8904,
  "\u2581switched": 8905,
  "\u2581transact": 8906,
  "\u2581alongside": 8907,
  "\u2581attitudes": 8908,
  "\u2581consensus": 8909,
  "\u2581dominated": 8910,
  "\u2581expressed": 8911,
  "\u2581hierarchy": 8912,
  "\u2581realities": 8913,
  "\u2581secretary": 8914,
  "\u2581textbooks": 8915,
  "\u2581therapies": 8916,
  "\u2581visualize": 8917,
  "\u2581destroying": 8918,
  "\u2581engineered": 8919,
  "\u2581enterprise": 8920,
  "\u2581likelihood": 8921,
  "\u2581narratives": 8922,
  "\u2581discussions": 8923,
  "\u2581frightening": 8924,
  "\u2581switzerland": 8925,
  "\u2581introduction": 8926,
  "\u2581controversial": 8927,
  "\"?": 8928,
  "cs": 8929,
  "jo": 8930,
  "ima": 8931,
  "lif": 8932,
  "nut": 8933,
  "oen": 8934,
  "\u2581ig": 8935,
  "\u2581ly": 8936,
  "aeda": 8937,
  "plus": 8938,
  "\u2581190": 8939,
  "\u2581gee": 8940,
  "\u2581haz": 8941,
  "\u2581pms": 8942,
  "\u2581ron": 8943,
  "anges": 8944,
  "peare": 8945,
  "ynman": 8946,
  "\u2581...\"": 8947,
  "\u2581bulb": 8948,
  "\u2581crap": 8949,
  "\u2581glue": 8950,
  "\u2581jugg": 8951,
  "\u2581nike": 8952,
  "\u2581sake": 8953,
  "\u2581scra": 8954,
  "\u2581ties": 8955,
  "\u2581turk": 8956,
  "\u2581unle": 8957,
  "elines": 8958,
  "liness": 8959,
  "thirds": 8960,
  "verted": 8961,
  "\u25812005,": 8962,
  "\u2581bonds": 8963,
  "\u2581chase": 8964,
  "\u2581delay": 8965,
  "\u2581detro": 8966,
  "\u2581embod": 8967,
  "\u2581lanes": 8968,
  "\u2581lists": 8969,
  "\u2581loads": 8970,
  "\u2581plank": 8971,
  "\u2581pulls": 8972,
  "\u2581remix": 8973,
  "\u2581shops": 8974,
  "\u2581somal": 8975,
  "\u2581suspe": 8976,
  "\u2581yemen": 8977,
  "ressing": 8978,
  "\u2581denial": 8979,
  "\u2581gandhi": 8980,
  "\u2581guards": 8981,
  "\u2581hunter": 8982,
  "\u2581iconic": 8983,
  "\u2581lifted": 8984,
  "\u2581marker": 8985,
  "\u2581modest": 8986,
  "\u2581prosth": 8987,
  "\u2581sooner": 8988,
  "\u2581tables": 8989,
  "ventions": 8990,
  "\u2581biomass": 8991,
  "\u2581climbed": 8992,
  "\u2581clinton": 8993,
  "\u2581corners": 8994,
  "\u2581default": 8995,
  "\u2581farther": 8996,
  "\u2581feynman": 8997,
  "\u2581kidding": 8998,
  "\u2581optical": 8999,
  "\u2581passage": 9000,
  "\u2581penguin": 9001,
  "\u2581returns": 9002,
  "\u2581simpler": 9003,
  "\u2581teaches": 9004,
  "\u2581activate": 9005,
  "\u2581athletes": 9006,
  "\u2581helpless": 9007,
  "\u2581hopeless": 9008,
  "\u2581publicly": 9009,
  "\u2581redesign": 9010,
  "\u2581saturday": 9011,
  "\u2581sexually": 9012,
  "\u2581underest": 9013,
  "\u2581authentic": 9014,
  "\u2581geography": 9015,
  "\u2581migration": 9016,
  "\u2581recession": 9017,
  "\u2581singapore": 9018,
  "\u2581survivors": 9019,
  "\u2581tolerance": 9020,
  "\u2581accelerate": 9021,
  "\u2581calculated": 9022,
  "\u2581discussing": 9023,
  "\u2581journalism": 9024,
  "\u2581microphone": 9025,
  "\u2581phenomenal": 9026,
  "\u2581regulation": 9027,
  "\u2581smartphone": 9028,
  "\u2581astronomers": 9029,
  "\u2581neuroscient": 9030,
  "\u2581theoretical": 9031,
  "\u2581embarrassing": 9032,
  "\u2581overwhelming": 9033,
  "\u2581interventions": 9034,
  "\u2581visualization": 9035,
  "\u2581discrimination": 9036,
  "cre": 9037,
  "deg": 9038,
  "kin": 9039,
  "mma": 9040,
  "\u258129": 9041,
  "\u2581kh": 9042,
  "\u2581ot": 9043,
  "alem": 9044,
  "erey": 9045,
  "fare": 9046,
  "iots": 9047,
  "pack": 9048,
  "rane": 9049,
  "seen": 9050,
  "\u258112,": 9051,
  "\u2581apr": 9052,
  "\u2581vot": 9053,
  "ansas": 9054,
  "atson": 9055,
  "berry": 9056,
  "ffect": 9057,
  "itate": 9058,
  "oenix": 9059,
  "proof": 9060,
  "quate": 9061,
  "thank": 9062,
  "\u2581cuts": 9063,
  "\u2581ende": 9064,
  "\u2581hint": 9065,
  "\u2581lawn": 9066,
  "\u2581lego": 9067,
  "\u2581mant": 9068,
  "\u2581mast": 9069,
  "\u2581matt": 9070,
  "\u2581nano": 9071,
  "\u2581wore": 9072,
  "\u2581alpha": 9073,
  "\u2581belly": 9074,
  "\u2581careg": 9075,
  "\u2581cheat": 9076,
  "\u2581choir": 9077,
  "\u2581gains": 9078,
  "\u2581hills": 9079,
  "\u2581infer": 9080,
  "\u2581inhib": 9081,
  "\u2581maneu": 9082,
  "\u2581mimic": 9083,
  "\u2581naive": 9084,
  "\u2581norms": 9085,
  "\u2581panic": 9086,
  "\u2581revel": 9087,
  "\u2581scaff": 9088,
  "\u2581sends": 9089,
  "\u2581surre": 9090,
  "\u2581tiger": 9091,
  "essions": 9092,
  "imeters": 9093,
  "keepers": 9094,
  "theless": 9095,
  "\u2581comics": 9096,
  "\u2581dispar": 9097,
  "\u2581divers": 9098,
  "\u2581gravit": 9099,
  "\u2581hurric": 9100,
  "\u2581kidney": 9101,
  "\u2581masses": 9102,
  "\u2581preach": 9103,
  "\u2581replic": 9104,
  "\u2581sovere": 9105,
  "\u2581temple": 9106,
  "\u2581typing": 9107,
  "\u2581watson": 9108,
  "\u2581wooden": 9109,
[...]
