{
  "<unk>": 0,
  "<pad>": 0,
  "<s>": 0,
  "</s>": 0,
  "\u6211\u4eec": 0,
  "\u2581\u8fd9": 1,
  "\u4e00\u4e2a": 2,
  "\u2581\u6211": 3,
  "\u2581\u6211\u4eec": 4,
  "\u4ed6\u4eec": 5,
  "\u53ef\u4ee5": 6,
  "\u2581\u4f46": 7,
  "\u2581\u5728": 8,
  "\u8fd9\u4e2a": 9,
  "\u2581\u4f60": 10,
  "\u5c31\u662f": 11,
  "\u4ec0\u4e48": 12,
  "\u56e0\u4e3a": 13,
  "\u8fd9\u4e9b": 14,
  "\u2581\u800c": 15,
  "\u5982\u679c": 16,
  "\u2581\u6240": 17,
  "\u6ca1\u6709": 18,
  "\u2581\u4ed6\u4eec": 19,
  "\u73b0\u5728": 20,
  "\u2581\u5b83": 21,
  "\u2581\u90a3": 22,
  "\u77e5\u9053": 23,
  "\u95ee\u9898": 24,
  "\u2581\u6240\u4ee5": 25,
  "\u7684\u4eba": 26,
  "\u4e0d\u662f": 27,
  "\u2581\u8fd9\u662f": 28,
  "\u2581\u56e0\u4e3a": 29,
  "\u4e16\u754c": 30,
  "\u81ea\u5df1": 31,
  "\u2581\u5f53": 32,
  "\u2581\u4f46\u662f": 33,
  "\u975e\u5e38": 34,
  "\u5f00\u59cb": 35,
  "\u8fd9\u6837": 36,
  "\u4e00\u4e9b": 37,
  "\u2581\u4ed6": 38,
  "\u7684\u65f6": 39,
  "\u2581\u662f": 40,
  "\u9700\u8981": 41,
  "\u2581\u5982\u679c": 42,
  "\u6211\u7684": 43,
  "\u770b\u5230": 44,
  "\u53ef\u80fd": 45,
  "\u7136\u540e": 46,
  "00": 47,
  "\u7684\u662f": 48,
  "\u2581\u6709": 49,
  "\u4f60\u4eec": 50,
  "--": 51,
  "\u2581\u4e0d": 52,
  "\u4e00\u79cd": 53,
  "\u5df2\u7ecf": 54,
  "\u5f88\u591a": 55,
  "\u5de5\u4f5c": 56,
  "\u6211\u4eec\u7684": 57,
  "\u4eba\u4eec": 58,
  "\u4e1c\u897f": 59,
  "\u2581\u7136\u540e": 60,
  "\u2581\u5e76": 61,
  "\u7684\u65f6\u5019": 62,
  "\u7684\u4e8b": 63,
  "\u2581\u201c": 64,
  "\u5b83\u4eec": 65,
  "\u8ba4\u4e3a": 66,
  "\u2014\u2014": 67,
  "\u2581\u4e5f": 68,
  "\u2581\u5c31": 69,
  "\u53d1\u73b0": 70,
  "\u6240\u6709": 71,
  "\u2581\u8fd9\u4e9b": 72,
  "\u90a3\u4e9b": 73,
  "\u2581\u73b0\u5728": 74,
  "\u6216\u8005": 75,
  "\u7814\u7a76": 76,
  "\u53d1\u751f": 77,
  "\u2581\u8fd9\u4e2a": 78,
  "\u5927\u7684": 79,
  "\u56fd\u5bb6": 80,
  "\u4e00\u6837": 81,
  "\u5b69\u5b50": 82,
  "\u5230\u4e86": 83,
  "\u4e0d\u540c": 84,
  "\u5982\u4f55": 85,
  "\u3002\u201d": 86,
  "\u5176\u4ed6": 87,
  "\u751f\u6d3b": 88,
  "\u8fd8\u6709": 89,
  "\u91cd\u8981": 90,
  "\u7684\u4e00": 91,
  "\u2581\u548c": 92,
  "\u5927\u5bb6": 93,
  "\u5730\u65b9": 94,
  "\u2581\u4e00": 95,
  "\u4f60\u7684": 96,
  "\u8d77\u6765": 97,
  "\u7f8e\u56fd": 98,
  "\u901a\u8fc7": 99,
  "\u8fd9\u662f": 100,
  "\u2581\u5bf9": 101,
  "\u8fd9\u79cd": 102,
  "\u597d\u7684": 103,
  "\u90fd\u662f": 104,
  "\u544a\u8bc9": 105,
  "\u2581\u4ee5": 106,
  "\u6539\u53d8": 107,
  "\u2581\u5979": 108,
  "..": 109,
  "\u90e8\u5206": 110,
  "\u8bbe\u8ba1": 111,
  "\u80fd\u591f": 112,
  "\u65b9\u5f0f": 113,
  "\u2581\u4ece": 114,
  "\u4efb\u4f55": 115,
  "\u4eba\u7684": 116,
  "\u4e3a\u4ec0\u4e48": 117,
  "\u4f7f\u7528": 118,
  "\u2581\u6765": 119,
  "\u4e2d\u7684": 120,
  "\u2581\u8ba9": 121,
  "\u5173\u4e8e": 122,
  "\u4eba\u7c7b": 123,
  "\u53ea\u662f": 124,
  "\u8fd9\u91cc": 125,
  "\u7cfb\u7edf": 126,
  "\u6545\u4e8b": 127,
  "\u2581\u800c\u4e14": 128,
  "\u4e8b\u5b9e": 129,
  "\u2581\u4e00\u4e2a": 130,
  "\u4e0d\u4f1a": 131,
  "\u600e\u4e48": 132,
  "\u65f6\u95f4": 133,
  "\u2581\u6700": 134,
  "\u8fdb\u884c": 135,
  "\u4e00\u4e0b": 136,
  "\u5e94\u8be5": 137,
  "\u6280\u672f": 138,
  "\u6570\u636e": 139,
  "\u56e0\u6b64": 140,
  "\u4e00\u8d77": 141,
  "\u5e0c\u671b": 142,
  "\u793e\u4f1a": 143,
  "\u89c9\u5f97": 144,
  "\u662f\u4e00\u4e2a": 145,
  "\u79d1\u5b66": 146,
  "\u5fc5\u987b": 147,
  "\u6765\u7684": 148,
  "\u4e0a\u7684": 149,
  "\u6765\u8bf4": 150,
  "\u2581\u5b83\u4eec": 151,
  "\u5b9e\u9645": 152,
  "\u4ed6\u4eec\u7684": 153,
  "\u6210\u4e3a": 154,
  "\u8fd9\u6837\u7684": 155,
  "\u6b63\u5728": 156,
  "\u4e0d\u80fd": 157,
  "\u8fd9\u4e00": 158,
  "\u81ea\u5df1\u7684": 159,
  "\u4e2a\u4eba": 160,
  "\u4fe1\u606f": 161,
  "\u8fd8\u662f": 162,
  "\u4e00\u6b21": 163,
  "\u7684\u4e8b\u60c5": 164,
  "\u5230\u7684": 165,
  "\u2581\u6211\u60f3": 166,
  "\u2581\u56e0\u6b64": 167,
  "\u751f\u7269": 168,
  "\u65b9\u6cd5": 169,
  "\u6837\u7684": 170,
  "\u521b\u9020": 171,
  "\u2581\u5e76\u4e14": 172,
  "\u771f\u7684": 173,
  "\u7684\u4e1c\u897f": 174,
  "\u2581\u6bd4": 175,
  "\u4eca\u5929": 176,
  "\u2581\u5982\u679c\u4f60": 177,
  "\u6211\u60f3": 178,
  "\u559c\u6b22": 179,
  "\u2581\u6216\u8005": 180,
  "\u516c\u53f8": 181,
  "\u2581\u6bcf": 182,
  "\u53d1\u5c55": 183,
  "\u5b8c\u5168": 184,
  "\u5b58\u5728": 185,
  "\u505a\u7684": 186,
  "\u2581\u90a3\u4e48": 187,
  "\u65b0\u7684": 188,
  "20": 189,
  "\u8c22\u8c22": 190,
  "\u751a\u81f3": 191,
  "\u540c\u65f6": 192,
  "\u4e86\u4e00\u4e2a": 193,
  "\u2581\u5c31\u662f": 194,
  "\u751f\u547d": 195,
  "\u4e86\u4e00": 196,
  "\u8fd9\u4e48": 197,
  "\u90a3\u4e2a": 198,
  "\u66f4\u591a": 199,
  "\u5927\u8111": 200,
  "\u4e4b\u540e": 201,
  "\u2581\u5176": 202,
  "\u5f71\u54cd": 203,
  "\u4e8b\u5b9e\u4e0a": 204,
  "\u2581\u8fd9\u5c31\u662f": 205,
  "\u89e3\u51b3": 206,
  "\u4f5c\u4e3a": 207,
  "\u4ed6\u7684": 208,
  "\u7ecf\u6d4e": 209,
  "\u2581\u6211\u7684": 210,
  "\u5e2e\u52a9": 211,
  "\u5b9e\u9645\u4e0a": 212,
  "\u771f\u6b63": 213,
  "\u2581\u7b2c": 214,
  "\u4e86\u89e3": 215,
  "\u7684\u95ee\u9898": 216,
  "\u51b3\u5b9a": 217,
  "\u60c5\u51b5": 218,
  "\u2581\u90fd": 219,
  ",\u201c": 220,
  "\u57ce\u5e02": 221,
  "\u7684\u5730\u65b9": 222,
  "\u7ed3\u679c": 223,
  "\u673a\u5668": 224,
  "\u4e3a\u4e86": 225,
  "\u5b9e\u9a8c": 226,
  "\u6709\u4e00\u4e2a": 227,
  "\u4e5f\u662f": 228,
  "\u2581\u8fd8\u6709": 229,
  "\u7b80\u5355": 230,
  ":\u201c": 231,
  "\u2581\u5927": 232,
  "\u5982\u6b64": 233,
  "\u8fc7\u53bb": 234,
  "\u9009\u62e9": 235,
  "\u2581\u4f60\u4eec": 236,
  "\u5f97\u5230": 237,
  "\u8bb8\u591a": 238,
  "\u60f3\u6cd5": 239,
  "\u610f\u8bc6": 240,
  "\u770b\u770b": 241,
  "\u52a8\u7269": 242,
  "\u7ec4\u7ec7": 243,
  "\u662f\u5728": 244,
  "\u90a3\u91cc": 245,
  "\u4e0d\u540c\u7684": 246,
  "\u4e24\u4e2a": 247,
  "\u76f8\u4fe1": 248,
  "\u65f6\u5019": 249,
  "\u4e00\u76f4": 250,
  "19": 251,
  "\u4e8b\u60c5": 252,
  "\u4ec5\u4ec5": 253,
  "\u2581\u4ee5\u53ca": 254,
  "\u73af\u5883": 255,
  "\u8fc7\u7a0b": 256,
  "\u4e4b\u524d": 257,
  "\u6574\u4e2a": 258,
  "\u53ea\u6709": 259,
  "\u9879\u76ee": 260,
  "\u6027\u7684": 261,
  "\u4ea7\u751f": 262,
  "\u653f\u5e9c": 263,
  "\u7167\u7247": 264,
  "\u611f\u89c9": 265,
  "\u53d8\u5f97": 266,
  "\u5e74\u524d": 267,
  "\u7ec6\u80de": 268,
  "\u5c31\u4f1a": 269,
  "\u539f\u56e0": 270,
  "\u4e0d\u77e5\u9053": 271,
  "\u2581\u7684": 272,
  "\u62e5\u6709": 273,
  "\u60f3\u8c61": 274,
  "\u6765\u81ea": 275,
  "\u65b9\u9762": 276,
  "10": 277,
  "\u60f3\u8981": 278,
  "\u2581--": 279,
  "?\u201d": 280,
  "\u4e8e\u662f": 281,
  "\u5730\u7403": 282,
  "\u827a\u672f": 283,
  "\u5168\u7403": 284,
  "\u4e0b\u6765": 285,
  "\u4e4b\u95f4": 286,
  "\u7684\u8bdd": 287,
  "\u2581\u4f60\u53ef\u4ee5": 288,
  "\u51fa\u6765": 289,
  "\u81ea\u7136": 290,
  "\u4e4b\u4e00": 291,
  "\u2581\u6216": 292,
  "\u65e0\u6cd5": 293,
  "\u4e00\u70b9": 294,
  "\u670b\u53cb": 295,
  "\u7406\u89e3": 296,
  "\u4f8b\u5b50": 297,
  "er": 298,
  "\u7f51\u7edc": 299,
  "\u80fd\u529b": 300,
  "\u6211\u5728": 301,
  "\u627e\u5230": 302,
  "\u2581\u8c22\u8c22": 303,
  "\u53d8\u5316": 304,
  "\u5c55\u793a": 305,
  "\u6559\u80b2": 306,
  "\u63d0\u4f9b": 307,
  "\u90a3\u4e48": 308,
  "\u2581\u53ef\u4ee5": 309,
  "\u2581\u53bb": 310,
  "\u91cc\u7684": 311,
  "\u53d8\u6210": 312,
  "\u5b66\u4e60": 313,
  "\u8fd0\u52a8": 314,
  "\u5efa\u7b51": 315,
  "\u2581\u597d": 316,
  "\u5b83\u7684": 317,
  "\u2581\u6bd4\u5982": 318,
  "\u2581\u4e8e\u662f": 319,
  "\u662f\u4ec0\u4e48": 320,
  "\u2581\u7528": 321,
  "\u2581\u4eba\u4eec": 322,
  "\u2581\u5f53\u7136": 323,
  "200": 324,
  "\u884c\u4e3a": 325,
  "\u5bf9\u4e8e": 326,
  "\u5e76\u4e0d": 327,
  "\u975e\u6d32": 328,
  "\u662f\u4e2a": 329,
  "\u5b66\u751f": 330,
  "\u6210\u529f": 331,
  "an": 332,
  "\u5173\u7cfb": 333,
  "\u8ba1\u7b97": 334,
  "\u2581\u4e8b\u5b9e\u4e0a": 335,
  "\u2581\u628a": 336,
  "\u97f3\u4e50": 337,
  "\u57fa\u672c": 338,
  "\u6709\u4e00": 339,
  "\u2581\u6211\u4eec\u7684": 340,
  "\u5b66\u5bb6": 341,
  "\u610f\u601d": 342,
  "\u2581\u8981": 343,
  "\u57fa\u56e0": 344,
  "\u5982\u679c\u4f60": 345,
  "\u2581\u8fd9\u79cd": 346,
  "\u2581\u8fd9\u6837": 347,
  "\u7684\u65b9\u5f0f": 348,
  "\u601d\u8003": 349,
  "\u7535\u8111": 350,
  "\u7f8e\u5143": 351,
  "\u5b66\u6821": 352,
  "\u662f\u4e00": 353,
  "\u2581\u90a3\u4e9b": 354,
  "\u79d1\u6280": 355,
  "\u51fa\u73b0": 356,
  "\u58f0\u97f3": 357,
  "\u2581\u4f1a": 358,
  "\u7ecf\u5386": 359,
  "\u5b89\u5168": 360,
  "\u2581\u5c06": 361,
  "\u5386\u53f2": 362,
  "\u7a7a\u95f4": 363,
  "\u2581\u5c31\u50cf": 364,
  "\u8ba9\u6211": 365,
  "\u610f\u4e49": 366,
  "\u63a7\u5236": 367,
  "\u610f\u5473": 368,
  "\u8eab\u4f53": 369,
  "50": 370,
  "\u5973\u6027": 371,
  "\u5229\u7528": 372,
  "\u673a\u4f1a": 373,
  "\u6f14\u8bb2": 374,
  "\u2581\u6ca1\u6709": 375,
  "\u6709\u8da3": 376,
  "\u600e\u6837": 377,
  "\u7684\u4e00\u4e2a": 378,
  "\u4ef6\u4e8b": 379,
  "\u5c31\u50cf": 380,
  "\u53e6\u4e00\u4e2a": 381,
  "\u7684\u65f6\u95f4": 382,
  "\u672a\u6765": 383,
  "\u4ee5\u53ca": 384,
  "\u5efa\u7acb": 385,
  "\u5370\u5ea6": 386,
  "\u5404\u79cd": 387,
  "\u2581\u5f88": 388,
  "\u2581\u4e0e": 389,
  "\u4e16\u7eaa": 390,
  "\u4ee4\u4eba": 391,
  "\u7279\u522b": 392,
  "\u610f\u5473\u7740": 393,
  "\u6211\u4eec\u53ef\u4ee5": 394,
  "\u590d\u6742": 395,
  "\u6240\u6709\u7684": 396,
  "\u5065\u5eb7": 397,
  "\u5176\u5b9e": 398,
  "\u5b8c\u6210": 399,
  "\u6700\u540e": 400,
  "\u5176\u4e2d": 401,
  "\u662f\u5426": 402,
  "\u5728\u4e00\u8d77": 403,
  "\u2581(": 404,
  "\u5236\u9020": 405,
  "\u8ba9\u6211\u4eec": 406,
  "\u2581\u8fd9\u91cc": 407,
  "\u786e\u5b9e": 408,
  "\u5c1d\u8bd5": 409,
  "\u2581\u266b": 410,
  "\u4fdd\u62a4": 411,
  "\u5b87\u5b99": 412,
  "\u6e38\u620f": 413,
  "\u2581\u6211\u4eec\u53ef\u4ee5": 414,
  "\u611f\u5230": 415,
  "\u591a\u5c11": 416,
  "\u505a\u4e86": 417,
  "\u2581\u6240\u6709": 418,
  "\u4e3b\u4e49": 419,
  "\u6587\u5316": 420,
  "\u6709\u4e9b": 421,
  "\u8bf4\u7684": 422,
  "\u533b\u751f": 423,
  "\u5f53\u65f6": 424,
  "\u2581\u6211\u8ba4\u4e3a": 425,
  "\u91cd\u8981\u7684": 426,
  "\u628a\u5b83": 427,
  "\u5408\u4f5c": 428,
  "\u795e\u7ecf": 429,
  "\u53c2\u4e0e": 430,
  "\u5e74\u7684": 431,
  "\u2581\u6b63": 432,
  "\u6d3b\u52a8": 433,
  "\u8bed\u8a00": 434,
  "\u8fdb\u5165": 435,
  "\u610f\u8bc6\u5230": 436,
  "\u6211\u4eec\u5728": 437,
  "\u2581\u6240\u4ee5\u6211": 438,
  "\u5730\u533a": 439,
  "\u591a\u6570": 440,
  "\u51e0\u4e2a": 441,
  "\u98df\u7269": 442,
  "\u2581\u5373": 443,
  "\u76ee\u6807": 444,
  "\u83b7\u5f97": 445,
  "\u8ba1\u5212": 446,
  "\u7ee7\u7eed": 447,
  "\u4e2d\u56fd": 448,
  "\u6ce8\u610f": 449,
  "\u4f60\u53ef\u4ee5": 450,
  "\u4e5f\u8bb8": 451,
  "\u4e2d\u5fc3": 452,
  "\u2581\u4e3a\u4ec0\u4e48": 453,
  "\u53e6\u4e00": 454,
  "\u5c0f\u65f6": 455,
  "\u653f\u6cbb": 456,
  "\u2581\u901a\u8fc7": 457,
  "ar": 458,
  "\u5c06\u4f1a": 459,
  "\u7b2c\u4e00": 460,
  "\u53e6\u5916": 461,
  "\u6240\u4ee5": 462,
  "\u6a21\u5f0f": 463,
  "\u2581\u4e0d\u8fc7": 464,
  "\u4e16\u754c\u4e0a": 465,
  "\u63a5\u53d7": 466,
  "\u624d\u80fd": 467,
  "\u5e02\u573a": 468,
  "\u5927\u5b66": 469,
  "\u8054\u7cfb": 470,
  "\u66f4\u52a0": 471,
  "\u2581\u53ea": 472,
  "\u6709\u4eba": 473,
  "\u770b\u8d77\u6765": 474,
  "\u2581\u8fd9\u662f\u4e00\u4e2a": 475,
  "\u4f5c\u7528": 476,
  "\u6cbb\u7597": 477,
  "\u89e3\u91ca": 478,
  "\u75be\u75c5": 479,
  "\u53eb\u505a": 480,
  "\u2581\u800c\u662f": 481,
  "in": 482,
  "\u2581\u5230": 483,
  "\u7136\u800c": 484,
  "\u5c0f\u7684": 485,
  "\u5bb6\u5ead": 486,
  "\u2581\u6211\u5728": 487,
  "\u52aa\u529b": 488,
  "\u5de5\u5177": 489,
  "\u4ef7\u503c": 490,
  "\u51e0\u4e4e": 491,
  "\u2581\u4f46\u6211": 492,
  "\u5e74\u8f7b": 493,
  "\u91cd\u65b0": 494,
  "\u91cf\u7684": 495,
  "\u2581\u540c\u65f6": 496,
  "000": 497,
  "ED": 498,
  "\u4e09\u4e2a": 499,
  "\u9996\u5148": 500,
  "\u9886\u57df": 501,
  "\u5b9e\u73b0": 502,
  "\u7535\u5f71": 503,
  "\u2581\u5982\u679c\u6211\u4eec": 504,
  "\u751f\u4ea7": 505,
  "\u673a\u5668\u4eba": 506,
  "\u662f\u6211\u4eec": 507,
  "\u56de\u5230": 508,
  "\u2581\u7136\u800c": 509,
  "on": 510,
  "\u51fa\u4e86": 511,
  "\u5341\u5206": 512,
  "\u6b7b\u4ea1": 513,
  "\u2581\u6240\u4ee5\u6211\u4eec": 514,
  "\u2581\u975e\u5e38": 515,
  "\u6211\u8981": 516,
  "\u2581\u63a5": 517,
  "\u770b\u5230\u7684": 518,
  "\u201d\u3002": 519,
  "\u5e74\u4ee3": 520,
  "\u540c\u6837": 521,
  "\u5e76\u4e0d\u662f": 522,
  "\u91cc\u9762": 523,
  "\u5173\u6ce8": 524,
  "\u53cd\u5e94": 525,
  "\u793e\u533a": 526,
  "\u6570\u5b57": 527,
  "\u7b54\u6848": 528,
  "\u5305\u62ec": 529,
  "\u8ba8\u8bba": 530,
  "\u5c31\u53ef\u4ee5": 531,
  "\u66fe\u7ecf": 532,
  "\u89c2\u5bdf": 533,
  "\u2581\u518d": 534,
  "\u4f5c\u54c1": 535,
  "\u5c31\u80fd": 536,
  "30": 537,
  "\u5904\u7406": 538,
  "\u2581\u88ab": 539,
  "\u4ea7\u54c1": 540,
  "\u2581\u5bf9\u4e8e": 541,
  "\u90fd\u6709": 542,
  "\u90fd\u4f1a": 543,
  "\u592a\u9633": 544,
  "TED": 545,
  "\u6301\u7eed": 546,
  "\u5b69\u5b50\u4eec": 547,
  "\u2581\u66f4": 548,
  "\u66f4\u591a\u7684": 549,
  "\u611f\u8c22": 550,
  "\u5206\u4eab": 551,
  "\u2581\u4f60\u4f1a": 552,
  "\u73b0\u5b9e": 553,
  "\u4e00\u5b9a": 554,
  "\u8fc7\u7684": 555,
  "\u5979\u7684": 556,
  "\u2581\u8fd8": 557,
  "\u5206\u949f": 558,
  "\u6311\u6218": 559,
  "\u76f8\u5f53": 560,
  "\u81ea\u7531": 561,
  "\u2581\u4e5f\u8bb8": 562,
  "\u533a\u57df": 563,
  "\u2581\u6700\u540e": 564,
  "\u5bb9\u6613": 565,
  "\u767e\u4e07": 566,
  "\u662f\u6211": 567,
  "\u6709\u70b9": 568,
  "\u2581\u5f53\u6211": 569,
  "\u2581\u5b9e\u9645\u4e0a": 570,
  "\u7ed3\u6784": 571,
  "\u51c6\u5907": 572,
  "\u4e0d\u53ef": 573,
  "\u6709\u4e86": 574,
  "\u6c7d\u8f66": 575,
  "\u51fa\u7684": 576,
  "\u8ba4\u8bc6": 577,
  "\u2581\u65e0": 578,
  "\u2581\u80fd": 579,
  "\u6210\u7684": 580,
  "\u2581\u4e3a": 581,
  "\u8d85\u8fc7": 582,
  "\u2581\u751a\u81f3": 583,
  "\u670d\u52a1": 584,
  "\u5728\u8fd9": 585,
  "\u5236\u4f5c": 586,
  "\u67d0\u79cd": 587,
  "\u8d44\u6e90": 588,
  "\u5728\u8fd9\u91cc": 589,
  "\u89c2\u4f17": 590,
  "....": 591,
  "\u2581\u50cf": 592,
  "\u884c\u52a8": 593,
  "\u663e\u793a": 594,
  "\u529b\u91cf": 595,
  "\u8272\u7684": 596,
  "\u4e3b\u8981": 597,
  "15": 598,
  "\u89c6\u9891": 599,
  "\u4ee3\u8868": 600,
  "\u5174\u8da3": 601,
  "\u2581\u53ef": 602,
  "\u7684\u6545\u4e8b": 603,
  "\u6218\u4e89": 604,
  "\u2581\u5f53\u4f60": 605,
  "\u6a21\u578b": 606,
  "\u2581\u8ba9\u6211\u4eec": 607,
  "\u6839\u672c": 608,
  "\u7684\u5927": 609,
  "\u5e26\u6765": 610,
  "\u603b\u662f": 611,
  "\u7a0b\u5ea6": 612,
  "\u552f\u4e00": 613,
  "\u6211\u8bf4": 614,
  "\u76f4\u5230": 615,
  "\u5de8\u5927\u7684": 616,
  "\u5206\u5b50": 617,
  "\u652f\u6301": 618,
  "\u53d1\u751f\u4e86": 619,
  "\u53bb\u4e86": 620,
  "\u589e\u957f": 621,
  "\u660e\u767d": 622,
  "\u90a3\u6837": 623,
  "\u7684\u65b9\u6cd5": 624,
  "\u8fd9\u4e2a\u95ee\u9898": 625,
  "\u53ef\u80fd\u4f1a": 626,
  "\u5f53\u7136": 627,
  "\u8d8a\u6765": 628,
  "\u7c7b\u4f3c": 629,
  "\u5bfb\u627e": 630,
  "\u7406\u8bba": 631,
  "\u2581\u770b": 632,
  "\u4e0d\u5230": 633,
  "\u7cbe\u795e": 634,
  "\u8d8a\u6765\u8d8a": 635,
  "\u6bd4\u8f83": 636,
  "\u771f\u5b9e": 637,
  "\u2581\u4e5f\u5c31\u662f": 638,
  "\u75c5\u6bd2": 639,
  "\u6d77\u6d0b": 640,
  "\u8003\u8651": 641,
  "\u53d1\u660e": 642,
  "\u57fa\u7840": 643,
  "\u77e5\u8bc6": 644,
  "\u7b2c\u4e8c": 645,
  "\u79d1\u5b66\u5bb6": 646,
  "\u90fd\u5728": 647,
  "\u76ee\u524d": 648,
  "\u6210\u4e86": 649,
  "\u89c2\u70b9": 650,
  "\u591a\u7684": 651,
  "\u2581\u6211\u4eec\u5728": 652,
  "\u529b\u7684": 653,
  "\u5316\u7684": 654,
  "\u867d\u7136": 655,
  "\u5de5\u7a0b": 656,
  "\u662f\u56e0\u4e3a": 657,
  "\u529e\u6cd5": 658,
  "\u5973\u5b69": 659,
  "\u901a\u5e38": 660,
  "\u7535\u8bdd": 661,
  "\u4e0a\u9762": 662,
  "\u4e0d\u65ad": 663,
  "\u6bcf\u4e2a": 664,
  "\u673a\u6784": 665,
  "\u2581\u4f7f": 666,
  "\u7ebd\u7ea6": 667,
  "\u7684\u4eba\u4eec": 668,
  "\u7684\u5c0f": 669,
  "\u4e00\u4e2a\u4eba": 670,
  "\u7684\u5de5\u4f5c": 671,
  "\u5c3d\u7ba1": 672,
  "\u2581\u5173\u4e8e": 673,
  "\u2581C": 674,
  "\u4ee5\u524d": 675,
  "\u7ed3\u675f": 676,
  "\u4f46\u662f": 677,
  "\u542c\u5230": 678,
  "\u540c\u6837\u7684": 679,
  "\u5979\u4eec": 680,
  "\u6295\u8d44": 681,
  "\u2581\u5176\u5b9e": 682,
  "\u2581\u6211\u4eec\u9700\u8981": 683,
  "\u6709\u5173": 684,
  "\u5f88\u591a\u4eba": 685,
  "\u75c5\u4eba": 686,
  "\u5728\u4e00\u4e2a": 687,
  "\u6bcf\u4e2a\u4eba": 688,
  "\u4f20\u7edf": 689,
  "\u6982\u5ff5": 690,
  "\u8eab\u4e0a": 691,
  "\u2581S": 692,
  "\u505a\u51fa": 693,
  "\u54ea\u91cc": 694,
  "\u6bcd\u4eb2": 695,
  "\u81ea\u6211": 696,
  "\u8ba1\u7b97\u673a": 697,
  "\u201d,": 698,
  "\u6750\u6599": 699,
  "\u79bb\u5f00": 700,
  "\u8bb0\u5f55": 701,
  "en": 702,
  "\u4e00\u5207": 703,
  "\u2581\u5982": 704,
  "\u6e05\u695a": 705,
  "\u6700\u7ec8": 706,
  "\u80fd\u6e90": 707,
  "\u5e76\u4e14": 708,
  "\u6709\u7684": 709,
  "\u2581\u8bf4": 710,
  "\u7b2c\u4e00\u4e2a": 711,
  "\u2581\u90a3\u5c31\u662f": 712,
  "\u6d4b\u8bd5": 713,
  "\u505a\u5230": 714,
  "\u7b2c\u4e00\u6b21": 715,
  "\u4e00\u4f4d": 716,
  "\u5927\u6982": 717,
  "\u613f\u610f": 718,
  "\u767e\u5206": 719,
  "\u2581\u5176\u4e2d": 720,
  "NA": 721,
  "\u624b\u673a": 722,
  "\u7528\u7684": 723,
  "\u5a92\u4f53": 724,
  "\u82f1\u56fd": 725,
  "\u89d2\u5ea6": 726,
  "\u4ec5\u4ec5\u662f": 727,
  "\u2581\u7ed9": 728,
  "100": 729,
  "\u2581B": 730,
  "\u533b\u7597": 731,
  "\u8bb0\u5f97": 732,
  "\u5b9e\u9a8c\u5ba4": 733,
  "\u901f\u5ea6": 734,
  "\u2581\u4e0d\u662f": 735,
  "\u2581\u4f5c\u4e3a": 736,
  "\u4e5f\u4e0d": 737,
  "\u5c31\u5728": 738,
  "\u7269\u8d28": 739,
  "\u53d7\u5230": 740,
  "\u2581\u5f53\u6211\u4eec": 741,
  "\u5f97\u4e0d": 742,
  "\u4ecd\u7136": 743,
  "\u522b\u4eba": 744,
  "\u5173\u952e": 745,
  "\u9886\u5bfc": 746,
  "\u4e16\u754c\u7684": 747,
  "\u5145\u6ee1": 748,
  "\u79fb\u52a8": 749,
  "\u9519\u8bef": 750,
  "\u2581\u4eca\u5929": 751,
  "\u2581\u4ed6\u8bf4": 752,
  "\u8c08\u8bba": 753,
  "\u5b9a\u7684": 754,
  "\u5f53\u4f60": 755,
  "\u7b49\u7b49": 756,
  "\u540d\u5b57": 757,
  "\u6709\u4e2a": 758,
  "\u98de\u884c": 759,
  "\u2581\u5927\u5bb6": 760,
  "\u56de\u7b54": 761,
  "\u8fd9\u5c31\u662f": 762,
  "\u4f60\u4f1a": 763,
  "\u2581\u4e3a\u4e86": 764,
  "\u8bd5\u56fe": 765,
  "\u2581\u7531": 766,
  "\u4e00\u5929": 767,
  "\u56fe\u7247": 768,
  "\u5927\u7ea6": 769,
  "\u5bfc\u81f4": 770,
  "\u8bc1\u660e": 771,
  "\u540e\u6765": 772,
  "\u6709\u6548": 773,
  "\u6b63\u786e": 774,
  "\u6709\u5f88\u591a": 775,
  "\u7537\u4eba": 776,
  "\u6570\u5b66": 777,
  "\u7535\u89c6": 778,
  "\u6bcf\u5929": 779,
  "\u5728\u8fd9\u4e2a": 780,
  "\u5e94\u7528": 781,
  "\u5973\u4eba": 782,
  "\u76f8\u5173": 783,
  "\u7236\u6bcd": 784,
  "\u7ba1\u7406": 785,
  "\u800c\u8a00": 786,
  "\u8bbe\u5907": 787,
  "\u9762\u5bf9": 788,
  "\u4fdd\u6301": 789,
  "\u5927\u591a\u6570": 790,
  "\u4eba\u53e3": 791,
  "\u690d\u7269": 792,
  "\u7684\u4e16\u754c": 793,
  "\u8db3\u591f": 794,
  "\u5e76\u6ca1\u6709": 795,
  "\u8fde\u63a5": 796,
  "\u7535\u5b50": 797,
  "\u2581\u56e0\u4e3a\u6211": 798,
  "\u2581\"": 799,
  "\u7236\u4eb2": 800,
  "\u4e0d\u53ef\u80fd": 801,
  "\u4e00\u6837\u7684": 802,
  "\u589e\u52a0": 803,
  "\u76f4\u63a5": 804,
  "\u770b\u89c1": 805,
  "\u81f3\u5c11": 806,
  "or": 807,
  "\u4e0b\u7684": 808,
  "\u5f88\u597d": 809,
  "\u662f\u5982\u4f55": 810,
  "12": 811,
  "\u4e5f\u4f1a": 812,
  "\u505a\u4ec0\u4e48": 813,
  "\u6211\u4eec\u6240": 814,
  "le": 815,
  "\u5185\u5bb9": 816,
  "\u6c11\u4e3b": 817,
  "\u5229\u4e9a": 818,
  "\u63a2\u7d22": 819,
  "\u7269\u79cd": 820,
  "\u7b80\u5355\u7684": 821,
  "\u4f60\u77e5\u9053": 822,
  "\u4ea4\u6d41": 823,
  "\u4f8b\u5982": 824,
  "\u5171\u540c": 825,
  "\u6c14\u5019": 826,
  "\u8001\u5e08": 827,
  "\u5efa\u9020": 828,
  "\u653e\u5728": 829,
  "\u513f\u7ae5": 830,
  "\u60f3\u5230": 831,
  "\u800c\u4e14": 832,
  "\u8fbe\u5230": 833,
  "\u5177\u6709": 834,
  "\u771f\u6b63\u7684": 835,
  "\u2581\u6211\u4e0d": 836,
  "\u2581\u9996\u5148": 837,
  "\u5341\u5e74": 838,
  "\u7528\u6765": 839,
  "\u2581\u6211\u8bf4": 840,
  "\u4e86\u6211": 841,
  "\u5728\u6211": 842,
  "\u7269\u7406": 843,
  "\u73b0\u8c61": 844,
  "18": 845,
  "\u4e92\u8054": 846,
  "\u836f\u7269": 847,
  "\u521b\u65b0": 848,
  "\u968f\u7740": 849,
  "\u65b9\u5411": 850,
  "\u8303\u56f4": 851,
  "\u65f6\u4ee3": 852,
  "\u4e5f\u6709": 853,
  "\u51cf\u5c11": 854,
  "\u8ba9\u4eba": 855,
  "\u66f4\u597d": 856,
  "\u672c\u8eab": 857,
  "\u7f51\u7ad9": 858,
  "\u764c\u75c7": 859,
  "\u2581\u7b2c\u4e8c": 860,
  "\u3002\u201c": 861,
  "\u529f\u80fd": 862,
  "\u2581\u800c\u4e0d\u662f": 863,
  "\u7684\u60c5\u51b5": 864,
  "\u80fd\u91cf": 865,
  "40": 866,
  "\u2581A": 867,
  "\u7ed9\u4f60\u4eec": 868,
  "\u660e\u663e": 869,
  "\u770b\u7740": 870,
  "\u8868\u73b0": 871,
  "\u4e0a\u53bb": 872,
  "\u4f01\u4e1a": 873,
  "\u5230\u5e95": 874,
  "\u56e2\u961f": 875,
  "\u2581\u6211\u8981": 876,
  "\u6211\u8ba4\u4e3a": 877,
  "\u2581M": 878,
  "\u7ed9\u6211": 879,
  "\u7684\u4e00\u90e8\u5206": 880,
  "\u6211\u4e0d": 881,
  "\u6700\u5927\u7684": 882,
  "\u5f62\u5f0f": 883,
  "\u67d0\u4e9b": 884,
  "\u2581\u6211\u662f": 885,
  "\u662f\u4e00\u79cd": 886,
  "\u521a\u521a": 887,
  "\u4e4b\u95f4\u7684": 888,
  "\u4e86\u8fd9\u4e2a": 889,
  "\u2581\u56e0\u4e3a\u6211\u4eec": 890,
  "\u6837\u5b50": 891,
  "\u8005\u7684": 892,
  "\u2581\u5f53\u65f6": 893,
  "\u4f53\u7684": 894,
  "\u544a\u8bc9\u4f60": 895,
  "\u5371\u9669": 896,
  "\u6211\u662f": 897,
  "\u7a81\u7136": 898,
  "\u2581\u4e00\u4e9b": 899,
  "\u7684\u539f\u56e0": 900,
  "\u5206\u6790": 901,
  "\u6b27\u6d32": 902,
  "\u6c38\u8fdc": 903,
  "\u6211\u4f1a": 904,
  "\u57fa\u672c\u4e0a": 905,
  "\u65af\u5766": 906,
  "\u4e00\u5f20": 907,
  "\u4e00\u6b65": 908,
  "\u5f00\u53d1": 909,
  "\u5f88\u96be": 910,
  "\u98de\u673a": 911,
  "\u2581\u6211\u89c9\u5f97": 912,
  "\u6211\u5c31": 913,
  "\u8fdb\u5316": 914,
  "60": 915,
  "\u4eba\u5458": 916,
  "\u5176\u5b83": 917,
  "\u9762\u7684": 918,
  "\u4f1a\u6709": 919,
  "\u5546\u4e1a": 920,
  "\u516c\u5171": 921,
  "\u5750\u5728": 922,
  "\u5f88\u6709": 923,
  "\u6570\u91cf": 924,
  "\u7ecf\u5e38": 925,
  "\u89c4\u6a21": 926,
  "\u2581\u5df2\u7ecf": 927,
  "\u4e92\u8054\u7f51": 928,
  "\u2581\u60f3": 929,
  "\u5468\u56f4": 930,
  "\u2581\u8ba9\u6211": 931,
  "\u56f0\u96be": 932,
  "\u6765\u770b": 933,
  "ic": 934,
  "\u2581\u4f60\u7684": 935,
  "\u5fc3\u7406": 936,
  "\u2581\u6709\u4e9b": 937,
  "\u2581\u4f46\u6211\u4eec": 938,
  "\u4ee5\u540e": 939,
  "\u5730\u56fe": 940,
  "\u2581\u5c3d\u7ba1": 941,
  "\u767e\u5206\u4e4b": 942,
  "\u2581\u6211\u4f1a": 943,
  "\u4e0d\u8981": 944,
  "\u4f4d\u7f6e": 945,
  "\u96be\u4ee5": 946,
  "\u76f8\u540c": 947,
  "\u9884\u6d4b": 948,
  "\u4eba\u90fd": 949,
  "\u578b\u7684": 950,
  "\u2581\u4f60\u77e5\u9053": 951,
  "\u8868\u8fbe": 952,
  "\u2581\u867d\u7136": 953,
  "\u4e2a\u6708": 954,
  "\u2581\u5373\u4f7f": 955,
  "\u544a\u8bc9\u6211": 956,
  "\u2581\u9664": 957,
  "\u5730\u7684": 958,
  "DNA": 959,
  "\u5982\u679c\u6211\u4eec": 960,
  "11": 961,
  "\u4e0d\u518d": 962,
  "\u6d88\u606f": 963,
  "\u2581\u4e0b": 964,
  "\u4e25\u91cd": 965,
  "\u65b9\u6848": 966,
  "\u624b\u672f": 967,
  "\u5c3c\u4e9a": 968,
  "\u8fc7\u6765": 969,
  "\u8ba9\u4f60": 970,
  "\u8c03\u67e5": 971,
  "\u52a0\u5165": 972,
  "\u7a0b\u5e8f": 973,
  "\u6709\u7740": 974,
  "\u5176\u4ed6\u7684": 975,
  "\u4e0a\u5e1d": 976,
  "\u7ed9\u4f60": 977,
  "\u2581\u7f8e\u56fd": 978,
  "\u5feb\u4e50": 979,
  "\u68a6\u60f3": 980,
  "...": 981,
  "\u6839\u636e": 982,
  "\u6536\u5165": 983,
  "\u5927\u90e8\u5206": 984,
  "\u6700\u597d\u7684": 985,
  "\u5404\u4f4d": 986,
  "\u2581\u53ef\u80fd": 987,
  "\u2581\u80fd\u591f": 988,
  "\u4e5f\u53ef\u4ee5": 989,
  "\u6765\u5230": 990,
  "\u66f4\u597d\u7684": 991,
  "\u8981\u6c42": 992,
  "\u773c\u775b": 993,
  "\u5168\u4e16\u754c": 994,
  "\u2581\u5728\u6211": 995,
  "\u5bf9\u6211": 996,
  "\u62cd\u6444": 997,
  "\u5728\u4e8e": 998,
  "\u884c\u7684": 999,
  "\u5f53\u6211": 1000,
  "\u62c5\u5fc3": 1001,
  "\u2581\u5b83\u662f": 1002,
  "\u2581\u8bf7": 1003,
  "\u4e8b\u7269": 1004,
  "\u4f20\u64ad": 1005,
  "\u56fd\u9645": 1006,
  "\u2581\u4ed6\u4eec\u7684": 1007,
  "el": 1008,
  "\u2581\u90a3\u662f": 1009,
  "\u2581\u5374": 1010,
  "\u786e\u5b9a": 1011,
  "\u80af\u5b9a": 1012,
  "\u53d1\u751f\u5728": 1013,
  "at": 1014,
  "\u2581\u76f4\u5230": 1015,
  "\u72b6\u6001": 1016,
  "\u77f3\u6cb9": 1017,
  "\u5988\u5988": 1018,
  "\u4f53\u9a8c": 1019,
  "\u2581-": 1020,
  "\u53ea\u80fd": 1021,
  "\u5b83\u662f": 1022,
  "\u5f62\u6210": 1023,
  "\u73b0\u4ee3": 1024,
  "\u8fc7\u7a0b\u4e2d": 1025,
  "\u8fd9\u4e00\u70b9": 1026,
  "\u79f0\u4e3a": 1027,
  "\u7ecf\u8fc7": 1028,
  "\u9053\u5fb7": 1029,
  "\u90a3\u79cd": 1030,
  "\u5b9a\u4e49": 1031,
  "\u4f4f\u5728": 1032,
  "\u533b\u9662": 1033,
  "\u63d0\u9ad8": 1034,
  "\u6cd5\u5f8b": 1035,
  "\u8f6f\u4ef6": 1036,
  "\u5b83\u4eec\u7684": 1037,
  "\u95ee\u9898\u662f": 1038,
  "\u9762\u4e34": 1039,
  "\u4eba\u7c7b\u7684": 1040,
  "\u53c2\u52a0": 1041,
  "\u2581\u7ed3\u679c": 1042,
  "\u56fd\u5bb6\u7684": 1043,
  "\u8fc7\u53bb\u7684": 1044,
  "\u6211\u4eec\u9700\u8981": 1045,
  "\u5b50\u7684": 1046,
  "\u7cfb\u5217": 1047,
  "\u2581\u8fd8\u662f": 1048,
  "\u4e00\u5e74": 1049,
  "\u4efb\u52a1": 1050,
  "\u4f60\u5728": 1051,
  "\u4fe1\u53f7": 1052,
  "\u5b97\u6559": 1053,
  "\u6709\u4ec0\u4e48": 1054,
  "\u51fa\u6765\u7684": 1055,
  "25": 1056,
  "\u4f3c\u4e4e": 1057,
  "\u2581\u90fd\u662f": 1058,
  "\u2581\u201d": 1059,
  "\u5316\u5b66": 1060,
  "\u63cf\u8ff0": 1061,
  "\u76f8\u4e92": 1062,
  "is": 1063,
  "\u66b4\u529b": 1064,
  "\u6b63\u5e38": 1065,
  "\u751f\u6d3b\u5728": 1066,
  "\u5e73\u5747": 1067,
  "\u601d\u60f3": 1068,
  "\u6bd4\u5982": 1069,
  "\u751f\u7684": 1070,
  "\u2581\u6211\u77e5\u9053": 1071,
  "\u6700\u8fd1": 1072,
  "\u8bd5\u7740": 1073,
  "\u957f\u7684": 1074,
  "\u4ece\u6765": 1075,
  "\u5176\u4ed6\u4eba": 1076,
  "\u4e00\u6bb5": 1077,
  "\u5b50\u91cc": 1078,
  "\u2581\u53ea\u6709": 1079,
  "\u4e8b\u4ef6": 1080,
  "\u76ee\u7684": 1081,
  "\u2581\u5728\u8fd9\u4e2a": 1082,
  "\u591a\u4e48": 1083,
  "\u597d\u50cf": 1084,
  "\u2581\u4f8b\u5982": 1085,
  "\u2581\u2014": 1086,
  "\u53d1\u73b0\u4e86": 1087,
  "\u611f\u5174\u8da3": 1088,
  "\u5c24\u5176": 1089,
  "\u5e78\u798f": 1090,
  "\u751f\u5b58": 1091,
  "\u611f\u53d7": 1092,
  "\u662f\u5f88": 1093,
  "\u98ce\u9669": 1094,
  "\u53d1\u751f\u7684": 1095,
  "it": 1096,
  "\u4e00\u6761": 1097,
  "\u9636\u6bb5": 1098,
  "\u2581\u266a": 1099,
  "\u5947\u602a": 1100,
  "\u6536\u96c6": 1101,
  "\u5e26\u7740": 1102,
  "\u2581\u65e0\u8bba": 1103,
  "\u503c\u5f97": 1104,
  "\u884c\u661f": 1105,
  "\u4e0d\u9700\u8981": 1106,
  "\u4e86\u6211\u4eec": 1107,
  "\u5168\u90e8": 1108,
  "\u548c\u6211": 1109,
  "\u5f88\u5feb": 1110,
  "\u806a\u660e": 1111,
  "\u7684\u5b69\u5b50": 1112,
  "\u2581\u6211\u5e0c\u671b": 1113,
  "\u6807\u51c6": 1114,
  "\u6211\u4eec\u8981": 1115,
  "\u5b8c\u7f8e": 1116,
  "\u91cc\u65af": 1117,
  "\u4f60\u80fd": 1118,
  "\u65b0\u95fb": 1119,
  "\u2581\u4f46\u662f\u6211": 1120,
  "\u6211\u4eec\u6709": 1121,
  "\u672c\u4e66": 1122,
  "\u623f\u95f4": 1123,
  "\u6548\u679c": 1124,
  "\u68ee\u6797": 1125,
  "\u8bf4\u8fc7": 1126,
  "\u751f\u6001": 1127,
  "\u8bad\u7ec3": 1128,
  "\u2581\u505a": 1129,
  "\u8bd5\u9a8c": 1130,
  "\u666e\u901a": 1131,
  "\u8fd9\u5f20": 1132,
  "\u9769\u547d": 1133,
  "\u7f8e\u4e3d": 1134,
  "\u610f\u601d\u662f": 1135,
  "\u770b\u5230\u4e86": 1136,
  "\u5174\u594b": 1137,
  "\u540e\u7684": 1138,
  "\u56e0\u7d20": 1139,
  "\u2581\u4e00\u79cd": 1140,
  "80": 1141,
  "\u5931\u8d25": 1142,
  "\u6c34\u5e73": 1143,
  "\u2581\u4eba": 1144,
  "\u4e0d\u4ec5": 1145,
  "\u4e13\u5bb6": 1146,
  "\u6253\u5f00": 1147,
  "\u7ecf\u9a8c": 1148,
  "\u8868\u6f14": 1149,
  "\u6211\u4eec\u80fd": 1150,
  "\u2581\u4f46\u8fd9": 1151,
  "\u7528\u4e8e": 1152,
  "\u5728\u90a3": 1153,
  "\u4ee5\u4e3a": 1154,
  "\u4e0d\u8fc7": 1155,
  "\u81ea\u8eab": 1156,
  "\u5f97\u5230\u4e86": 1157,
  "\u95ee\u9898\u7684": 1158,
  "\u2581\u53c8": 1159,
  "\u4e00\u53ea": 1160,
  "\u56de\u6765": 1161,
  "\u5987\u5973": 1162,
  "\u6050\u6016": 1163,
  "\u662f\u6709": 1164,
  "\u2581\u5047": 1165,
  "\u597d\u4e86": 1166,
  "\u2581J": 1167,
  "\u5438\u5f15": 1168,
  "\u6050\u60e7": 1169,
  "\u6bcf\u4e00\u4e2a": 1170,
  "\u56fe\u50cf": 1171,
  "\u653f\u7b56": 1172,
  "\u7edd\u5bf9": 1173,
  "\u6211\u4eec\u5c31": 1174,
  "\u7684\u7814\u7a76": 1175,
  "\u6211\u6240": 1176,
  "\u2581\u63a5\u7740": 1177,
  "\u4e86\u5f88\u591a": 1178,
  "\u4f1a\u8bae": 1179,
  "\u8bb0\u5fc6": 1180,
  "\u662f\u7684": 1181,
  "\u82f1\u5c3a": 1182,
  "\u89c6\u89c9": 1183,
  "\u2581\u6211\u4eec\u6709": 1184,
  "\u7cdf\u7cd5": 1185,
  "\u2581\u6211\u4eec\u8981": 1186,
  "\u661f\u671f": 1187,
  "\u9700\u6c42": 1188,
  "\u544a\u8bc9\u6211\u4eec": 1189,
  "\u5f53\u6211\u4eec": 1190,
  "\u91cd\u8981\u7684\u662f": 1191,
  "\u2581\u53ea\u662f": 1192,
  "oo": 1193,
  "\u2581R": 1194,
  "\u9ad8\u7684": 1195,
  "\u2581\u5982\u4f55": 1196,
  "\u4e0d\u8d77": 1197,
  "\u6d88\u5931": 1198,
  "\u8fd9\u662f\u4e00\u4e2a": 1199,
  "\u4e0b\u53bb": 1200,
  "\u5f00\u653e": 1201,
  "\u8fd0\u4f5c": 1202,
  "\u4ecb\u7ecd": 1203,
  "\u53e5\u8bdd": 1204,
  "\u663e\u7136": 1205,
  "\u2581\u5f88\u591a": 1206,
  "\u2581D": 1207,
  "\u5371\u673a": 1208,
  "\u4e24\u79cd": 1209,
  "\u90fd\u4e0d": 1210,
  "\u7684\u4e00\u5207": 1211,
  "al": 1212,
  "\u5fc3\u7684": 1213,
  "\u7684\u6700": 1214,
  "\u5f88\u91cd\u8981": 1215,
  "\u4e0a\u4e86": 1216,
  "\u5141\u8bb8": 1217,
  "\u8868\u660e": 1218,
  "\u8fd9\u9879": 1219,
  "\u2581P": 1220,
  "\u9f13\u638c": 1221,
  "\u662f\u600e\u4e48": 1222,
  "\u4ee5\u6765": 1223,
  "\u661f\u7403": 1224,
  "\u4f1f\u5927\u7684": 1225,
  ",\u201d": 1226,
  "am": 1227,
  "\u7ed3\u5408": 1228,
  "\u2581\u6211\u4eec\u5fc5\u987b": 1229,
  "\u67d0\u4e2a": 1230,
  "\u795e\u5947": 1231,
  "\u8d23\u4efb": 1232,
  "\u2581\u53e6\u5916": 1233,
  "\u2581\u5b83\u7684": 1234,
  "\u4e0d\u9519": 1235,
  "\u57fa\u4e8e": 1236,
  "\u2581\u6211\u4e5f": 1237,
  "\u2581\u4ed6\u7684": 1238,
  "\u7684\u6570\u636e": 1239,
  "\u2581\u6211\u53ef\u4ee5": 1240,
  "es": 1241,
  "\u4e2d\u95f4": 1242,
  "\u6539\u53d8\u4e86": 1243,
  "\u4e00\u540d": 1244,
  "\u7a7a\u6c14": 1245,
  "\u8bf4\u660e": 1246,
  "\u2581\u5979\u4eec": 1247,
  "\u2581\u770b\u770b": 1248,
  "\u65f6\u7684": 1249,
  "\u2581\u90a3\u4e2a": 1250,
  "\u6210\u672c": 1251,
  "\u2581\u8fd9\u5c31": 1252,
  "\u4e0d\u591a": 1253,
  "\u7ec6\u83cc": 1254,
  "\u8ddd\u79bb": 1255,
  "90": 1256,
  "\u8fdb\u6b65": 1257,
  "\u2581\u5f00\u59cb": 1258,
  "70": 1259,
  "\u5230\u8fbe": 1260,
  "\u6216\u8bb8": 1261,
  "\u590d\u6742\u7684": 1262,
  "\u7537\u5b69": 1263,
  "\u8fb9\u7684": 1264,
  "\u2581\u6211\u4eec\u4e5f": 1265,
  "\u4f1a\u8bf4": 1266,
  "\u8fd0\u7528": 1267,
  "\u2581\u4e0d\u7ba1": 1268,
  "\u90fd\u77e5\u9053": 1269,
  "\u5e73\u7b49": 1270,
  "\u5fc3\u810f": 1271,
  "\u51e0\u5e74": 1272,
  "\u6743\u5229": 1273,
  "\u8054\u5408": 1274,
  "\u4e00\u4ef6": 1275,
  "\u52a8\u4f5c": 1276,
  "\u63a5\u89e6": 1277,
  "\u2581\u4f46\u662f\u6211\u4eec": 1278,
  "\u571f\u5730": 1279,
  "\u6b63\u662f": 1280,
  "\u53ef\u80fd\u662f": 1281,
  "\u521b\u4f5c": 1282,
  "\u533b\u5b66": 1283,
  "\u4e4b\u4e3a": 1284,
  "\u771f\u662f": 1285,
  "\u8fd9\u6837\u505a": 1286,
  "\u5148\u751f": 1287,
  "\u7c7b\u7684": 1288,
  "\u82f1\u91cc": 1289,
  "\u5728\u90a3\u91cc": 1290,
  "\u827a\u672f\u5bb6": 1291,
  "\u611f\u67d3": 1292,
  "\u89c4\u5219": 1293,
  "\u6d88\u8d39": 1294,
  "\u4e9b\u4ec0\u4e48": 1295,
  "il": 1296,
  "\u2581G": 1297,
  "\u4e00\u822c": 1298,
  "\u2581\u6216\u662f": 1299,
  "\u2581\u514b": 1300,
  "\u258119": 1301,
  "\u2581\u6700\u7ec8": 1302,
  "\u79f0\u4e4b\u4e3a": 1303,
  "\u52a8\u7684": 1304,
  "\u5de5\u4e1a": 1305,
  "\u2581\u4eba\u7c7b": 1306,
  "\u6709\u4e00\u4e9b": 1307,
  "\u538b\u529b": 1308,
  "\u2581\u6211\u4eec\u4f1a": 1309,
  "\u53bb\u505a": 1310,
  "\u5a74\u513f": 1311,
  "\u6709\u591a": 1312,
  "\u76d1\u72f1": 1313,
  "\u8fd8\u6ca1\u6709": 1314,
  "\u529e\u516c": 1315,
  "\u5973\u58eb": 1316,
  "\u5e78\u8fd0": 1317,
  "\u6295\u5165": 1318,
  "\u667a\u6167": 1319,
  "\u7ed9\u5927\u5bb6": 1320,
  "\u7ed9\u6211\u4eec": 1321,
  "\u4e0d\u7528": 1322,
  "\u79cd\u65cf": 1323,
  "\u4e0d\u5f97\u4e0d": 1324,
  "\u7684\u4fe1\u606f": 1325,
  "\u82b1\u8d39": 1326,
  "\u2581\u6b63\u5982": 1327,
  "\u8fd9\u4e48\u505a": 1328,
  "\u2581\u76f8": 1329,
  "\u63d0\u51fa": 1330,
  "\u72b6\u51b5": 1331,
  "\u897f\u65b9": 1332,
  "\u7684\u751f\u6d3b": 1333,
  "\u2581T": 1334,
  "\u4f53\u7cfb": 1335,
  "\u8f6c\u53d8": 1336,
  "\u94f6\u884c": 1337,
  "\u2581\u53ea\u8981": 1338,
  "\u5728\u6211\u4eec": 1339,
  "\u5904\u4e8e": 1340,
  "\u2581\u6ca1": 1341,
  "\u7684\u60f3\u6cd5": 1342,
  "\u2581\u8fd9\u662f\u4e2a": 1343,
  "\u2581\u6211\u4eec\u73b0\u5728": 1344,
  "ac": 1345,
  "\u8868\u9762": 1346,
  "\u5f88\u597d\u7684": 1347,
  "\u2581\u56e0\u4e3a\u4ed6\u4eec": 1348,
  "\u5efa\u8bae": 1349,
  "\u6761\u4ef6": 1350,
  "\u53d6\u5f97": 1351,
  "\u827e\u6ecb": 1352,
  "\u88c5\u7f6e": 1353,
  "\u5de5\u4f5c\u7684": 1354,
  "\u4e4b\u4e2d": 1355,
  "\u6216\u662f": 1356,
  "\u7279\u6b8a": 1357,
  "\u5a01\u80c1": 1358,
  "\u5f62\u72b6": 1359,
  "\u4e00\u76f4\u5728": 1360,
  "\u6ca1\u6709\u4eba": 1361,
  "\u516c\u6c11": 1362,
  "\u5f53\u5730": 1363,
  "\u5f7c\u6b64": 1364,
  "\u2581\u8ddf": 1365,
  "\u540c\u4e8b": 1366,
  "\u2581\u6211\u4eec\u80fd": 1367,
  "\u7537\u6027": 1368,
  "\u8fd8\u5728": 1369,
  "\u90fd\u80fd": 1370,
  "\u672a\u6765\u7684": 1371,
  "\u8ba9\u4ed6\u4eec": 1372,
  "\u544a\u8bc9\u4f60\u4eec": 1373,
  "\u5bf9\u5427": 1374,
  "\u89d2\u8272": 1375,
  "\u8bbe\u8ba1\u7684": 1376,
  "\u60c5\u7eea": 1377,
  "\u8fd9\u4e00\u5207": 1378,
  "......": 1379,
  "\u52a8\u529b": 1380,
  "\u2581\u4f60\u80fd": 1381,
  "\u6211\u53ef\u4ee5": 1382,
  "\u8868\u793a": 1383,
  "\u964d\u4f4e": 1384,
  "\u4e86\u4e00\u4e9b": 1385,
  "\u7684\u56fd\u5bb6": 1386,
  "\u2581\u81ea": 1387,
  "\u671f\u7684": 1388,
  "\u6bcf\u5e74": 1389,
  "\u8fd8\u8981": 1390,
  "ou": 1391,
  "\u4e16\u754c\u5404": 1392,
  "\u751f\u547d\u7684": 1393,
  "\u2581\u7136\u540e\u6211\u4eec": 1394,
  "\u5927\u91cf\u7684": 1395,
  "\u6211\u4e5f": 1396,
  "\u75db\u82e6": 1397,
  "\u90a3\u65f6": 1398,
  "\u6240\u6709\u4eba": 1399,
  "\u4e13\u4e1a": 1400,
  "\u603b\u7edf": 1401,
  "\u60a3\u8005": 1402,
  "\u2581\u4e4b\u540e": 1403,
  "\u2581\u90a3\u65f6": 1404,
  "\u627e\u5230\u4e86": 1405,
  "\u4ece\u672a": 1406,
  "\u4f60\u6240": 1407,
  "\u2581\u6211\u4eec\u5c31": 1408,
  "\u628a\u5b83\u4eec": 1409,
  "\u25811": 1410,
  "\u4ea4\u901a": 1411,
  "\u665a\u4e0a": 1412,
  "\u89c1\u7684": 1413,
  "\u2581\u597d\u5427": 1414,
  "\u601d\u7ef4": 1415,
  "\u2581\u540e\u6765": 1416,
  "\u5b66\u4f1a": 1417,
  "\u5f88\u5927": 1418,
  "\u623f\u5b50": 1419,
  "\u9ad8\u5174": 1420,
  "\u2581\u975e\u5e38\u611f\u8c22": 1421,
  "\u4e0d\u60f3": 1422,
  "\u51fa\u53bb": 1423,
  "\u521a\u624d": 1424,
  "\u5c0f\u5b69": 1425,
  "\u662f\u6700": 1426,
  "\u2581\u6765\u81ea": 1427,
  "\u7684\u7167\u7247": 1428,
  "as": 1429,
  "\u5185\u90e8": 1430,
  "\u7684\u90a3": 1431,
  "\u2581\u6211\u5c31": 1432,
  "\u60c5\u51b5\u4e0b": 1433,
  "\u5851\u6599": 1434,
  "\u907f\u514d": 1435,
  "\u2581\u8fd9\u662f\u6211": 1436,
  "\u7ad9\u5728": 1437,
  "\u5f88\u5927\u7684": 1438,
  "\u5c5e\u4e8e": 1439,
  "\u2581\u5305\u62ec": 1440,
  "\u53ef\u4ee5\u770b\u5230": 1441,
  "\u5bb3\u6015": 1442,
  "\u8d28\u91cf": 1443,
  "\u540d\u7684": 1444,
  "\u8fd9\u4ef6\u4e8b": 1445,
  "\u522b\u7684": 1446,
  "\u5927\u91cf": 1447,
  "\u86cb\u767d": 1448,
  "\u5176\u4e2d\u7684": 1449,
  "\u8fd9\u4e9b\u4eba": 1450,
  "\u4f7f\u5f97": 1451,
  "\u51b2\u7a81": 1452,
  "\u989c\u8272": 1453,
  "\u662f\u975e\u5e38": 1454,
  "\u7684\u5f71\u54cd": 1455,
  "\u7684\u80fd\u529b": 1456,
  "\u56de\u5bb6": 1457,
  "\u8bb2\u8ff0": 1458,
  "\u60f3\u8c61\u4e00\u4e0b": 1459,
  "\u5bf9\u8bdd": 1460,
  "\u5dee\u4e0d\u591a": 1461,
  "\u662f\u4e0d": 1462,
  "\u72ec\u7acb": 1463,
  "\u79ef\u6781": 1464,
  "\u4ed6\u4eba": 1465,
  "\u548c\u5e73": 1466,
  "\u2581\u7136\u540e\u6211": 1467,
  "\u4f60\u8981": 1468,
  "\u8d44\u91d1": 1469,
  "\u51fa\u751f": 1470,
  "\u6240\u5728": 1471,
  "\u77e5\u7684": 1472,
  "\u7ade\u4e89": 1473,
  "\u5b66\u7684": 1474,
  "\u5c4f\u5e55": 1475,
  "\u5f53\u4e2d": 1476,
  "\u7231\u7684": 1477,
  "\u76f8\u4f3c": 1478,
  "\u5e74\u8f7b\u4eba": 1479,
  "\u6211\u89c9\u5f97": 1480,
  "\u8bbe\u8ba1\u5e08": 1481,
  "\u4fdd\u8bc1": 1482,
  "\u535a\u7269": 1483,
  "\u2581\u5728\u8fd9": 1484,
  "\u6211\u80fd": 1485,
  "\u5bf9\u6b64": 1486,
  "\u6587\u7ae0": 1487,
  "\u75af\u72c2": 1488,
  "\u7ec4\u6210": 1489,
  "\u4e0b\u6765\u7684": 1490,
  "\u2581L": 1491,
  "\u4e92\u76f8": 1492,
  "\u5173\u5fc3": 1493,
  "\u57fa\u91d1": 1494,
  "\u2581\u8fd9\u4e00": 1495,
  "\u535a\u7269\u9986": 1496,
  "\u5730\u7403\u4e0a": 1497,
  "et": 1498,
  "\u5feb\u901f": 1499,
  "\u6d4b\u91cf": 1500,
  "\u7eff\u8272": 1501,
  "\u9605\u8bfb": 1502,
  "\u2581\u9700\u8981": 1503,
  "\u5f97\u5230\u7684": 1504,
  "\u6709\u53ef\u80fd": 1505,
  "\u4e8c\u5341": 1506,
  "\u4ef7\u683c": 1507,
  "\u2581\u6216\u8bb8": 1508,
  "\u53ea\u8981": 1509,
  "\u56db\u4e2a": 1510,
  "\u9002\u5e94": 1511,
  "\u2581\u4efb\u4f55": 1512,
  "\u505c\u6b62": 1513,
  "\u53ef\u6015": 1514,
  "\u6beb\u65e0": 1515,
  "\u2581\u4e0a": 1516,
  "\u592a\u7a7a": 1517,
  "\u804c\u4e1a": 1518,
  "\u5916\u7684": 1519,
  "\u5bb6\u4f19": 1520,
  "\u82b1\u4e86": 1521,
  "\u9650\u5236": 1522,
  "\u4ed6\u4eec\u5728": 1523,
  "\u2581\u4e24": 1524,
  "\u64cd\u4f5c": 1525,
  "\u53d8\u6210\u4e86": 1526,
  "\u628a\u8fd9\u4e9b": 1527,
  "\u7f8e\u56fd\u4eba": 1528,
  "\u2581\u603b": 1529,
  "\u4e0d\u5728": 1530,
  "\u2581\u8fd9\u6837\u7684": 1531,
  "\u8b66\u5bdf": 1532,
  "\u6709\u8da3\u7684": 1533,
  "\u2581\u6211\u4eec\u5df2\u7ecf": 1534,
  "\u2581K": 1535,
  "\u5e7f\u544a": 1536,
  "\u7a0b\u5ea6\u4e0a": 1537,
  "\u6742\u5fd7": 1538,
  "\u963f\u62c9": 1539,
  "\u2581\u5c24\u5176": 1540,
  "\u4ec0\u4e48\u662f": 1541,
  "\u8bbe\u65bd": 1542,
  "\u8bc1\u636e": 1543,
  "\u2581\u6211\u5f88": 1544,
  "\u2581\u800c\u8fd9": 1545,
  "\u4ed6\u8bf4": 1546,
  "\u4fe1\u4ef0": 1547,
  "\u4e0b\u964d": 1548,
  "\u96c6\u4e2d": 1549,
  "\u5206\u4e4b\u4e00": 1550,
  "\u53d1\u8868": 1551,
  "\u5931\u53bb": 1552,
  "\u5ea6\u7684": 1553,
  "\u9010\u6e10": 1554,
  "\u513f\u5b50": 1555,
  "\u54ea\u4e9b": 1556,
  "\u8d1f\u8d23": 1557,
  "\u9020\u6210": 1558,
  "\u90a3\u662f": 1559,
  "\u4f60\u4eec\u7684": 1560,
  "\u800c\u4e0d\u662f": 1561,
  "\u2581\u591a": 1562,
  "\u5de8\u5927": 1563,
  "\u5f15\u8d77": 1564,
  "\u706b\u661f": 1565,
  "\u7684\u4e3b": 1566,
  "\u8fc7\u4e86": 1567,
  "\u9080\u8bf7": 1568,
  "\u963b\u6b62": 1569,
  "\u795e\u7ecf\u5143": 1570,
  "\u73ca\u745a": 1571,
  "\u7684\u7ed3\u679c": 1572,
  "\u65f6\u523b": 1573,
  "\u884c\u4e1a": 1574,
  "\u2581\u6709\u4eba": 1575,
  "\u2581\u7b2c\u4e00": 1576,
  "\u4e5f\u6ca1\u6709": 1577,
  "\u2581\u6211\u4eec\u8fd8": 1578,
  "\u672c\u8d28": 1579,
  "\u770b\u6765": 1580,
  "\u592a\u591a": 1581,
  "\u6a21\u62df": 1582,
  "\u6b66\u5668": 1583,
  "\u7406\u7531": 1584,
  "\u7834\u574f": 1585,
  "\u80cc\u666f": 1586,
  "\u5229\u76ca": 1587,
  "\u5f88\u68d2": 1588,
  "\u2581\u6211\u4eec\u5c06": 1589,
  "\u2581\u73b0\u5728\u6211\u4eec": 1590,
  "\u5e74\u9f84": 1591,
  "\u6f02\u4eae": 1592,
  "\u2581\u5982\u4eca": 1593,
  "\u7ed9\u4ed6\u4eec": 1594,
  "\u6210\u957f": 1595,
  "\u6559\u6388": 1596,
  "\u8bfe\u7a0b": 1597,
  "\u2581\u6bcf\u4e2a": 1598,
  "\u90fd\u53ef\u4ee5": 1599,
  "\u547c\u5438": 1600,
  "\u7528\u4e86": 1601,
  "\u7684\u786e": 1602,
  "\u529e\u516c\u5ba4": 1603,
  "\u751f\u6d3b\u4e2d": 1604,
  "\u4f60\u5c31": 1605,
  "\u662f\u7531": 1606,
  "\u2581\u7279\u522b": 1607,
  "\u2581\u90a3\u91cc": 1608,
  "\u751f\u957f": 1609,
  "\u8d22\u5bcc": 1610,
  "\u2581\u63a5\u4e0b\u6765": 1611,
  "\u2581\u6b64": 1612,
  "\u540c\u60c5": 1613,
  "\u63a5\u8fd1": 1614,
  "\u5e26\u6765\u7684": 1615,
  "\u6ce8\u610f\u5230": 1616,
  "\u2581\u4ed6\u4eec\u4f1a": 1617,
  "\u5343\u4e07": 1618,
  "\u5783\u573e": 1619,
  "\u8001\u9f20": 1620,
  "\u5e76\u975e": 1621,
  "\u60c5\u611f": 1622,
  "\u7edf\u8ba1": 1623,
  "\u542c\u8d77\u6765": 1624,
  "\u90fd\u6ca1\u6709": 1625,
  "\u5b9e\u5728": 1626,
  "\u793e\u4ea4": 1627,
  "\u6211\u4eec\u4f1a": 1628,
  "\u4e00\u573a": 1629,
  "\u600e\u4e48\u6837": 1630,
  "\u7684\u58f0\u97f3": 1631,
  "\u60ca\u8bb6": 1632,
  "\u653e\u5230": 1633,
  "\u7269\u4f53": 1634,
  "\u5e74\u91cc": 1635,
  "\u62ef\u6551": 1636,
  "\u8fd9\u6837\u4e00\u4e2a": 1637,
  "\u2581\u51e0": 1638,
  "\u4e60\u60ef": 1639,
  "\u7ed3\u8bba": 1640,
  "\u90e8\u95e8": 1641,
  "\u2581\u4ece\u800c": 1642,
  "\u6b63\u786e\u7684": 1643,
  "\u2581\u6bd4\u5982\u8bf4": 1644,
  "\u6709\u591a\u5c11": 1645,
  "re": 1646,
  "\u4e4b\u5904": 1647,
  "\u5dee\u5f02": 1648,
  "\u6210\u5458": 1649,
  "\u641c\u7d22": 1650,
  "\u7684\u65b0": 1651,
  "\u5047\u8bbe": 1652,
  "\u6062\u590d": 1653,
  "\u6bd4\u4e9a": 1654,
  "\u9762\u524d": 1655,
  "\u662f\u4e0d\u662f": 1656,
  "\u751f\u6d3b\u7684": 1657,
  "\u2581\u8fd9\u4e0d\u662f": 1658,
  "\u4e92\u52a8": 1659,
  "\u75ab\u82d7": 1660,
  "\u2581\u2014\u2014": 1661,
  "\u7684\u4e8b\u7269": 1662,
  "\u2581\u5982\u679c\u6211": 1663,
  "\u2581\u6211\u4eec\u77e5\u9053": 1664,
  "\u4ed4\u7ec6": 1665,
  "\u5de5\u7a0b\u5e08": 1666,
  "\u536b\u751f": 1667,
  "\u6240\u8c13": 1668,
  "\u667a\u80fd": 1669,
  "\u72af\u7f6a": 1670,
  "\u9a6c\u4e0a": 1671,
  "\u5bf9\u6211\u4eec": 1672,
  "\u5e38\u5e38": 1673,
  "\u601d\u8bae": 1674,
  "\u6587\u5b57": 1675,
  "\u7206\u70b8": 1676,
  "\u9f13\u52b1": 1677,
  "\u65f6\u671f": 1678,
  "\u4ebf\u7f8e\u5143": 1679,
  "\u5e73\u8861": 1680,
  "\u624d\u662f": 1681,
  "\u8682\u8681": 1682,
  "\u53ef\u4ee5\u5728": 1683,
  "\u7684\u4f8b\u5b50": 1684,
  "\u2581\u6211\u76f8\u4fe1": 1685,
  "\u2581\u800c\u6211": 1686,
  "\u6211\u4eec\u73b0\u5728": 1687,
  "\u653e\u5f03": 1688,
  "\u2581\u5927\u7ea6": 1689,
  "\u4e00\u9879": 1690,
  "\u7279\u7684": 1691,
  "\u2581\u662f\u7684": 1692,
  "\u2581H": 1693,
  "\u5c81\u7684": 1694,
  "\u82f1\u8bed": 1695,
  "\u8eab\u4efd": 1696,
  "\u516c\u5f00": 1697,
  "\u5bb6\u4eba": 1698,
  "\u62a5\u9053": 1699,
  "\u9047\u5230": 1700,
  "\u2581\u8fd9\u4e5f\u662f": 1701,
  "\u5373\u4f7f": 1702,
  "\u6539\u5584": 1703,
  "\u65e5\u672c": 1704,
  "\u8bb0\u4f4f": 1705,
  "\u53ef\u80fd\u6027": 1706,
  "\u6ca1\u6709\u4efb\u4f55": 1707,
  "\u4e00\u4ee3": 1708,
  "\u662f\u4ece": 1709,
  "\u6e29\u5ea6": 1710,
  "\u5bb6\u91cc": 1711,
  "\u6765\u4e86": 1712,
  "\u6c27\u5316": 1713,
  "\u90a3\u513f": 1714,
  "\u5b58\u5728\u7684": 1715,
  "\u6210\u529f\u7684": 1716,
  "\u6240\u505a\u7684": 1717,
  "\u2581\u56e0\u4e3a\u5b83": 1718,
  "\u65c5\u884c": 1719,
  "\u6765\u6e90": 1720,
  "\u7fa4\u4f53": 1721,
  "\u592a\u9633\u80fd": 1722,
  "\u6211\u6765\u8bf4": 1723,
  "\u4f9d\u8d56": 1724,
  "\u536b\u661f": 1725,
  "\u5faa\u73af": 1726,
  "\u71c3\u6599": 1727,
  "\u8bca\u65ad": 1728,
  "\u628a\u8fd9\u4e2a": 1729,
  "\u6444\u5f71": 1730,
  "\u6587\u660e": 1731,
  "\u7406\u5ff5": 1732,
  "\u2581\u52a0": 1733,
  "\u4e0d\u4e86": 1734,
  "\u516c\u56ed": 1735,
  "\u60f3\u60f3": 1736,
  "\u661f\u7cfb": 1737,
  "\u9488\u5bf9": 1738,
  "\u2581\u6b63\u5728": 1739,
  "om": 1740,
  "\u539f\u59cb": 1741,
  "\u597d\u5427": 1742,
  "\u5efa\u8bbe": 1743,
  "\u627f\u8ba4": 1744,
  "\u6392\u653e": 1745,
  "\u6f14\u594f": 1746,
  "\u2581\u76ee\u524d": 1747,
  "\u2581\u6211\u5f00\u59cb": 1748,
  "!\u201d": 1749,
  "\u5fc5\u8981": 1750,
  "\u6210\u679c": 1751,
  "\u6253\u7b97": 1752,
  "\u8d44\u672c": 1753,
  "\u827e\u6ecb\u75c5": 1754,
  "\u505a\u7684\u4e8b\u60c5": 1755,
  "\u6211\u4eec\u5df2\u7ecf": 1756,
  "\u4e86\u8fd9": 1757,
  "\u540c\u610f": 1758,
  "\u591a\u6837": 1759,
  "\u4ea7\u751f\u7684": 1760,
  "\u2581200": 1761,
  "\u53d1\u751f\u4e86\u4ec0\u4e48": 1762,
  "ha": 1763,
  "\u514d\u8d39": 1764,
  "\u518d\u6b21": 1765,
  "\u5973\u513f": 1766,
  "\u5b66\u9662": 1767,
  "\u7684\u73af\u5883": 1768,
  "\u5c06\u8981": 1769,
  "\u719f\u6089": 1770,
  "\u7ec8\u4e8e": 1771,
  "\u8c37\u6b4c": 1772,
  "\u5728\u7f8e\u56fd": 1773,
  "\u2581\u53e6\u4e00\u4e2a": 1774,
  "\u4eab\u53d7": 1775,
  "\u7f51\u4e0a": 1776,
  "\u800c\u662f": 1777,
  "\u8d2b\u56f0": 1778,
  "\u9a7e\u9a76": 1779,
  "\u6211\u4eec\u5bf9": 1780,
  "\u2581\u6211\u4e0d\u77e5\u9053": 1781,
  "\u4eba\u6c11": 1782,
  "\u8fd0\u884c": 1783,
  "500": 1784,
  "\u2581\u540c\u6837": 1785,
  "\u2581\u5927\u6982": 1786,
  "\u5bcc\u6c57": 1787,
  "\u7329\u7329": 1788,
  "\u8ba4\u77e5": 1789,
  "\u98df\u54c1": 1790,
  "\u7684\u529b\u91cf": 1791,
  "\u963f\u5bcc\u6c57": 1792,
  "\u25812": 1793,
  "\u4f53\u5185": 1794,
  "\u62c9\u514b": 1795,
  "\u8c08\u8c08": 1796,
  "\u957f\u5927": 1797,
  "\u258120": 1798,
  "\u2581\u597d\u7684": 1799,
  "\u2581\u8bb8\u591a": 1800,
  "\u6210\u4e3a\u4e86": 1801,
  "\u4e0b\u9762": 1802,
  "\u5305\u542b": 1803,
  "\u57f9\u517b": 1804,
  "\u8bf4\u8bdd": 1805,
  "\u8d2b\u7a77": 1806,
  "\u90fd\u5f88": 1807,
  "\u4ea4\u6613": 1808,
  "\u50cf\u662f": 1809,
  "\u539f\u5219": 1810,
  "\u53d1\u51fa": 1811,
  "\u5e74\u540e": 1812,
  "\u62a5\u544a": 1813,
  "\u68c0\u6d4b": 1814,
  "\u89c1\u8fc7": 1815,
  "\u6211\u77e5\u9053": 1816,
  "%\u3002": 1817,
  "ed": 1818,
  "\u2581\u5411": 1819,
  "\u4f1a\u5728": 1820,
  "\u4fe1\u4efb": 1821,
  "\u89c2\u5ff5": 1822,
  "\u4e5f\u5c31\u662f": 1823,
  "\u4eba\u4eec\u7684": 1824,
  "\u2581\u5c0f": 1825,
  "\u4e0a\u5347": 1826,
  "\u5df4\u897f": 1827,
  "\u6c61\u67d3": 1828,
  "\u91cd\u590d": 1829,
  "\u2581\u5b8c\u5168": 1830,
  "\u2581\u6574\u4e2a": 1831,
  "\u6765\u81ea\u4e8e": 1832,
  "\u771f\u5b9e\u7684": 1833,
  "\u2581\u4f60\u53ef\u4ee5\u770b\u5230": 1834,
  "\u5404\u4e2a": 1835,
  "\u5f0f\u7684": 1836,
  "\u2581\u6211\u8fd8": 1837,
  "\u4e4b\u5916": 1838,
  "\u4f60\u662f": 1839,
  "\u535a\u58eb": 1840,
  "\u5b89\u5fb7": 1841,
  "\u786e\u4fdd": 1842,
  "\u969c\u788d": 1843,
  "\u2581\u8fd9\u5f20": 1844,
  "\u6bd4\u8d5b": 1845,
  "\u8def\u4e0a": 1846,
  "\u91c7\u53d6": 1847,
  "\u2581\u8fd9\u610f\u5473\u7740": 1848,
  "\u5de6\u53f3": 1849,
  "\u8282\u76ee": 1850,
  "\u770b\u4e0a\u53bb": 1851,
  "\u2581\u800c\u6211\u4eec": 1852,
  "\u4e00\u5bb6": 1853,
  "\u521b\u5efa": 1854,
  "\u626b\u63cf": 1855,
  "\u770b\u5f85": 1856,
  "\u770b\u6cd5": 1857,
  "\u9762\u5305": 1858,
  "\u2581\u5c31\u5728": 1859,
  "\u7684\u793e\u4f1a": 1860,
  "\u6c14\u5019\u53d8\u5316": 1861,
  "\u25813": 1862,
  "\u627e\u51fa": 1863,
  "\u7a76\u7adf": 1864,
  "\u7f6e\u4fe1": 1865,
  "\u5496\u5561": 1866,
  "\u575a\u6301": 1867,
  "\u5bf9\u7684": 1868,
  "\u4e4b\u6240\u4ee5": 1869,
  "\u4e0d\u53ef\u601d\u8bae": 1870,
  "\u8fd9\u4e2a\u4e16\u754c": 1871,
  "\u4e0d\u7ba1": 1872,
  "\u4f4d\u4e8e": 1873,
  "\u505a\u5f97": 1874,
  "\u597d\u5904": 1875,
  "\u7535\u6c60": 1876,
  "\u5e2e\u52a9\u6211\u4eec": 1877,
  "14": 1878,
  "16": 1879,
  "\u5e74\u6765": 1880,
  "\u4e86\u8fd9\u4e9b": 1881,
  "\u4e00\u5757": 1882,
  "\u5668\u5b98": 1883,
  "\u6d88\u8017": 1884,
  "\u7406\u60f3": 1885,
  "\u7684\u8fc7\u7a0b": 1886,
  "\u6838\u5fc3": 1887,
  "\u2581\u4e16\u754c": 1888,
  "\u4f5c\u4e3a\u4e00\u4e2a": 1889,
  "\u4eca\u5e74": 1890,
  "\u5143\u7d20": 1891,
  "\u519c\u4e1a": 1892,
  "\u80bf\u7624": 1893,
  "\u2581\u8fdb\u884c": 1894,
  "\u2581\u7b2c\u4e00\u4e2a": 1895,
  "os": 1896,
  "\u2581\u8c01": 1897,
  "\u5de5\u5382": 1898,
  "\u2581\u4e8e\u662f\u6211": 1899,
  "\u662f\u8fd9\u6837\u7684": 1900,
  "he": 1901,
  "\u2581F": 1902,
  "\u81f3\u4e8e": 1903,
  "\u8d70\u8fdb": 1904,
  "\u90e8\u7684": 1905,
  "\u2581\u4f46\u5728": 1906,
  "\u4e0b\u4e00\u4e2a": 1907,
  "\u7684\u6280\u672f": 1908,
  "\u2581\u4ed6\u4eec\u5728": 1909,
  "\u521b\u610f": 1910,
  "\u590d\u5236": 1911,
  "\u7b2c\u4e09": 1912,
  "\u51fa\u73b0\u5728": 1913,
  "\u53d1\u5c55\u4e2d": 1914,
  "\u2581\u9a6c": 1915,
  "\u8fd9\u513f": 1916,
  "\u4f1a\u53d1\u751f": 1917,
  "\u7684\u611f\u89c9": 1918,
  "\u65e0\u8bba": 1919,
  "\u7b11\u58f0": 1920,
  "\u8d85\u7ea7": 1921,
  "\u559c\u6b22\u7684": 1922,
  "\u2581\u662f\u4e00\u4e2a": 1923,
  "\u6211\u4eec\u5fc5\u987b": 1924,
  "\u4e0a\u4e07": 1925,
  "\u59bb\u5b50": 1926,
  "\u6ee1\u8db3": 1927,
  "\u800c\u5df2": 1928,
  "\u4e0d\u4ec5\u4ec5\u662f": 1929,
  "\u2581\u8c22\u8c22\u5927\u5bb6": 1930,
  "\u2581\u4e09": 1931,
  "\u5f80\u5f80": 1932,
  "\u6210\u5c31": 1933,
  "\u63f4\u52a9": 1934,
  "\u5c45\u4f4f": 1935,
  "\u6f2b\u753b": 1936,
  "\u7ec6\u8282": 1937,
  "\u2581\u53cd": 1938,
  "\u6606\u866b": 1939,
  "\u6bd4\u4f8b": 1940,
  "\u5b58\u5728\u4e8e": 1941,
  "\u96be\u4ee5\u7f6e\u4fe1": 1942,
  "\u514b\u65af": 1943,
  "\u53d8\u9769": 1944,
  "\u5f97\u4ee5": 1945,
  "\u6027\u604b": 1946,
  "\u6253\u5370": 1947,
  "\u65e9\u4e0a": 1948,
  "\u9644\u8fd1": 1949,
  "\u2581\u4e5f\u662f": 1950,
  "\u90a3\u6837\u7684": 1951,
  "\u2581\u6bcf\u4e2a\u4eba": 1952,
  "\u8d21\u732e": 1953,
  "\u8eab\u8fb9": 1954,
  "\u2581\u51e0\u4e4e": 1955,
  "\u2581\u6211\u5bf9": 1956,
  "\u76f8\u540c\u7684": 1957,
  "\u2581\u6211\u4eec\u53d1\u73b0": 1958,
  "\u5c42\u9762": 1959,
  "ter": 1960,
  "\u2581\u662f\u56e0\u4e3a": 1961,
  "\u8fd9\u4e9b\u4e1c\u897f": 1962,
  "\u6210\u5343": 1963,
  "\u6743\u529b": 1964,
  "\u6c9f\u901a": 1965,
  "\u82f1\u96c4": 1966,
  "\u2581\u5728\u6211\u4eec": 1967,
  "\u533a\u522b": 1968,
  "\u7f57\u65af": 1969,
  "\u2581\u6211\u548c": 1970,
  "\u4e86\u6211\u7684": 1971,
  "\u4f7f\u7528\u7684": 1972,
  "\u2581\u6211\u73b0\u5728": 1973,
  "\u2581\u5168": 1974,
  "\u4f1a\u88ab": 1975,
  "\u76ae\u80a4": 1976,
  "\u7f8e\u597d": 1977,
  "\u53e6\u4e00\u79cd": 1978,
  "\u8fdb\u4e00\u6b65": 1979,
  "\u963f\u62c9\u4f2f": 1980,
  "\u4e5f\u80fd": 1981,
  "\u4f26\u6566": 1982,
  "\u539f\u5b50": 1983,
  "\u5c55\u73b0": 1984,
  "\u5fb7\u56fd": 1985,
  "\u7ea6\u7ff0": 1986,
  "\u83b7\u53d6": 1987,
  "\u5fae\u751f\u7269": 1988,
  ",\"": 1989,
  "\u81ea\u52a8": 1990,
  "\u8bdd\u9898": 1991,
  "\u8d44\u6599": 1992,
  "\u505a\u7684\u662f": 1993,
  "\u4e00\u534a": 1994,
  "\u5bf9\u5f85": 1995,
  "\u6211\u5f88": 1996,
  "\u6709\u6240": 1997,
  "\u6df1\u5165": 1998,
  "\u8ffd\u6c42": 1999,
  "\u4ec0\u4e48\u5462": 2000,
  "\u4e5f\u5728": 2001,
  "\u51c6\u786e": 2002,
  "\u81ea\u884c": 2003,
  "\u8ba9\u5b83": 2004,
  "\u53ef\u6301\u7eed": 2005,
  "\u600e\u4e48\u505a": 2006,
  "\u63a5\u4e0b\u6765": 2007,
  "\u8054\u5408\u56fd": 2008,
  "\u2581\u55ef": 2009,
  "\u4eba\u5728": 2010,
  "\u5341\u4ebf": 2011,
  "\u6050\u9f99": 2012,
  "\u7684\u6c34": 2013,
  "\u9664\u4e86": 2014,
  "\u4f9d\u7136": 2015,
  "\u5bc6\u7801": 2016,
  "\u5e73\u53f0": 2017,
  "\u653b\u51fb": 2018,
  "\u8bb0\u8005": 2019,
  "\u90ae\u4ef6": 2020,
  "\u2581\u4f60\u5c31": 2021,
  "\u2581\u7814\u7a76": 2022,
  "\u51e0\u4e2a\u6708": 2023,
  "\u770b\u5230\u7684\u662f": 2024,
  "ol": 2025,
  "\u4f24\u5bb3": 2026,
  "\u5728\u5ea7": 2027,
  "\u6444\u50cf": 2028,
  "\u7531\u4e8e": 2029,
  "\u7f8e\u91d1": 2030,
  "\u2581\u4e0d\u8981": 2031,
  "\u2581\u5979\u8bf4": 2032,
  "\u2581\u6211\u5c06": 2033,
  "\u86cb\u767d\u8d28": 2034,
  "\u2581\u6709\u4e00\u4e2a": 2035,
  "\u6210\u4e3a\u4e00\u4e2a": 2036,
  "\u5236\u5ea6": 2037,
  "\u5f97\u591a": 2038,
  "\u63d0\u5230": 2039,
  "\u76f8\u53cd": 2040,
  "\u7684\u4e00\u4e9b": 2041,
  "\u8303\u56f4\u5185": 2042,
  "\u2581\u6240\u6709\u7684": 2043,
  "ad": 2044,
  "ch": 2045,
  "\u6162\u6162": 2046,
  "\u65af\u7279": 2047,
  "\u666e\u904d": 2048,
  "\u7528\u6237": 2049,
  "\u79d8\u5bc6": 2050,
  "\u2581\u6709\u65f6": 2051,
  "\u2581\u901a\u5e38": 2052,
  "\u2581\u9ad8": 2053,
  "\u68c0\u67e5": 2054,
  "\u8fc5\u901f": 2055,
  "\u8db3\u591f\u7684": 2056,
  "\u5999\u7684": 2057,
  "\u5b8c\u6574": 2058,
  "\u6fc0\u52b1": 2059,
  "\u73b0\u573a": 2060,
  "\u8d2d\u4e70": 2061,
  "\u2581\u5e0c\u671b": 2062,
  "\u4e00\u90e8\u5206": 2063,
  "\u5f3a\u5927\u7684": 2064,
  "\u706d\u7edd": 2065,
  "\u4e8c\u6c27\u5316": 2066,
  "\u53d8\u5f97\u66f4": 2067,
  "\u548c\u5176\u4ed6": 2068,
  "\u8fd9\u4e2a\u8bcd": 2069,
  "\u2581\u4e5f\u5c31\u662f\u8bf4": 2070,
  "\u4eba\u751f": 2071,
  "\u5f7b\u5e95": 2072,
  "\u5f88\u957f": 2073,
  "\u65e9\u671f": 2074,
  "\u7684\u9ad8": 2075,
  "\u7ed9\u4e88": 2076,
  "\u8fd9\u6b21": 2077,
  "\u8fd9\u7c7b": 2078,
  "\u9014\u5f84": 2079,
  "\u4e00\u4e2a\u5c0f": 2080,
  "\u2581\u968f": 2081,
  "\u4e0d\u591f": 2082,
  "\u5458\u5de5": 2083,
  "\u6001\u5ea6": 2084,
  "\u6bd5\u4e1a": 2085,
  "\u7279\u5f81": 2086,
  "\u57fa\u56e0\u7ec4": 2087,
  "\u6211\u4eec\u662f": 2088,
  "\u8bf4\u7684\u662f": 2089,
  "\u2581\u6d77": 2090,
  "\u5144\u5f1f": 2091,
  "\u5982\u4eca": 2092,
  "\u65e5\u5e38": 2093,
  "\u6cd5\u56fd": 2094,
  "\u707e\u96be": 2095,
  "\u95ee\u6211": 2096,
  "\u600e\u6837\u7684": 2097,
  "\u65b9\u9762\u7684": 2098,
  "\u6240\u6709\u8fd9\u4e9b": 2099,
  "us": 2100,
  "\u6536\u5230": 2101,
  "\u673a\u5236": 2102,
  "\u7ffb\u8bd1": 2103,
  "\u871c\u8702": 2104,
  "\u89c1\u5230": 2105,
  "\u91ca\u653e": 2106,
  "\u2581\u7531\u4e8e": 2107,
  "\u51fa\u73b0\u4e86": 2108,
  "\u6211\u60f3\u8981": 2109,
  "\u7684\u8bbe\u8ba1": 2110,
  "\u2581\u6211\u4eec\u90fd": 2111,
  "\u2581\u8fd9\u662f\u6211\u4eec": 2112,
  "17": 2113,
  "ot": 2114,
  "\u2581\u4e3e": 2115,
  "\u539f\u7406": 2116,
  "\u5e7f\u6cdb": 2117,
  "\u6d41\u884c": 2118,
  "\u7238\u7238": 2119,
  "\u8bf4\u6cd5": 2120,
  "\u2581\u4f60\u8981": 2121,
  "\u2581\u9664\u4e86": 2122,
  "\u2581\u6216\u8005\u662f": 2123,
  "\u4e0b\u4e86": 2124,
  "\u540e\u9762": 2125,
  "\u6211\u5bf9": 2126,
  "\u2581\u4f7f\u7528": 2127,
  "\u2581\u521b\u9020": 2128,
  "\u9700\u8981\u7684": 2129,
  "2000": 2130,
  "\u2581\u65b0": 2131,
  "\u65c5\u7a0b": 2132,
  "\u8d8b\u52bf": 2133,
  "\u8fdb\u53bb": 2134,
  "\u9519\u4e86": 2135,
  "\u2581\u4e00\u65e6": 2136,
  "\u2581\u5047\u5982": 2137,
  "\u7684\u5730": 2138,
  "\u2581\u6211\u4ece": 2139,
  "\u2581\u6bcf\u5929": 2140,
  "\u2581\u5e76\u4e0d\u662f": 2141,
  "13": 2142,
  "\u4e2a\u4f53": 2143,
  "\u6280\u80fd": 2144,
  "\u91d1\u878d": 2145,
  "\u2581\u5168\u7403": 2146,
  "\u2581\u5b83\u4f1a": 2147,
  "\u6709\u610f\u601d": 2148,
  "\u2581\u57fa\u672c\u4e0a": 2149,
  "\u6210\u5343\u4e0a\u4e07": 2150,
  "\u2581W": 2151,
  "\u58a8\u897f": 2152,
  "\u7a7f\u8fc7": 2153,
  "\u58a8\u897f\u54e5": 2154,
  "\u8fd9\u662f\u4e2a": 2155,
  "\u4e2d\u6709": 2156,
  "\u535a\u5ba2": 2157,
  "\u56fe\u4e66": 2158,
  "\u5dde\u7684": 2159,
  "\u63d0\u9192": 2160,
  "\u84dd\u8272": 2161,
  "\u865a\u62df": 2162,
  "\u4e0d\u4ec5\u4ec5": 2163,
  "\u5f88\u5bb9\u6613": 2164,
  "\u4e30\u5bcc": 2165,
  "\u516c\u4f17": 2166,
  "\u5206\u5e03": 2167,
  "\u5229\u7684": 2168,
  "\u6211\u6709": 2169,
  "\u516c\u53f8\u7684": 2170,
  "\u4e8c\u6c27\u5316\u78b3": 2171,
  "\u4ed6\u5728": 2172,
  "\u5185\u5fc3": 2173,
  "\u6848\u4f8b": 2174,
  "\u770b\u4e0d": 2175,
  "\u73b0\u5728\u7684": 2176,
  "\u2581E": 2177,
  "\u4e3a\u6b62": 2178,
  "\u6000\u7591": 2179,
  "\u638c\u63e1": 2180,
  "\u6d6a\u8d39": 2181,
  "\u7ec4\u5408": 2182,
  "\u8fa9\u8bba": 2183,
  "\u7684\u53d1\u5c55": 2184,
  "\u8fd9\u6761": 2185,
  "\u2581\u53ef\u662f": 2186,
  "\u5386\u53f2\u4e0a": 2187,
  "\u2581\u4ed6\u4eec\u8bf4": 2188,
  "\u2581\u6709\u65f6\u5019": 2189,
  "\u53e6\u5916\u4e00\u4e2a": 2190,
  "\u2581\u6362": 2191,
  "\u5199\u7684": 2192,
  "\u523a\u6fc0": 2193,
  "\u673a\u68b0": 2194,
  "\u6b22\u8fce": 2195,
  "\u771f\u7684\u662f": 2196,
  "\u5f3a\u70c8": 2197,
  "\u6781\u7aef": 2198,
  "\u2581\u4ec0\u4e48": 2199,
  "\u4ed6\u4eec\u4f1a": 2200,
  "\u751f\u7269\u5b66": 2201,
  "5%": 2202,
  "\u4e00\u7fa4": 2203,
  "\u4f0a\u65af": 2204,
  "\u542f\u53d1": 2205,
  "\u6267\u884c": 2206,
  "\u76f8\u5bf9": 2207,
  "\u76f8\u673a": 2208,
  "\u7f3a\u4e4f": 2209,
  "\u8863\u670d": 2210,
  "\u2581\u4ed6\u662f": 2211,
  "\u2581\u770b\u5230": 2212,
  "\u2581\u81f3\u5c11": 2213,
  "\u7684\u4eba\u53e3": 2214,
  "\u6027\u522b": 2215,
  "\u80fd\u5728": 2216,
  "\u2581\u53e6\u4e00": 2217,
  "\u4e3b\u4e49\u8005": 2218,
  "\u4e0d\u592a": 2219,
  "\u4f18\u79c0": 2220,
  "\u53d6\u51b3": 2221,
  "\u671f\u95f4": 2222,
  "\u7b49\u5f85": 2223,
  "\u7b80\u76f4": 2224,
  "\u91cd\u70b9": 2225,
  "199": 2226,
  "\u4e16\u754c\u5404\u5730": 2227,
  "\u5c81\u7684\u65f6\u5019": 2228,
  "\u5e94\u5bf9": 2229,
  "\u5f00\u5fc3": 2230,
  "\u64ad\u653e": 2231,
  "\u7ed9\u4e86": 2232,
  "\u9009\u4e3e": 2233,
  "\u96be\u6c11": 2234,
  "\u2581\u4e2d\u56fd": 2235,
  "\u2581\u6211\u6709": 2236,
  "\u4e2a\u5c0f\u65f6": 2237,
  "\u5b69\u5b50\u7684": 2238,
  "\u7684\u4eba\u751f": 2239,
  "\u2581\u514b\u91cc\u65af": 2240,
  "\u2581\u6211\u7684\u610f\u601d\u662f": 2241,
  "\u53cd\u5bf9": 2242,
  "\u62d2\u7edd": 2243,
  "\u671f\u5f85": 2244,
  "\u6fc0\u52a8": 2245,
  "\u8fd8\u80fd": 2246,
  "\u6765\u770b\u770b": 2247,
  "\u89e3\u51b3\u65b9\u6848": 2248,
  "\u4e00\u65e6": 2249,
  "\u5728\u4f60": 2250,
  "\u70ed\u60c5": 2251,
  "\u805a\u96c6": 2252,
  "\u8d70\u4e86": 2253,
  "\u9002\u5408": 2254,
  "\u2581\u4e0d\u4ec5": 2255,
  "\u2581\u4e0d\u540c": 2256,
  "\u2581\u4f46\u5b83": 2257,
  "\u2581\u5728\u8fd9\u91cc": 2258,
  "\u4ece\u6765\u6ca1\u6709": 2259,
  "\u975e\u5e38\u91cd\u8981": 2260,
  "\u540d\u4e3a": 2261,
  "\u6052\u661f": 2262,
  "\u6539\u9769": 2263,
  "\u6765\u505a": 2264,
  "\u6ca1\u4eba": 2265,
  "\u821e\u53f0": 2266,
  "\u8f93\u5165": 2267,
  "\u9ed1\u4eba": 2268,
  "\u4f0a\u62c9\u514b": 2269,
  "\u7684\u65f6\u523b": 2270,
  "\u8ba4\u8bc6\u5230": 2271,
  "\u2581\u6211\u4eec\u5bf9": 2272,
  "\u53d1\u6325": 2273,
  "\u73a9\u5177": 2274,
  "\u8005\u4eec": 2275,
  "\u90e8\u843d": 2276,
  "\u9ed1\u6697": 2277,
  "\u5404\u79cd\u5404": 2278,
  "\u2581\u4ed6\u4eec\u662f": 2279,
  "\u519b\u961f": 2280,
  "\u5224\u65ad": 2281,
  "\u6211\u5c06": 2282,
  "\u6309\u7167": 2283,
  "\u6700\u597d": 2284,
  "\u671b\u8fdc": 2285,
  "\u8840\u7ba1": 2286,
  "\u8d70\u5230": 2287,
  "\u505a\u7684\u4e8b": 2288,
  "\u7cfb\u7edf\u7684": 2289,
  "\u2581\u5927\u591a\u6570": 2290,
  "\u8fd9\u4e2a\u9879\u76ee": 2291,
  "\u5408\u7406": 2292,
  "\u56e2\u4f53": 2293,
  "\u5730\u8bf4": 2294,
  "\u9053\u8def": 2295,
  "\u2581\u4ed6\u5728": 2296,
  "\u4f0a\u65af\u5170": 2297,
  "\u51fa\u4e00\u4e2a": 2298,
  "\u5927\u8111\u7684": 2299,
  "\u60f3\u77e5\u9053": 2300,
  "ra": 2301,
  "\u4ece\u4e8b": 2302,
  "\u4f20\u9012": 2303,
  "\u7ea2\u8272": 2304,
  "\u2581\u4f60\u770b": 2305,
  "\u6211\u4eec\u90fd": 2306,
  "\u662f\u8fd9\u6837": 2307,
  "\u671b\u8fdc\u955c": 2308,
  "\u4f0a\u6717": 2309,
  "\u5f88\u5c11": 2310,
  "\u82f9\u679c": 2311,
  "\u9762\u79ef": 2312,
  "\u53d6\u51b3\u4e8e": 2313,
  "\u6211\u81ea\u5df1": 2314,
  "\u7684\u673a\u4f1a": 2315,
  "\u7b2c\u4e8c\u4e2a": 2316,
  "\u2581\u6211\u53d1\u73b0": 2317,
  "\u505a\u8fc7": 2318,
  "\u53bb\u5e74": 2319,
  "\u5408\u9002": 2320,
  "\u5b66\u5230": 2321,
  "\u7ef4\u6301": 2322,
  "\u8fdb\u6765": 2323,
  "\u9ebb\u70e6": 2324,
  "\u2581\u5c31\u4f1a": 2325,
  "\u4e00\u4e9b\u4eba": 2326,
  "\u540c\u6027\u604b": 2327,
  "\u4fbf\u5b9c": 2328,
  "\u5bff\u547d": 2329,
  "\u8106\u5f31": 2330,
  "\u8d70\u5411": 2331,
  "\u2581\u793e\u4f1a": 2332,
  "\u76f8\u5f53\u4e8e": 2333,
  "\u6211\u4eec\u5e94\u8be5": 2334,
  "\u2581N": 2335,
  "\u4e07\u4eba": 2336,
  "\u624b\u6bb5": 2337,
  "\u62a5\u7eb8": 2338,
  "\u6d89\u53ca": 2339,
  "\u2581\u597d\u4e86": 2340,
  "\u4e00\u7cfb\u5217": 2341,
  "\u611f\u89c9\u5230": 2342,
  "\u6240\u8c13\u7684": 2343,
  "\u6709\u4e00\u5929": 2344,
  "\u9519\u8bef\u7684": 2345,
  "\u51fa\u7248": 2346,
  "\u628a\u8fd9": 2347,
  "\u7248\u672c": 2348,
  "\u73bb\u7483": 2349,
  "\u7c92\u5b50": 2350,
  "\u91c7\u7528": 2351,
  "\u2581\u624d\u80fd": 2352,
  "\u2581\u7b2c\u4e09": 2353,
  "\u4ea7\u751f\u4e86": 2354,
  "\u4f7f\u6211\u4eec": 2355,
  "\u505a\u4e00\u4e2a": 2356,
  "\u6211\u5f00\u59cb": 2357,
  "\u6709\u4e9b\u4eba": 2358,
  "\u7f8e\u56fd\u7684": 2359,
  "?\u201c": 2360,
  "\u5448\u73b0": 2361,
  "\u5c31\u6709": 2362,
  "\u753b\u9762": 2363,
  "\u9057\u4f20": 2364,
  "\u95f4\u7684": 2365,
  "\u4e5f\u4e0d\u4f1a": 2366,
  "\u8fd9\u4e0d\u662f": 2367,
  "\u2581\u5c24\u5176\u662f": 2368,
  "\u4e16\u754c\u4e0a\u6700": 2369,
  "\u6bcf\u4e2a\u4eba\u90fd": 2370,
  "id": 2371,
  "\u3002\"": 2372,
  "\u4ece\u4e2d": 2373,
  "\u505a\u6cd5": 2374,
  "\u5927\u4f17": 2375,
  "\u671f\u671b": 2376,
  "\u6bcf\u6b21": 2377,
  "\u8272\u5217": 2378,
  "\u5728\u54ea\u91cc": 2379,
  "\u5931\u53bb\u4e86": 2380,
  "\u8fd9\u4e48\u591a": 2381,
  "\u2581\u6211\u5f53\u65f6": 2382,
  "\u2581\u4e8e\u662f\u6211\u4eec": 2383,
  "\u2581\u8fd9\u5c31\u662f\u4e3a\u4ec0\u4e48": 2384,
  "\u2581\u5929": 2385,
  "\u4f9b\u5e94": 2386,
  "\u54ea\u4e2a": 2387,
  "\u56de\u4e8b": 2388,
  "\u5927\u6c14": 2389,
  "\u5e7b\u706f": 2390,
  "\u65c1\u8fb9": 2391,
  "\u6781\u5176": 2392,
  "\u6d77\u5cb8": 2393,
  "\u2581\u5979\u7684": 2394,
  "\u2581\u6839\u636e": 2395,
  "\u53d1\u5c55\u7684": 2396,
  "\u6211\u5df2\u7ecf": 2397,
  "\u6ca1\u4ec0\u4e48": 2398,
  "\u7684\u60c5\u51b5\u4e0b": 2399,
  "24": 2400,
  "\u2581\u5e74": 2401,
  "\u5177\u4f53": 2402,
  "\u5230\u5904": 2403,
  "\u58eb\u5175": 2404,
  "\u5c45\u6c11": 2405,
  "\u6e34\u671b": 2406,
  "\u76f8\u6bd4": 2407,
  "\u987a\u4fbf": 2408,
  "\u6148\u5584": 2409,
  "\u6c99\u6f20": 2410,
  "\u8d85\u8d8a": 2411,
  "1000": 2412,
  "\u4e00\u7247": 2413,
  "\u4e0d\u597d": 2414,
  "\u5c06\u6765": 2415,
  "\u6211\u548c": 2416,
  "\u65af\u6797": 2417,
  "\u6f5c\u6c34": 2418,
  "\u7269\u54c1": 2419,
  "\u88ad\u51fb": 2420,
  "\u4ed6\u4eec\u662f": 2421,
  "\u5bf9\u6211\u6765\u8bf4": 2422,
  "\u66f2\u7ebf": 2423,
  "\u6c14\u4f53": 2424,
  "\u6df7\u5408": 2425,
  "\u4eca\u5929\u7684": 2426,
  "\u4ef6\u4e8b\u60c5": 2427,
  "\u540c\u4e00\u4e2a": 2428,
  "\u7684\u65f6\u4ee3": 2429,
  "\u771f\u7684\u5f88": 2430,
  "\u7a46\u65af\u6797": 2431,
  "\u4f1f\u5927": 2432,
  "\u5f3a\u5927": 2433,
  "\u63a5\u7740": 2434,
  "\u65e0\u7ebf": 2435,
  "\u6709\u65f6": 2436,
  "\u2581\u4e00\u76f4": 2437,
  "\u53ea\u9700\u8981": 2438,
  "\u53ef\u80fd\u7684": 2439,
  "\u90a3\u5c31\u662f": 2440,
  "\u4e08\u592b": 2441,
  "\u4f60\u60f3": 2442,
  "\u63a2\u6d4b": 2443,
  "\u75c7\u72b6": 2444,
  "\u9690\u85cf": 2445,
  "\u6211\u4eec\u4e0d": 2446,
  "\u2581\u5728\u4e00\u4e2a": 2447,
  "\u2581\u6211\u559c\u6b22": 2448,
  "\u2581\u624d": 2449,
  "\u4e00\u4efd": 2450,
  "\u4e86\u5417": 2451,
  "\u957f\u671f": 2452,
  "\u628a\u4ed6\u4eec": 2453,
  "\u7684\u5b66\u751f": 2454,
  "\u4e00\u4e2a\u95ee\u9898": 2455,
  "\u8fd9\u4e9b\u95ee\u9898": 2456,
  "\u519c\u6c11": 2457,
  "\u5219\u662f": 2458,
  "\u540c\u4e00": 2459,
  "\u6807\u5fd7": 2460,
  "\u7535\u529b": 2461,
  "\u8bc4\u8bba": 2462,
  "\u95ed\u75c7": 2463,
  "\u2581\u4ec5\u4ec5": 2464,
  "\u7684\u901f\u5ea6": 2465,
  "\u2581\u6211\u4eec\u4e0d": 2466,
  "\u4e3b\u610f": 2467,
  "\u56fe\u8868": 2468,
  "\u7740\u7684": 2469,
  "\u8bbe\u60f3": 2470,
  "\u8fdc\u7684": 2471,
  "\u903b\u8f91": 2472,
  "\u53d1\u73b0\u7684": 2473,
  "\u60ca\u4eba\u7684": 2474,
  "\u2581\u300a": 2475,
  "\u5168\u56fd": 2476,
  "\u53e4\u8001": 2477,
  "\u597d\u5947": 2478,
  "\u5bf9\u8c61": 2479,
  "\u4e2a\u4f8b\u5b50": 2480,
  "\u5e94\u8be5\u662f": 2481,
  "\u6709\u6548\u7684": 2482,
  "\u7684\u884c\u4e3a": 2483,
  "\u4e34\u5e8a": 2484,
  "\u4e50\u89c2": 2485,
  "\u540e\u679c": 2486,
  "\u5b57\u6bcd": 2487,
  "\u6211\u8fd8": 2488,
  "\u6559\u5b66": 2489,
  "\u7528\u5b83": 2490,
  "\u770b\u4e86": 2491,
  "\u8c03\u6574": 2492,
  "\u2581\u968f\u7740": 2493,
  "\u4e86\u4e0d\u8d77": 2494,
  "\u6211\u4eec\u5c06": 2495,
  "\u6ce8\u610f\u529b": 2496,
  "\u2581\u60f3\u8c61\u4e00\u4e0b": 2497,
  "\u5171\u4eab": 2498,
  "\u524d\u9762": 2499,
  "\u540d\u53eb": 2500,
  "\u56de\u53bb": 2501,
  "\u5e26\u5230": 2502,
  "\u5fd8\u8bb0": 2503,
  "\u6bd2\u54c1": 2504,
  "\u7a33\u5b9a": 2505,
  "\u5982\u679c\u6211": 2506,
  "\u2581\u4f46\u4ed6\u4eec": 2507,
  "\u2581\u6211\u4eec\u5e94\u8be5": 2508,
  "\u2581\u5f00": 2509,
  "\u2581\u7231": 2510,
  "\u2581\u963f": 2511,
  "\u4f30\u8ba1": 2512,
  "\u6548\u7387": 2513,
  "\u89d2\u843d": 2514,
  "\u90fd\u8981": 2515,
  "\u2581\u6700\u8fd1": 2516,
  "\u611f\u77e5": 2517,
  "\u6280\u5de7": 2518,
  "\u8bc6\u522b": 2519,
  "\u8bf4\u670d": 2520,
  "\u2581\u7a81\u7136": 2521,
  "\u2581\u8fc7\u53bb": 2522,
  "\u5168\u65b0\u7684": 2523,
  "\u57fa\u672c\u7684": 2524,
  "\u7f8e\u4e3d\u7684": 2525,
  "\u9ed1\u7329\u7329": 2526,
  "\u4e0d\u5e78": 2527,
  "\u5728\u7684": 2528,
  "\u628a\u6211": 2529,
  "\u751f\u610f": 2530,
  "\u7eb3\u7c73": 2531,
  "\u81f4\u529b": 2532,
  "\u2581\u6210\u4e3a": 2533,
  "\u4e0d\u4e00\u6837": 2534,
  "\u52a8\u7269\u7684": 2535,
  "\u6240\u8bf4\u7684": 2536,
  "\u81ea\u884c\u8f66": 2537,
  "\u67d0\u79cd\u7a0b\u5ea6\u4e0a": 2538,
  "\u516c\u5e73": 2539,
  "\u54ea\u513f": 2540,
  "\u5ba2\u6237": 2541,
  "\u6b7b\u4e86": 2542,
  "\u6f14\u793a": 2543,
  "\u7b56\u7565": 2544,
  "\u884c\u8d70": 2545,
  "\u8986\u76d6": 2546,
  "ing": 2547,
  "\u6211\u5e0c\u671b": 2548,
  "\u6bb5\u65f6\u95f4": 2549,
  "\u8ba9\u4eba\u4eec": 2550,
  "\u2581\u5728\u90a3\u91cc": 2551,
  "\u8fd9\u4e9b\u6570\u636e": 2552,
  "\u2581\u5bf9\u6211\u6765\u8bf4": 2553,
  "\u4ea4\u8c08": 2554,
  "\u53d1\u5e03": 2555,
  "\u5c31\u8981": 2556,
  "\u5f97\u4e86": 2557,
  "\u7167\u987e": 2558,
  "\u77db\u76fe": 2559,
  "\u2581\u4e0b\u9762": 2560,
  "\u57fa\u91d1\u4f1a": 2561,
  "\u7684\u9879\u76ee": 2562,
  "21": 2563,
  "\u2581\u653e": 2564,
  "\u4e00\u8fb9": 2565,
  "\u6307\u6570": 2566,
  "\u6559\u5802": 2567,
  "\u6700\u521d": 2568,
  "\u7684\u4e66": 2569,
  "\u8bf4\u662f": 2570,
  "\u8d77\u4e86": 2571,
  "\u8fb9\u7f18": 2572,
  "\u900f\u660e": 2573,
  "\u2581CA": 2574,
  "\u544a\u8bc9\u4ed6\u4eec": 2575,
  "ur": 2576,
  "\u4f19\u4f34": 2577,
  "\u4f9d\u9760": 2578,
  "\u5b9e\u8df5": 2579,
  "\u63d0\u5347": 2580,
  "\u66f4\u6709": 2581,
  "\u7591\u95ee": 2582,
  "\u9707\u60ca": 2583,
  "\u6211\u4eec\u81ea\u5df1": 2584,
  "\u2581\u4f5c\u4e3a\u4e00\u4e2a": 2585,
  "\u2581I": 2586,
  "\u503e\u5411": 2587,
  "\u524d\u8fdb": 2588,
  "\u6211\u4eec\u4e5f": 2589,
  "\u2581\u6211\u4eec\u628a": 2590,
  "\u2581\u6211\u662f\u8bf4": 2591,
  "\u5408\u6cd5": 2592,
  "\u56de\u5e94": 2593,
  "\u5916\u9762": 2594,
  "\u6b7b\u53bb": 2595,
  "\u9001\u5230": 2596,
  "\u2581\u662f\u5426": 2597,
  "\u2581\u89c2\u4f17": 2598,
  "\u4efb\u4f55\u4eba": 2599,
  "\u521b\u9020\u529b": 2600,
  "\u6709\u6ca1\u6709": 2601,
  "\u2581\u5f88\u591a\u4eba": 2602,
  "\u2581\u8fd9\u662f\u4e00\u79cd": 2603,
  "\u4e0d\u505c": 2604,
  "\u4e24\u5e74": 2605,
  "\u4f1a\u513f": 2606,
  "\u542f\u52a8": 2607,
  "\u5bcc\u6709": 2608,
  "\u5de6\u8fb9": 2609,
  "\u6df1\u523b": 2610,
  "\u7efc\u5408": 2611,
  "\u8f6c\u79fb": 2612,
  "\u2581\u4f7f\u5f97": 2613,
  "\u4e0d\u53ea\u662f": 2614,
  "\u5728\u8fd9\u4e9b": 2615,
  "\u7684\u91cd\u8981": 2616,
  "\u6597\u4e89": 2617,
  "\u6807\u8bb0": 2618,
  "\u8fd9\u70b9": 2619,
  "\u2581\u8fd9\u4e5f": 2620,
  "\u5728\u6211\u7684": 2621,
  "\u2581\u4f60\u9700\u8981": 2622,
  "\u2581\u6211\u4eec\u4ece": 2623,
  "\u2581\u800c\u8fd9\u4e9b": 2624,
  "\u2581\u8ba9\u4ed6\u4eec": 2625,
  "\u2581\u8fd9\u4e9b\u662f": 2626,
  "hr": 2627,
  "\u2581\u6570": 2628,
  "\u4e00\u81f4": 2629,
  "\u4ee3\u7801": 2630,
  "\u6295\u7968": 2631,
  "\u6539\u8fdb": 2632,
  "\u77ac\u95f4": 2633,
  "\u8c08\u8bdd": 2634,
  "\u2581\u4e00\u4f4d": 2635,
  "\u4e00\u4ef6\u4e8b": 2636,
  "\u4f20\u7edf\u7684": 2637,
  "\u2581\u56e0\u4e3a\u8fd9": 2638,
  "\u4e00\u53f0": 2639,
  "\u5370\u8c61": 2640,
  "\u7279\u5b9a": 2641,
  "\u8d4b\u4e88": 2642,
  "\u8f6c\u5316": 2643,
  "\u7684\u6982\u5ff5": 2644,
  "\u2581\u5927\u90e8\u5206": 2645,
  "\u57fa\u7840\u8bbe\u65bd": 2646,
  "\u4e00\u751f": 2647,
  "\u4eba\u548c": 2648,
  "\u51b3\u7b56": 2649,
  "\u6559\u5e08": 2650,
  "\u7a7f\u7740": 2651,
  "\u7d27\u5f20": 2652,
  "\u8270\u96be": 2653,
  "\u8857\u9053": 2654,
  "\u8c61\u5f81": 2655,
  "\u2581\u5176\u4ed6": 2656,
  "\u552f\u4e00\u7684": 2657,
  "\u5f88\u7b80\u5355": 2658,
  "\u2581\u300c": 2659,
  "\u53d7\u5bb3": 2660,
  "\u5a5a\u59fb": 2661,
  "\u5f3a\u8c03": 2662,
  "\u5f62\u6001": 2663,
  "\u9886\u8896": 2664,
  "\u2581\u53d1\u73b0": 2665,
  "\u2581\u63d0\u4f9b": 2666,
  "\u5411\u4f60\u4eec": 2667,
  "\u5e7b\u706f\u7247": 2668,
  ",000": 2669,
  "\u6bcf\u4e00\u4e2a\u4eba": 2670,
  "ay": 2671,
  "\u4eba\u5de5": 2672,
  "\u5546\u54c1": 2673,
  "\u5c0a\u91cd": 2674,
  "\u6587\u4ef6": 2675,
  "\u6837\u672c": 2676,
  "\u89c4\u5212": 2677,
  "\u91cd\u5927": 2678,
  "\u2581\u662f\u5728": 2679,
  "\u2581\u6bcf\u5e74": 2680,
  "\u5c31\u5f00\u59cb": 2681,
  "\u662f\u5173\u4e8e": 2682,
  "\u81ea\u7136\u7684": 2683,
  "\u4e0d\u8db3": 2684,
  "\u57c3\u53ca": 2685,
  "\u603b\u7ed3": 2686,
  "\u6d3b\u8dc3": 2687,
  "\u771f\u76f8": 2688,
  "\u79cd\u690d": 2689,
  "\u9ad8\u4e2d": 2690,
  "\u5145\u6ee1\u4e86": 2691,
  "\u542c\u8bf4\u8fc7": 2692,
  "\u76f8\u5173\u7684": 2693,
  "\u81f4\u529b\u4e8e": 2694,
  "\u53bb\u770b": 2695,
  "\u53f3\u8fb9": 2696,
  "\u5bfb\u5e38": 2697,
  "\u5f88\u4e45": 2698,
  "\u6210\u7acb": 2699,
  "\u624b\u6307": 2700,
  "\u63aa\u65bd": 2701,
  "\u6709\u673a": 2702,
  "\u73a9\u800d": 2703,
  "\u7b97\u6cd5": 2704,
  "\u8fd9\u4f4d": 2705,
  "\u90fd\u88ab": 2706,
  "\u4f60\u81ea\u5df1": 2707,
  "\u7684\u4e8b\u5b9e": 2708,
  "\u7684\u89d2\u5ea6": 2709,
  "\u77e5\u9053\u7684": 2710,
  "\u2581\u6211\u4eec\u6240": 2711,
  "?\"": 2712,
  "\u5c06\u5176": 2713,
  "\u5c11\u5e74": 2714,
  "\u6f14\u5458": 2715,
  "\u7740\u624b": 2716,
  "\u808c\u8089": 2717,
  "\u91cd\u5efa": 2718,
  "\u521b\u9020\u4e86": 2719,
  "\u5b8c\u7f8e\u7684": 2720,
  "\u5c0f\u5c0f\u7684": 2721,
  "\u975e\u6d32\u7684": 2722,
  "\u53d1\u5c55\u4e2d\u56fd\u5bb6": 2723,
  "im": 2724,
  "\u4eba\u7fa4": 2725,
  "\u4f20\u67d3": 2726,
  "\u5316\u77f3": 2727,
  "\u5357\u975e": 2728,
  "\u5956\u52b1": 2729,
  "\u5bfb\u6c42": 2730,
  "\u6124\u6012": 2731,
  "\u63a8\u52a8": 2732,
  "\u7279\u6027": 2733,
  "\u79fb\u6c11": 2734,
  "\u5fc5\u987b\u8981": 2735,
  "\u7684\u751f\u7269": 2736,
  "\u7814\u7a76\u7684": 2737,
  "\u8fdb\u884c\u4e86": 2738,
  "\u2581\u56e0\u4e3a\u5728": 2739,
  "\u2581\u5728\u7f8e\u56fd": 2740,
  "\u2581\u7136\u540e\u4f60": 2741,
  "\u4e3b\u9898": 2742,
  "\u5f00\u8f66": 2743,
  "\u6548\u5e94": 2744,
  "\u6d41\u611f": 2745,
  "\u89c6\u89d2": 2746,
  "\u8fdb\u5c55": 2747,
  "\u90bb\u5c45": 2748,
  "\u4ed6\u4eec\u8bf4": 2749,
  "\u611f\u53d7\u5230": 2750,
  "\u662f\u6211\u7684": 2751,
  "\u7c7b\u4f3c\u7684": 2752,
  "\u4e00\u523b": 2753,
  "\u4e0a\u6709": 2754,
  "\u4e25\u8083": 2755,
  "\u52a8\u673a": 2756,
  "\u56f4\u7ed5": 2757,
  "\u4e00\u5f00\u59cb": 2758,
  "\u5230\u4e00\u4e2a": 2759,
  "\u7684\u90e8\u5206": 2760,
  "\u2581\u8fd9\u4e9b\u90fd\u662f": 2761,
  "\u2581,": 2762,
  "\u534e\u76db": 2763,
  "\u5f55\u50cf": 2764,
  "\u662f\u8c01": 2765,
  "\u6ca1\u6cd5": 2766,
  "\u8f68\u9053": 2767,
  "\u2581\u53eb\u505a": 2768,
  "\u4e8b\u4e1a": 2769,
  "\u5173\u8054": 2770,
  "\u5b58\u6d3b": 2771,
  "\u65e0\u4eba": 2772,
  "\u91d1\u5c5e": 2773,
  "\u2581\u5728\u90a3": 2774,
  "\u2581\u653f\u5e9c": 2775,
  "\u534e\u76db\u987f": 2776,
  "\u6253\u7535\u8bdd": 2777,
  "\u670b\u53cb\u4eec": 2778,
  "\u7684\u7b2c\u4e00": 2779,
  "\u88ab\u79f0\u4e3a": 2780,
  "\u6ca1\u6709\u4ec0\u4e48": 2781,
  "\u2581\u6211\u4eec\u5e0c\u671b": 2782,
  "ub": 2783,
  "\u2581\u4e9a": 2784,
  "\u4eba\u58eb": 2785,
  "\u5730\u4e0a": 2786,
  "\u610f\u89c1": 2787,
  "\u660e\u786e": 2788,
  "\u7761\u7720": 2789,
  "\u7cbe\u786e": 2790,
  "\u821e\u8e48": 2791,
  "\u8840\u6db2": 2792,
  "\u9884\u9632": 2793,
  "\u5b89\u5fb7\u68ee": 2794,
  "\u751f\u6001\u7cfb\u7edf": 2795,
  "\u8fd9\u4e2a\u6545\u4e8b": 2796,
  "\u4e13\u6ce8": 2797,
  "\u7075\u611f": 2798,
  "\u770b\u8fc7": 2799,
  "\u7f8e\u6d32": 2800,
  "300": 2801,
  "ill": 2802,
  "\u2581\u5e2e\u52a9": 2803,
  "\u2581\u6211\u80fd": 2804,
  "\u56e0\u65af\u5766": 2805,
  "\u600e\u4e48\u529e": 2806,
  "\u8fd8\u53ef\u4ee5": 2807,
  "\u2581\u4f46\u662f\u5728": 2808,
  "un": 2809,
  "\u5355\u8bcd": 2810,
  "\u6240\u9700": 2811,
  "\u6749\u77f6": 2812,
  "\u7247\u6bb5": 2813,
  "\u73af\u4fdd": 2814,
  "\u4e86\u89e3\u5230": 2815,
  "\u5927\u89c4\u6a21": 2816,
  "\u6d1b\u6749\u77f6": 2817,
  "\u7684\u6240\u6709": 2818,
  "\u81ea\u95ed\u75c7": 2819,
  "\u5c31\u662f\u8fd9\u6837": 2820,
  "\u6700\u91cd\u8981\u7684": 2821,
  "\u4f5c\u5bb6": 2822,
  "\u5bf9\u65b9": 2823,
  "\u6291\u90c1": 2824,
  "\u6751\u5e84": 2825,
  "\u8d39\u7528": 2826,
  "\u65f6\u95f4\u7684": 2827,
  "\u975e\u5e38\u6709": 2828,
  "\u2581\u8fd9\u662f\u4e00": 2829,
  "\u6211\u4eec\u80fd\u591f": 2830,
  "\u4e13\u5229": 2831,
  "\u5728\u4e86": 2832,
  "\u5c3c\u65e5": 2833,
  "\u5fb7\u91cc": 2834,
  "\u627f\u8bfa": 2835,
  "\u65cb\u8f6c": 2836,
  "\u6765\u8bb2": 2837,
  "\u6b7b\u4e8e": 2838,
  "\u76f4\u89c9": 2839,
  "\u8c08\u5230": 2840,
  "\u8f6c\u6362": 2841,
  "\u9500\u552e": 2842,
  "gle": 2843,
  "\u2581\u6b63\u662f": 2844,
  "\u4e00\u70b9\u70b9": 2845,
  "\u4ee5\u8272\u5217": 2846,
  "\u548c\u6211\u4eec": 2847,
  "\u7684\u4e00\u70b9": 2848,
  "\u7ec4\u7ec7\u7684": 2849,
  "\u80af\u5c3c\u4e9a": 2850,
  "\u98de\u884c\u5668": 2851,
  "\u2581\u8fd9\u4e9b\u4eba": 2852,
  "\u2581\u6211\u4eec\u8ba4\u4e3a": 2853,
  "eb": 2854,
  "\u4fbf\u662f": 2855,
  "\u5206\u88c2": 2856,
  "\u524d\u7684": 2857,
  "\u5730\u4e0b": 2858,
  "\u57f9\u8bad": 2859,
  "\u6210\u5e74": 2860,
  "\u65e0\u6240": 2861,
  "\u6e05\u6670": 2862,
  "\u7334\u5b50": 2863,
  "\u81f3\u4eca": 2864,
  "\u8461\u8404": 2865,
  "\u2581\u62e5\u6709": 2866,
  "\u5bf9\u6211\u8bf4": 2867,
  "\u5e72\u7ec6\u80de": 2868,
  "\u5f88\u6709\u8da3": 2869,
  "\u2581\u6211\u4eec\u662f": 2870,
  "iP": 2871,
  "\u4e24\u8005": 2872,
  "\u5c55\u5f00": 2873,
  "\u5e03\u9c81": 2874,
  "\u7b26\u5408": 2875,
  "\u8fd8\u4f1a": 2876,
  "\u9633\u5149": 2877,
  "\u2581\u800c\u5728": 2878,
  "\u9020\u6210\u7684": 2879,
  "\u2581\u73b0\u5728\u6211": 2880,
  "\u4eba\u4f53": 2881,
  "\u4eea\u5668": 2882,
  "\u5730\u4f4d": 2883,
  "\u62ff\u7740": 2884,
  "\u672c\u6765": 2885,
  "\u6d41\u52a8": 2886,
  "\u6df7\u4e71": 2887,
  "\u79c1\u4eba": 2888,
  "\u8861\u91cf": 2889,
  "\u8ddf\u6211": 2890,
  "\u964c\u751f": 2891,
  "\u57ce\u5e02\u7684": 2892,
  "\u7279\u522b\u7684": 2893,
  "\u2581\u5f53\u4ed6\u4eec": 2894,
  "\u2581\u6211\u5df2\u7ecf": 2895,
  "\u5904\u5728": 2896,
  "\u5b83\u4f1a": 2897,
  "\u5f8b\u5e08": 2898,
  "\u635f\u5931": 2899,
  "\u653e\u5927": 2900,
  "\u72b9\u592a": 2901,
  "\u7b14\u8bb0": 2902,
  "\u80cc\u540e": 2903,
  "\u91c7\u8bbf": 2904,
  "\u2581\u81ea\u5df1": 2905,
  "\u505a\u4e00\u4e9b": 2906,
  "\u50cf\u8fd9\u6837": 2907,
  "\u7684\u4eba\u7c7b": 2908,
  "\u2581\u7279\u522b\u662f": 2909,
  "\u4f18\u52bf": 2910,
  "\u53d1\u5c04": 2911,
  "\u5dee\u522b": 2912,
  "\u5f71\u7247": 2913,
  "\u5fd7\u613f": 2914,
  "\u5ffd\u7565": 2915,
  "\u6293\u4f4f": 2916,
  "\u7956\u5148": 2917,
  "\u2581\u60f3\u60f3": 2918,
  "\u2581\u6539\u53d8": 2919,
  "\u4e07\u7f8e\u5143": 2920,
  "\u7279\u5b9a\u7684": 2921,
  "\u7684\u4f4d\u7f6e": 2922,
  "\u63a5\u4e0b\u6765\u7684": 2923,
  "\u2581\u6211\u4eec\u6b63\u5728": 2924,
  "\u4e00\u767e": 2925,
  "\u4e0d\u5bf9": 2926,
  "\u4e3a\u6b64": 2927,
  "\u518d\u751f": 2928,
  "\u5927\u578b": 2929,
  "\u5b50\u4e0a": 2930,
  "\u6253\u7834": 2931,
  "\u79f0\u4f5c": 2932,
  "\u89c2\u770b": 2933,
  "\u4e16\u7eaa\u7684": 2934,
  "\u5e74\u8f7b\u7684": 2935,
  "\u2581\u8be5": 2936,
  "\u4e4b\u5185": 2937,
  "\u5730\u70b9": 2938,
  "\u5ba3\u4f20": 2939,
  "\u5c55\u89c8": 2940,
  "\u5f97\u66f4": 2941,
  "\u624d\u4f1a": 2942,
  "\u662f\u4f60": 2943,
  "\u6a21\u4eff": 2944,
  "\u8425\u517b": 2945,
  "\u91cf\u5b50": 2946,
  "\u5730\u7403\u7684": 2947,
  "\u90a3\u4e48\u591a": 2948,
  "\u975e\u5e38\u7684": 2949,
  "\u2581\u8fd9\u662f\u5728": 2950,
  "\u4ec0\u4e48\u65f6\u5019": 2951,
  "\u4e3a\u4f55": 2952,
  "\u5145\u5206": 2953,
  "\u542c\u8bf4": 2954,
  "\u5e73\u65b9": 2955,
  "\u613f\u671b": 2956,
  "\u7ed3\u5a5a": 2957,
  "\u8fdb\u4e86": 2958,
  "\u9053\u7406": 2959,
  "\u91d1\u94b1": 2960,
  "\u9677\u5165": 2961,
  "\u96be\u9053": 2962,
  "\u2581\u786e\u5b9e": 2963,
  "\u56fe\u4e66\u9986": 2964,
  "\u5efa\u7b51\u5e08": 2965,
  "\u63d0\u5230\u7684": 2966,
  "\u2581\u4e16\u754c\u4e0a": 2967,
  "\u2581\u4f60\u53ef\u80fd": 2968,
  "\u2581\u56e0\u4e3a\u4f60": 2969,
  "\u505a\u4e9b\u4ec0\u4e48": 2970,
  "\u2581\u4f60\u4f1a\u53d1\u73b0": 2971,
  "\u2581\u54e6": 2972,
  "\u53d8\u7684": 2973,
  "\u60c5\u5f62": 2974,
  "\u6570\u7684": 2975,
  "\u6b63\u5982": 2976,
  "\u7ed9\u4ed6": 2977,
  "\u9ad8\u5ea6": 2978,
  "\u4f01\u4e1a\u5bb6": 2979,
  "\u6280\u672f\u7684": 2980,
  "\u662f\u600e\u6837": 2981,
  "\u66f4\u5927\u7684": 2982,
  "\u793e\u4f1a\u7684": 2983,
  "\u7ec4\u6210\u7684": 2984,
  "\u2581\u6211\u4eec\u60f3": 2985,
  "\u4f60\u53ef\u4ee5\u770b\u5230": 2986,
  "%,": 2987,
  "45": 2988,
  "\u56fe\u6848": 2989,
  "\u5730\u7406": 2990,
  "\u573a\u666f": 2991,
  "\u597d\u4e8b": 2992,
  "\u5e94\u5f53": 2993,
  "\u6307\u51fa": 2994,
  "\u63d0\u53d6": 2995,
  "\u6446\u8131": 2996,
  "\u6781\u4e86": 2997,
  "\u73b0\u72b6": 2998,
  "400": 2999,
  "\u2581\u5370\u5ea6": 3000,
  "\u5728\u8fd9\u513f": 3001,
  "\u6211\u73b0\u5728": 3002,
  "\u62e5\u6709\u7684": 3003,
  "\u8ba9\u4f60\u4eec": 3004,
  "\u2581\u770b\u8d77\u6765": 3005,
  "\u4e13\u95e8": 3006,
  "\u4e89\u8bba": 3007,
  "\u503e\u542c": 3008,
  "\u5236\u5b9a": 3009,
  "\u52a0\u5dde": 3010,
  "\u5947\u8ff9": 3011,
  "\u5f15\u53d1": 3012,
  "\u6539\u9020": 3013,
  "\u8fbe\u5c14": 3014,
  "\u662f\u4e00\u540d": 3015,
  "\u2581\u5b83\u53ef\u4ee5": 3016,
  "\u2581\u6211\u4eec\u7528": 3017,
  "\u2581\u6211\u8bb0\u5f97": 3018,
  "\u5927\u591a\u6570\u4eba": 3019,
  "ir": 3020,
  "\u2581[": 3021,
  "\u2581\u827e": 3022,
  "\u4eba\u7269": 3023,
  "\u4fdd\u7559": 3024,
  "\u5373\u5c06": 3025,
  "\u5c14\u7684": 3026,
  "\u8001\u5e74": 3027,
  "\u5065\u5eb7\u7684": 3028,
  "\u591a\u6837\u6027": 3029,
  "\u5b8c\u6210\u7684": 3030,
  "\u7684\u8fd9\u4e2a": 3031,
  "\u2581\u6211\u4eec\u5f00\u59cb": 3032,
  "ia": 3033,
  "\u4e00\u904d": 3034,
  "\u4e0a\u5b66": 3035,
  "\u4fee\u590d": 3036,
  "\u6700\u5927": 3037,
  "\u6fb3\u5927": 3038,
  "\u8d35\u7684": 3039,
  "---": 3040,
  "\u2581\u53bb\u5e74": 3041,
  "\u4e0d\u559c\u6b22": 3042,
  "\u5e26\u6765\u4e86": 3043,
  "\u7684\u53d8\u5316": 3044,
  "\u2581\u6211\u4e0d\u662f": 3045,
  "oogle": 3046,
  "ob": 3047,
  "\u4ea7\u4e1a": 3048,
  "\u51fa\u53d1": 3049,
  "\u5c06\u5b83": 3050,
  "\u5f53\u4f5c": 3051,
  "\u5f97\u5f88": 3052,
  "\u626e\u6f14": 3053,
  "\u759f\u75be": 3054,
  "\u795e\u79d8": 3055,
  "\u5b87\u5b99\u7684": 3056,
  "\u544a\u8bc9\u5927\u5bb6": 3057,
  "\u89e3\u51b3\u95ee\u9898": 3058,
  "99": 3059,
  "ow": 3060,
  "\u2581\u524d": 3061,
  "\u4f01\u9e45": 3062,
  "\u5192\u9669": 3063,
  "\u52a0\u901f": 3064,
  "\u5927\u9646": 3065,
  "\u5929\u7684": 3066,
  "\u62ff\u5230": 3067,
  "\u6574\u4f53": 3068,
  "\u6807\u7b7e": 3069,
  "\u77ed\u4fe1": 3070,
  "\u79d2\u949f": 3071,
  "\u8054\u90a6": 3072,
  "\u258110": 3073,
  "\u2581\u5927\u8111": 3074,
  "\u2581\u5c31\u80fd": 3075,
  "\u542c\u5230\u7684": 3076,
  "\u5927\u5b66\u7684": 3077,
  "\u5f00\u59cb\u7684": 3078,
  "\u6b64\u540c\u65f6": 3079,
  "\u7684\u57ce\u5e02": 3080,
  "\u2581\u4f60\u5fc5\u987b": 3081,
  "\u2581\u6709\u4e9b\u4eba": 3082,
  "\u6211\u4eec\u5982\u4f55": 3083,
  "\u6fb3\u5927\u5229\u4e9a": 3084,
  "ul": 3085,
  "\u5236\u7684": 3086,
  "\u5e74\u4e86": 3087,
  "\u5f15\u64ce": 3088,
  "\u7a0d\u5fae": 3089,
  "\u7cbe\u5f69": 3090,
  "\u7ec3\u4e60": 3091,
  "\u96be\u9898": 3092,
  "\u9ed1\u5ba2": 3093,
  "\u4ef7\u503c\u89c2": 3094,
  "\u5341\u5e74\u4ee3": 3095,
  "\u5176\u4e2d\u4e00\u4e2a": 3096,
  "\u5c3c\u65e5\u5229\u4e9a": 3097,
  "\u4e94\u4e2a": 3098,
  "\u50cf\u6211": 3099,
  "\u5730\u9762": 3100,
  "\u573a\u7684": 3101,
  "\u5927\u5c0f": 3102,
  "\u6210\u5206": 3103,
  "\u6c27\u6c14": 3104,
  "\u7a7a\u4e2d": 3105,
  "\u7a81\u7834": 3106,
  "\u9a6c\u62c9": 3107,
  "\u2581\u987a\u4fbf": 3108,
  "\u4e25\u91cd\u7684": 3109,
  "\u4e5f\u4e0d\u662f": 3110,
  "\u7684\u5173\u7cfb": 3111,
  "\u2581\u56e0\u4e3a\u4ed6": 3112,
  "\u6211\u4eec\u77e5\u9053": 3113,
  "\u2581\u4f46\u662f\u4ed6\u4eec": 3114,
  "\u4f60\u6709": 3115,
  "\u516c\u91cc": 3116,
  "\u5408\u6210": 3117,
  "\u5934\u8111": 3118,
  "\u5bf9\u5417": 3119,
  "\u5c42\u7684": 3120,
  "\u5c81\u65f6": 3121,
  "\u8bde\u751f": 3122,
  "\u9760\u8fd1": 3123,
  "\u9884\u7b97": 3124,
  "\u2581\u4e0a\u9762": 3125,
  "\u2581\u4f46\u4f60": 3126,
  "\u2581\u5229\u7528": 3127,
  "\u2581\u5e94\u8be5": 3128,
  "\u2581\u6709\u7740": 3129,
  "\u4e3a\u6211\u4eec": 3130,
  "\u8fd9\u4e2a\u4eba": 3131,
  "\u4e2d\u592e": 3132,
  "\u4f5c\u51fa": 3133,
  "\u591a\u4e86": 3134,
  "\u5929\u7136": 3135,
  "\u60a3\u6709": 3136,
  "\u60ca\u5947": 3137,
  "\u6240\u80fd": 3138,
  "\u7814\u53d1": 3139,
  "\u7ea7\u7684": 3140,
  "\u81f4\u547d": 3141,
  "\u8fbe\u6210": 3142,
  "\u2581\u4e8b\u5b9e": 3143,
  "\u2581\u6211\u628a": 3144,
  "\u505a\u8fd9\u4e2a": 3145,
  "\u53e5\u8bdd\u8bf4": 3146,
  "\u7684\u5185\u5bb9": 3147,
  "\u2581\u6c34": 3148,
  "\u4e89\u8bae": 3149,
  "\u52a0\u4e0a": 3150,
  "\u610f\u5927": 3151,
  "\u6d4f\u89c8": 3152,
  "\u7acb\u523b": 3153,
  "\u7b26\u53f7": 3154,
  "\u8150\u8d25": 3155,
  "\u8fd9\u6bb5": 3156,
  "\u8fdc\u8fdc": 3157,
  "\u56e0\u4e3a\u6211": 3158,
  "\u5fc3\u810f\u75c5": 3159,
  "\u7f8e\u597d\u7684": 3160,
  "\u2581\u5728\u8fc7\u53bb\u7684": 3161,
  "\u2581\u6240\u4ee5\u4ed6\u4eec": 3162,
  "\u4ee3\u4ef7": 3163,
  "\u5982\u540c": 3164,
  "\u5b9e\u65bd": 3165,
  "\u5c42\u6b21": 3166,
  "\u5f88\u5c0f": 3167,
  "\u7559\u4e0b": 3168,
  "\u2581\u5efa\u7acb": 3169,
  "\u2581\u663e\u7136": 3170,
  "\u5176\u5b9e\u662f": 3171,
  "\u597d\u6d88\u606f": 3172,
  "\u5f88\u591a\u7684": 3173,
  "ik": 3174,
  "\u2581\u5148": 3175,
  "\u4e0a\u5343": 3176,
  "\u4e0d\u77e5": 3177,
  "\u5206\u79bb": 3178,
  "\u5974\u96b6": 3179,
  "\u5e73\u9762": 3180,
  "\u6211\u53bb": 3181,
  "\u70ed\u7231": 3182,
  "\u7684\u5462": 3183,
  "\u7981\u6b62": 3184,
  "\u8bf4\u5230": 3185,
  "\u8fd8\u6ca1": 3186,
  "\u906d\u53d7": 3187,
  "\u2581\u5c06\u4f1a": 3188,
  "\u6b7b\u4ea1\u7387": 3189,
  "\u770b\u4e0d\u5230": 3190,
  "\u5404\u79cd\u5404\u6837\u7684": 3191,
  "\u4e2d\u4e1c": 3192,
  "\u4e2d\u6700": 3193,
  "\u53cd\u9988": 3194,
  "\u53d1\u5149": 3195,
  "\u56de\u62a5": 3196,
  "\u5c11\u7684": 3197,
  "\u5e26\u6709": 3198,
  "\u706b\u7bad": 3199,
  "\u7a7f\u8d8a": 3200,
  "\u8ffd\u8e2a": 3201,
  "\u96d5\u5851": 3202,
  "\u2581\u7ecf\u6d4e": 3203,
  "\u2581\u6bcf\u4e00\u4e2a": 3204,
  "\u8fd9\u5f20\u7167\u7247": 3205,
  "\u53d1\u7535": 3206,
  "\u5403\u60ca": 3207,
  "\u5c4b\u9876": 3208,
  "\u6559\u5ba4": 3209,
  "\u6700\u9ad8": 3210,
  "\u2581\u771f\u7684": 3211,
  "\u53d1\u660e\u4e86": 3212,
  "\u5b66\u751f\u4eec": 3213,
  "\u5b8c\u6210\u4e86": 3214,
  "\u5df2\u7ecf\u88ab": 3215,
  "\u662f\u4e3a\u4e86": 3216,
  "\u7684\u7a7a\u95f4": 3217,
  "\u7684\u7ecf\u6d4e": 3218,
  "\u8bb8\u591a\u4eba": 3219,
  "\u5728\u6211\u4eec\u7684": 3220,
  "\u4fdd\u5065": 3221,
  "\u4fe1\u5ff5": 3222,
  "\u5546\u5e97": 3223,
  "\u5e0c\u814a": 3224,
  "\u60f3\u7684": 3225,
  "\u624b\u81c2": 3226,
  "\u652f\u4ed8": 3227,
  "\u89c4\u5f8b": 3228,
  "\u968f\u673a": 3229,
  "\u96c6\u4f53": 3230,
  "\u996e\u98df": 3231,
  "\u8457\u540d\u7684": 3232,
  "\u2581\u95ee\u9898\u662f": 3233,
  "\u7684\u95ee\u9898\u662f": 3234,
  "\u2581\u6240\u6709\u8fd9\u4e9b": 3235,
  "\u4fdd\u5b58": 3236,
  "\u627f\u62c5": 3237,
  "\u6389\u4e86": 3238,
  "\u654f\u611f": 3239,
  "\u79fb\u690d": 3240,
  "\u7ea4\u7ef4": 3241,
  "\u868a\u5b50": 3242,
  "\u90fd\u6ca1": 3243,
  "and": 3244,
  "\u4f60\u9700\u8981": 3245,
  "\u662f\u53ef\u4ee5": 3246,
  "\u2581\u6211\u60f3\u8981": 3247,
  ".\"": 3248,
  "\u5851\u9020": 3249,
  "\u5de5\u4eba": 3250,
  "\u5f00\u5c55": 3251,
  "\u5f62\u8c61": 3252,
  "\u5f97\u51fa": 3253,
  "\u6fc0\u53d1": 3254,
  "\u70b9\u5b50": 3255,
  "\u770b\u51fa": 3256,
  "\u7740\u8ff7": 3257,
  "\u2581\u8bbe\u8ba1": 3258,
  "\u2581\u9664\u975e": 3259,
  "\u522b\u4eba\u7684": 3260,
  "\u539f\u56e0\u662f": 3261,
  "\u5c55\u793a\u4e86": 3262,
  "\u662f\u5982\u6b64": 3263,
  "\u8fd9\u4e24\u4e2a": 3264,
  "\u2581\u6216\u8005\u8bf4": 3265,
  "ab": 3266,
  "\u2581\u7b49": 3267,
  "\u4e00\u5c0f": 3268,
  "\u4e0d\u4e45": 3269,
  "\u52a0\u62ff": 3270,
  "\u5357\u6781": 3271,
  "\u590f\u5929": 3272,
  "\u6784\u5efa": 3273,
  "\u6cae\u4e27": 3274,
  "\u6fc0\u60c5": 3275,
  "\u7d27\u5bc6": 3276,
  "\u4fc4\u7f57\u65af": 3277,
  "\u5b89\u5168\u7684": 3278,
  "\u7279\u6b8a\u7684": 3279,
  "\u7684\u4e00\u79cd": 3280,
  "\u2581\u5b69\u5b50\u4eec": 3281,
  "\u4efb\u4f55\u4e00\u4e2a": 3282,
  "\u7ed9\u4f60\u4eec\u770b": 3283,
  "\u2581t": 3284,
  "\u2581\u542c": 3285,
  "\u4e00\u8f86": 3286,
  "\u56de\u6536": 3287,
  "\u56de\u987e": 3288,
  "\u5947\u5999": 3289,
  "\u65e0\u9650": 3290,
  "\u663e\u8457": 3291,
  "\u73a9\u7b11": 3292,
  "\u7684\u524d": 3293,
  "\u7eaa\u5f55": 3294,
  "\u8868\u60c5": 3295,
  "\u8fd9\u573a": 3296,
  "\u9a71\u52a8": 3297,
  "\u2581\u4e24\u4e2a": 3298,
  "\u2581\u771f\u6b63": 3299,
  "\u6d88\u8d39\u8005": 3300,
  "\u7684\u6837\u5b50": 3301,
  "\u7684\u90a3\u4e9b": 3302,
  "\u83b7\u5f97\u4e86": 3303,
  "\u90e8\u7535\u5f71": 3304,
  "\u4e86\u4e2a": 3305,
  "\u4e94\u5e74": 3306,
  "\u4ee5\u4e0b": 3307,
  "\u4f20\u611f": 3308,
  "\u5149\u7ebf": 3309,
  "\u54fa\u4e73": 3310,
  "\u6240\u672a": 3311,
  "\u7740\u6211": 3312,
  "\u8fd0\u8f93": 3313,
  "\u91cd\u89c6": 3314,
  "\u2581\u5fc5\u987b": 3315,
  "\u975e\u5e38\u975e\u5e38": 3316,
  "\u514d\u75ab": 3317,
  "\u5206\u5f00": 3318,
  "\u5317\u6781": 3319,
  "\u5a31\u4e50": 3320,
  "\u5b83\u5728": 3321,
  "\u5bf9\u79f0": 3322,
  "\u5c14\u592b": 3323,
  "\u5f71\u50cf": 3324,
  "\u5ffd\u89c6": 3325,
  "\u611f\u60c5": 3326,
  "\u6f5c\u529b": 3327,
  "\u73ed\u7259": 3328,
  "\u751f\u7406": 3329,
  "\u8bba\u6587": 3330,
  "\u9996\u6b4c": 3331,
  "\u9ea6\u514b": 3332,
  "son": 3333,
  "\u2581\u4f60\u5728": 3334,
  "\u5f88\u660e\u663e": 3335,
  "\u897f\u73ed\u7259": 3336,
  "\u4e00\u6bb5\u65f6\u95f4": 3337,
  "\u6211\u4e0d\u77e5\u9053": 3338,
  "\u2581\u7406": 3339,
  "\u5bb6\u7684": 3340,
  "\u5c0f\u8bf4": 3341,
  "\u6210\u7ee9": 3342,
  "\u63a8\u5e7f": 3343,
  "\u64c5\u957f": 3344,
  "\u6570\u4ee5": 3345,
  "\u6cbf\u7740": 3346,
  "\u6d1e\u7a74": 3347,
  "\u8d77\u6e90": 3348,
  "\u5947\u602a\u7684": 3349,
  "\u8fd0\u52a8\u5458": 3350,
  "te": 3351,
  "\u2581\u60a8": 3352,
  "\u56fd\u4f1a": 3353,
  "\u571f\u58e4": 3354,
  "\u610f\u5916": 3355,
  "\u61c2\u5f97": 3356,
  "\u66f4\u4e3a": 3357,
  "\u683c\u5170": 3358,
  "\u6bd5\u7adf": 3359,
  "\u8d38\u6613": 3360,
  "\u8fd9\u53ea": 3361,
  "\u2581\u4e00\u5207": 3362,
  "\u4e0d\u5e73\u7b49": 3363,
  "\u610f\u4e49\u7684": 3364,
  "\u6709\u4e00\u79cd": 3365,
  "\u8fd9\u91cc\u7684": 3366,
  "\u4ed6\u4eec\u53ef\u4ee5": 3367,
  "ie": 3368,
  "\u4e4b\u4e0b": 3369,
  "\u53d8\u6696": 3370,
  "\u54c1\u724c": 3371,
  "\u60f3\u50cf": 3372,
  "\u6784\u9020": 3373,
  "\u70b9\u51fb": 3374,
  "\u7e41\u6b96": 3375,
  "\u7f16\u8f91": 3376,
  "\u80a5\u80d6": 3377,
  "\u2581\u4f46\u4ed6": 3378,
  "\u2581\u8d85\u8fc7": 3379,
  "\u2581\u95ee\u9898": 3380,
  "\u4e3b\u4e49\u7684": 3381,
  "\u505a\u5230\u7684": 3382,
  "\u610f\u4e49\u4e0a": 3383,
  "\u6709\u4e24\u4e2a": 3384,
  "\u79d1\u533b\u751f": 3385,
  "\u80fd\u770b\u5230": 3386,
  "\u4ec0\u4e48\u6837\u7684": 3387,
  "\u505a\u7684\u5c31\u662f": 3388,
  ".5": 3389,
  "\u2581\u56db": 3390,
  "\u4fc3\u8fdb": 3391,
  "\u52a8\u753b": 3392,
  "\u53d6\u4ee3": 3393,
  "\u5f62\u7684": 3394,
  "\u6c11\u65cf": 3395,
  "\u7a77\u4eba": 3396,
  "\u8bc4\u4f30": 3397,
  "\u9ad8\u901f": 3398,
  "\u9ed1\u6d1e": 3399,
  "\u2581\u53d8\u6210": 3400,
  "\u2581\u6bcf\u6b21": 3401,
  "\u2581\u79d1\u5b66": 3402,
  "\u2581\u7ecf\u8fc7": 3403,
  "\u2581\u4ed6\u4eec\u90fd": 3404,
  "\u53d1\u751f\u7684\u4e8b\u60c5": 3405,
  "\u51e0\u5929": 3406,
  "\u5c11\u6570": 3407,
  "\u5df4\u57fa": 3408,
  "\u6269\u5927": 3409,
  "\u6307\u5bfc": 3410,
  "\u6b65\u9aa4": 3411,
  "\u6c14\u7403": 3412,
  "\u8111\u6d77": 3413,
  "\u8d37\u6b3e": 3414,
  "\u9ca8\u9c7c": 3415,
  "\u2581\u4e3b\u8981": 3416,
  "\u2581\u5973\u6027": 3417,
  "\u2581\u7528\u6765": 3418,
  "\u2581\u91cd\u65b0": 3419,
  "\u7684\u6570\u91cf": 3420,
  "\u4e3a\u4ec0\u4e48\u8981": 3421,
  "\u4e86\u6211\u4eec\u7684": 3422,
  "\u4ed6\u4eec\u81ea\u5df1\u7684": 3423,
  "SA": 3424,
  "\u4f7f\u6211": 3425,
  "\u5206\u914d": 3426,
  "\u53d1\u8fbe": 3427,
  "\u57fa\u7763": 3428,
  "\u5b89\u88c5": 3429,
  "\u5ef6\u4f38": 3430,
  "\u666f\u8c61": 3431,
  "\u6bcf\u4e00": 3432,
  "\u6c11\u4f17": 3433,
  "\u6ce8\u5c04": 3434,
  "\u878d\u5408": 3435,
  "\u8857\u4e0a": 3436,
  "\u2581\u8fd9\u9879": 3437,
  "\u53d7\u5bb3\u8005": 3438,
  "\u7684\u52a8\u7269": 3439,
  "\u7684\u5973\u6027": 3440,
  "\u7684\u89c2\u70b9": 3441,
  "\u2581\u4f46\u662f\u8fd9": 3442,
  "\u2581\u6240\u4ee5\u4f60": 3443,
  "\u6700\u559c\u6b22\u7684": 3444,
  "\u2581\u56e0\u6b64\u6211\u4eec": 3445,
  "\u2581\u8fc7": 3446,
  "\u4e2a\u6027": 3447,
  "\u4e94\u5341": 3448,
  "\u5b89\u6392": 3449,
  "\u5c0f\u7ec4": 3450,
  "\u5f02\u5e38": 3451,
  "\u5f15\u5bfc": 3452,
  "\u66f4\u9ad8": 3453,
  "\u6d77\u8c5a": 3454,
  "\u793c\u7269": 3455,
  "\u8282\u594f": 3456,
  "\u2581\u60f3\u8c61": 3457,
  "\u7684\u6f14\u8bb2": 3458,
  "\u2581\u4f46\u662f\u4f60": 3459,
  "\u2581\u5728\u8fd9\u4e9b": 3460,
  "\u2581\u6211\u53ea\u662f": 3461,
  "\u5355\u4e00": 3462,
  "\u5438\u6536": 3463,
  "\u5c14\u65af": 3464,
  "\u5dee\u8ddd": 3465,
  "\u5f53\u4eca": 3466,
  "\u611a\u8822": 3467,
  "\u63a2\u8ba8": 3468,
  "\u7533\u8bf7": 3469,
  "\u836f\u54c1": 3470,
  "\u8bca\u6240": 3471,
  "\u91cc\u6709": 3472,
  "\u514b\u91cc\u65af": 3473,
  "\u5b66\u5230\u7684": 3474,
  "\u6709\u80fd\u529b": 3475,
  "\u7684\u5de5\u5177": 3476,
  "\u8ba4\u4e3a\u662f": 3477,
  "\u9762\u4e34\u7684": 3478,
  "\u2581\u6240\u4ee5\u8bf4": 3479,
  "\u2581\u4ed6\u4eec\u53ef\u4ee5": 3480,
  "\u4e5f\u5f88": 3481,
  "\u51e0\u767e": 3482,
  "\u539f\u672c": 3483,
  "\u53cd\u6620": 3484,
  "\u56fd\u7684": 3485,
  "\u5929\u6587": 3486,
  "\u5d29\u6e83": 3487,
  "\u611f\u5b98": 3488,
  "\u6628\u5929": 3489,
  "\u6740\u6b7b": 3490,
  "\u817a\u764c": 3491,
  "\u8d1d\u5c14": 3492,
  "\u8fde\u7eed": 3493,
  "\u2581\u5230\u4e86": 3494,
  "\u4e0d\u65ad\u5730": 3495,
  "\u53ef\u6015\u7684": 3496,
  "\u7684\u516c\u53f8": 3497,
  "\u7ecf\u5386\u4e86": 3498,
  "\u8fdb\u884c\u7684": 3499,
  "\u2581\u6ca1\u6709\u4eba": 3500,
  "\u6211\u7684\u5de5\u4f5c": 3501,
  "\u751f\u7269\u5b66\u5bb6": 3502,
  "\u2581\u5176\u4e2d\u4e00\u4e2a": 3503,
  "\u25815": 3504,
  "\u4e09\u5341": 3505,
  "\u53d7\u4f24": 3506,
  "\u623f\u5c4b": 3507,
  "\u6b23\u8d4f": 3508,
  "\u77f3\u5934": 3509,
  "\u2581\u4e0d\u80fd": 3510,
  "\u4e2a\u56fd\u5bb6": 3511,
  "\u5df2\u7ecf\u5728": 3512,
  "\u5f53\u5730\u7684": 3513,
  "\u6709\u65f6\u5019": 3514,
  "\u75be\u75c5\u7684": 3515,
  "\u7684\u8bdd\u9898": 3516,
  "\u770b\u4e00\u4e0b": 3517,
  "\u56e0\u4e3a\u6211\u4eec": 3518,
  "\u5df4\u57fa\u65af\u5766": 3519,
  "\u2581\u5199": 3520,
  "\u4e0d\u5c11": 3521,
  "\u53ef\u662f": 3522,
  "\u5feb\u7684": 3523,
  "\u63cf\u7ed8": 3524,
  "\u6559\u4f1a": 3525,
  "\u7279\u70b9": 3526,
  "\u8d2b\u6c11": 3527,
  "\u2581\u600e\u4e48": 3528,
  "\u6216\u8005\u662f": 3529,
  "\u8fbe\u5c14\u6587": 3530,
  "\u9886\u5bfc\u8005": 3531,
  "\u2581\u7b2c\u4e8c\u4e2a": 3532,
  "\u5355\u4f4d": 3533,
  "\u539f\u6765": 3534,
  "\u66ff\u4ee3": 3535,
  "\u7684\u5916": 3536,
  "\u79cd\u7c7b": 3537,
  "one": 3538,
  "\u2581\u6211\u95ee": 3539,
  "\u2581\u7b54\u6848": 3540,
  "\u4e00\u5b9a\u8981": 3541,
  "\u4e2a\u4eba\u7684": 3542,
  "\u4f20\u611f\u5668": 3543,
  "\u6709\u673a\u4f1a": 3544,
  "\u2581\u6211\u9700\u8981": 3545,
  "\u4e2d\u7684\u4e00\u4e2a": 3546,
  "\u7269\u7406\u5b66\u5bb6": 3547,
  "\u4e09\u7ef4": 3548,
  "\u4e0e\u4eba": 3549,
  "\u4f53\u4f1a": 3550,
  "\u5bc6\u5ea6": 3551,
  "\u5c40\u9650": 3552,
  "\u5fae\u7b11": 3553,
  "\u62bd\u8c61": 3554,
  "\u6e38\u6cf3": 3555,
  "\u89e3\u653e": 3556,
  "\u8ba4\u540c": 3557,
  "\u955c\u5934": 3558,
  "\u9632\u6b62": 3559,
  "198": 3560,
  "\u4e0d\u662f\u5417": 3561,
  "\u5728\u5ea7\u7684": 3562,
  "\u5927\u5bb6\u90fd": 3563,
  "\u610f\u5927\u5229": 3564,
  "\u63d0\u4f9b\u4e86": 3565,
  "\u8fd0\u52a8\u7684": 3566,
  "\u2581\u662f\u6211\u4eec": 3567,
  "av": 3568,
  "\u4f4f\u4e86": 3569,
  "\u4fdd\u9669": 3570,
  "\u5904\u7684": 3571,
  "\u5b9a\u4f4d": 3572,
  "\u6e29\u5ba4": 3573,
  "\u8bb2\u7684": 3574,
  "\u8d44\u52a9": 3575,
  "\u90a3\u5929": 3576,
  "\u9891\u7387": 3577,
  "\u9b54\u672f": 3578,
  "\u2581\u81ea\u7136": 3579,
  "\u5728\u90a3\u513f": 3580,
  "\u6211\u4eec\u8fd8": 3581,
  "\u2581\u4f60\u5c31\u4f1a": 3582,
  "\u2581\u5c31\u53ef\u4ee5": 3583,
  "\u2581\u6211\u4eca\u5929": 3584,
  "\u2581\u7136\u540e\u4ed6": 3585,
  "\u53ea\u662f\u4e00\u4e2a": 3586,
  "\u2581\u5916": 3587,
  "\u2581\u957f": 3588,
  "\u4e9a\u6d32": 3589,
  "\u519c\u573a": 3590,
  "\u5206\u4e4b": 3591,
  "\u5374\u662f": 3592,
  "\u548c\u4f60": 3593,
  "\u5934\u53d1": 3594,
  "\u62c9\u65af": 3595,
  "\u63a2\u9669": 3596,
  "\u6e05\u6d01": 3597,
  "\u7206\u53d1": 3598,
  "\u751f\u7d20": 3599,
  "\u767d\u4eba": 3600,
  "\u9a6c\u65af": 3601,
  "\u2581\u4e0d\u8bba": 3602,
  "\u75c5\u4eba\u7684": 3603,
  "\u7684\u672a\u6765": 3604,
  "\u2581\u6240\u4ee5\u5728": 3605,
  "\u2581\u6709\u5f88\u591a": 3606,
  "ag": 3607,
  "\u4e0d\u53bb": 3608,
  "\u4e3a\u4f60": 3609,
  "\u5b66\u672f": 3610,
  "\u5b9a\u5f8b": 3611,
  "\u6070\u6070": 3612,
  "\u60f3\u8fc7": 3613,
  "\u6218\u6597": 3614,
  "\u62a4\u58eb": 3615,
  "\u663e\u5fae": 3616,
  "\u7075\u9b42": 3617,
  "\u7edf\u6cbb": 3618,
  "\u82af\u7247": 3619,
  "\u8ddf\u8e2a": 3620,
  "\u94fe\u63a5": 3621,
  "\u9aa8\u9abc": 3622,
  "\u2581\u975e\u6d32": 3623,
  "\u4e5f\u8bb8\u4f1a": 3624,
  "\u6211\u4eec\u4ece": 3625,
  "\u662f\u4e00\u4f4d": 3626,
  "\u79bb\u5f00\u4e86": 3627,
  "\u2581\u4e5f\u53ef\u4ee5": 3628,
  "\u2581\u5b83\u4eec\u662f": 3629,
  "\u2581\u53ca": 3630,
  "\u2581\u592a": 3631,
  "\u4e0d\u5b89": 3632,
  "\u52c7\u6c14": 3633,
  "\u53bb\u4e16": 3634,
  "\u54c8\u4f5b": 3635,
  "\u643a\u5e26": 3636,
  "\u79cd\u5b50": 3637,
  "\u7f8e\u7684": 3638,
  "\u8001\u4eba": 3639,
  "\u8ba8\u538c": 3640,
  "\u8bbe\u7f6e": 3641,
  "\u8fdb\u7a0b": 3642,
  "\u2581\u5b83\u5728": 3643,
  "\u2581\u8ba4\u4e3a": 3644,
  "\u2581\u8fd9\u5bf9": 3645,
  "\u4e0d\u5e94\u8be5": 3646,
  "\u4ed6\u4eec\u6240": 3647,
  "\u5f00\u59cb\u4e86": 3648,
  "\u6210\u4e00\u4e2a": 3649,
  "\u53d8\u5f97\u66f4\u52a0": 3650,
  "\u7684\u662f\u4ec0\u4e48": 3651,
  "\u8fd9\u4e2a\u60f3\u6cd5": 3652,
  "\u2581\u7136\u540e\u4ed6\u4eec": 3653,
  "\u5148\u8fdb": 3654,
  "\u5185\u7684": 3655,
  "\u56fa\u5b9a": 3656,
  "\u5bf9\u6bd4": 3657,
  "\u6027\u548c": 3658,
  "\u6211\u4ece": 3659,
  "\u68d2\u4e86": 3660,
  "\u89c2\u7684": 3661,
  "\u8f90\u5c04": 3662,
  "\u8fd9\u5e45": 3663,
  "\u2581\u4e0d\u4f1a": 3664,
  "\u2581\u5047\u8bbe": 3665,
  "\u2581\u91cc\u9762": 3666,
  "\u505c\u4e0b\u6765": 3667,
  "\u7684\u98df\u7269": 3668,
  "\u7b14\u8bb0\u672c": 3669,
  "\u4e0d\u662f\u4e00\u4e2a": 3670,
  "\u2581\u6211\u4eec\u5982\u4f55": 3671,
  "\u2581\u6211\u4eec\u80fd\u591f": 3672,
  "\u2581\u6362\u53e5\u8bdd\u8bf4": 3673,
  "\u4eea\u5f0f": 3674,
  "\u5199\u4f5c": 3675,
  "\u5927\u697c": 3676,
  "\u59d0\u59b9": 3677,
  "\u5bf9\u6297": 3678,
  "\u5e7f\u573a": 3679,
  "\u5f97\u77e5": 3680,
  "\u627f\u53d7": 3681,
  "\u63a8\u7279": 3682,
  "\u690d\u5165": 3683,
  "\u6cbb\u6108": 3684,
  "\u706b\u8f66": 3685,
  "\u76d2\u5b50": 3686,
  "\u8bfe\u5802": 3687,
  "\u9aa8\u5934": 3688,
  "ook": 3689,
  "\u2581\u6211\u88ab": 3690,
  "\u2581\u628a\u5b83": 3691,
  "\u5730\u533a\u7684": 3692,
  "\u6444\u50cf\u673a": 3693,
  "\u8d77\u6765\u7684": 3694,
  "\u2581\u6211\u4e00\u76f4": 3695,
  "\u2581\u65e2": 3696,
  "\u4ea4\u6362": 3697,
  "\u505c\u8f66": 3698,
  "\u516c\u6b63": 3699,
  "\u519b\u4e8b": 3700,
  "\u534f\u8c03": 3701,
  "\u5728\u4e00": 3702,
  "\u66f4\u5927": 3703,
  "\u2581\u65e0\u6cd5": 3704,
  "\u2581\u7b11\u58f0": 3705,
  "\u6211\u6ca1\u6709": 3706,
  "\u653f\u5e9c\u7684": 3707,
  "\u66f4\u597d\u5730": 3708,
  "\u6d88\u5931\u4e86": 3709,
  "hris": 3710,
  "\u2581\u6240\u4ee5\u8fd9": 3711,
  "\u2581\u8fd9\u4e00\u5207": 3712,
  "\u4e16\u4e0a": 3713,
  "\u4e54\u6cbb": 3714,
  "\u4ea4\u4e92": 3715,
  "\u4f53\u73b0": 3716,
  "\u4fdd\u5b88": 3717,
  "\u4fe1\u5fc3": 3718,
  "\u5206\u6563": 3719,
  "\u575a\u4fe1": 3720,
  "\u5c0f\u5fc3": 3721,
  "\u5e86\u795d": 3722,
  "\u65e0\u804a": 3723,
  "\u68d2\u7684": 3724,
  "\u745e\u5178": 3725,
  "\u7528\u5728": 3726,
  "\u7f6a\u72af": 3727,
  "\u800c\u6765": 3728,
  "\u8de8\u8d8a": 3729,
  "\u8fd0\u8f6c": 3730,
  "\u8fdc\u79bb": 3731,
  "\u2581\u4e00\u8d77": 3732,
  "\u4e4b\u524d\u7684": 3733,
  "\u51e0\u5e74\u524d": 3734,
  "\u540c\u60c5\u5fc3": 3735,
  "\u8fd9\u672c\u4e66": 3736,
  "\u2581\u6211\u4eec\u6ca1\u6709": 3737,
  "\u2581\u8fd9\u5c31\u662f\u6211\u4eec": 3738,
  "\u2581\u522b": 3739,
  "\u2581\u5e26": 3740,
  "\u59d4\u5458": 3741,
  "\u5bb6\u957f": 3742,
  "\u5ca9\u77f3": 3743,
  "\u5f3a\u7684": 3744,
  "\u6574\u5408": 3745,
  "\u65e5\u5b50": 3746,
  "\u67e5\u5fb7": 3747,
  "\u6ce2\u58eb": 3748,
  "\u6ee1\u610f": 3749,
  "\u2581\u8fd9\u4f4d": 3750,
  "\u5f53\u4ed6\u4eec": 3751,
  "\u2581\u540c\u6837\u7684": 3752,
  "\u8fd9\u4e9b\u4e8b\u60c5": 3753,
  "\u2581\u6211\u610f\u8bc6\u5230": 3754,
  "35": 3755,
  "\u4e3e\u624b": 3756,
  "\u52a0\u54e5": 3757,
  "\u52a8\u6001": 3758,
  "\u5929\u7a7a": 3759,
  "\u6269\u5c55": 3760,
  "\u6307\u6325": 3761,
  "\u662f\u88ab": 3762,
  "\u75bc\u75db": 3763,
  "\u786e\u4fe1": 3764,
  "\u7f16\u7a0b": 3765,
  "\u8ba4\u771f": 3766,
  "\u8d70\u51fa": 3767,
  "\u963f\u5c14": 3768,
  "\u2581\u56de\u5230": 3769,
  "\u2581\u6211\u66fe": 3770,
  "\u2581\u76f8\u53cd": 3771,
  "\u2581\u8fd9\u6b21": 3772,
  "\u505a\u5230\u4e86": 3773,
  "\u5b58\u5728\u7740": 3774,
  "\u73ca\u745a\u7901": 3775,
  "\u7528\u4e00\u4e2a": 3776,
  "\u829d\u52a0\u54e5": 3777,
  "\u610f\u5473\u7740\u4ec0\u4e48": 3778,
  "\u25816": 3779,
  "\u4e50\u961f": 3780,
  "\u4f5c\u4e1a": 3781,
  "\u5395\u6240": 3782,
  "\u5404\u81ea": 3783,
  "\u5408\u7269": 3784,
  "\u5979\u8bf4": 3785,
  "\u63a8\u8fdb": 3786,
  "\u65e0\u5173": 3787,
  "\u65e7\u91d1": 3788,
  "\u6c34\u4e2d": 3789,
  "\u6cd5\u6848": 3790,
  "\u7075\u6d3b": 3791,
  "\u7e41\u8363": 3792,
  "\u810a\u9ad3": 3793,
  "\u8718\u86db": 3794,
  "You": 3795,
  "\u2581\u5b66\u4e60": 3796,
  "\u2581\u5e76\u4e0d": 3797,
  "\u2581\u627e\u5230": 3798,
  "\u2581\u8fdb\u5165": 3799,
  "\u5178\u578b\u7684": 3800,
  "\u5728\u4f60\u7684": 3801,
  "\u5973\u6027\u7684": 3802,
  "\u5b87\u5b99\u4e2d": 3803,
  "\u65e7\u91d1\u5c71": 3804,
  "\u662f\u8fd9\u4e2a": 3805,
  "\u6ce2\u58eb\u987f": 3806,
  "\u72ec\u7279\u7684": 3807,
  "\u7684\u540d\u5b57": 3808,
  "\u79d1\u5b66\u7684": 3809,
  "\u8fd9\u4e48\u8bf4": 3810,
  "\u2581\u6211\u770b\u5230": 3811,
  "\u6240\u6709\u4eba\u90fd": 3812,
  "Google": 3813,
  "ig": 3814,
  "\u2581\u56e0": 3815,
  "\u4e00\u53e5": 3816,
  "\u4e00\u5927": 3817,
  "\u4e00\u5ea7": 3818,
  "\u4f17\u4eba": 3819,
  "\u4fdd\u7f57": 3820,
  "\u5177\u5907": 3821,
  "\u6811\u6728": 3822,
  "\u6d3b\u7740": 3823,
  "\u8212\u670d": 3824,
  "\u8d8a\u591a": 3825,
  "\u9000\u4f11": 3826,
  "\u2581\u533b\u751f": 3827,
  "\u2581\u6709\u8da3": 3828,
  "\u548c\u4e00\u4e2a": 3829,
  "\u5c3d\u53ef\u80fd": 3830,
  "\u7684\u7ecf\u5386": 3831,
  "\u2581\u5728\u6211\u7684": 3832,
  "\u2581\u5c31\u597d\u50cf": 3833,
  "\u975e\u5e38\u611f\u8c22": 3834,
  "\u2581\u4f46\u4e8b\u5b9e\u4e0a": 3835,
  "\u2581\u5982\u679c\u4ed6\u4eec": 3836,
  "\u2581\u8fd9\u5c31\u662f\u6211": 3837,
  "ap": 3838,
  "\u4ed8\u51fa": 3839,
  "\u51b0\u5ddd": 3840,
  "\u5355\u72ec": 3841,
  "\u53f2\u8482": 3842,
  "\u54f2\u5b66": 3843,
  "\u5c31\u88ab": 3844,
  "\u63a5\u6536": 3845,
  "\u65b9\u4fbf": 3846,
  "\u6cd5\u5219": 3847,
  "\u727a\u7272": 3848,
  "\u7597\u6cd5": 3849,
  "\u7cae\u98df": 3850,
  "\u8bd7\u6b4c": 3851,
  "\u9ec4\u91d1": 3852,
  "\u2581\u5b83\u80fd": 3853,
  "\u2581\u6709\u5173": 3854,
  "\u2581\u90fd\u5728": 3855,
  "\u521b\u9020\u51fa": 3856,
  "\u592a\u9633\u7cfb": 3857,
  "\u5c06\u8fd9\u4e9b": 3858,
  "\u5c31\u50cf\u662f": 3859,
  "\u5fd7\u613f\u8005": 3860,
  "\u60f3\u8981\u7684": 3861,
  "um": 3862,
  "\u2581\u53d1": 3863,
  "\u4e24\u500d": 3864,
  "\u542c\u8fc7": 3865,
  "\u547d\u8fd0": 3866,
  "\u56e2\u7ed3": 3867,
  "\u5ba3\u5e03": 3868,
  "\u5bb6\u65cf": 3869,
  "\u7956\u6bcd": 3870,
  "\u9a6c\u900a": 3871,
  "\u2581\u4ee4\u4eba": 3872,
  "\u2581\u66fe\u7ecf": 3873,
  "\u2581\u89e3\u51b3": 3874,
  "\u4e4b\u7c7b\u7684": 3875,
  "\u4f60\u5fc5\u987b": 3876,
  "\u5927\u81ea\u7136": 3877,
  "\u5f62\u6210\u7684": 3878,
  "\u6f02\u4eae\u7684": 3879,
  "\u7684\u7cfb\u7edf": 3880,
  "\u9752\u5c11\u5e74": 3881,
  "\u2581\u6709\u4e00\u5929": 3882,
  "\u4e00\u4e9b\u4e1c\u897f": 3883,
  "\u2581\u6211\u4eec\u770b\u5230": 3884,
  "\u25819": 3885,
  "\u2581\u65af": 3886,
  "\u5229\u6da6": 3887,
  "\u5899\u4e0a": 3888,
  "\u5e2e\u6211": 3889,
  "\u5fd8\u4e86": 3890,
  "\u620f\u5267": 3891,
  "\u6355\u6349": 3892,
  "\u65b9\u7684": 3893,
  "\u662f\u7528": 3894,
  "\u6816\u606f": 3895,
  "\u6ca1\u9519": 3896,
  "\u76d1\u63a7": 3897,
  "\u7cbe\u529b": 3898,
  "\u822a\u7a7a": 3899,
  "ard": 3900,
  "ick": 3901,
  "\u2581\u5730\u7403": 3902,
  "\u2581\u90fd\u4f1a": 3903,
  "\u6709\u70b9\u50cf": 3904,
  "\u6709\u8bb8\u591a": 3905,
  "\u7684\u670b\u53cb": 3906,
  "\u7684\u76ee\u6807": 3907,
  "\u8eab\u4f53\u7684": 3908,
  "\u2581\u6211\u6ca1\u6709": 3909,
  "\u4e45\u7684": 3910,
  "\u4ed6\u662f": 3911,
  "\u504f\u89c1": 3912,
  "\u53a8\u623f": 3913,
  "\u800c\u6613": 3914,
  "\u81ea\u4e3b": 3915,
  "\u8ba9\u4ed6": 3916,
  "\u8d62\u5f97": 3917,
  "\u8fc7\u6ee4": 3918,
  "\u91c7\u96c6": 3919,
  "\u9c7c\u7c7b": 3920,
  "\u2581\u8fd9\u4e48": 3921,
  "\u53e4\u8001\u7684": 3922,
  "\u5c31\u8fd9\u6837": 3923,
  "\u6211\u76f8\u4fe1": 3924,
  "\u7ad9\u8d77\u6765": 3925,
  "\u2581\u4ee5\u81f3\u4e8e": 3926,
  "\u2581\u5b83\u4eec\u7684": 3927,
  "\u7ecf\u6d4e\u5b66\u5bb6": 3928,
  "\u2581\u5df2": 3929,
  "\u4ebf\u4eba": 3930,
  "\u542c\u4f17": 3931,
  "\u566a\u97f3": 3932,
  "\u65af\u7684": 3933,
  "\u7126\u8651": 3934,
  "\u89c6\u4e3a": 3935,
  "\u9910\u5385": 3936,
  "\u9965\u997f": 3937,
  "\u9ad8\u6548": 3938,
  "\u2581\u6211\u53ea": 3939,
  "\u2581\u90fd\u6709": 3940,
  "\u5b66\u5230\u4e86": 3941,
  "\u5de5\u4f5c\u8005": 3942,
  "\u5e78\u7684\u662f": 3943,
  "\u5efa\u7b51\u7269": 3944,
  "\u6211\u4eec\u60f3": 3945,
  "\u661f\u7403\u4e0a": 3946,
  "\u663e\u5fae\u955c": 3947,
  "\u2581TED": 3948,
  "\u2581\u4f46\u5982\u679c": 3949,
  "\u4e09\u5206\u4e4b\u4e00": 3950,
  "\u5c31\u662f\u4e00\u4e2a": 3951,
  "\u53d8\u5f97\u8d8a\u6765\u8d8a": 3952,
  "op": 3953,
  "\u2581\u4e8c": 3954,
  "\u2581\u540c": 3955,
  "\u2581\u6253": 3956,
  "\u2581\u7f57": 3957,
  "\u4e09\u89d2": 3958,
  "\u4eba\u6027": 3959,
  "\u4f20\u8fbe": 3960,
  "\u540e\u4ee3": 3961,
  "\u5bf9\u4f60": 3962,
  "\u5e72\u51c0": 3963,
  "\u6269\u5f20": 3964,
  "\u80dc\u5229": 3965,
  "\u9690\u79c1": 3966,
  "150": 3967,
  "\u2581\u60f3\u8981": 3968,
  "\u2581\u611f\u8c22": 3969,
  "\u4ece\u4e00\u4e2a": 3970,
  "\u521a\u5f00\u59cb": 3971,
  "\u5973\u58eb\u4eec": 3972,
  "\u5c55\u793a\u7684": 3973,
  "\u672c\u8d28\u4e0a": 3974,
  "\u7740\u6211\u4eec": 3975,
  "\u505a\u4e86\u4e00\u4e2a": 3976,
  "\u2581\u4f46\u5982\u679c\u4f60": 3977,
  "\u2581\u6211\u4eec\u4e0d\u80fd": 3978,
  ":\"": 3979,
  "nd": 3980,
  "\u2581\u771f": 3981,
  "\u4e0d\u50cf": 3982,
  "\u4e0d\u6b62": 3983,
  "\u4e66\u7c4d": 3984,
  "\u5206\u8fa8": 3985,
  "\u5348\u9910": 3986,
  "\u638c\u63a7": 3987,
  "\u6846\u67b6": 3988,
  "\u6b63\u4e49": 3989,
  "\u70ed\u5e26": 3990,
  "\u73b0\u4eca": 3991,
  "\u751f\u6daf": 3992,
  "\u81ea\u8c6a": 3993,
  "\u81f3\u5173": 3994,
  "\u8bd5\u8bd5": 3995,
  "\u8d77\u7684": 3996,
  "\u8f6c\u5411": 3997,
  "\u98ce\u683c": 3998,
  "ube": 3999,
  "\u2581\u77e5\u9053": 4000,
  "\u2581\u8fd9\u513f": 4001,
  "\u4e0d\u4f1a\u6709": 4002,
  "\u521b\u9020\u7684": 4003,
  "\u56e0\u4e3a\u5b83": 4004,
  "\u6211\u9700\u8981": 4005,
  "\u627e\u5230\u7684": 4006,
  "\u6b63\u5e38\u7684": 4007,
  "\u7c7b\u578b\u7684": 4008,
  "\u8fd8\u6709\u4e00\u4e2a": 4009,
  ":\u201d": 4010,
  "ip": 4011,
  "\u25814": 4012,
  "\u2581\u4ec5": 4013,
  "\u4e09\u79cd": 4014,
  "\u4f5c\u8005": 4015,
  "\u4fdd\u969c": 4016,
  "\u5317\u90e8": 4017,
  "\u5370\u5237": 4018,
  "\u5c60\u6740": 4019,
  "\u5f3a\u8feb": 4020,
  "\u6218\u7565": 4021,
  "\u6905\u5b50": 4022,
  "\u6cd5\u5b98": 4023,
  "\u76ee\u7779": 4024,
  "\u7ecf\u8425": 4025,
  "\u8d5a\u94b1": 4026,
  "\u975e\u51e1": 4027,
  "\u2581\u5bfc\u81f4": 4028,
  "\u2581\u751f\u547d": 4029,
  "\u73af\u5883\u4e2d": 4030,
  "\u7684\u57fa\u7840": 4031,
  "\u2581\u8fd9\u91cc\u662f": 4032,
  "\u521b\u9020\u4e00\u4e2a": 4033,
  "\u6211\u4eec\u53d1\u73b0": 4034,
  "\u6211\u4eec\u7684\u751f\u6d3b": 4035,
  "\u2581\u95ee": 4036,
  "\u4e00\u90e8": 4037,
  "\u4e0a\u6765": 4038,
  "\u4ee5\u5916": 4039,
  "\u4f2f\u7279": 4040,
  "\u5173\u95ed": 4041,
  "\u534f\u8bae": 4042,
  "\u71c3\u70e7": 4043,
  "\u767e\u79d1": 4044,
  "\u8759\u8760": 4045,
  "\u8eab\u5904": 4046,
  "\u90e8\u4ef6": 4047,
  "\u9e1f\u7c7b": 4048,
  "art": 4049,
  "\u2581\u8981\u4e48": 4050,
  "\u2581\u8bd5\u56fe": 4051,
  "\u52a0\u62ff\u5927": 4052,
  "\u5b8c\u6574\u7684": 4053,
  "\u9047\u5230\u4e86": 4054,
  "\u2581\u6211\u66fe\u7ecf": 4055,
  "\u2581\u800c\u8fd9\u4e2a": 4056,
  "\u6700\u540e\u4e00\u4e2a": 4057,
  "\u8d8a\u6765\u8d8a\u591a": 4058,
  "\u2581\u5b83\u662f\u4e00\u4e2a": 4059,
  "ey": 4060,
  "\u2581O": 4061,
  "\u4e00\u672c": 4062,
  "\u4e09\u5e74": 4063,
  "\u4f60\u4e0d": 4064,
  "\u52b3\u52a8": 4065,
  "\u542b\u4e49": 4066,
  "\u5df4\u9a6c": 4067,
  "\u62ff\u51fa": 4068,
  "\u6df1\u6df1": 4069,
  "\u7761\u89c9": 4070,
  "\u7f8e\u5999": 4071,
  "\u8111\u888b": 4072,
  "\u82b1\u7c89": 4073,
  "\u91ce\u751f": 4074,
  "\u94a2\u7434": 4075,
  "\u2581\u90a3\u79cd": 4076,
  "\u4e2d\u7684\u4e00": 4077,
  "\u4eba\u4eec\u5728": 4078,
  "\u4f60\u5c31\u4f1a": 4079,
  "\u51c6\u5907\u597d": 4080,
  "\u666e\u901a\u7684": 4081,
  "\u8fdb\u5316\u7684": 4082,
  "\u4e0d\u53ef\u80fd\u7684": 4083,
  "\u6211\u4eec\u5f00\u59cb": 4084,
  "\u2581\u4f60\u53ef\u80fd\u4f1a": 4085,
  "\u4f17\u591a": 4086,
  "\u505a\u597d": 4087,
  "\u5171\u548c": 4088,
  "\u5206\u7c7b": 4089,
  "\u56de\u5fc6": 4090,
  "\u5927\u4f1a": 4091,
  "\u5b64\u72ec": 4092,
  "\u654c\u4eba": 4093,
  "\u67e5\u770b": 4094,
  "\u6b67\u89c6": 4095,
  "\u6cb3\u6d41": 4096,
  "\u7406\u5de5": 4097,
  "\u7f51\u9875": 4098,
  "\u8bb2\u8bdd": 4099,
  "\u8fb9\u754c": 4100,
  "\u90e8\u4f4d": 4101,
  "\u90e8\u961f": 4102,
  "ian": 4103,
  "\u2581\u97f3\u4e50": 4104,
  "\u51fa\u73b0\u7684": 4105,
  "\u59d4\u5458\u4f1a": 4106,
  "\u6211\u4e00\u76f4": 4107,
  "\u7684\u5c31\u662f": 4108,
  "\u7f8e\u5143\u7684": 4109,
  "\u2581\u4e0d\u4ec5\u4ec5\u662f": 4110,
  "\u2581\u8fd9\u662f\u6211\u7684": 4111,
  "75": 4112,
  "od": 4113,
  "\u2581\u5149": 4114,
  "\u4e00\u60f3": 4115,
  "\u5b89\u9759": 4116,
  "\u5c06\u662f": 4117,
  "\u5fc3\u7075": 4118,
  "\u60b2\u5267": 4119,
  "\u638c\u58f0": 4120,
  "\u6709\u9650": 4121,
  "\u672c\u5730": 4122,
  "\u6a21\u7cca": 4123,
  "\u6c34\u7684": 4124,
  "\u6db2\u4f53": 4125,
  "\u70b8\u5f39": 4126,
  "\u7231\u60c5": 4127,
  "\u7684\u5149": 4128,
  "\u89c4\u5b9a": 4129,
  "\u8bc1\u5b9e": 4130,
  "\u8bf4\u4e86": 4131,
  "\u8d28\u7591": 4132,
  "\u8ddf\u4f60": 4133,
  "\u8fd9\u4e24": 4134,
  "\u98de\u8239": 4135,
  "\u2581\u4f3c\u4e4e": 4136,
  "\u2581\u6211\u6765": 4137,
  "\u2581\u76f8\u4fe1": 4138,
  "\u2581\u8fd9\u65f6": 4139,
  "\u53ef\u4ee5\u7528": 4140,
  "\u548c\u4ed6\u4eec": 4141,
  "\u548c\u4ed6\u7684": 4142,
  "\u56f0\u96be\u7684": 4143,
  "\u5927\u8111\u4e2d": 4144,
  "\u592a\u68d2\u4e86": 4145,
  "\u628a\u81ea\u5df1": 4146,
  "\u65f6\u4ee3\u7684": 4147,
  "\u7684\u4e00\u9762": 4148,
  "\u7b2c\u4e09\u4e2a": 4149,
  "\u2581\u6211\u975e\u5e38": 4150,
  "\u73b0\u5728\u6211\u4eec": 4151,
  "\u7684\u8fc7\u7a0b\u4e2d": 4152,
  "\u2581\u4f60\u4eec\u77e5\u9053": 4153,
  "\u4e86\u7684": 4154,
  "\u4e8b\u6545": 4155,
  "\u5199\u4e86": 4156,
  "\u5468\u671f": 4157,
  "\u5723\u7ecf": 4158,
  "\u591a\u4e45": 4159,
  "\u754c\u9762": 4160,
  "\u76ae\u5c42": 4161,
  "\u964d\u843d": 4162,
  "\u2581\u6211\u6240": 4163,
  "\u2581\u6b64\u5916": 4164,
  "\u4e0d\u9519\u7684": 4165,
  "\u4f18\u79c0\u7684": 4166,
  "\u5176\u5b83\u7684": 4167,
  "\u60f3\u8c61\u7684": 4168,
  "\u7684\u5386\u53f2": 4169,
  "\u7740\u4e00\u4e2a": 4170,
  "\u2581\u51e0\u5e74\u524d": 4171,
  "\u2581\u6709\u4e00\u4e9b": 4172,
  "\u79d1\u5b66\u5bb6\u4eec": 4173,
  "\u2581\u4e94": 4174,
  "\u2581\u57c3": 4175,
  "\u3002\u3002": 4176,
  "\u4e07\u4e2a": 4177,
  "\u4ee5\u4e0a": 4178,
  "\u4f1a\u662f": 4179,
  "\u505a\u4e9b": 4180,
  "\u5426\u5219": 4181,
  "\u5723\u8bde": 4182,
  "\u5b66\u8005": 4183,
  "\u5c3a\u5bf8": 4184,
  "\u653e\u8fdb": 4185,
  "\u6bc1\u706d": 4186,
  "\u751f\u6210": 4187,
  "\u7f16\u7801": 4188,
  "\u82b1\u56ed": 4189,
  "\u8f66\u7684": 4190,
  "\u96e8\u6797": 4191,
  "\u975e\u6cd5": 4192,
  "\u987a\u5229": 4193,
  "\u2581\u4e86\u89e3": 4194,
  "\u2581\u5f97\u5230": 4195,
  "\u5bf9\u8fd9\u4e2a": 4196,
  "\u623f\u95f4\u91cc": 4197,
  "\u73b0\u6709\u7684": 4198,
  "\u7ed9\u6211\u7684": 4199,
  "\u8fd9\u662f\u6211": 4200,
  "\u5b9e\u9645\u4e0a\u662f": 4201,
  "\u5efa\u7acb\u4e00\u4e2a": 4202,
  "\u2581\u6bcf\u4e2a\u4eba\u90fd": 4203,
  "\u2581\u4e2d": 4204,
  "\u2581\u51fa": 4205,
  "\u2581\u91cd": 4206,
  "\u52a0\u62c9": 4207,
  "\u544a\u77e5": 4208,
  "\u591a\u79cd": 4209,
  "\u60e9\u7f5a": 4210,
  "\u6297\u8bae": 4211,
  "\u62c9\u4e01": 4212,
  "\u6709\u4e24": 4213,
  "\u677f\u4e0a": 4214,
  "\u6e10\u6e10": 4215,
  "\u89c1\u4e86": 4216,
  "\u901a\u8baf": 4217,
  "\u987e\u5ba2": 4218,
  "\u2581\u5728\u5ea7": 4219,
  "\u2581\u90a3\u5c31": 4220,
  "\u4fe1\u606f\u7684": 4221,
  "\u5148\u751f\u4eec": 4222,
  "\u524d\u6240\u672a": 4223,
  "\u5b9e\u73b0\u7684": 4224,
  "\u7684\u8fd0\u52a8": 4225,
  "\u7684\u90a3\u4e2a": 4226,
  "\u56e0\u4e3a\u4ed6\u4eec": 4227,
  "\u5927\u5bb6\u5206\u4eab": 4228,
  "\u8054\u7cfb\u8d77\u6765": 4229,
  "\u2581\u6211\u662f\u4e00\u4e2a": 4230,
  "\u2581\u6240\u4ee5\u6211\u60f3": 4231,
  "\u2581\u90a3\u4e48\u6211\u4eec": 4232,
  "DP": 4233,
  "ak": 4234,
  "\u2581\u5361": 4235,
  "\u505a\u6210": 4236,
  "\u53cd\u590d": 4237,
  "\u5728\u60f3": 4238,
  "\u5927\u8c61": 4239,
  "\u5b57\u5178": 4240,
  "\u5e8f\u5217": 4241,
  "\u60ca\u4eba": 4242,
  "\u6d88\u9664": 4243,
  "\u6df1\u5904": 4244,
  "\u6fc0\u7d20": 4245,
  "\u73a9\u5bb6": 4246,
  "\u7684\u5f00": 4247,
  "\u82f1\u6587": 4248,
  "\u8981\u53bb": 4249,
  "\u8bcd\u6c47": 4250,
  "\u8d1f\u62c5": 4251,
  "\u8ddf\u7740": 4252,
  "\u91cd\u7684": 4253,
  "\u2581\u6709\u70b9": 4254,
  "\u4e8b\u7269\u7684": 4255,
  "\u5371\u9669\u7684": 4256,
  "\u548c\u4f60\u4eec": 4257,
  "\u6211\u559c\u6b22": 4258,
  "\u628a\u6211\u4eec": 4259,
  "\u53ea\u6709\u4e00\u4e2a": 4260,
  "\u6beb\u65e0\u7591\u95ee": 4261,
  "\u2581\u5982\u679c\u4f60\u60f3": 4262,
  "PS": 4263,
  "\u2581\u53d7": 4264,
  "\u2581\u5965": 4265,
  "\u4f53\u5236": 4266,
  "\u533a\u7684": 4267,
  "\u5411\u524d": 4268,
  "\u573a\u6240": 4269,
  "\u591a\u5e74": 4270,
  "\u5929\u5802": 4271,
  "\u5929\u6c14": 4272,
  "\u5e7f\u64ad": 4273,
  "\u5fc3\u91cc": 4274,
  "\u6211\u88ab": 4275,
  "\u6c89\u9ed8": 4276,
  "\u7406\u6027": 4277,
  "\u7684\u51e0": 4278,
  "\u7adf\u7136": 4279,
  "\u96c7\u4f63": 4280,
  "\u2581\u4e00\u822c": 4281,
  "\u2581\u57ce\u5e02": 4282,
  "\u2581\u5c1d\u8bd5": 4283,
  "\u2581\u770b\u7740": 4284,
  "\u4e0b\u4e00\u4ee3": 4285,
  "\u4e0d\u65ad\u7684": 4286,
  "\u4e16\u754c\u91cc": 4287,
  "\u4f60\u4e0d\u80fd": 4288,
  "\u503e\u5411\u4e8e": 4289,
  "\u5c4f\u5e55\u4e0a": 4290,
  "\u627e\u4e0d\u5230": 4291,
  "\u6307\u7684\u662f": 4292,
  "\u7684\u4f5c\u54c1": 4293,
  "\u2581\u8fd9\u53ea\u662f": 4294,
  "\u2581\u3002": 4295,
  "\u2581\u636e": 4296,
  "\u4e00\u5343": 4297,
  "\u4e3a\u4eba": 4298,
  "\u4eec\u7684": 4299,
  "\u4f53\u80b2": 4300,
  "\u4f5c\u7269": 4301,
  "\u5229\u798f": 4302,
  "\u56fd\u5185": 4303,
  "\u5728\u4ed6": 4304,
  "\u59cb\u7ec8": 4305,
  "\u5a01\u5c14": 4306,
  "\u5b66\u79d1": 4307,
  "\u5b9d\u5b9d": 4308,
  "\u5c31\u4e0d": 4309,
  "\u5f00\u4e86": 4310,
  "\u660e\u5929": 4311,
  "\u6982\u7387": 4312,
  "\u6d77\u5e95": 4313,
  "\u6e90\u4e8e": 4314,
  "\u773c\u955c": 4315,
  "\u7ec4\u88c5": 4316,
  "\u7f3a\u9677": 4317,
  "\u81a8\u80c0": 4318,
  "\u83b1\u575e": 4319,
  "\u878d\u5165": 4320,
  "\u8857\u5934": 4321,
  "\u89c2\u6d4b": 4322,
  "\u8bbd\u523a": 4323,
  "\u9075\u5faa": 4324,
  "\u9b45\u529b": 4325,
  "\u9cb8\u9c7c": 4326,
  "\u2581\u968f\u540e": 4327,
  "\u521b\u65b0\u7684": 4328,
  "\u81ea\u8eab\u7684": 4329,
  "\u8ba9\u5927\u5bb6": 4330,
  "\u9886\u57df\u7684": 4331,
  "\u5fc3\u7406\u5b66\u5bb6": 4332,
  "\u6539\u53d8\u4e16\u754c": 4333,
  "\u2581\u5341": 4334,
  "\u2581\u54ea": 4335,
  "\u4ee4\u6211": 4336,
  "\u514b\u670d": 4337,
  "\u514b\u6797": 4338,
  "\u59c6\u65af": 4339,
  "\u5e72\u9884": 4340,
  "\u5f62\u5bb9": 4341,
  "\u6210\u719f": 4342,
  "\u67d3\u8272": 4343,
  "\u6b3a\u9a97": 4344,
  "\u7684\u8def": 4345,
  "\u7948\u7977": 4346,
  "\u7acb\u5373": 4347,
  "\u7ebf\u4e0a": 4348,
  "\u8ffd\u6eaf": 4349,
  "\u2581\u5728\u6b64": 4350,
  "\u5f62\u6210\u4e86": 4351,
  "\u7684\u53cd\u5e94": 4352,
  "\u9886\u5bfc\u4eba": 4353,
  "\u2581\u4f60\u4e0d\u80fd": 4354,
  "\u2581\u6211\u5fc5\u987b": 4355,
  "\u6050\u6016\u5206\u5b50": 4356,
  "\u8fd8\u6709\u5f88\u591a": 4357,
  "\u2581\u4e3e\u4e2a\u4f8b\u5b50": 4358,
  "\u2581\u8fd9\u662f\u56e0\u4e3a": 4359,
  "\u2581\u8d77": 4360,
  "\u4e24\u6b21": 4361,
  "\u524d\u5f80": 4362,
  "\u53cc\u624b": 4363,
  "\u5b8c\u5584": 4364,
  "\u6210\u50cf": 4365,
  "\u6574\u6574": 4366,
  "\u751f\u65e5": 4367,
  "\u76f8\u8fde": 4368,
  "\u7f8e\u5206": 4369,
  "\u8102\u80aa": 4370,
  "\u81ea\u4fe1": 4371,
  "\u8d70\u8def": 4372,
  "\u9875\u9762": 4373,
  "\u9f13\u821e": 4374,
  "\u2581\u5373\u4fbf": 4375,
  "\u2581\u5982\u6b64": 4376,
  "\u2581\u6709\u4e2a": 4377,
  "\u4e2d\u5fc3\u7684": 4378,
  "\u4ed6\u4eec\u5c31": 4379,
  "\u53c2\u4e0e\u5230": 4380,
  "\u6211\u53d1\u73b0": 4381,
  "\u7c7b\u4f3c\u4e8e": 4382,
  "\u806a\u660e\u7684": 4383,
  "\u964c\u751f\u4eba": 4384,
  "\u975e\u5e38\u597d": 4385,
  "\u9ad8\u5c14\u592b": 4386,
  "aceb": 4387,
  "\u2581\u4ed6\u4eec\u6709": 4388,
  "\u2581\u662f\u5173\u4e8e": 4389,
  "\u4ed6\u4eec\u81ea\u5df1": 4390,
  "\u7ecf\u6d4e\u589e\u957f": 4391,
  "\u2581\u4e0d\u5e78\u7684\u662f": 4392,
  "\u2581\u8fd9\u5f20\u7167\u7247": 4393,
  "acebook": 4394,
  ")\u3002": 4395,
  "\u4e50\u5668": 4396,
  "\u4eba\u5fc3": 4397,
  "\u5916\u4ea4": 4398,
  "\u5916\u661f": 4399,
  "\u6240\u8bf4": 4400,
  "\u65f6\u62a5": 4401,
  "\u70b9\u7684": 4402,
  "\u767d\u8272": 4403,
  "\u7edd\u671b": 4404,
  "\u8033\u6735": 4405,
  "\u804a\u5929": 4406,
  "\u884c\u4e86": 4407,
  "\u8bbe\u7acb": 4408,
  "\u8d27\u5e01": 4409,
  "\u8fc7\u4e8e": 4410,
  "\u2581\u5728\u4f60": 4411,
  "\u4e16\u754c\u4e2d": 4412,
  "\u4ed6\u4eba\u7684": 4413,
  "\u662f\u591a\u4e48": 4414,
  "\u7cdf\u7cd5\u7684": 4415,
  "\u8bf4\u4ec0\u4e48": 4416,
  "\u4efb\u4f55\u5730\u65b9": 4417,
  "\u4f1a\u53d1\u751f\u4ec0\u4e48": 4418,
  "\u25818": 4419,
  "\u2581\u82e5": 4420,
  "\u4f60\u770b": 4421,
  "\u5269\u4e0b": 4422,
  "\u53d1\u9001": 4423,
  "\u53d8\u4e3a": 4424,
  "\u53f8\u673a": 4425,
  "\u5eb7\u590d": 4426,
  "\u611f\u5e94": 4427,
  "\u745e\u58eb": 4428,
  "\u7edf\u4e00": 4429,
  "\u81ea\u6740": 4430,
  "\u89c1\u8bc1": 4431,
  "\u9057\u61be": 4432,
  "\u963b\u788d": 4433,
  "\u968f\u65f6": 4434,
  "\u9996\u6b21": 4435,
  "ell": 4436,
  "\u2581\u653f\u6cbb": 4437,
  "\u2581\u7f51\u7edc": 4438,
  "\u2581\u8fd9\u5728": 4439,
  "\u4e0d\u786e\u5b9a": 4440,
  "\u4e2a\u5b69\u5b50": 4441,
  "\u5236\u4f5c\u7684": 4442,
  "\u5269\u4e0b\u7684": 4443,
  "\u5b83\u4eec\u662f": 4444,
  "\u7269\u7406\u5b66": 4445,
  "\u7528\u8fd9\u4e2a": 4446,
  "\u7684\u4e3b\u9898": 4447,
  "\u81ea\u7136\u754c": 4448,
  "\u2581\u4ed6\u4eec\u4e5f": 4449,
  "\u2581\u56e0\u6b64\u6211": 4450,
  "\u2581\u800c\u4e14\u6211": 4451,
  "\u2581\u800c\u73b0\u5728": 4452,
  "\u2581\u8981\u77e5\u9053": 4453,
  "\u6211\u4eec\u6ca1\u6709": 4454,
  "\u8d44\u672c\u4e3b\u4e49": 4455,
  "\u662f\u4ec0\u4e48\u6837\u7684": 4456,
  "\u96be\u4ee5\u7f6e\u4fe1\u7684": 4457,
  "\u2581\u4e14": 4458,
  "\u2581\u4e3b": 4459,
  "\u2581\u53eb": 4460,
  "\u4e50\u8da3": 4461,
  "\u4f7f\u4f60": 4462,
  "\u54c8\u62c9": 4463,
  "\u56f0\u5883": 4464,
  "\u589e\u5f3a": 4465,
  "\u5e7d\u9ed8": 4466,
  "\u5ea6\u8fc7": 4467,
  "\u5f15\u7528": 4468,
  "\u6323\u624e": 4469,
  "\u6708\u4efd": 4470,
  "\u6743\u5a01": 4471,
  "\u6784\u6210": 4472,
  "\u6b63\u597d": 4473,
  "\u798f\u5229": 4474,
  "\u7b97\u662f": 4475,
  "\u8ba1\u7684": 4476,
  "\u906d\u9047": 4477,
  "\u91cd\u91cf": 4478,
  "\u96c6\u56e2": 4479,
  "\u2581\u6570\u636e": 4480,
  "\u2581\u751f\u7269": 4481,
  "\u5728\u5370\u5ea6": 4482,
  "\u5e72\u4ec0\u4e48": 4483,
  "\u610f\u8bc6\u7684": 4484,
  "\u660e\u767d\u4e86": 4485,
  "\u6709\u610f\u4e49": 4486,
  "\u7684\u533a\u57df": 4487,
  "\u7eff\u8272\u7684": 4488,
  "\u8bb2\u6545\u4e8b": 4489,
  "\u2581\u5728\u8fc7\u53bb": 4490,
  "\u2581\u5c31\u8fd9\u6837": 4491,
  "\u4efb\u4f55\u4e1c\u897f": 4492,
  "\u4e16\u754c\u5404\u5730\u7684": 4493,
  "\u2581\u5206": 4494,
  "\u4e0a\u4e0b": 4495,
  "\u4e3a\u6211": 4496,
  "\u5171\u6709": 4497,
  "\u53f0\u4e0a": 4498,
  "\u5728\u6b64": 4499,
  "\u73a9\u610f": 4500,
  "\u7a97\u6237": 4501,
  "\u8367\u5149": 4502,
  "\u56de\u5230\u4e86": 4503,
  "\u5df2\u7ecf\u6709": 4504,
  "\u5f20\u7167\u7247": 4505,
  "\u60f3\u8c61\u529b": 4506,
  "\u7684\u4e00\u5929": 4507,
  "\u7684\u4e8b\u4ef6": 4508,
  "\u7684\u4eba\u7684": 4509,
  "\u7684\u65b9\u5411": 4510,
  "\u79d1\u6280\u7684": 4511,
  "\u7bc7\u6587\u7ae0": 4512,
  "\u84dd\u8272\u7684": 4513,
  "\u8ddf\u4f60\u4eec": 4514,
  "hone": 4515,
  "\u300b,": 4516,
  "\u4f20\u8f93": 4517,
  "\u5076\u7136": 4518,
  "\u516c\u5bd3": 4519,
  "\u521a\u679c": 4520,
  "\u5357\u90e8": 4521,
  "\u53bb\u8fc7": 4522,
  "\u53cd\u5c04": 4523,
  "\u53d8\u5f02": 4524,
  "\u5728\u7ebf": 4525,
  "\u5df4\u9ece": 4526,
  "\u60b2\u4f24": 4527,
  "\u610f\u6599": 4528,
  "\u62b1\u6028": 4529,
  "\u6536\u83b7": 4530,
  "\u662f\u5bf9": 4531,
  "\u73af\u7ed5": 4532,
  "\u75c5\u7684": 4533,
  "\u773c\u524d": 4534,
  "\u7ba1\u9053": 4535,
  "ber": 4536,
  "\u2581\u4e5f\u6709": 4537,
  "\u53c8\u4e00\u6b21": 4538,
  "\u6211\u4eec\u628a": 4539,
  "\u6700\u91cd\u8981": 4540,
  "\u6839\u672c\u4e0a": 4541,
  "\u7684\u4e0d\u540c": 4542,
  "\u9009\u62e9\u7684": 4543,
  "\u2581\u4e0d\u4ec5\u4ec5": 4544,
  "\u5e76\u4e0d\u77e5\u9053": 4545,
  "\u6211\u4eec\u8ba4\u4e3a": 4546,
  "\u6c38\u8fdc\u4e0d\u4f1a": 4547,
  "\u89e3\u51b3\u8fd9\u4e2a\u95ee\u9898": 4548,
  "\u4e0a\u4e00": 4549,
  "\u4eff\u4f5b": 4550,
  "\u5047\u5982": 4551,
  "\u50a8\u5b58": 4552,
  "\u516c\u8def": 4553,
  "\u519c\u6751": 4554,
  "\u53c2\u89c2": 4555,
  "\u56db\u5904": 4556,
  "\u5730\u9707": 4557,
  "\u5a92\u4ecb": 4558,
  "\u5bb6\u4e61": 4559,
  "\u5e95\u90e8": 4560,
  "\u6298\u53e0": 4561,
  "\u62b1\u6b49": 4562,
  "\u6709\u8fc7": 4563,
  "\u6d77\u62a5": 4564,
  "\u706f\u6ce1": 4565,
  "\u7559\u5728": 4566,
  "\u76d1\u89c6": 4567,
  "\u7c7b\u578b": 4568,
  "\u7ed3\u5c3e": 4569,
  "\u822a\u5929": 4570,
  "\u8377\u5170": 4571,
  "\u904d\u5e03": 4572,
  "\u9519\u7684": 4573,
  "\u258150": 4574,
  "\u2581\u5173\u952e": 4575,
  "\u2581\u6545\u4e8b": 4576,
  "\u2581\u65b0\u7684": 4577,
  "\u4e13\u6ce8\u4e8e": 4578,
  "\u5230\u4e00\u8d77": 4579,
  "\u5b83\u53ef\u4ee5": 4580,
  "\u5fae\u5c0f\u7684": 4581,
  "\u6bd4\u5982\u8bf4": 4582,
  "\u7684\u5f62\u5f0f": 4583,
  "\u8c22\u8c22\u4f60": 4584,
  "\u90a3\u65f6\u5019": 4585,
  "\u2581\u4e5f\u4e0d\u662f": 4586,
  "\u2581\u7136\u540e\u518d": 4587,
  "\u4e00\u4e2a\u975e\u5e38": 4588,
  "\u5176\u4ed6\u5730\u65b9": 4589,
  "\u2581\u4e0e\u6b64\u540c\u65f6": 4590,
  "ve": 4591,
  "\u2581\u7537": 4592,
  "\u4ea7\u7269": 4593,
  "\u533a\u5206": 4594,
  "\u5373\u5174": 4595,
  "\u53ef\u884c": 4596,
  "\u559c\u5267": 4597,
  "\u597d\u597d": 4598,
  "\u6211\u5f97": 4599,
  "\u6c14\u5473": 4600,
  "\u786e\u8ba4": 4601,
  "\u8001\u677f": 4602,
  "\u8212\u9002": 4603,
  "\u8bbf\u95ee": 4604,
  "\u8db3\u4ee5": 4605,
  "\u9762\u90e8": 4606,
  "80%": 4607,
  "\u4e07\u5e74\u524d": 4608,
  "\u53ef\u884c\u7684": 4609,
  "\u5f71\u54cd\u529b": 4610,
  "\u5fc3\u7406\u5b66": 4611,
  "\u60f3\u4e00\u4e0b": 4612,
  "\u6210\u529f\u4e86": 4613,
  "\u6297\u751f\u7d20": 4614,
  "\u7684\u4f5c\u7528": 4615,
  "\u7cfb\u7edf\u4e2d": 4616,
  "\u8fd9\u4e5f\u662f": 4617,
  "\u4f0a\u65af\u5170\u6559": 4618,
  "\u6211\u4eec\u6b63\u5728": 4619,
  "\u662f\u6211\u4eec\u7684": 4620,
  "22": 4621,
  "ah": 4622,
  "\u2581\u5e03": 4623,
  "\u2581\u672c": 4624,
  "\u4e00\u5e45": 4625,
  "\u4e5f\u6ca1": 4626,
  "\u4e61\u6751": 4627,
  "\u501f\u52a9": 4628,
  "\u516c\u5e03": 4629,
  "\u51e0\u5343": 4630,
  "\u571f\u8033": 4631,
  "\u5927\u4e86": 4632,
  "\u5929\u82b1": 4633,
  "\u592a\u5e73": 4634,
  "\u5b9e\u65f6": 4635,
  "\u5e73\u5e38": 4636,
  "\u6309\u94ae": 4637,
  "\u6536\u76ca": 4638,
  "\u6708\u7403": 4639,
  "\u72ec\u7279": 4640,
  "\u7eaa\u5ff5": 4641,
  "\u7ed8\u753b": 4642,
  "\u8c03\u8282": 4643,
  "\u9152\u5e97": 4644,
  "\u9769\u65b0": 4645,
  "600": 4646,
  "\u2581\u539f\u56e0": 4647,
  "\u2581\u5b87\u5b99": 4648,
  "\u2581\u65f6\u95f4": 4649,
  "\u2581\u7528\u4e8e": 4650,
  "\u2581\u8fd9\u4f1a": 4651,
  "\u4f7f\u7528\u4e86": 4652,
  "\u571f\u8033\u5176": 4653,
  "\u591a\u5c11\u4eba": 4654,
  "\u6444\u5f71\u5e08": 4655,
  "\u6570\u5b66\u5bb6": 4656,
  "\u7cbe\u795e\u75c5": 4657,
  "\u826f\u597d\u7684": 4658,
  "\u2581\u7136\u540e\u5728": 4659,
  "\u54fa\u4e73\u52a8\u7269": 4660,
  "\u5e78\u8fd0\u7684\u662f": 4661,
  "\u8fd9\u6837\u7684\u4eba": 4662,
  "ff": 4663,
  "\u25817": 4664,
  "\u4e86\u5b83": 4665,
  "\u4f53\u91cd": 4666,
  "\u5360\u636e": 4667,
  "\u53ef\u7231": 4668,
  "\u5931\u671b": 4669,
  "\u6279\u8bc4": 4670,
  "\u6350\u8d60": 4671,
  "\u6392\u5217": 4672,
  "\u6467\u6bc1": 4673,
  "\u6700\u4f73": 4674,
  "\u670d\u7528": 4675,
  "\u673a\u9047": 4676,
  "\u72ec\u81ea": 4677,
  "\u7389\u7c73": 4678,
  "\u7684\u624b": 4679,
  "\u7684\u8bf4": 4680,
  "\u8054\u76df": 4681,
  "\u8bc4\u4ef7": 4682,
  "\u8be6\u7ec6": 4683,
  "\u8f66\u7978": 4684,
  "\u8fc8\u514b": 4685,
  "\u258130": 4686,
  "\u2581\u4ed6\u4f1a": 4687,
  "\u2581\u7ee7\u7eed": 4688,
  "\u51fa\u6765\u4e86": 4689,
  "\u5c31\u6ca1\u6709": 4690,
  "\u5f88\u53ef\u80fd": 4691,
  "\u795e\u5947\u7684": 4692,
  "\u9002\u7528\u4e8e": 4693,
  "\u2581\u5e76\u6ca1\u6709": 4694,
  "\u2581\u7b2c\u4e00\u6b21": 4695,
  "\u4e00\u4e2a\u65b0\u7684": 4696,
  "\u4e16\u754c\u4e0a\u7684": 4697,
  "65": 4698,
  "\u2581\u7b80": 4699,
  "\u4e00\u5957": 4700,
  "\u4e0b\u5348": 4701,
  "\u4e4b\u7c7b": 4702,
  "\u4f7f\u547d": 4703,
  "\u521b\u4f24": 4704,
  "\u52bf\u529b": 4705,
  "\u52c7\u6562": 4706,
  "\u56da\u72af": 4707,
  "\u56fe\u5f62": 4708,
  "\u5de7\u514b": 4709,
  "\u5e74\u4e2d": 4710,
  "\u5e74\u95f4": 4711,
  "\u5f88\u4e0d": 4712,
  "\u6000\u5b55": 4713,
  "\u6211\u6765": 4714,
  "\u65e0\u6bd4": 4715,
  "\u673a\u573a": 4716,
  "\u67d0\u4eba": 4717,
  "\u79cd\u79cd": 4718,
  "\u961f\u4f0d": 4719,
  "\u2581\u4e00\u5929": 4720,
  "\u2581\u4f60\u662f": 4721,
  "\u2581\u51b3\u5b9a": 4722,
  "\u2581\u600e\u6837": 4723,
  "\u2581\u751f\u6d3b": 4724,
  "\u2581\u7684\u786e": 4725,
  "\u2581\u82f1\u56fd": 4726,
  "\u4e0e\u6211\u4eec": 4727,
  "\u4e9a\u9a6c\u900a": 4728,
  "\u4f1a\u600e\u6837": 4729,
  "\u5168\u7403\u5316": 4730,
  "\u51cf\u5c11\u4e86": 4731,
  "\u540c\u65f6\u4e5f": 4732,
  "\u5e9e\u5927\u7684": 4733,
  "\u62cd\u6444\u7684": 4734,
  "\u7684\u5927\u5c0f": 4735,
  "\u7684\u5b58\u5728": 4736,
  "\u7684\u7ed3\u6784": 4737,
  "\u8ba9\u81ea\u5df1": 4738,
  "\u2581\u4f46\u73b0\u5728": 4739,
  "\u2581\u5f88\u660e\u663e": 4740,
  "\u53d1\u751f\u4ec0\u4e48": 4741,
  "\u7231\u56e0\u65af\u5766": 4742,
  "\u2581\u6709\u8da3\u7684\u662f": 4743,
  "\u662f\u4ec0\u4e48\u6837\u5b50": 4744,
  "0.": 4745,
  "\u2581\u516d": 4746,
  "\u2581\u7279": 4747,
  "\u4e0b\u8f7d": 4748,
  "\u4e0e\u4f17": 4749,
  "\u4eba\u6570": 4750,
  "\u4f55\u65f6": 4751,
  "\u4f8b\u5916": 4752,
  "\u505a\u4e2a": 4753,
  "\u5199\u7740": 4754,
  "\u539f\u578b": 4755,
  "\u5564\u9152": 4756,
  "\u597d\u73a9": 4757,
  "\u62b5\u6297": 4758,
  "\u6b32\u671b": 4759,
  "\u7684\u94b1": 4760,
  "\u795e\u8bdd": 4761,
  "\u9694\u79bb": 4762,
  "\u98ce\u66b4": 4763,
  "\u2581\u4e0d\u518d": 4764,
  "\u2581\u5e26\u7740": 4765,
  "\u2581\u672a\u6765": 4766,
  "\u4e2d\u56fd\u7684": 4767,
  "\u4ee3\u8868\u7740": 4768,
  "\u4f46\u662f\u6211": 4769,
  "\u505a\u8fd9\u4e9b": 4770,
  "\u7ea2\u8272\u7684": 4771,
  "\u82f1\u91cc\u7684": 4772,
  "\u9047\u5230\u7684": 4773,
  "\u2581\u8fd9\u91cc\u6709": 4774,
  "\u2581\u8fd9\u91cc\u7684": 4775,
  "\u2581\u987a\u4fbf\u8bf4": 4776,
  "\u4e00\u4e2a\u4f8b\u5b50": 4777,
  "\u4e00\u79cd\u65b0\u7684": 4778,
  "\u5229\u798f\u5c3c\u4e9a": 4779,
  "\u7684\u53ef\u80fd\u6027": 4780,
  "\u2581\u4f46\u662f\u5982\u679c": 4781,
  "\u8d8a\u6765\u8d8a\u591a\u7684": 4782,
  "\u2581\u5219": 4783,
  "\u2581\u5662": 4784,
  "\u2581\u62ff": 4785,
  "\u4e00\u540c": 4786,
  "\u4e89\u53d6": 4787,
  "\u53c8\u662f": 4788,
  "\u56f0\u6270": 4789,
  "\u5929\u624d": 4790,
  "\u5bf9\u4e86": 4791,
  "\u5e94\u7684": 4792,
  "\u6211\u90fd": 4793,
  "\u632f\u594b": 4794,
  "\u653e\u5165": 4795,
  "\u6570\u5343": 4796,
  "\u6c34\u4e0b": 4797,
  "\u6cd5\u5ead": 4798,
  "\u7535\u8def": 4799,
  "\u78b0\u5230": 4800,
  "\u7cd6\u5c3f": 4801,
  "\u805a\u4f1a": 4802,
  "\u2581\u4ee5\u4fbf": 4803,
  "\u2581\u57fa\u4e8e": 4804,
  "\u2581\u5e76\u5728": 4805,
  "\u2581\u5f53\u4ed6": 4806,
  "\u2581\u6ca1\u4eba": 4807,
  "\u2581\u79d1\u6280": 4808,
  "\u7684\u751f\u547d": 4809,
  "\u7ed3\u675f\u4e86": 4810,
  "\u957f\u65f6\u95f4": 4811,
  "3000": 4812,
  "\u2581\u4f46\u662f\u5b83": 4813,
  "\u2581\u6211\u771f\u7684": 4814,
  "\u2581\u6240\u4ee5\u4ed6": 4815,
  "\u2581\u90a3\u65f6\u5019": 4816,
  "\u4ec0\u4e48\u4e1c\u897f": 4817,
  "\u5f88\u6709\u610f\u601d": 4818,
  "\u6050\u6016\u4e3b\u4e49": 4819,
  "\u627e\u5230\u4e00\u4e2a": 4820,
  "\u6765\u5230\u8fd9\u91cc": 4821,
  "\u7684\u4eba\u6765\u8bf4": 4822,
  "\u8fd9\u4e9b\u4fe1\u606f": 4823,
  "\u975e\u5e38\u91cd\u8981\u7684": 4824,
  "st": 4825,
  "ud": 4826,
  "\u2581V": 4827,
  "\u2581\u5973": 4828,
  "\u2581\u624b": 4829,
  "\u2581\u65f6": 4830,
  "\u4ee3\u8c22": 4831,
  "\u4f17\u7b11": 4832,
  "\u4f60\u4e5f": 4833,
  "\u521b\u7acb": 4834,
  "\u5230\u6765": 4835,
  "\u5e2e\u5fd9": 4836,
  "\u5f00\u542f": 4837,
  "\u6253\u51fb": 4838,
  "\u63d0\u8bae": 4839,
  "\u65e0\u6570": 4840,
  "\u6ee1\u4e86": 4841,
  "\u6f14\u51fa": 4842,
  "\u7231\u597d": 4843,
  "\u7b11\u8bdd": 4844,
  "\u7ecf\u5178": 4845,
  "\u8363\u5e78": 4846,
  "\u8d70\u4e0a": 4847,
  "\u2581\u4eca\u5e74": 4848,
  "\u2581\u4f60\u5f97": 4849,
  "\u2581\u5176\u6b21": 4850,
  "\u2581\u56fd\u5bb6": 4851,
  "\u2581\u5e73\u5747": 4852,
  "\u2581\u662f\u6211": 4853,
  "\u2581\u662f\u7531": 4854,
  "\u4e86\u4e0b\u6765": 4855,
  "\u53ef\u4ee5\u88ab": 4856,
  "\u5408\u9002\u7684": 4857,
  "\u5411\u5927\u5bb6": 4858,
  "\u6211\u8fd8\u662f": 4859,
  "\u7ed9\u4e86\u6211": 4860,
  "\u2581\u5c31\u50cf\u662f": 4861,
  "\u2581\u751a\u81f3\u662f": 4862,
  "\u5b9e\u9a8c\u5ba4\u91cc": 4863,
  "\u7684\u91cd\u8981\u6027": 4864,
  "\u7ed9\u6211\u4eec\u7684": 4865,
  "),": 4866,
  "oh": 4867,
  "\u3002(": 4868,
  "\u300b\u3002": 4869,
  "\u4e00\u628a": 4870,
  "\u4e00\u6765": 4871,
  "\u4eb2\u5bc6": 4872,
  "\u4eca\u665a": 4873,
  "\u4f11\u606f": 4874,
  "\u53e3\u888b": 4875,
  "\u53e5\u5b50": 4876,
  "\u53ea\u4f1a": 4877,
  "\u53ef\u89c1": 4878,
  "\u5411\u6211": 4879,
  "\u542b\u6709": 4880,
  "\u5c3d\u91cf": 4881,
  "\u6211\u53c8": 4882,
  "\u6298\u78e8": 4883,
  "\u788e\u7247": 4884,
  "\u7fa4\u5c9b": 4885,
  "\u8df3\u821e": 4886,
  "\u8f7b\u677e": 4887,
  "\u9f3b\u5b50": 4888,
  "GDP": 4889,
  "\u2581\u5230\u5e95": 4890,
  "\u2581\u5728\u4ed6": 4891,
  "\u2581\u76f8\u6bd4": 4892,
  "\u4e00\u5b9a\u4f1a": 4893,
  "\u5c31\u4e0d\u4f1a": 4894,
  "\u6559\u80b2\u7684": 4895,
  "\u663e\u800c\u6613": 4896,
  "\u7684\u5730\u533a": 4897,
  "\u7684\u80fd\u91cf": 4898,
  "\u7814\u7a76\u4e2d": 4899,
  "\u8d2b\u6c11\u7a9f": 4900,
  "\u2581\u6211\u4e0d\u4f1a": 4901,
  "\u5e74\u7684\u65f6\u95f4": 4902,
  "\u6211\u4eec\u4e0d\u80fd": 4903,
  "\u2581\u5728\u6211\u4eec\u7684": 4904,
  "\u5b8c\u5168\u4e0d\u540c\u7684": 4905,
  "27": 4906,
  "\u2581\u4e8e": 4907,
  "\u51b3\u5fc3": 4908,
  "\u51cc\u6668": 4909,
  "\u5339\u914d": 4910,
  "\u559c\u7231": 4911,
  "\u591c\u665a": 4912,
  "\u5b58\u50a8": 4913,
  "\u5b83\u80fd": 4914,
  "\u5de5\u8d44": 4915,
  "\u610f\u7684": 4916,
  "\u611f\u6fc0": 4917,
  "\u62e5\u62b1": 4918,
  "\u6709\u7528": 4919,
  "\u6b8b\u75be": 4920,
  "\u731c\u6d4b": 4921,
  "\u7528\u5230": 4922,
  "\u7684\u4e0d": 4923,
  "\u7ae5\u5e74": 4924,
  "\u7ea6\u4f1a": 4925,
  "\u7f13\u6162": 4926,
  "\u7f29\u5c0f": 4927,
  "\u8bb8\u53ef": 4928,
  "\u8fc7\u5ea6": 4929,
  "\u9053\u7684": 4930,
  "\u90e8\u957f": 4931,
  "\u9ec4\u8272": 4932,
  "man": 4933,
  "\u4e0d\u662f\u5f88": 4934,
  "\u4e3b\u8981\u7684": 4935,
  "\u592a\u5e73\u6d0b": 4936,
  "\u5e74\u4e4b\u540e": 4937,
  "\u60f3\u5230\u7684": 4938,
  "\u66f4\u5bb9\u6613": 4939,
  "\u7684\u5b9e\u9a8c": 4940,
  "\u7684\u5efa\u7b51": 4941,
  "\u7684\u79d1\u5b66": 4942,
  "\u8ddf\u6211\u8bf4": 4943,
  "\u8fd0\u4f5c\u7684": 4944,
  "2010": 4945,
  "\u2581\u6240\u4ee5\u5f53": 4946,
  "\u2581\u8fd9\u4e2a\u662f": 4947,
  "\u4f60\u77e5\u9053\u5417": 4948,
  "\u53ef\u4ee5\u901a\u8fc7": 4949,
  "\u2581\u6211\u4eec\u751a\u81f3": 4950,
  "ck": 4951,
  "\u4ee5\u5f80": 4952,
  "\u4f9d\u65e7": 4953,
  "\u591a\u4e2a": 4954,
  "\u5b57\u4f53": 4955,
  "\u5b66\u4f4d": 4956,
  "\u5e74\u7ea7": 4957,
  "\u60c5\u666f": 4958,
  "\u6210\u4eba": 4959,
  "\u642d\u5efa": 4960,
  "\u6570\u7801": 4961,
  "\u663e\u5f97": 4962,
  "\u683c\u65af": 4963,
  "\u684c\u5b50": 4964,
  "\u6f14\u5316": 4965,
  "\u70b9\u662f": 4966,
  "\u7528\u6c34": 4967,
  "\u7740\u9646": 4968,
  "\u8425\u9500": 4969,
  "90%": 4970,
  "\u2581\u597d\u50cf": 4971,
  "\u2581\u5de5\u4f5c": 4972,
  "\u2581\u6839\u672c": 4973,
  "\u514d\u8d39\u7684": 4974,
  "\u548c\u6211\u7684": 4975,
  "\u54f2\u5b66\u5bb6": 4976,
  "\u5de7\u514b\u529b": 4977,
  "\u6781\u5927\u7684": 4978,
  "\u6bd4\u6211\u4eec": 4979,
  "\u7684\u57fa\u56e0": 4980,
  "\u7684\u610f\u4e49": 4981,
  "\u7684\u75c5\u4eba": 4982,
  "\u8bc1\u660e\u4e86": 4983,
  "\u4f60\u4eec\u77e5\u9053": 4984,
  "\u6709\u591a\u5c11\u4eba": 4985,
  "\u2581\u56e0\u4e3a\u5b83\u4eec": 4986,
  "\u2581\u5982\u679c\u4f60\u4eec": 4987,
  "\u2581\u90a3\u662f\u4e00\u4e2a": 4988,
  "iPhone": 4989,
  "\u2581\u76f4": 4990,
  "\u4e00\u6839": 4991,
  "\u4e00\u770b": 4992,
  "\u4ee3\u66ff": 4993,
  "\u535a\u62c9": 4994,
  "\u5916\u754c": 4995,
  "\u5e7b\u60f3": 4996,
  "\u5e7b\u89c9": 4997,
  "\u6307\u6807": 4998,
  "\u64cd\u7eb5": 4999,
  "\u65b0\u9c9c": 5000,
  "\u662f\u5427": 5001,
  "\u6fc0\u8fdb": 5002,
  "\u89c6\u529b": 5003,
  "\u89e3\u7b54": 5004,
  "\u8ba4\u53ef": 5005,
  "\u8fd0\u8425": 5006,
  "\u9192\u6765": 5007,
  "\u96c6\u5408": 5008,
  "\u9a8c\u8bc1": 5009,
  "\u2581\u5236\u9020": 5010,
  "\u2581\u5404\u79cd": 5011,
  "\u2581\u6280\u672f": 5012,
  "\u4ee5\u4e00\u79cd": 5013,
  "\u53d7\u6b22\u8fce": 5014,
  "\u5e38\u89c1\u7684": 5015,
  "\u5f62\u5f0f\u7684": 5016,
  "\u5fc5\u8981\u7684": 5017,
  "\u63a5\u53d7\u4e86": 5018,
  "\u662f\u4e00\u4ef6": 5019,
  "\u6700\u559c\u6b22": 5020,
  "\u7684\u4eba\u7fa4": 5021,
  "\u7684\u53e6\u4e00": 5022,
  "\u7684\u540c\u65f6": 5023,
  "\u7684\u7ec4\u7ec7": 5024,
  "\u7684\u89d2\u8272": 5025,
  "5000": 5026,
  "\u2581\u662f\u4e00\u79cd": 5027,
  "\u2581\u56e0\u4e3a\u8fd9\u4e9b": 5028,
  "\u2581\u4f46\u662f\u5982\u679c\u4f60": 5029,
  "1.": 5030,
  "\u2581\u8001": 5031,
  "\u4e0d\u884c": 5032,
  "\u4f18\u96c5": 5033,
  "\u516c\u4ea4": 5034,
  "\u5389\u5bb3": 5035,
  "\u53bb\u627e": 5036,
  "\u57fa\u5730": 5037,
  "\u591a\u5143": 5038,
  "\u5c71\u8109": 5039,
  "\u5e72\u6270": 5040,
  "\u6587\u5b66": 5041,
  "\u662f\u8981": 5042,
  "\u770b\u4f5c": 5043,
  "\u786e\u5207": 5044,
  "\u7b49\u4e8e": 5045,
  "\u7f57\u9a6c": 5046,
  "\u8046\u542c": 5047,
  "\u89c6\u91ce": 5048,
  "\u8bba\u8005": 5049,
  "\u8bda\u5b9e": 5050,
  "\u901a\u4fe1": 5051,
  "\u9876\u7aef": 5052,
  "\u9884\u671f": 5053,
  "\u989d\u5916": 5054,
  "\u258118": 5055,
  "\u2581\u4e0d\u7528": 5056,
  "\u2581\u5bf9\u5427": 5057,
  "\u4eb2\u7231\u7684": 5058,
  "\u4fdd\u62a4\u533a": 5059,
  "\u51e0\u5206\u949f": 5060,
  "\u5230\u8fd9\u91cc": 5061,
  "\u53ef\u4e0d\u662f": 5062,
  "\u7684\u571f\u5730": 5063,
  "\u7684\u6d3b\u52a8": 5064,
  "\u7ecf\u5386\u8fc7": 5065,
  "\u2581\u5f53\u65f6\u6211": 5066,
  "\u2581\u6211\u4eec\u5f97": 5067,
  "\u4e00\u8d77\u5de5\u4f5c": 5068,
  "\u6709\u8da3\u7684\u662f": 5069,
  "\u4e0a\u73ed": 5070,
  "\u5361\u8f66": 5071,
  "\u53ef\u9760": 5072,
  "\u53f8\u6cd5": 5073,
  "\u548c\u4ed6": 5074,
  "\u5730\u8868": 5075,
  "\u5927\u536b": 5076,
  "\u5b9e\u4f53": 5077,
  "\u5c34\u5c2c": 5078,
  "\u5fae\u8f6f": 5079,
  "\u6210\u767e": 5080,
  "\u6ce8\u5165": 5081,
  "\u6d88\u706d": 5082,
  "\u770b\u7684": 5083,
  "\u7956\u7236": 5084,
  "\u7cbe\u82f1": 5085,
  "\u7ef4\u57fa": 5086,
  "\u7ef4\u62a4": 5087,
  "\u8d22\u653f": 5088,
  "\u8fd9\u5ea7": 5089,
  "\u968f\u4e4b": 5090,
  "\u2581\u4e00\u6b21": 5091,
  "\u2581\u4e4b\u524d": 5092,
  "\u2581\u4f60\u5c06": 5093,
  "\u2581\u5b83\u4e5f": 5094,
  "\u2581\u5bfb\u627e": 5095,
  "\u2581\u603b\u662f": 5096,
  "\u2581\u76f4\u63a5": 5097,
  "\u2581\u800c\u4f60": 5098,
  "\u2581\u81ea\u4ece": 5099,
  "\u53c2\u4e0e\u8005": 5100,
  "\u53ea\u662f\u5728": 5101,
  "\u5b66\u4f1a\u4e86": 5102,
  "\u5c0f\u65f6\u5019": 5103,
  "\u5c31\u662f\u5728": 5104,
  "\u6570\u636e\u5e93": 5105,
  "\u6570\u767e\u4e07": 5106,
  "\u751f\u547d\u4e2d": 5107,
  "\u7a33\u5b9a\u7684": 5108,
  "\u8003\u8651\u5230": 5109,
  "\u9020\u6210\u4e86": 5110,
  "\u2581\u6211\u4e0d\u60f3": 5111,
  "\u2581\u65e0\u8bba\u662f": 5112,
  "\u7684\u662f\u4e00\u4e2a": 5113,
  "\u2581\u56e0\u4e3a\u8fd9\u662f": 5114,
  "\u2581\u8fd9\u4e2a\u95ee\u9898": 5115,
  "\u7b14\u8bb0\u672c\u7535\u8111": 5116,
  "ma": 5117,
  "\u2581d": 5118,
  "\u3002\u300d": 5119,
  "\u4e8e\u6b64": 5120,
  "\u4eba\u6743": 5121,
  "\u4f60\u5c06": 5122,
  "\u505a\u70b9": 5123,
  "\u56f0\u60d1": 5124,
  "\u56fd\u738b": 5125,
  "\u574f\u4e86": 5126,
  "\u5b87\u822a": 5127,
  "\u5b8c\u4e86": 5128,
  "\u5b9e\u8d28": 5129,
  "\u5ba1\u89c6": 5130,
  "\u5e1d\u56fd": 5131,
  "\u5fb7\u62c9": 5132,
  "\u6269\u6563": 5133,
  "\u6316\u6398": 5134,
  "\u649e\u51fb": 5135,
  "\u65e0\u77e5": 5136,
  "\u6781\u5ea6": 5137,
  "\u706f\u5149": 5138,
  "\u7259\u9f7f": 5139,
  "\u751f\u6c14": 5140,
  "\u7684\u5fc3": 5141,
  "\u76d1\u7ba1": 5142,
  "\u80fd\u5426": 5143,
  "\u80fd\u8ba9": 5144,
  "\u8bf4\u8bf4": 5145,
  "\u8fd9\u4efd": 5146,
  "\u258115": 5147,
  "\u2581\u4f60\u4e5f": 5148,
  "\u2581\u5341\u5206": 5149,
  "\u2581\u5b83\u5c06": 5150,
  "\u2581\u5c31\u7b97": 5151,
  "\u2581\u5f88\u5feb": 5152,
  "\u2581\u6bd5\u7adf": 5153,
  "\u4e3a\u4ed6\u4eec": 5154,
  "\u51e0\u5341\u5e74": 5155,
  "\u5316\u5408\u7269": 5156,
  "\u589e\u52a0\u4e86": 5157,
  "\u5979\u4eec\u7684": 5158,
  "\u5b9e\u5728\u662f": 5159,
  "\u5bf9\u4ed6\u4eec": 5160,
  "\u5bf9\u81ea\u5df1": 5161,
  "\u5c0f\u65f6\u7684": 5162,
  "\u6539\u53d8\u7684": 5163,
  "\u6587\u5316\u7684": 5164,
  "\u660e\u663e\u7684": 5165,
  "\u7684\u4e2d\u5fc3": 5166,
  "\u7814\u7a76\u6240": 5167,
  "\u90a3\u91cc\u7684": 5168,
  "\u2581\u4ec0\u4e48\u662f": 5169,
  "\u2581\u6211\u51b3\u5b9a": 5170,
  "\u2581\u8fd9\u4e00\u70b9": 5171,
  "\u770b\u5230\u8fd9\u4e2a": 5172,
  "\u8fd9\u79cd\u65b9\u5f0f": 5173,
  "\u2581\u00b7": 5174,
  "\u4ece\u800c": 5175,
  "\u534f\u4f5c": 5176,
  "\u53bb\u5230": 5177,
  "\u5931\u660e": 5178,
  "\u5b9e\u8bdd": 5179,
  "\u5c3c\u65af": 5180,
  "\u5f15\u5165": 5181,
  "\u5f55\u97f3": 5182,
  "\u60ca\u53f9": 5183,
  "\u60ca\u559c": 5184,
  "\u6211\u624d": 5185,
  "\u632a\u5a01": 5186,
  "\u652f\u6491": 5187,
  "\u6570\u76ee": 5188,
  "\u6863\u6848": 5189,
  "\u6df1\u6d77": 5190,
  "\u6e05\u7406": 5191,
  "\u6e38\u884c": 5192,
  "\u7279\u8d28": 5193,
  "\u7ed8\u5236": 5194,
  "\u8131\u79bb": 5195,
  "\u82cf\u8054": 5196,
  "\u8981\u5728": 5197,
  "\u900f\u8fc7": 5198,
  "\u2581\u4e0d\u65ad": 5199,
  "\u2581\u662f\u4e2a": 5200,
  "\u4f1a\u8fd9\u6837": 5201,
  "\u5370\u5ea6\u7684": 5202,
  "\u5b66\u6821\u7684": 5203,
  "\u65e9\u671f\u7684": 5204,
  "\u7684\u72b6\u6001": 5205,
  "\u8fd9\u4e9b\u5c0f": 5206,
  "\u9009\u62e9\u4e86": 5207,
  "\u2581\u4ed6\u4eec\u628a": 5208,
  "\u2581\u8fd9\u4e24\u4e2a": 5209,
  "\u5e2e\u52a9\u4ed6\u4eec": 5210,
  "\u67d0\u79cd\u610f\u4e49\u4e0a": 5211,
  "26": 5212,
  "\u2581\u82b1": 5213,
  "\u2581\u975e": 5214,
  "\u4e00\u4e07": 5215,
  "\u4e4b\u4e0a": 5216,
  "\u4f9d\u636e": 5217,
  "\u51c6\u5219": 5218,
  "\u51e0\u5468": 5219,
  "\u51fa\u552e": 5220,
  "\u5316\u4e86": 5221,
  "\u5355\u7eaf": 5222,
  "\u5c14\u5170": 5223,
  "\u5e74\u5185": 5224,
  "\u610f\u56fe": 5225,
  "\u6559\u8bad": 5226,
  "\u65b9\u5757": 5227,
  "\u6602\u8d35": 5228,
  "\u66f4\u5feb": 5229,
  "\u67aa\u9c7c": 5230,
  "\u6807\u9898": 5231,
  "\u6d3b\u529b": 5232,
  "\u6e05\u5355": 5233,
  "\u6fc0\u6d3b": 5234,
  "\u7248\u6743": 5235,
  "\u7537\u5b50": 5236,
  "\u7b2c\u56db": 5237,
  "\u8272\u5f69": 5238,
  "\u8428\u65af": 5239,
  "\u8fd8\u4e0d": 5240,
  "\u9636\u7ea7": 5241,
  "\u96c4\u6027": 5242,
  "\u9752\u6625": 5243,
  "org": 5244,
  "wit": 5245,
  "\u2581\u66f4\u52a0": 5246,
  "\u2581\u6ca1\u9519": 5247,
  "\u2581\u7537\u4eba": 5248,
  "\u6211\u4eec\u7528": 5249,
  "\u7528\u8fd9\u4e9b": 5250,
  "\u7684\u4f7f\u7528": 5251,
  "\u786e\u5b9e\u662f": 5252,
  "\u90a3\u4e2a\u4eba": 5253,
  "\u97f3\u4e50\u5bb6": 5254,
  "\u2581\u4f60\u73b0\u5728": 5255,
  "\u50cf\u8fd9\u6837\u7684": 5256,
  "\u7edd\u5927\u591a\u6570": 5257,
  "\u2581\u800c\u4e14\u4ed6\u4eec": 5258,
  "23": 5259,
  "th": 5260,
  "\u4e00\u5468": 5261,
  "\u4e0d\u901a": 5262,
  "\u4e5d\u5341": 5263,
  "\u5168\u8eab": 5264,
  "\u5267\u9662": 5265,
  "\u54e5\u4f26": 5266,
  "\u6027\u8d28": 5267,
  "\u624b\u91cc": 5268,
  "\u62dc\u8bbf": 5269,
  "\u6355\u98df": 5270,
  "\u63a8\u6d4b": 5271,
  "\u6559\u5f92": 5272,
  "\u65c5\u6e38": 5273,
  "\u6b64\u523b": 5274,
  "\u6e29\u6696": 5275,
  "\u7684\u6d77": 5276,
  "\u76f4\u5347": 5277,
  "\u79ef\u7d2f": 5278,
  "\u87ba\u65cb": 5279,
  "\u88ab\u4eba": 5280,
  "\u8c08\u5224": 5281,
  "\u8d44\u4ea7": 5282,
  "\u8eab\u4e3a": 5283,
  "\u9ed1\u8272": 5284,
  "com": 5285,
  "ich": 5286,
  "\u2581\u4e5f\u4f1a": 5287,
  "\u2581\u4f46\u5374": 5288,
  "\u2581\u552f\u4e00": 5289,
  "\u2581\u611f\u89c9": 5290,
  "\u2581\u8fd9\u6761": 5291,
  "\u4e86\u6240\u6709": 5292,
  "\u53d9\u5229\u4e9a": 5293,
  "\u5f3a\u70c8\u7684": 5294,
  "\u6211\u5e94\u8be5": 5295,
  "\u6700\u540e\u7684": 5296,
  "\u7684\u5927\u8111": 5297,
  "\u7684\u8d44\u6e90": 5298,
  "\u770b\u4e0d\u89c1": 5299,
  "\u8be5\u5982\u4f55": 5300,
  "\u8d77\u4f5c\u7528": 5301,
  "\u91d1\u67aa\u9c7c": 5302,
  "\u2581\u4f46\u8fd9\u4e9b": 5303,
  "\u2581\u5f53\u6211\u5728": 5304,
  "\u2581\u8fd9\u4e2a\u4eba": 5305,
  "\u4f60\u4eec\u53ef\u4ee5": 5306,
  "\u770b\u5230\u8fd9\u4e9b": 5307,
  "\u8fd9\u79cd\u60c5\u51b5": 5308,
  "\u4e0d\u53ef\u601d\u8bae\u7684": 5309,
  "\u4e25\u683c": 5310,
  "\u5411\u4f60": 5311,
  "\u597d\u5417": 5312,
  "\u5c81\u4e86": 5313,
  "\u5f00\u6e90": 5314,
  "\u6211\u7231": 5315,
  "\u628a\u4f60": 5316,
  "\u6492\u8c0e": 5317,
  "\u6574\u7406": 5318,
  "\u6700\u6709": 5319,
  "\u6b4c\u66f2": 5320,
  "\u6bd4\u55bb": 5321,
  "\u6c38\u6052": 5322,
  "\u771f\u7406": 5323,
  "\u8003\u8bd5": 5324,
  "\u89e6\u6478": 5325,
  "\u8db3\u7403": 5326,
  "\u9996\u8bd7": 5327,
  "\u2581Al": 5328,
  "\u2581\u4ea7\u751f": 5329,
  "\u2581\u5426\u5219": 5330,
  "\u2581\u7531\u6b64": 5331,
  "\u4e0d\u518d\u662f": 5332,
  "\u4e0d\u5230\u7684": 5333,
  "\u4e86\u4e00\u70b9": 5334,
  "\u4e86\u4ed6\u4eec": 5335,
  "\u53f2\u4ee5\u6765": 5336,
  "\u53f2\u8482\u592b": 5337,
  "\u5728\u7ebd\u7ea6": 5338,
  "\u592a\u591a\u7684": 5339,
  "\u75af\u72c2\u7684": 5340,
  "\u75c5\u6bd2\u7684": 5341,
  "\u7684\u4ea7\u54c1": 5342,
  "\u7684\u6838\u5fc3": 5343,
  "\u7684\u6a21\u5f0f": 5344,
  "\u800c\u6765\u7684": 5345,
  "\u80fd\u505a\u5230": 5346,
  "\u8fdb\u5165\u4e86": 5347,
  "\u2581\u4e00\u4e2a\u662f": 5348,
  "\u2581\u5bf9\u6211\u4eec": 5349,
  "\u2581\u767e\u5206\u4e4b": 5350,
  "\u4f60\u4f1a\u53d1\u73b0": 5351,
  "\u5316\u5b66\u7269\u8d28": 5352,
  "\u6240\u770b\u5230\u7684": 5353,
  "\u2581\u8fd9\u5e76\u4e0d\u662f": 5354,
  "witter": 5355,
  "\u2581\u5df4": 5356,
  "\u53ef\u4e50": 5357,
  "\u5f57\u661f": 5358,
  "\u5fae\u578b": 5359,
  "\u629b\u5f03": 5360,
  "\u62cd\u7167": 5361,
  "\u65e9\u6668": 5362,
  "\u6781\u9650": 5363,
  "\u679c\u8747": 5364,
  "\u6d41\u7a0b": 5365,
  "\u7235\u58eb": 5366,
  "\u7684\u5934": 5367,
  "\u8857\u533a": 5368,
  "\u897f\u6d0b": 5369,
  "\u8bd7\u4eba": 5370,
  "\u8bf7\u6c42": 5371,
  "\u8fd9\u4f1a": 5372,
  "\u8fd9\u8fb9": 5373,
  "\u90a3\u4f4d": 5374,
  "\u2581\u4f60\u60f3": 5375,
  "\u2581\u50cf\u662f": 5376,
  "\u4e73\u817a\u764c": 5377,
  "\u544a\u8bc9\u4ed6": 5378,
  "\u5927\u5c0f\u7684": 5379,
  "\u6211\u4e4b\u524d": 5380,
  "\u7684\u6548\u679c": 5381,
  "\u2581\u5168\u4e16\u754c": 5382,
  "\u4e00\u4e9b\u4e8b\u60c5": 5383,
  "\u662f\u4ec0\u4e48\u5462": 5384,
  "\u8fd9\u9879\u6280\u672f": 5385,
  "\u52a0\u5229\u798f\u5c3c\u4e9a": 5386,
  "\u751f\u6d3b\u5728\u4e00\u4e2a": 5387,
  "RI": 5388,
  "\u2581\u5e15": 5389,
  "\u4ea4\u914d": 5390,
  "\u5178\u578b": 5391,
  "\u5206\u89e3": 5392,
  "\u548c\u8c10": 5393,
  "\u54c8\u987f": 5394,
  "\u5b98\u5458": 5395,
  "\u5c3e\u5df4": 5396,
  "\u6291\u5236": 5397,
  "\u6355\u9c7c": 5398,
  "\u65e0\u5904": 5399,
  "\u6781\u4e3a": 5400,
  "\u68d2\u7403": 5401,
  "\u7167\u660e": 5402,
  "\u7279\u7f51": 5403,
  "\u8bfb\u8005": 5404,
  "\u955c\u5b50": 5405,
  "\u9752\u5e74": 5406,
  "\u9ebb\u7701": 5407,
  "\u2581\u6211\u5f97": 5408,
  "\u2581\u66f4\u591a": 5409,
  "\u4e00\u767e\u4e07": 5410,
  "\u4e0d\u505c\u5730": 5411,
  "\u5411\u6211\u4eec": 5412,
  "\u5b66\u6821\u91cc": 5413,
  "\u5e74\u524d\u7684": 5414,
  "\u5f00\u73a9\u7b11": 5415,
  "\u5f04\u6e05\u695a": 5416,
  "\u6211\u4e0d\u80fd": 5417,
  "\u7684\u4e00\u534a": 5418,
  "\u7684\u6001\u5ea6": 5419,
  "\u90fd\u4e0d\u4f1a": 5420,
  "\u2581\u540c\u65f6\u4e5f": 5421,
  "\u5f88\u957f\u65f6\u95f4": 5422,
  "\u6211\u81ea\u5df1\u7684": 5423,
  "\u751f\u6d3b\u65b9\u5f0f": 5424,
  "\u2581\u8fd8\u6709\u4e00\u4e2a": 5425,
  "\"\u3002": 5426,
  "ri": 5427,
  "\u4e00\u65e0": 5428,
  "\u4e00\u9897": 5429,
  "\u4e0a\u7f51": 5430,
  "\u4e0b\u4e00": 5431,
  "\u4e0d\u5fc5": 5432,
  "\u4e3e\u529e": 5433,
  "\u4e50\u610f": 5434,
  "\u4efb\u610f": 5435,
  "\u50cf\u4e2a": 5436,
  "\u516d\u4e2a": 5437,
  "\u51fa\u4e8e": 5438,
  "\u521b\u4e1a": 5439,
  "\u54a8\u8be2": 5440,
  "\u5b83\u5c31": 5441,
  "\u5ba4\u5185": 5442,
  "\u5c06\u8fd1": 5443,
  "\u5e38\u89c4": 5444,
  "\u6253\u4ea4": 5445,
  "\u6700\u591a": 5446,
  "\u6d6a\u6f2b": 5447,
  "\u70ed\u7684": 5448,
  "\u7684\u957f": 5449,
  "\u795e\u5723": 5450,
  "\u82f1\u5bf8": 5451,
  "\u8d2d\u7269": 5452,
  "\u8f6e\u6905": 5453,
  "\u9762\u4e0a": 5454,
  "\u97e9\u56fd": 5455,
  "20%": 5456,
  "\u2581\u4f60\u6709": 5457,
  "\u2581\u5979\u5728": 5458,
  "\u2581\u7b80\u5355": 5459,
  "\u2581\u8fd9\u5c06": 5460,
  "\u51b3\u5b9a\u4e86": 5461,
  "\u5408\u7406\u7684": 5462,
  "\u5bf9\u8fd9\u4e9b": 5463,
  "\u6211\u5fc5\u987b": 5464,
  "\u63a2\u6d4b\u5668": 5465,
  "\u66fc\u54c8\u987f": 5466,
  "\u6816\u606f\u5730": 5467,
  "\u72ec\u7acb\u7684": 5468,
  "\u7684\u4eba\u6c11": 5469,
  "\u77e5\u9053\u4e86": 5470,
  "\u7814\u7a76\u4e86": 5471,
  "\u7f51\u7edc\u4e0a": 5472,
  "\u80cc\u540e\u7684": 5473,
  "\u95ee\u81ea\u5df1": 5474,
  "\u2581\u6211\u4e0d\u80fd": 5475,
  "\u2581\u6211\u751a\u81f3": 5476,
  "\u2581\u800c\u4ed6\u4eec": 5477,
  "\u2581\u8ba9\u6211\u6765": 5478,
  "\u662f\u4e00\u6837\u7684": 5479,
  "\u89c9\u5f97\u81ea\u5df1": 5480,
  "\u975e\u5e38\u7b80\u5355": 5481,
  "\u2581\u4f60\u4eec\u53ef\u4ee5": 5482,
  "Al": 5483,
  "EO": 5484,
  "\u4e0d\u51fa": 5485,
  "\u4eba\u9020": 5486,
  "\u4f34\u4fa3": 5487,
  "\u4f60\u53bb": 5488,
  "\u534f\u4f1a": 5489,
  "\u5473\u9053": 5490,
  "\u5728\u505a": 5491,
  "\u5bcc\u88d5": 5492,
  "\u5e03\u6717": 5493,
  "\u5f88\u9177": 5494,
  "\u60f3\u7740": 5495,
  "\u6109\u5feb": 5496,
  "\u6551\u63f4": 5497,
  "\u6848\u4ef6": 5498,
  "\u72ec\u88c1": 5499,
  "\u786c\u4ef6": 5500,
  "\u8111\u4e2d": 5501,
  "\u8457\u540d": 5502,
  "\u8d85\u5e02": 5503,
  "\u8f68\u8ff9": 5504,
  "\u90aa\u6076": 5505,
  "\u9ebb\u75f9": 5506,
  "\u2581\u4ee5\u6b64": 5507,
  "\u4e3a\u81ea\u5df1": 5508,
  "\u5168\u7403\u7684": 5509,
  "\u53d1\u751f\u8fc7": 5510,
  "\u542c\u5230\u4e86": 5511,
  "\u6f5c\u5728\u7684": 5512,
  "\u73af\u5883\u7684": 5513,
  "\u7684\u6700\u540e": 5514,
  "\u7684\u8bed\u8a00": 5515,
  "\u793e\u533a\u7684": 5516,
  "\u7f8e\u5999\u7684": 5517,
  "\u8a79\u59c6\u65af": 5518,
  "\u8fd8\u8bb0\u5f97": 5519,
  "\u5c81\u7684\u5b69\u5b50": 5520,
  "\u6ca1\u6709\u4e00\u4e2a": 5521,
  "\u2581\u800c\u4e14\u6211\u4eec": 5522,
  "\u2581\u8fd9\u5c31\u610f\u5473\u7740": 5523,
  "\u2581\u8d8a": 5524,
  "\u4f60\u5f97": 5525,
  "\u5171\u9e23": 5526,
  "\u5ba1\u67e5": 5527,
  "\u5f00\u5173": 5528,
  "\u624b\u7684": 5529,
  "\u6839\u6e90": 5530,
  "\u6cd5\u9662": 5531,
  "\u6fc0\u5149": 5532,
  "\u706b\u5c71": 5533,
  "\u751f\u75c5": 5534,
  "\u7b49\u7740": 5535,
  "\u80a2\u4f53": 5536,
  "\u852c\u83dc": 5537,
  "\u868a\u5e10": 5538,
  "\u8868\u683c": 5539,
  "\u89e3\u8bfb": 5540,
  "\u8fd9\u5c31": 5541,
  "\u9152\u5427": 5542,
  "\u987a\u5e8f": 5543,
  "\u9a84\u50b2": 5544,
  "\u2581\u4e00\u5b9a": 5545,
  "\u2581\u6211\u53c8": 5546,
  "\u2581\u6211\u7528": 5547,
  "\u2581\u7ec8\u4e8e": 5548,
  "\u4f17\u4eba\u7b11": 5549,
  "\u4f60\u53ef\u80fd": 5550,
  "\u5230\u6211\u4eec": 5551,
  "\u5728\u672a\u6765": 5552,
  "\u6211\u4eca\u5929": 5553,
  "\u6253\u5370\u673a": 5554,
  "\u6536\u5230\u4e86": 5555,
  "\u653f\u6cbb\u5bb6": 5556,
  "\u6709\u4e00\u70b9": 5557,
  "\u76ee\u6807\u662f": 5558,
  "\u8bfa\u8d1d\u5c14": 5559,
  "\u8eab\u4e0a\u7684": 5560,
  "\u2581\u6211\u4eec\u6b63": 5561,
  "\u53d8\u6210\u4e00\u4e2a": 5562,
  "\u7535\u5b50\u6e38\u620f": 5563,
  "\u975e\u5e38\u597d\u7684": 5564,
  "\u2581\u4f46\u5b9e\u9645\u4e0a": 5565,
  "\u2581\u8fd9\u6837\u6211\u4eec": 5566,
  "1%": 5567,
  "\u2581\u5b89": 5568,
  "\u2581\u79bb": 5569,
  "\u2581\u8bb2": 5570,
  "\u4e0e\u4e4b": 5571,
  "\u5305\u88c5": 5572,
  "\u56db\u5341": 5573,
  "\u56fd\u6c11": 5574,
  "\u5916\u90e8": 5575,
  "\u5bb6\u5177": 5576,
  "\u5e78\u5b58": 5577,
  "\u5e8a\u4e0a": 5578,
  "\u5fc3\u4e2d": 5579,
  "\u641c\u5bfb": 5580,
  "\u65f6\u5e38": 5581,
  "\u6700\u4e3a": 5582,
  "\u6765\u4e34": 5583,
  "\u6beb\u4e0d": 5584,
  "\u6c34\u91cc": 5585,
  "\u6c83\u5c14": 5586,
  "\u7fc5\u8180": 5587,
  "\u822c\u7684": 5588,
  "\u826f\u597d": 5589,
  "\u8513\u5ef6": 5590,
  "\u8981\u505a": 5591,
  "\u8bbe\u5b9a": 5592,
  "\u8f66\u8f86": 5593,
  "\u90a3\u8fb9": 5594,
  "\u9910\u9986": 5595,
  "197": 5596,
  "\u2581\u5bf9\u6b64": 5597,
  "\u4e30\u5bcc\u7684": 5598,
  "\u4e86\u4ed6\u7684": 5599,
  "\u4f60\u4eec\u80fd": 5600,
  "\u4fc4\u6bd4\u4e9a": 5601,
  "\u53d1\u51fa\u7684": 5602,
  "\u5468\u56f4\u7684": 5603,
  "\u56f4\u7ed5\u7740": 5604,
  "\u5927\u6982\u662f": 5605,
  "\u5e0c\u683c\u65af": 5606,
  "\u5efa\u7b51\u7684": 5607,
  "\u6211\u6b63\u5728": 5608,
  "\u63d0\u4f9b\u7684": 5609,
  "\u6492\u54c8\u62c9": 5610,
  "\u662f\u901a\u8fc7": 5611,
  "\u67d3\u8272\u4f53": 5612,
  "\u6b7b\u4ea1\u7684": 5613,
  "\u7684\u7406\u89e3": 5614,
  "\u7684\u7f51\u7edc": 5615,
  "\u7ecf\u6d4e\u5b66": 5616,
  "\u8d77\u6765\u4e86": 5617,
  "\u2581\u4ed6\u4eec\u4e0d": 5618,
  "\u2581\u4ed6\u4eec\u5c31": 5619,
  "\u51c6\u5907\u597d\u4e86": 5620,
  "\u7ebd\u7ea6\u65f6\u62a5": 5621,
  "\u805a\u5728\u4e00\u8d77": 5622,
  "\u9700\u8981\u4e00\u4e2a": 5623,
  "\u2581\u5982\u679c\u4f60\u5728": 5624,
  "\u4e4b\u95f4\u7684\u5173\u7cfb": 5625,
  "ry": 5626,
  "\u2581\u4e07": 5627,
  "\u2581\u6027": 5628,
  "\u2581\u67e5": 5629,
  "\u2581\u8fd1": 5630,
  "\u4e3b\u6d41": 5631,
  "\u4eb2\u773c": 5632,
  "\u5165\u4fb5": 5633,
  "\u5168\u529b": 5634,
  "\u5199\u9053": 5635,
  "\u5305\u56f4": 5636,
  "\u53d1\u8d77": 5637,
  "\u59ff\u52bf": 5638,
  "\u5bb6\u56ed": 5639,
  "\u5bf9\u7740": 5640,
  "\u5c0f\u578b": 5641,
  "\u5c31\u4e1a": 5642,
  "\u5e95\u4e0b": 5643,
  "\u60f3\u53bb": 5644,
  "\u60f3\u8bf4": 5645,
  "\u60f3\u8d77": 5646,
  "\u628a\u4ed6": 5647,
  "\u6697\u793a": 5648,
  "\u6fc0\u70c8": 5649,
  "\u70f9\u996a": 5650,
  "\u7528\u9014": 5651,
  "\u77ed\u7684": 5652,
  "\u800c\u4e0d": 5653,
  "\u8840\u538b": 5654,
  "\u897f\u4e9a": 5655,
  "\u2581\u53ea\u80fd": 5656,
  "\u2581\u5b69\u5b50": 5657,
  "\u2581\u8bd5\u7740": 5658,
  "\u4e0d\u662f\u5728": 5659,
  "\u4e86\u4e00\u573a": 5660,
  "\u4ed6\u4eec\u6709": 5661,
  "\u52a0\u5165\u4e86": 5662,
  "\u574f\u6d88\u606f": 5663,
  "\u5c45\u4f4f\u5728": 5664,
  "\u5de5\u4f5c\u4e2d": 5665,
  "\u5efa\u7acb\u4e86": 5666,
  "\u662f\u5426\u80fd": 5667,
  "\u662f\u6ca1\u6709": 5668,
  "\u751a\u81f3\u662f": 5669,
  "\u7684\u610f\u601d": 5670,
  "\u7684\u770b\u6cd5": 5671,
  "\u7ed9\u81ea\u5df1": 5672,
  "\u8bf8\u5982\u6b64": 5673,
  "NASA": 5674,
  "\u51e0\u4e2a\u5c0f\u65f6": 5675,
  "\u585e\u4fc4\u6bd4\u4e9a": 5676,
  "\u5df2\u7ecf\u5f00\u59cb": 5677,
  "\u2581\u4f60\u53ef\u4ee5\u5728": 5678,
  "\u5411\u4f60\u4eec\u5c55\u793a": 5679,
  "\u2500\u2500": 5680,
  "\u2581w": 5681,
  "\u2581\u5de6": 5682,
  "\u2581\u8f6c": 5683,
  "\u4e00\u6240": 5684,
  "\u4e3a\u4e4b": 5685,
  "\u4e3b\u5bfc": 5686,
  "\u4e86\u4ed6": 5687,
  "\u4f26\u7406": 5688,
  "\u533b\u5e08": 5689,
  "\u5362\u65fa": 5690,
  "\u540c\u6b65": 5691,
  "\u542b\u91cf": 5692,
  "\u5730\u5e26": 5693,
  "\u5927\u591a": 5694,
  "\u5c3c\u514b": 5695,
  "\u5c4b\u5b50": 5696,
  "\u5f3a\u5978": 5697,
  "\u5f53\u6210": 5698,
  "\u60c5\u62a5": 5699,
  "\u6253\u9020": 5700,
  "\u6298\u7eb8": 5701,
  "\u6307\u4ee4": 5702,
  "\u6536\u85cf": 5703,
  "\u6b66\u88c5": 5704,
  "\u754c\u9650": 5705,
  "\u7d27\u6025": 5706,
  "\u7eaf\u7cb9": 5707,
  "\u7ed9\u51fa": 5708,
  "\u8bf4\u9053": 5709,
  "\u8fd9\u7247": 5710,
  "\u2581\u6d77\u6d0b": 5711,
  "\u2581\u89c6\u9891": 5712,
  "\u2581\u8fd8\u8981": 5713,
  "\u2581\u96be\u9053": 5714,
  "\u5362\u65fa\u8fbe": 5715,
  "\u5bb6\u516c\u53f8": 5716,
  "\u628a\u4f60\u7684": 5717,
  "\u65af\u5766\u798f": 5718,
  "\u7cd6\u5c3f\u75c5": 5719,
  "\u7f51\u7ad9\u4e0a": 5720,
  "\u91cd\u5927\u7684": 5721,
  "\u2581100": 5722,
  "\u2581\u4f46\u6211\u60f3": 5723,
  "\u2581\u6211\u7236\u4eb2": 5724,
  "\u4e3a\u4ec0\u4e48\u4e0d": 5725,
  "\u4f60\u5c31\u53ef\u4ee5": 5726,
  "\u505a\u4e86\u4ec0\u4e48": 5727,
  "\u5c31\u662f\u6211\u4eec": 5728,
  "\u6e29\u5ba4\u6c14\u4f53": 5729,
  "\u89e3\u91ca\u4e00\u4e0b": 5730,
  "\u2581\u6211\u4eec\u5c31\u80fd": 5731,
  "\u2581\u8fd9\u662f\u4e00\u5f20": 5732,
  "\u6211\u4eec\u81ea\u5df1\u7684": 5733,
  "\u2581\u8fd9\u662f\u6211\u4eec\u7684": 5734,
  "qu": 5735,
  "\u2581\u4e70": 5736,
  "\u2581\u7535": 5737,
  "\u4e0a\u767e": 5738,
  "\u4f3c\u7684": 5739,
  "\u4f4e\u7684": 5740,
  "\u521a\u597d": 5741,
  "\u5927\u5927": 5742,
  "\u5c45\u7136": 5743,
  "\u60f3\u51fa": 5744,
  "\u610f\u613f": 5745,
  "\u622a\u7136": 5746,
  "\u624b\u4e2d": 5747,
  "\u624b\u5de5": 5748,
  "\u64cd\u63a7": 5749,
  "\u6559\u5bfc": 5750,
  "\u6811\u6797": 5751,
  "\u6bcf\u5468": 5752,
  "\u6d88\u6781": 5753,
  "\u7279\u91cc": 5754,
  "\u7684\u7535": 5755,
  "\u76ef\u7740": 5756,
  "\u77ed\u671f": 5757,
  "\u7fa4\u4eba": 5758,
  "\u8005\u548c": 5759,
  "\u8111\u90e8": 5760,
  "\u8bfb\u4e66": 5761,
  "\u8f88\u5b50": 5762,
  "GPS": 5763,
  "\u2581\u53c2\u4e0e": 5764,
  "\u2581\u827a\u672f": 5765,
  "\u2581\u83b7\u5f97": 5766,
  "\u2581\u8fd9\u5f88": 5767,
  "\u4e09\u4e2a\u6708": 5768,
  "\u4e0d\u5b58\u5728": 5769,
  "\u4e86\u4e00\u4e0b": 5770,
  "\u4ed6\u4eec\u80fd": 5771,
  "\u526f\u4f5c\u7528": 5772,
  "\u52b3\u52a8\u529b": 5773,
  "\u5728\u8fc7\u53bb": 5774,
  "\u5927\u7ea6\u6709": 5775,
  "\u5f88\u68d2\u7684": 5776,
  "\u5fb7\u91cc\u514b": 5777,
  "\u6210\u529f\u5730": 5778,
  "\u6211\u4e0d\u4f1a": 5779,
  "\u63d0\u51fa\u4e86": 5780,
  "\u7684\u4e3b\u8981": 5781,
  "\u7684\u4ef7\u503c": 5782,
  "\u7684\u56fe\u7247": 5783,
  "\u7684\u5bb6\u5ead": 5784,
  "\u8f6c\u5316\u4e3a": 5785,
  "2008": 5786,
  "\u6211\u4eec\u5e0c\u671b": 5787,
  "\u79cd\u4e0d\u540c\u7684": 5788,
  "\u2581\u4f60\u4f1a\u770b\u5230": 5789,
  "\u8054\u7cfb\u5728\u4e00\u8d77": 5790,
  "\u2581\u6211\u4eec\u5c31\u53ef\u4ee5": 5791,
  "\u4e0a\u4f20": 5792,
  "\u4e3a\u4f8b": 5793,
  "\u4ed6\u4f1a": 5794,
  "\u5185\u5728": 5795,
  "\u5185\u6218": 5796,
  "\u518d\u6765": 5797,
  "\u5317\u7f8e": 5798,
  "\u539f\u6599": 5799,
  "\u53d7\u76ca": 5800,
  "\u5916\u7ebf": 5801,
  "\u5927\u6d77": 5802,
  "\u5e26\u9886": 5803,
  "\u5f15\u529b": 5804,
  "\u5f80\u4e0b": 5805,
  "\u635f\u4f24": 5806,
  "\u653e\u5c04": 5807,
  "\u6838\u80fd": 5808,
  "\u6bd4\u5c14": 5809,
  "\u6dfb\u52a0": 5810,
  "\u76ee\u5149": 5811,
  "\u8681\u7fa4": 5812,
  "\u88c5\u5907": 5813,
  "\u8be2\u95ee": 5814,
  "\u8d8a\u5927": 5815,
  "\u90a3\u5c31": 5816,
  "\u9707\u64bc": 5817,
  "\u9f20\u6807": 5818,
  "\u2581\u4e0d\u4e45": 5819,
  "\u2581\u58f0\u97f3": 5820,
  "\u2581\u5b83\u6709": 5821,
  "\u2581\u7ea6\u7ff0": 5822,
  "\u2581\u90a3\u5929": 5823,
  "\u4e00\u5206\u949f": 5824,
  "\u4e00\u65e0\u6240": 5825,
  "\u4e0a\u767e\u4e07": 5826,
  "\u4e86\u4ec0\u4e48": 5827,
  "\u4e86\u8d77\u6765": 5828,
  "\u4f9d\u8d56\u4e8e": 5829,
  "\u52d2\u65af\u5766": 5830,
  "\u5374\u6ca1\u6709": 5831,
  "\u5728\u4e0a\u9762": 5832,
  "\u5728\u4ed6\u4eec": 5833,
  "\u57ce\u5e02\u91cc": 5834,
  "\u5927\u95ee\u9898": 5835,
  "\u5c06\u4ed6\u4eec": 5836,
  "\u68d2\u6781\u4e86": 5837,
  "\u6ca1\u529e\u6cd5": 5838,
  "\u7684\u4e00\u4f4d": 5839,
  "\u7684\u4e8b\u4e1a": 5840,
  "\u7684\u6539\u53d8": 5841,
  "\u7684\u6587\u5316": 5842,
  "\u7684\u65f6\u671f": 5843,
  "\u90fd\u4e0d\u662f": 5844,
  "\u9762\u5bf9\u7684": 5845,
  "\u2581\u5f53\u4eba\u4eec": 5846,
  "\u76ee\u524d\u4e3a\u6b62": 5847,
  "\u7cbe\u795e\u75be\u75c5": 5848,
  "\u90a3\u4e2a\u65f6\u5019": 5849,
  "\u2581\u6211\u4eec\u5c31\u4f1a": 5850,
  "ev": 5851,
  "\u2581\u66fe": 5852,
  "\u4e70\u5230": 5853,
  "\u5206\u6210": 5854,
  "\u5341\u4e8c": 5855,
  "\u538c\u6076": 5856,
  "\u53ef\u601c": 5857,
  "\u540d\u58f0": 5858,
  "\u571f\u661f": 5859,
  "\u5934\u4e0a": 5860,
  "\u5965\u65af": 5861,
  "\u597d\u6bd4": 5862,
  "\u5b50\u548c": 5863,
  "\u5bfc\u5e08": 5864,
  "\u5e02\u957f": 5865,
  "\u5e74\u7eaa": 5866,
  "\u626d\u66f2": 5867,
  "\u62cd\u7684": 5868,
  "\u6311\u9009": 5869,
  "\u633d\u6551": 5870,
  "\u661f\u661f": 5871,
  "\u67d0\u4e00": 5872,
  "\u68f5\u6811": 5873,
  "\u6c38\u4e45": 5874,
  "\u725b\u5976": 5875,
  "\u762b\u75ea": 5876,
  "\u7ef4\u5ea6": 5877,
  "\u82cd\u8747": 5878,
  "\u8981\u4e48": 5879,
  "\u8b66\u544a": 5880,
  "\u8c0e\u8a00": 5881,
  "\u8d1f\u9762": 5882,
  "\u8fd0\u7b97": 5883,
  "\u957f\u8fbe": 5884,
  "\u968f\u4fbf": 5885,
  "\u9a6c\u514b": 5886,
  "50%": 5887,
  "\u2581\u53d1\u5c55": 5888,
  "\u2581\u544a\u8bc9": 5889,
  "\u2581\u6bd4\u8d77": 5890,
  "\u4e00\u4f1a\u513f": 5891,
  "\u505a\u4efb\u4f55": 5892,
  "\u533b\u5b66\u9662": 5893,
  "\u539f\u6765\u7684": 5894,
  "\u5927\u6c14\u5c42": 5895,
  "\u5e76\u4e0d\u80fd": 5896,
  "\u5f53\u65f6\u7684": 5897,
  "\u5f88\u5c0f\u7684": 5898,
  "\u6240\u9700\u7684": 5899,
  "\u6253\u4ea4\u9053": 5900,
  "\u65e0\u7ebf\u7535": 5901,
  "\u7684\u589e\u957f": 5902,
  "\u827a\u672f\u54c1": 5903,
  "\u2581\u548c\u6211\u4eec": 5904,
  "\u4e0d\u4e00\u6837\u7684": 5905,
  "\u76f8\u4e92\u4f5c\u7528": 5906,
  "\u89e3\u51b3\u65b9\u6cd5": 5907,
  "\u8fd9\u4e2a\u56fd\u5bb6": 5908,
  "\u2581\u8fd9\u4e2a\u9879\u76ee": 5909,
  "og": 5910,
  "ut": 5911,
  "\u2581\u897f": 5912,
  "\u4e3b\u52a8": 5913,
  "\u4e4c\u5e72": 5914,
  "\u4eca\u65e5": 5915,
  "\u516c\u65a4": 5916,
  "\u5403\u7684": 5917,
  "\u5b63\u8282": 5918,
  "\u5ba4\u91cc": 5919,
  "\u5c97\u4f4d": 5920,
  "\u62a4\u7406": 5921,
  "\u62c5\u5fe7": 5922,
  "\u6570\u767e": 5923,
  "\u6574\u5929": 5924,
  "\u706b\u866b": 5925,
  "\u753b\u7684": 5926,
  "\u7ecf\u7406": 5927,
  "\u7f3a\u5c11": 5928,
  "\u8bb2\u8bb2": 5929,
  "\u8bf4\u51fa": 5930,
  "\u8fd9\u4ef6": 5931,
  "\u9065\u8fdc": 5932,
  "\u91cc\u7ea6": 5933,
  "\u9a6c\u91cc": 5934,
  "10%": 5935,
  "\u2581\u4f4d\u4e8e": 5936,
  "\u2581\u603b\u4e4b": 5937,
  "\u2581\u63a5\u53d7": 5938,
  "\u2581\u663e\u793a": 5939,
  "\u4e4c\u5e72\u8fbe": 5940,
  "\u4e86\u8bb8\u591a": 5941,
  "\u516d\u4e2a\u6708": 5942,
  "\u628a\u6211\u7684": 5943,
  "\u7684\u7269\u79cd": 5944,
  "\u7c7b\u52a8\u7269": 5945,
  "\u8424\u706b\u866b": 5946,
  "\u2581\u4e5f\u6ca1\u6709": 5947,
  "\u2581\u5728\u8fd9\u79cd": 5948,
  "\u2581\u662f\u4e0d\u662f": 5949,
  "\u4e00\u4e2a\u6545\u4e8b": 5950,
  "\u5168\u7403\u53d8\u6696": 5951,
  "\u6210\u4e3a\u4e00\u540d": 5952,
  "\u7535\u5b50\u90ae\u4ef6": 5953,
  "\u7684\u4e8b\u60c5\u662f": 5954,
  "\u804c\u4e1a\u751f\u6daf": 5955,
  "\u2581\u6211\u4eec\u53ea\u662f": 5956,
  "\u2581\u4f60\u4eec\u53ef\u4ee5\u770b\u5230": 5957,
  "Facebook": 5958,
  "8%": 5959,
  "IT": 5960,
  "\u2581\u62c9": 5961,
  "\u2581\u8fdc": 5962,
  "\u4e0d\u4e0a": 5963,
  "\u4e8b\u7684": 5964,
  "\u4fe1\u7528": 5965,
  "\u50a8\u84c4": 5966,
  "\u5171\u632f": 5967,
  "\u534a\u7403": 5968,
  "\u54c1\u8d28": 5969,
  "\u5728\u4e4e": 5970,
  "\u5927\u6218": 5971,
  "\u5929\u8d4b": 5972,
  "\u5b57\u5854": 5973,
  "\u5c14\u5fb7": 5974,
  "\u5de8\u578b": 5975,
  "\u5e03\u4ec0": 5976,
  "\u5e26\u4e0a": 5977,
  "\u5e38\u89c1": 5978,
  "\u5f88\u9ad8": 5979,
  "\u65b0\u751f": 5980,
  "\u65b9\u8bf4": 5981,
  "\u665a\u9910": 5982,
  "\u6c7d\u6cb9": 5983,
  "\u6f02\u6d6e": 5984,
  "\u7684\u597d": 5985,
  "\u77ed\u7247": 5986,
  "\u78b0\u649e": 5987,
  "\u79e9\u5e8f": 5988,
  "\u7acb\u6cd5": 5989,
  "\u7c73\u7684": 5990,
  "\u7ed9\u5b83": 5991,
  "\u8010\u5fc3": 5992,
  "\u8138\u4e66": 5993,
  "\u8870\u8001": 5994,
  "\u8a00\u8bba": 5995,
  "\u8d5e\u52a9": 5996,
  "\u8d70\u8fc7": 5997,
  "\u8dd1\u6b65": 5998,
  "\u94f6\u6cb3": 5999,
  "\u968f\u610f": 6000,
  "\u2581Br": 6001,
  "\u2581\u4ecd\u7136": 6002,
  "\u2581\u5177\u6709": 6003,
  "\u2581\u6211\u53bb": 6004,
  "\u2581\u6240\u8c13": 6005,
  "\u2581\u653e\u5728": 6006,
  "\u4e0d\u8fc7\u662f": 6007,
  "\u4ef7\u503c\u7684": 6008,
  "\u5230\u8fd9\u4e2a": 6009,
  "\u5b83\u4eec\u5728": 6010,
  "\u5b8c\u5168\u662f": 6011,
  "\u6211\u51b3\u5b9a": 6012,
  "\u6211\u662f\u4e2a": 6013,
  "\u6709\u529b\u7684": 6014,
  "\u7684\u76ee\u7684": 6015,
  "\u91d1\u5b57\u5854": 6016,
  "\u975e\u6d32\u4eba": 6017,
  "\u989d\u5916\u7684": 6018,
  "2007": 6019,
  "\u2581\u4e0d\u53ea\u662f": 6020,
  "\u5168\u4e16\u754c\u7684": 6021,
  "\u5bf9\u6211\u4eec\u7684": 6022,
  "\u5f88\u91cd\u8981\u7684": 6023,
  "\u7684\u4e00\u4ef6\u4e8b": 6024,
  "\u8fd9\u4e2a\u6570\u5b57": 6025,
  "\u8fd9\u4e2a\u8fc7\u7a0b": 6026,
  "\u8fd9\u610f\u5473\u7740": 6027,
  "\u9ebb\u7701\u7406\u5de5": 6028,
  "\u2581\u7231\u56e0\u65af\u5766": 6029,
  "\u2581\u6211\u4eec\u90fd\u77e5\u9053": 6030,
  "\u2581\u66f4\u91cd\u8981\u7684\u662f": 6031,
  "\u2581U": 6032,
  "\u2581Z": 6033,
  "\u4e1a\u52a1": 6034,
  "\u4f60\u597d": 6035,
  "\u5217\u8868": 6036,
  "\u53d1\u80b2": 6037,
  "\u53ea\u9700": 6038,
  "\u5531\u6b4c": 6039,
  "\u5979\u5728": 6040,
  "\u59b9\u59b9": 6041,
  "\u5f53\u505a": 6042,
  "\u60c5\u5883": 6043,
  "\u6218\u58eb": 6044,
  "\u6676\u4f53": 6045,
  "\u672c\u80fd": 6046,
  "\u6740\u5bb3": 6047,
  "\u683c\u6797": 6048,
  "\u6d3e\u5bf9": 6049,
  "\u6d77\u6c34": 6050,
  "\u731c\u60f3": 6051,
  "\u7ed9\u5979": 6052,
  "\u8981\u6bd4": 6053,
  "\u8bae\u9898": 6054,
  "\u8c0b\u6740": 6055,
  "\u9003\u79bb": 6056,
  "\u901a\u9053": 6057,
  "\u96f6\u4ef6": 6058,
  "\u98df\u7528": 6059,
  "\u258112": 6060,
  "\u2581\u6559\u80b2": 6061,
  "\u4e5f\u4e00\u6837": 6062,
  "\u4f34\u968f\u7740": 6063,
  "\u548c\u793e\u4f1a": 6064,
  "\u5927\u897f\u6d0b": 6065,
  "\u5931\u8d25\u4e86": 6066,
  "\u5c0f\u5b69\u5b50": 6067,
  "\u6210\u5e74\u4eba": 6068,
  "\u662f\u5b8c\u5168": 6069,
  "\u7684\u53d1\u73b0": 6070,
  "\u7684\u5c0f\u5b69": 6071,
  "\u7684\u7406\u8bba": 6072,
  "\u770b\u7740\u6211": 6073,
  "\u89e3\u51b3\u4e86": 6074,
  "\u2581\u770b\u4e0a\u53bb": 6075,
  "\u2581\u7b2c\u4e09\u4e2a": 6076,
  "\u4e0d\u53ef\u907f\u514d": 6077,
  "\u4f60\u81ea\u5df1\u7684": 6078,
  "\u51e0\u4e2a\u661f\u671f": 6079,
  "\u53d1\u8fbe\u56fd\u5bb6": 6080,
  "\u54e5\u4f26\u6bd4\u4e9a": 6081,
  "\u6b63\u662f\u6211\u4eec": 6082,
  "\u2581\u6211\u4eec\u60f3\u8981": 6083,
  "\u6700\u91cd\u8981\u7684\u662f": 6084,
  "\u2581\u4e66": 6085,
  "\u2581\u554a": 6086,
  "\u2581\u8bd5": 6087,
  "\u4e09\u500d": 6088,
  "\u4e0a\u65b9": 6089,
  "\u4e27\u5931": 6090,
  "\u4e5f\u5c31": 6091,
  "\u4ebf\u4e2a": 6092,
  "\u4f17\u6240": 6093,
  "\u4f46\u6211": 6094,
  "\u4f7f\u5b83": 6095,
  "\u516c\u5f0f": 6096,
  "\u533f\u540d": 6097,
  "\u53cd\u6297": 6098,
  "\u53d1\u8a00": 6099,
  "\u5404\u5730": 6100,
  "\u5750\u7740": 6101,
  "\u5766\u767d": 6102,
  "\u58f0\u660e": 6103,
  "\u59d0\u59d0": 6104,
  "\u5c01\u95ed": 6105,
  "\u5c0a\u4e25": 6106,
  "\u5f00\u6765": 6107,
  "\u5fc5\u7136": 6108,
  "\u6240\u89c1": 6109,
  "\u653f\u5ba2": 6110,
  "\u66f4\u65b0": 6111,
  "\u6709\u76ca": 6112,
  "\u7269\u7684": 6113,
  "\u7537\u5973": 6114,
  "\u7ec8\u7ed3": 6115,
  "\u8981\u7d20": 6116,
  "\u89c1\u9762": 6117,
  "\u89c4\u8303": 6118,
  "\u8bb2\u5ea7": 6119,
  "\u8f7b\u6613": 6120,
  "\u906d\u5230": 6121,
  "196": 6122,
  "ine": 6123,
  "ion": 6124,
  "\u2581\u4e8b\u60c5": 6125,
  "\u2581\u4ece\u6765": 6126,
  "\u2581\u6c38\u8fdc": 6127,
  "\u2581\u7535\u8111": 6128,
  "\u2581\u8ba9\u4eba": 6129,
  "\u4f60\u600e\u4e48": 6130,
  "\u51b3\u5b9a\u7684": 6131,
  "\u5b66\u751f\u7684": 6132,
  "\u5c0f\u90e8\u5206": 6133,
  "\u5e76\u4e0d\u4f1a": 6134,
  "\u6211\u4eec\u53bb": 6135,
  "\u6211\u800c\u8a00": 6136,
  "\u6211\u8bf4\u7684": 6137,
  "\u6392\u653e\u91cf": 6138,
  "\u6444\u50cf\u5934": 6139,
  "\u7231\u5c14\u5170": 6140,
  "\u73b0\u5b9e\u4e2d": 6141,
  "\u8d28\u91cf\u7684": 6142,
  "\u8fd9\u53e5\u8bdd": 6143,
  "\u2581\u5b83\u4eec\u5728": 6144,
  "\u6211\u7684\u670b\u53cb": 6145,
  "\u795e\u7ecf\u7cfb\u7edf": 6146,
  "\u2581\u4f60\u4e5f\u53ef\u4ee5": 6147,
  "\u2581\u4f60\u5c31\u53ef\u4ee5": 6148,
  "\u2581\u56e0\u4e3a\u5982\u679c": 6149,
  "\u5bf9\u6211\u4eec\u6765\u8bf4": 6150,
  "ee": 6151,
  "\u201c\u3002": 6152,
  "\u4e0a\u8ff0": 6153,
  "\u4e24\u5929": 6154,
  "\u4e4b\u5730": 6155,
  "\u4ea4\u53c9": 6156,
  "\u4ea4\u7ed9": 6157,
  "\u5047\u88c5": 6158,
  "\u51b2\u51fb": 6159,
  "\u5411\u4e0a": 6160,
  "\u542c\u89c1": 6161,
  "\u547c\u5401": 6162,
  "\u5730\u94c1": 6163,
  "\u5904\u5883": 6164,
  "\u5b83\u4e3a": 6165,
  "\u5e9f\u5f03": 6166,
  "\u5ea7\u6905": 6167,
  "\u5f2f\u66f2": 6168,
  "\u5f53\u4e0b": 6169,
  "\u6050\u6015": 6170,
  "\u65e7\u7684": 6171,
  "\u68c0\u9a8c": 6172,
  "\u6c34\u6e90": 6173,
  "\u6f5c\u5728": 6174,
  "\u7406\u6240": 6175,
  "\u76d1\u6d4b": 6176,
  "\u8611\u83c7": 6177,
  "\u88c5\u9970": 6178,
  "\u8bae\u4f1a": 6179,
  "\u8d22\u4ea7": 6180,
  "\u8def\u7ebf": 6181,
  "\u8f66\u4e0a": 6182,
  "\u9610\u8ff0": 6183,
  "\u9752\u86d9": 6184,
  "\u9884\u6599": 6185,
  "\u2581\u4f46\u90a3": 6186,
  "\u2581\u4fdd\u62a4": 6187,
  "\u2581\u5927\u536b": 6188,
  "\u2581\u63a7\u5236": 6189,
  "\u2581\u9009\u62e9": 6190,
  "\u4e00\u4e2a\u65b0": 6191,
  "\u4e00\u4e2a\u6708": 6192,
  "\u4ece\u8fd9\u4e2a": 6193,
  "\u505a\u51fa\u7684": 6194,
  "\u5171\u540c\u7684": 6195,
  "\u53d6\u5f97\u4e86": 6196,
  "\u5750\u4e0b\u6765": 6197,
  "\u5bfc\u81f4\u4e86": 6198,
  "\u6211\u521a\u624d": 6199,
  "\u7684\u4eba\u6570": 6200,
  "\u7684\u4eba\u7269": 6201,
  "\u771f\u6b63\u5730": 6202,
  "\u7814\u7a76\u751f": 6203,
  "\u7ec6\u80de\u7684": 6204,
  "\u8ba9\u5b83\u4eec": 6205,
  "\u8bed\u8a00\u7684": 6206,
  "\u2581\u4ed6\u4eec\u5c06": 6207,
  "\u2581\u4f46\u540c\u65f6": 6208,
  "\u2581\u53d1\u751f\u5728": 6209,
  "\u7684\u65f6\u95f4\u91cc": 6210,
  "\u2581\u4ed6\u4eec\u8ba4\u4e3a": 6211,
  "\u2581\u6211\u4eec\u901a\u8fc7": 6212,
  "\u4e0d\u540c\u7684\u65b9\u5f0f": 6213,
  "3%": 6214,
  "\u2581\u4fbf": 6215,
  "\u4e0e\u6211": 6216,
  "\u4e4b\u5fc3": 6217,
  "\u4fc3\u4f7f": 6218,
  "\u4ff1\u4e50": 6219,
  "\u5165\u4e86": 6220,
  "\u573a\u5408": 6221,
  "\u574f\u4e8b": 6222,
  "\u5b89\u6170": 6223,
  "\u5bf9\u4ed8": 6224,
  "\u5f3a\u5ea6": 6225,
  "\u6307\u793a": 6226,
  "\u653e\u677e": 6227,
  "\u65c5\u9014": 6228,
  "\u660e\u667a": 6229,
  "\u672a\u77e5": 6230,
  "\u6784\u60f3": 6231,
  "\u6b27\u76df": 6232,
  "\u6b7b\u7684": 6233,
  "\u6df1\u5ea6": 6234,
  "\u80a5\u7682": 6235,
  "\u8138\u4e0a": 6236,
  "\u82b1\u5728": 6237,
  "\u8650\u5f85": 6238,
  "\u8bef\u89e3": 6239,
  "\u8bfe\u9898": 6240,
  "\u9634\u5f71": 6241,
  "ent": 6242,
  "han": 6243,
  "\u2581\u505a\u51fa": 6244,
  "\u2581\u53d8\u5f97": 6245,
  "\u2581\u5f71\u54cd": 6246,
  "\u2581\u6301\u7eed": 6247,
  "\u2581\u9762\u5bf9": 6248,
  "\u4e00\u5207\u90fd": 6249,
  "\u4f60\u5df2\u7ecf": 6250,
  "\u4f60\u73b0\u5728": 6251,
  "\u5386\u53f2\u7684": 6252,
  "\u5728\u975e\u6d32": 6253,
  "\u590d\u6742\u6027": 6254,
  "\u5c06\u5b83\u4eec": 6255,
  "\u5e02\u573a\u7684": 6256,
  "\u5efa\u7acb\u5728": 6257,
  "\u5f88\u559c\u6b22": 6258,
  "\u6258\u9a6c\u65af": 6259,
  "\u65e0\u4eba\u673a": 6260,
  "\u6d89\u53ca\u5230": 6261,
  "\u7684\u4e00\u6b21": 6262,
  "\u7684\u7ec6\u80de": 6263,
  "\u793e\u4f1a\u4e2d": 6264,
  "Tube": 6265,
  "\u2581\u548c\u5176\u4ed6": 6266,
  "\u2581\u662f\u4ec0\u4e48": 6267,
  "\u2581\u8ba1\u7b97\u673a": 6268,
  "\u8fd9\u4e9b\u90fd\u662f": 6269,
  "\u2581Chris": 6270,
  "YouTube": 6271,
  "29": 6272,
  "\u2581\u5355": 6273,
  "\u2581\u6770": 6274,
  "\u4e00\u7ec4": 6275,
  "\u4e2d\u4ea7": 6276,
  "\u4e8c\u7684": 6277,
  "\u51fa\u53e3": 6278,
  "\u533b\u836f": 6279,
  "\u5bf9\u5b83": 6280,
  "\u5bf9\u624b": 6281,
  "\u5e02\u6c11": 6282,
  "\u5e72\u561b": 6283,
  "\u610f\u5fd7": 6284,
  "\u6218\u573a": 6285,
  "\u66f2\u5b50": 6286,
  "\u66ff\u6362": 6287,
  "\u6700\u65e9": 6288,
  "\u6bcf\u79d2": 6289,
  "\u7684\u603b": 6290,
  "\u76f4\u7ebf": 6291,
  "\u79d1\u7814": 6292,
  "\u80a1\u7968": 6293,
  "\u2581\u518d\u6b21": 6294,
  "\u2581\u5e76\u975e": 6295,
  "\u2581\u5efa\u9020": 6296,
  "\u2581\u5f62\u6210": 6297,
  "\u2581\u5f88\u597d": 6298,
  "\u2581\u8fd9\u5e45": 6299,
  "\u4e4b\u4e00\u662f": 6300,
  "\u4eba\u4eec\u4f1a": 6301,
  "\u4ee5\u4e0a\u7684": 6302,
  "\u4f17\u6240\u5468": 6303,
  "\u4f60\u662f\u5426": 6304,
  "\u5236\u9020\u7684": 6305,
  "\u53ea\u662f\u4e2a": 6306,
  "\u53f3\u8fb9\u7684": 6307,
  "\u5927\u6982\u6709": 6308,
  "\u5c0f\u5973\u5b69": 6309,
  "\u5c42\u9762\u4e0a": 6310,
  "\u7684\u552f\u4e00": 6311,
  "\u7684\u75be\u75c5": 6312,
  "\u7684\u9009\u62e9": 6313,
  "\u7684\u98ce\u9669": 6314,
  "\u76ee\u7684\u662f": 6315,
  "\u7b2c\u4e8c\u5929": 6316,
  "\u89e3\u91ca\u4e86": 6317,
  "\u8ba4\u4e3a\u7684": 6318,
  "\u9762\u4e34\u7740": 6319,
  "\u2581\u4f60\u4e0d\u4f1a": 6320,
  "\u2581\u5b83\u4eec\u4f1a": 6321,
  "\u2581\u90a3\u6211\u4eec": 6322,
  "\u4ee4\u4eba\u5174\u594b": 6323,
  "\u518d\u751f\u80fd\u6e90": 6324,
  "\u5c31\u662f\u8fd9\u4e2a": 6325,
  "\u5f97\u5230\u4e00\u4e2a": 6326,
  "\u6211\u4e0d\u5f97\u4e0d": 6327,
  "\u6574\u4e2a\u4e16\u754c": 6328,
  "\u65e0\u5904\u4e0d\u5728": 6329,
  "\u7684\u65b9\u5f0f\u6765": 6330,
  "\u7ed3\u5408\u8d77\u6765": 6331,
  "\u2581\u8c22\u8c22\u4f60\u4eec": 6332,
  "\u2581\u8fd9\u4e2a\u6545\u4e8b": 6333,
  "\u524d\u6240\u672a\u6709\u7684": 6334,
  "28": 6335,
  "\u2581\u8fde": 6336,
  "\u4e0e\u4f60": 6337,
  "\u4e1a\u7684": 6338,
  "\u5171\u8bc6": 6339,
  "\u5173\u8282": 6340,
  "\u5341\u5b57": 6341,
  "\u5371\u5bb3": 6342,
  "\u5386\u5c71": 6343,
  "\u56de\u5934": 6344,
  "\u585e\u5c14": 6345,
  "\u5c04\u7ebf": 6346,
  "\u6027\u683c": 6347,
  "\u6027\u80fd": 6348,
  "\u6211\u53ea": 6349,
  "\u628a\u624b": 6350,
  "\u641c\u96c6": 6351,
  "\u65af\u79d1": 6352,
  "\u65e9\u5c31": 6353,
  "\u6743\u7684": 6354,
  "\u6b65\u884c": 6355,
  "\u6d88\u9632": 6356,
  "\u6ed1\u96ea": 6357,
  "\u7279\u5170": 6358,
  "\u739b\u4e3d": 6359,
  "\u79cd\u7fa4": 6360,
  "\u7ade\u8d5b": 6361,
  "\u7ade\u9009": 6362,
  "\u7f9e\u803b": 6363,
  "\u800c\u975e": 6364,
  "\u8eba\u5728": 6365,
  "\u8fc1\u79fb": 6366,
  "\u8ff9\u8c61": 6367,
  "\u9047\u89c1": 6368,
  "\u952e\u76d8": 6369,
  "\u96cc\u6027": 6370,
  "\u98d3\u98ce": 6371,
  "\u9ebb\u9189": 6372,
  "ohn": 6373,
  "\u2581\u548c\u6211": 6374,
  "\u2581\u6b64\u65f6": 6375,
  "\u2581\u771f\u662f": 6376,
  "\u2581\u81ea\u7531": 6377,
  "\u4e00\u822c\u7684": 6378,
  "\u4e86\u4e00\u6761": 6379,
  "\u518d\u4e00\u6b21": 6380,
  "\u5199\u4e86\u4e00": 6381,
  "\u53d7\u5230\u4e86": 6382,
  "\u53ef\u4ee5\u8ba9": 6383,
  "\u5927\u578b\u7684": 6384,
  "\u5c1d\u8bd5\u7740": 6385,
  "\u5de5\u4f5c\u4e86": 6386,
  "\u5f88\u9ad8\u5174": 6387,
  "\u6211\u975e\u5e38": 6388,
  "\u63d0\u51fa\u7684": 6389,
  "\u6765\u6e90\u4e8e": 6390,
  "\u6bcf\u5929\u90fd": 6391,
  "\u7684\u529f\u80fd": 6392,
  "\u7684\u6e38\u620f": 6393,
  "\u76f8\u4f3c\u7684": 6394,
  "\u8d85\u8fc7\u4e86": 6395,
  "\u8fd8\u4e0d\u591f": 6396,
  "\u8ffd\u6eaf\u5230": 6397,
  "\u9879\u76ee\u7684": 6398,
  "\u2581\u4f46\u662f\u4ed6": 6399,
  "\u2581\u4f60\u5e94\u8be5": 6400,
  "\u2581\u610f\u5473\u7740": 6401,
  "\u2581\u6211\u4eec\u88ab": 6402,
  "\u2581\u6211\u5e76\u4e0d": 6403,
  "\u2581\u8fd9\u8ba9\u6211": 6404,
  "\u533b\u7597\u4fdd\u5065": 6405,
  "\u5b8c\u5168\u4e0d\u540c": 6406,
  "\u6211\u4eec\u65e0\u6cd5": 6407,
  "\u673a\u5668\u4eba\u7684": 6408,
  "\u79d1\u5b66\u7814\u7a76": 6409,
  "\u8fd9\u79cd\u65b9\u6cd5": 6410,
  "\u9ad8\u5c14\u592b\u7403": 6411,
  "\u2581\u4ed6\u4eec\u9700\u8981": 6412,
  "\u2581\u4f46\u6211\u8ba4\u4e3a": 6413,
  "\u2581\u4f46\u662f\u73b0\u5728": 6414,
  "\u2581\u53e6\u4e00\u65b9\u9762": 6415,
  "yn": 6416,
  "\u2581\u5404": 6417,
  "\u4e0d\u53d7": 6418,
  "\u4e73\u623f": 6419,
  "\u4e94\u5343": 6420,
  "\u4f18\u5148": 6421,
  "\u51ac\u5929": 6422,
  "\u52a0\u7eb3": 6423,
  "\u52a9\u4e8e": 6424,
  "\u5341\u4e94": 6425,
  "\u534f\u52a9": 6426,
  "\u5355\u5143": 6427,
  "\u53c2\u8003": 6428,
  "\u53d4\u53d4": 6429,
  "\u53eb\u5b83": 6430,
  "\u53f7\u7801": 6431,
  "\u5468\u8fb9": 6432,
  "\u5584\u4e8e": 6433,
  "\u56db\u5468": 6434,
  "\u56de\u590d": 6435,
  "\u5927\u58f0": 6436,
  "\u5938\u5f20": 6437,
  "\u5bc6\u5207": 6438,
  "\u5fcd\u53d7": 6439,
  "\u6208\u5c14": 6440,
  "\u6211\u628a": 6441,
  "\u6392\u9664": 6442,
  "\u6548\u76ca": 6443,
  "\u662f\u4ee5": 6444,
  "\u66f4\u6df1": 6445,
  "\u684c\u4e0a": 6446,
  "\u6b63\u5f0f": 6447,
  "\u6b96\u6c11": 6448,
  "\u725b\u6d25": 6449,
  "\u75f4\u5446": 6450,
  "\u793c\u62dc": 6451,
  "\u7ebf\u7d22": 6452,
  "\u8d26\u6237": 6453,
  "\u8f86\u8f66": 6454,
  "\u907f\u5b55": 6455,
  "\u961f\u5458": 6456,
  "\u9ad8\u7ea7": 6457,
  "\u2581\u4ee5\u524d": 6458,
  "\u2581\u4f46\u5f53": 6459,
  "\u2581\u56fd\u9645": 6460,
  "\u2581\u5b83\u5c31": 6461,
  "\u2581\u8001\u5e08": 6462,
  "\u2581\u89c2\u5bdf": 6463,
  "\u2581\u90a3\u6837": 6464,
  "\u4e24\u4e2a\u4eba": 6465,
  "\u505a\u51fa\u4e86": 6466,
  "\u53ef\u4ee5\u4ece": 6467,
  "\u5931\u8d25\u7684": 6468,
  "\u6216\u8005\u8bf4": 6469,
  "\u6291\u90c1\u75c7": 6470,
  "\u6570\u91cf\u7684": 6471,
  "\u6700\u8fd1\u7684": 6472,
  "\u7684\u8fd9\u4e9b": 6473,
  "\u7b2c\u4e8c\u6b21": 6474,
  "\u8fc7\u53bb\u4e86": 6475,
  "\u8fd9\u65b9\u9762": 6476,
  "\u90a3\u4e9b\u4eba": 6477,
  "\u90a3\u4e9b\u5728": 6478,
  "\u2581\u53ef\u80fd\u4f1a": 6479,
  "\u2581\u542c\u8d77\u6765": 6480,
  "\u2581\u5927\u5bb6\u90fd": 6481,
  "\u2581\u5f53\u7136\u4e86": 6482,
  "\u2581\u6211\u611f\u5230": 6483,
  "\u2581\u628a\u5b83\u4eec": 6484,
  "\u2581\u73b0\u5728\u4f60": 6485,
  "\u2581\u771f\u6b63\u7684": 6486,
  "\u6210\u767e\u4e0a\u5343": 6487,
  "\u653e\u5728\u4e00\u8d77": 6488,
  "\u66f4\u591a\u7684\u4eba": 6489,
  "\u6b63\u5728\u53d1\u751f": 6490,
  "\u770b\u8d77\u6765\u5f88": 6491,
  "\u2581\u4f60\u80fd\u770b\u5230": 6492,
  "\u2581\u6211\u4e0d\u5f97\u4e0d": 6493,
  "\u66f4\u91cd\u8981\u7684\u662f": 6494,
  "\",": 6495,
  "\u2581\u8d70": 6496,
  "\u4e07\u5e74": 6497,
  "\u4e09\u660e": 6498,
  "\u4e8b\u513f": 6499,
  "\u4ecd\u5728": 6500,
  "\u4ee5\u6b64": 6501,
  "\u4f53\u79ef": 6502,
  "\u505a\u7740": 6503,
  "\u51a0\u519b": 6504,
  "\u5230\u6211": 6505,
  "\u5305\u5bb9": 6506,
  "\u5782\u76f4": 6507,
  "\u5b9e\u7528": 6508,
  "\u5bc4\u751f": 6509,
  "\u5c1a\u672a": 6510,
  "\u5c3c\u5c14": 6511,
  "\u5df2\u6709": 6512,
  "\u5f53\u7684": 6513,
  "\u6027\u5730": 6514,
  "\u6218\u80dc": 6515,
  "\u65af\u62c9": 6516,
  "\u666f\u89c2": 6517,
  "\u6c89\u6d78": 6518,
  "\u6ce1\u6cab": 6519,
  "\u70ed\u8877": 6520,
  "\u767d\u5929": 6521,
  "\u76f2\u4eba": 6522,
  "\u770b\u5f97": 6523,
  "\u77ed\u6682": 6524,
  "\u7a81\u53d8": 6525,
  "\u8bfb\u5230": 6526,
  "\u8ffd\u5bfb": 6527,
  "\u95ee\u4f60": 6528,
  "\u9707\u52a8": 6529,
  "\u987e\u95ee": 6530,
  "\u9884\u8a00": 6531,
  "\u2581\u57fa\u56e0": 6532,
  "\u2581\u73b0\u4ee3": 6533,
  "\u2581\u8981\u662f": 6534,
  "\u2581\u8ba9\u4f60": 6535,
  "\u2581\u8bb0\u5f55": 6536,
  "\u2581\u90fd\u80fd": 6537,
  "\u4e4b\u540e\u7684": 6538,
  "\u4f60\u5e94\u8be5": 6539,
  "\u4f60\u6ca1\u6709": 6540,
  "\u5185\u5fc3\u7684": 6541,
  "\u5c06\u4f1a\u662f": 6542,
  "\u5f00\u59cb\u5728": 6543,
  "\u5f00\u653e\u7684": 6544,
  "\u600e\u4e48\u8bf4": 6545,
  "\u6211\u4eec\u53c8": 6546,
  "\u6211\u5f53\u65f6": 6547,
  "\u7684\u4eba\u90fd": 6548,
  "\u7684\u5e2e\u52a9": 6549,
  "\u7684\u89c6\u9891": 6550,
  "\u770b\u8fd9\u4e2a": 6551,
  "\u81ea\u5df1\u662f": 6552,
  "\u8fbe\u5230\u4e86": 6553,
  "\u2581\u4e00\u5f00\u59cb": 6554,
  "\u2581\u4f46\u8fd9\u662f": 6555,
  "\u2581\u66f4\u591a\u7684": 6556,
  "\u2581\u79d1\u5b66\u5bb6": 6557,
  "\u2581\u7ed3\u679c\u662f": 6558,
  "\u2581\u8fc7\u53bb\u7684": 6559,
  "\u4e5f\u662f\u5982\u6b64": 6560,
  "\u5df4\u52d2\u65af\u5766": 6561,
  "\u5f88\u611f\u5174\u8da3": 6562,
  "\u7684\u539f\u56e0\u662f": 6563,
  "\u770b\u5230\u4e00\u4e2a": 6564,
  "\u8fd9\u4e2a\u7cfb\u7edf": 6565,
  "\u2581\u4ed6\u4eec\u6ca1\u6709": 6566,
  "\u2581\u6211\u6709\u4e00\u4e2a": 6567,
  "\u505a\u5230\u8fd9\u4e00\u70b9": 6568,
  "\u2581\u5982\u679c\u6211\u4eec\u80fd": 6569,
  "\u2581\u6211\u4eec\u4e0d\u77e5\u9053": 6570,
  "\u2581\u98de": 6571,
  "\u4e00\u95f4": 6572,
  "\u4e0d\u5927": 6573,
  "\u4e2d\u53bb": 6574,
  "\u4e70\u4e86": 6575,
  "\u4ee3\u4eba": 6576,
  "\u4f9b\u7ed9": 6577,
  "\u5168\u9762": 6578,
  "\u529b\u5b66": 6579,
  "\u538b\u7f29": 6580,
  "\u53ca\u5176": 6581,
  "\u53cc\u65b9": 6582,
  "\u53d1\u6398": 6583,
  "\u5473\u7684": 6584,
  "\u547d\u4ee4": 6585,
  "\u56de\u5f52": 6586,
  "\u5927\u53a6": 6587,
  "\u5929\u54ea": 6588,
  "\u5c40\u7684": 6589,
  "\u5f7c\u5f97": 6590,
  "\u62ff\u8d77": 6591,
  "\u6559\u7ec3": 6592,
  "\u67b6\u6784": 6593,
  "\u67cf\u6797": 6594,
  "\u6821\u56ed": 6595,
  "\u697c\u68af": 6596,
  "\u6c49\u5821": 6597,
  "\u6d4b\u5e8f": 6598,
  "\u6ee5\u7528": 6599,
  "\u7070\u8d28": 6600,
  "\u70b9\u513f": 6601,
  "\u751f\u6b96": 6602,
  "\u75c5\u83cc": 6603,
  "\u77e5\u89c9": 6604,
  "\u8baf\u606f": 6605,
  "\u8fb9\u5883": 6606,
  "\u90a3\u4e00": 6607,
  "\u91cc\u8fbe": 6608,
  "\u98a0\u8986": 6609,
  "40%": 6610,
  "700": 6611,
  "\u2581\u516c\u53f8": 6612,
  "\u2581\u5982\u540c": 6613,
  "\u2581\u5f88\u96be": 6614,
  "\u2581\u6709\u4e86": 6615,
  "\u2581\u6b27\u6d32": 6616,
  "\u4e00\u672c\u4e66": 6617,
  "\u4e09\u660e\u6cbb": 6618,
  "\u4e86\u89e3\u7684": 6619,
  "\u4eba\u53e3\u7684": 6620,
  "\u53cd\u5e94\u5806": 6621,
  "\u53ef\u4ee5\u8bf4": 6622,
  "\u53ef\u80fd\u6709": 6623,
  "\u56de\u6765\u4e86": 6624,
  "\u5730\u56fe\u4e0a": 6625,
  "\u5947\u5999\u7684": 6626,
  "\u5c31\u662f\u6211": 6627,
  "\u5f88\u6e05\u695a": 6628,
  "\u60f3\u4e00\u60f3": 6629,
  "\u60f3\u6cd5\u662f": 6630,
  "\u662f\u771f\u7684": 6631,
  "\u7406\u6027\u7684": 6632,
  "\u7406\u67e5\u5fb7": 6633,
  "\u7684\u529e\u6cd5": 6634,
  "\u7684\u53d1\u751f": 6635,
  "\u7684\u7b54\u6848": 6636,
  "\u78c1\u5171\u632f": 6637,
  "\u83b7\u5f97\u7684": 6638,
  "\u884c\u4e0d\u901a": 6639,
  "\u9886\u5bfc\u529b": 6640,
  "\u98de\u884c\u5458": 6641,
  "\u2581\u4ed6\u4eec\u88ab": 6642,
  "\u2581\u5176\u4ed6\u7684": 6643,
  "\u2581\u5e76\u4e14\u5728": 6644,
  "\u2581\u6211\u60f3\u8bf4": 6645,
  "\u2581\u6211\u8fd8\u662f": 6646,
  "\u2581\u90a3\u662f\u5728": 6647,
  "\u5730\u7403\u4e0a\u7684": 6648,
  "\u5b83\u662f\u4e00\u4e2a": 6649,
  "\u5f00\u59cb\u601d\u8003": 6650,
  "\u8fd9\u4e48\u505a\u4e86": 6651,
  "\u2581\u53e6\u5916\u4e00\u4e2a": 6652,
  "\u2581\u6240\u4ee5\u73b0\u5728": 6653,
  "\u2581\u6ca1\u6709\u4efb\u4f55": 6654,
  "HI": 6655,
  "pp": 6656,
  "\u2581Y": 6657,
  "\u2581\u540e": 6658,
  "\u2581\u5f97": 6659,
  "\u4e0d\u53ca": 6660,
  "\u4e0d\u5982": 6661,
  "\u4ecb\u5165": 6662,
  "\u4fee\u5efa": 6663,
  "\u4fee\u6539": 6664,
  "\u50ac\u4ea7": 6665,
  "\u514b\u62c9": 6666,
  "\u51cf\u8f7b": 6667,
  "\u521d\u671f": 6668,
  "\u5361\u7247": 6669,
  "\u53cd\u800c": 6670,
  "\u5468\u672b": 6671,
  "\u56db\u79cd": 6672,
  "\u5976\u5976": 6673,
  "\u597d\u51e0": 6674,
  "\u5b64\u513f": 6675,
  "\u5b98\u65b9": 6676,
  "\u5e2e\u4f60": 6677,
  "\u601d\u8def": 6678,
  "\u63d0\u95ee": 6679,
  "\u6469\u6258": 6680,
  "\u7267\u5e08": 6681,
  "\u751f\u80b2": 6682,
  "\u7531\u6b64": 6683,
  "\u7537\u58eb": 6684,
  "\u7845\u8c37": 6685,
  "\u8111\u5b50": 6686,
  "\u8981\u82b1": 6687,
  "\u8d29\u5356": 6688,
  "\u8f66\u91cc": 6689,
  "\u9519\u89c9": 6690,
  "\u9634\u9053": 6691,
  "\u9646\u5730": 6692,
  "\u9876\u90e8": 6693,
  "all": 6694,
  "\u2581\u4f60\u4e0d": 6695,
  "\u2581\u6c11\u4e3b": 6696,
  "\u2581\u8ba9\u5b83": 6697,
  "\u4ec0\u4e48\u7684": 6698,
  "\u5904\u7406\u5668": 6699,
  "\u597d\u5947\u5fc3": 6700,
  "\u597d\u83b1\u575e": 6701,
  "\u5bf9\u6211\u7684": 6702,
  "\u5e02\u4e2d\u5fc3": 6703,
  "\u6211\u60f3\u5230": 6704,
  "\u6697\u7269\u8d28": 6705,
  "\u6700\u540e\u4e00": 6706,
  "\u73a9\u610f\u513f": 6707,
  "\u73af\u5883\u4e0b": 6708,
  "\u7528\u4e00\u79cd": 6709,
  "\u7684\u5173\u952e": 6710,
  "\u7ed3\u679c\u662f": 6711,
  "\u800c\u8a00\u4e4b": 6712,
  "\u89c9\u5f97\u8fd9": 6713,
  "\u8fd8\u9700\u8981": 6714,
  "\u2581\u4eba\u7c7b\u7684": 6715,
  "\u2581\u56e0\u4e3a\u5979": 6716,
  "\u2581\u6211\u4eec\u5148": 6717,
  "\u2581\u7b54\u6848\u662f": 6718,
  "\u4e3a\u4ec0\u4e48\u4f1a": 6719,
  "\u4e86\u4e00\u7cfb\u5217": 6720,
  "\u4e8c\u5341\u4e16\u7eaa": 6721,
  "\u516c\u5171\u7a7a\u95f4": 6722,
  "\u53e6\u4e00\u65b9\u9762": 6723,
  "\u5e94\u7528\u7a0b\u5e8f": 6724,
  "\u81f3\u5173\u91cd\u8981": 6725,
  "32": 6726,
  "ro": 6727,
  "ug": 6728,
  "\u2581\u4e2a": 6729,
  "\u2581\u753b": 6730,
  "\u4e0d\u4f4f": 6731,
  "\u4e24\u5468": 6732,
  "\u4e86\u5427": 6733,
  "\u4ea7\u91cf": 6734,
  "\u4ee3\u7684": 6735,
  "\u5076\u5c14": 6736,
  "\u5230\u4f60": 6737,
  "\u5426\u8ba4": 6738,
  "\u5e95\u5c42": 6739,
  "\u5ef6\u957f": 6740,
  "\u5f00\u91c7": 6741,
  "\u5f15\u9886": 6742,
  "\u6177\u6168": 6743,
  "\u6240\u4f5c": 6744,
  "\u63d0\u7434": 6745,
  "\u63ed\u793a": 6746,
  "\u6682\u65f6": 6747,
  "\u6d77\u6ee9": 6748,
  "\u7535\u7ebf": 6749,
  "\u7684\u6709": 6750,
  "\u76f8\u5904": 6751,
  "\u786c\u5e01": 6752,
  "\u793e\u7fa4": 6753,
  "\u897f\u90e8": 6754,
  "\u978b\u5b50": 6755,
  "\u98ce\u666f": 6756,
  "ind": 6757,
  "\u2581\u4f46\u4e5f": 6758,
  "\u2581\u5b66\u6821": 6759,
  "\u2581\u6211\u8ddf": 6760,
  "\u4ed6\u4eec\u4e5f": 6761,
  "\u50ac\u4ea7\u7d20": 6762,
  "\u5b5f\u52a0\u62c9": 6763,
  "\u60f3\u529e\u6cd5": 6764,
  "\u670d\u52a1\u5668": 6765,
  "\u7684\u673a\u5668": 6766,
  "\u7684\u9700\u6c42": 6767,
  "\u7684\u97f3\u4e50": 6768,
  "\u79cd\u7c7b\u7684": 6769,
  "\u81ea\u5df1\u5728": 6770,
  "\u88ab\u79f0\u4f5c": 6771,
  "\u91cd\u8981\u6027": 6772,
  "\u96c6\u4e2d\u5728": 6773,
  "2009": 6774,
  "\u2581And": 6775,
  "\u2581\u5728\u4ed6\u4eec": 6776,
  "\u2581\u7136\u540e\u628a": 6777,
  "\u2581\u8fd9\u4e9b\u90fd": 6778,
  "\u4e3e\u4e2a\u4f8b\u5b50": 6779,
  "\u4ea4\u901a\u5de5\u5177": 6780,
  "\u6211\u7684\u6f14\u8bb2": 6781,
  "\u793e\u4ea4\u5a92\u4f53": 6782,
  "\u8fd9\u4ef6\u4e8b\u60c5": 6783,
  "\u2581\u5728\u6211\u770b\u6765": 6784,
  "\u2581\u5982\u679c\u6ca1\u6709": 6785,
  "\u6210\u5343\u4e0a\u4e07\u7684": 6786,
  "PA": 6787,
  "\u4e00\u5934": 6788,
  "\u4e8c\u6218": 6789,
  "\u5019\u9009": 6790,
  "\u51e0\u4f55": 6791,
  "\u5317\u4eac": 6792,
  "\u53f2\u4e0a": 6793,
  "\u5403\u4e86": 6794,
  "\u5403\u996d": 6795,
  "\u540d\u5355": 6796,
  "\u56e0\u5b50": 6797,
  "\u56fe\u753b": 6798,
  "\u590d\u6d3b": 6799,
  "\u5934\u7684": 6800,
  "\u59e5\u9ca8": 6801,
  "\u5c0a\u656c": 6802,
  "\u5e03\u62c9": 6803,
  "\u5ef6\u7eed": 6804,
  "\u5f3a\u5236": 6805,
  "\u611f\u6069": 6806,
  "\u662f\u6307": 6807,
  "\u6ca1\u80fd": 6808,
  "\u6ce8\u518c": 6809,
  "\u6f5c\u80fd": 6810,
  "\u7279\u6280": 6811,
  "\u75af\u4e86": 6812,
  "\u76d6\u8328": 6813,
  "\u770b\u6210": 6814,
  "\u80fd\u4e3a": 6815,
  "\u822a\u884c": 6816,
  "\u8282\u7ea6": 6817,
  "\u897f\u5170": 6818,
  "\u8981\u628a": 6819,
  "\u8bcd\u8bed": 6820,
  "\u8fd9\u5757": 6821,
  "\u902e\u6355": 6822,
  "\u9ad8\u8fbe": 6823,
  "800": 6824,
  "ran": 6825,
  "\u2581\u4fdd\u6301": 6826,
  "\u2581\u4fe1\u606f": 6827,
  "\u2581\u5236\u4f5c": 6828,
  "\u2581\u5404\u4f4d": 6829,
  "\u2581\u5a92\u4f53": 6830,
  "\u2581\u65e2\u7136": 6831,
  "\u2581\u6c7d\u8f66": 6832,
  "\u2581\u7ebd\u7ea6": 6833,
  "\u4ed6\u4eec\u90fd": 6834,
  "\u4f7f\u7528\u5b83": 6835,
  "\u5728\u4ed6\u7684": 6836,
  "\u5929\u7136\u6c14": 6837,
  "\u5b66\u4e60\u7684": 6838,
  "\u5b9e\u73b0\u4e86": 6839,
  "\u5e2e\u6211\u4eec": 6840,
  "\u5f88\u5947\u602a": 6841,
  "\u63a5\u53d7\u7684": 6842,
  "\u65b9\u5f0f\u6765": 6843,
  "\u6700\u591a\u7684": 6844,
  "\u6709\u591a\u5927": 6845,
  "\u7684\u4e00\u751f": 6846,
  "\u7684\u793e\u533a": 6847,
  "\u8868\u73b0\u51fa": 6848,
  "\u975e\u653f\u5e9c": 6849,
  "\u2581DNA": 6850,
  "\u2581\u4e0d\u7ba1\u662f": 6851,
  "\u2581\u4ec5\u4ec5\u662f": 6852,
  "\u2581\u4ed6\u4eec\u60f3": 6853,
  "\u2581\u662f\u5982\u4f55": 6854,
  "\u2581\u673a\u5668\u4eba": 6855,
  "\u2581\u8fd9\u5c31\u50cf": 6856,
  "\u4efb\u4f55\u65f6\u5019": 6857,
  "\u5f88\u6709\u53ef\u80fd": 6858,
  "\u6211\u7684\u751f\u6d3b": 6859,
  "\u6240\u5e26\u6765\u7684": 6860,
  "\u62c9\u4e01\u7f8e\u6d32": 6861,
  "\u8fd9\u4e2a\u8bdd\u9898": 6862,
  "\u8fd9\u662f\u4e00\u79cd": 6863,
  "\u2581\u4f5c\u4e3a\u4e00\u540d": 6864,
  "\u2581\u6211\u4eec\u79f0\u4e4b\u4e3a": 6865,
  "St": 6866,
  "\u00b7\u00b7": 6867,
  "\u2581\u53d6": 6868,
  "\u2581\u5730": 6869,
  "\u2581\u65e9": 6870,
  "\u2581\u73b0": 6871,
  "\u2581\u8d85": 6872,
  "\u4eff\u751f": 6873,
  "\u4f1a\u4e0a": 6874,
  "\u5353\u8d8a": 6875,
  "\u5370\u7b2c": 6876,
  "\u53e4\u602a": 6877,
  "\u54e5\u54e5": 6878,
  "\u5854\u5229": 6879,
  "\u5bdf\u89c9": 6880,
  "\u5c38\u4f53": 6881,
  "\u5e02\u7684": 6882,
  "\u5e7c\u513f": 6883,
  "\u6148\u60b2": 6884,
  "\u6295\u5f71": 6885,
  "\u65b9\u5f62": 6886,
  "\u65e0\u7a77": 6887,
  "\u666e\u53ca": 6888,
  "\u667a\u529b": 6889,
  "\u6b21\u7684": 6890,
  "\u6b63\u9762": 6891,
  "\u6d82\u9e26": 6892,
  "\u6e20\u9053": 6893,
  "\u6f14\u5531": 6894,
  "\u70ed\u91cf": 6895,
  "\u7b80\u5316": 6896,
  "\u7eb8\u4e0a": 6897,
  "\u7ebf\u8def": 6898,
  "\u7ed3\u5c40": 6899,
  "\u8089\u773c": 6900,
  "\u819d\u76d6": 6901,
  "\u8282\u7701": 6902,
  "\u8363\u8a89": 6903,
  "\u8865\u5145": 6904,
  "\u8bae\u5458": 6905,
  "\u8bbe\u6cd5": 6906,
  "\u8bbf\u8c08": 6907,
  "\u8bc9\u8bbc": 6908,
  "\u8f85\u52a9": 6909,
  "\u9996\u5e2d": 6910,
  "120": 6911,
  "amp": 6912,
  "\u2581\u4e00\u53ea": 6913,
  "\u2581\u4f46\u5979": 6914,
  "\u2581\u5979\u662f": 6915,
  "\u2581\u6709\u7684": 6916,
  "\u2581\u9488\u5bf9": 6917,
  "\u4e0d\u4e00\u5b9a": 6918,
  "\u4e0d\u613f\u610f": 6919,
  "\u4e5f\u4e0d\u80fd": 6920,
  "\u4eba\u5fc3\u7684": 6921,
  "\u4ece\u8fd9\u91cc": 6922,
  "\u505a\u4e0d\u5230": 6923,
  "\u5177\u4f53\u7684": 6924,
  "\u5305\u542b\u4e86": 6925,
  "\u5438\u5f15\u529b": 6926,
  "\u592a\u597d\u4e86": 6927,
  "\u5973\u4eba\u7684": 6928,
  "\u5e74\u65f6\u95f4": 6929,
  "\u5f04\u660e\u767d": 6930,
  "\u6211\u53ea\u662f": 6931,
  "\u6211\u7236\u4eb2": 6932,
  "\u6570\u5b57\u5316": 6933,
  "\u65b0\u6280\u672f": 6934,
  "\u6700\u9ad8\u7684": 6935,
  "\u6761\u4ef6\u4e0b": 6936,
  "\u6bcf\u5c0f\u65f6": 6937,
  "\u72b9\u592a\u4eba": 6938,
  "\u7684\u7f8e\u56fd": 6939,
  "\u7684\u90a3\u6837": 6940,
  "\u7f57\u91cc\u8fbe": 6941,
  "\u821e\u53f0\u4e0a": 6942,
  "\u8ba9\u8fd9\u4e9b": 6943,
  "\u8bbe\u8ba1\u4e86": 6944,
  "\u957f\u5927\u7684": 6945,
  "\u95ee\u4ed6\u4eec": 6946,
  "\u2581\u4ed6\u4eec\u5bf9": 6947,
  "\u2581\u4ed6\u4eec\u80fd": 6948,
  "\u2581\u53e6\u4e00\u79cd": 6949,
  "\u2581\u8bb8\u591a\u4eba": 6950,
  "\u2581\u90a3\u91cc\u7684": 6951,
  "\u4e0d\u5e78\u7684\u662f": 6952,
  "\u4f60\u4f1a\u770b\u5230": 6953,
  "\u5168\u7403\u6027\u7684": 6954,
  "\u552f\u4e00\u4e00\u4e2a": 6955,
  "\u5c31\u662f\u8fd9\u4e48": 6956,
  "\u770b\u8d77\u6765\u50cf": 6957,
  "\u7cbe\u795e\u5206\u88c2": 6958,
  "\u975e\u5e38\u6709\u8da3": 6959,
  "\u2581\u56e0\u4e3a\u8fd9\u4e2a": 6960,
  "\u2581\u6240\u4ee5\u6211\u5c31": 6961,
  "\u57c3\u585e\u4fc4\u6bd4\u4e9a": 6962,
  "\u6211\u4eec\u7684\u5927\u8111": 6963,
  "47": 6964,
  "\u2581\u7ea6": 6965,
  "\u4e0d\u6e05": 6966,
  "\u4e4b\u8def": 6967,
  "\u4e50\u56e2": 6968,
  "\u4e5f\u88ab": 6969,
  "\u4eb2\u81ea": 6970,
  "\u4ece\u6ca1": 6971,
  "\u4f4e\u4e8e": 6972,
  "\u5361\u901a": 6973,
  "\u542f\u793a": 6974,
  "\u57f9\u80b2": 6975,
  "\u594b\u6597": 6976,
  "\u5f53\u521d": 6977,
  "\u603b\u503c": 6978,
  "\u62ff\u8d70": 6979,
  "\u65b0\u5174": 6980,
  "\u66b4\u9732": 6981,
  "\u6781\u5927": 6982,
  "\u7532\u70f7": 6983,
  "\u76d1\u7981": 6984,
  "\u7acb\u573a": 6985,
  "\u7ec4\u5efa": 6986,
  "\u7ec8\u6781": 6987,
  "\u81ea\u79c1": 6988,
  "\u901a\u5f80": 6989,
  "\u9020\u5c31": 6990,
  "\u96e8\u6c34": 6991,
  "\u98ce\u80fd": 6992,
  "ert": 6993,
  "ica": 6994,
  "\u2581\u4ed6\u5c31": 6995,
  "\u2581\u4ee3\u8868": 6996,
  "\u2581\u5141\u8bb8": 6997,
  "\u2581\u57fa\u672c": 6998,
  "\u2581\u5b9e\u9645": 6999,
  "\u2581\u5f53\u4eca": 7000,
  "\u2581\u6211\u7231": 7001,
  "\u2581\u67d0\u4e9b": 7002,
  "\u2581\u8bf4\u5230": 7003,
  "\u4e3a\u57fa\u7840": 7004,
  "\u4eba\u4eec\u5bf9": 7005,
  "\u4ece\u6765\u6ca1": 7006,
  "\u5171\u540c\u70b9": 7007,
  "\u5173\u952e\u7684": 7008,
  "\u5370\u7b2c\u5b89": 7009,
  "\u5728\u5f88\u591a": 7010,
  "\u5b58\u5728\u4e86": 7011,
  "\u6211\u60f3\u8bf4": 7012,
  "\u6295\u8d44\u8005": 7013,
  "\u62e5\u6709\u4e86": 7014,
  "\u66f4\u9ad8\u7684": 7015,
  "\u6765\u5230\u4e86": 7016,
  "\u6765\u8fd9\u91cc": 7017,
  "\u6838\u6b66\u5668": 7018,
  "\u7684\u5973\u4eba": 7019,
  "\u7684\u73b0\u8c61": 7020,
  "\u7ecf\u5386\u7684": 7021,
  "\u7ed9\u4eba\u4eec": 7022,
  "\u82cf\u683c\u5170": 7023,
  "\u89c1\u8fc7\u7684": 7024,
  "\u8ddf\u6211\u4eec": 7025,
  "\u8f6c\u79fb\u5230": 7026,
  "\u8fd9\u4e2a\u5c0f": 7027,
  "\u91cc\u9762\u7684": 7028,
  "\u9645\u5173\u7cfb": 7029,
  "\u2581\u4f46\u5b83\u4eec": 7030,
  "\u2581\u4f60\u770b\u5230": 7031,
  "\u2581\u53ef\u80fd\u662f": 7032,
  "\u2581\u548c\u4e00\u4e2a": 7033,
  "\u2581\u5730\u7403\u4e0a": 7034,
  "\u2581\u8fd9\u5e76\u4e0d": 7035,
  "\u4e00\u4e2a\u56fd\u5bb6": 7036,
  "\u505a\u4e86\u4e00\u4e9b": 7037,
  "\u5176\u4ed6\u56fd\u5bb6": 7038,
  "\u5404\u79cd\u5404\u6837": 7039,
  "\u5728\u8fc7\u53bb\u7684": 7040,
  "\u5de5\u4f5c\u4eba\u5458": 7041,
  "\u6211\u4eec\u770b\u5230": 7042,
  "\u6240\u6709\u4e1c\u897f": 7043,
  "\u6cbb\u7597\u65b9\u6cd5": 7044,
  "\u73b0\u5728\u5df2\u7ecf": 7045,
  "\u7406\u6240\u5f53\u7136": 7046,
  "\u7535\u89c6\u8282\u76ee": 7047,
  "\u2581\u8fd9\u6837\u4e00\u6765": 7048,
  "\u2581\u6240\u4ee5\u5982\u679c\u4f60": 7049,
  "Twitter": 7050,
  "\u2581\u54c8": 7051,
  "\u2581\u6309": 7052,
  "\u2581\u8fdb": 7053,
  "\u4e0d\u8bba": 7054,
  "\u4e2d\u88ab": 7055,
  "\u4e4b\u65c5": 7056,
  "\u4e58\u5ba2": 7057,
  "\u514b\u7684": 7058,
  "\u5168\u662f": 7059,
  "\u516b\u5341": 7060,
  "\u5206\u522b": 7061,
  "\u521b\u529e": 7062,
  "\u524d\u63d0": 7063,
  "\u524d\u666f": 7064,
  "\u5411\u4e0b": 7065,
  "\u56fe\u4e0a": 7066,
  "\u597d\u591a": 7067,
  "\u5c01\u4fe1": 7068,
  "\u5c01\u9762": 7069,
  "\u5ce1\u8c37": 7070,
  "\u5f97\u4e0a": 7071,
  "\u6301\u6709": 7072,
  "\u63d0\u53ca": 7073,
  "\u653e\u7f6e": 7074,
  "\u6587\u732e": 7075,
  "\u672f\u8bed": 7076,
  "\u6c0f\u5ea6": 7077,
  "\u6df1\u8fdc": 7078,
  "\u75d5\u8ff9": 7079,
  "\u79f0\u547c": 7080,
  "\u7b80\u6d01": 7081,
  "\u7c97\u7cd9": 7082,
  "\u7caa\u4fbf": 7083,
  "\u7ef4\u4e9a": 7084,
  "\u8349\u539f": 7085,
  "\u8fd9\u53f0": 7086,
  "\u9002\u7528": 7087,
  "\u901a\u7528": 7088,
  "\u91cd\u529b": 7089,
  "\u9636\u5c42": 7090,
  "har": 7091,
  "\u2581\u5973\u4eba": 7092,
  "\u2581\u6bcf\u5f53": 7093,
  "\u2581\u6ce8\u610f": 7094,
  "\u2581\u7b49\u7b49": 7095,
  "\u2581\u8fbe\u5230": 7096,
  "\u4e8b\u5b9e\u662f": 7097,
  "\u4f1a\u4ea7\u751f": 7098,
  "\u5173\u6ce8\u7684": 7099,
  "\u5965\u5df4\u9a6c": 7100,
  "\u5b83\u4eec\u4f1a": 7101,
  "\u6211\u4e0d\u662f": 7102,
  "\u641e\u6e05\u695a": 7103,
  "\u66f4\u559c\u6b22": 7104,
  "\u6709\u7528\u7684": 7105,
  "\u7528\u5b83\u6765": 7106,
  "\u7684\u4ef7\u683c": 7107,
  "\u7684\u5f00\u59cb": 7108,
  "\u7684\u79d1\u6280": 7109,
  "\u76f4\u5347\u673a": 7110,
  "\u884c\u4e3a\u7684": 7111,
  "\u89c1\u5230\u4e86": 7112,
  "\u8f6c\u53d8\u4e3a": 7113,
  "\u94f6\u6cb3\u7cfb": 7114,
  "1960": 7115,
  "4000": 7116,
  "\u2581\u4e0d\u9700\u8981": 7117,
  "\u2581\u5982\u679c\u6709": 7118,
  "\u2581\u800c\u4e14\u5b83": 7119,
  "\u5916\u79d1\u533b\u751f": 7120,
  "\u5bf9\u4e8e\u6211\u4eec": 7121,
  "\u600e\u4e48\u53ef\u80fd": 7122,
  "\u6211\u662f\u4e00\u4e2a": 7123,
  "\u663e\u800c\u6613\u89c1": 7124,
  "\u6bcf\u4e2a\u4eba\u7684": 7125,
  "\u751f\u6d3b\u4e2d\u7684": 7126,
  "\u7684\u5927\u90e8\u5206": 7127,
  "\u7ad9\u5728\u8fd9\u91cc": 7128,
  "\u7ef4\u57fa\u767e\u79d1": 7129,
  "\u8be5\u600e\u4e48\u529e": 7130,
  "\u91ce\u751f\u52a8\u7269": 7131,
  "\u2581\u53ef\u4ee5\u770b\u5230": 7132,
  "\u2581\u5e78\u8fd0\u7684\u662f": 7133,
  "\u2581\u6211\u5e76\u4e0d\u662f": 7134,
  "\u2581\u6211\u7b2c\u4e00\u6b21": 7135,
  "\u2581\u6240\u4ee5\u8fd9\u4e2a": 7136,
  "\u4e00\u652f": 7137,
  "\u4e24\u4f4d": 7138,
  "\u4e2d\u6240": 7139,
  "\u4f60\u4ece": 7140,
  "\u540c\u5b66": 7141,
  "\u5927\u5385": 7142,
  "\u59cb\u4e8e": 7143,
  "\u5b9d\u8d1d": 7144,
  "\u5ba1\u5224": 7145,
  "\u5bb3\u7684": 7146,
  "\u5bd2\u51b7": 7147,
  "\u5c31\u7b97": 7148,
  "\u5c9b\u4e0a": 7149,
  "\u5ec9\u4ef7": 7150,
  "\u5f02\u7684": 7151,
  "\u5f55\u5236": 7152,
  "\u5f97\u8d77": 7153,
  "\u6000\u7279": 7154,
  "\u6076\u5fc3": 7155,
  "\u6211\u66fe": 7156,
  "\u6392\u5e8f": 7157,
  "\u65b9\u7a0b": 7158,
  "\u660e\u661f": 7159,
  "\u6709\u6bd2": 7160,
  "\u6a44\u6984": 7161,
  "\u6c14\u6ce1": 7162,
  "\u7684\u8f66": 7163,
  "\u884c\u9a76": 7164,
  "\u8bed\u97f3": 7165,
  "\u8fd9\u4e5f": 7166,
  "\u96f6\u548c": 7167,
  "\u9a6c\u4e01": 7168,
  "250": 7169,
  "\u2581\u5b66\u751f": 7170,
  "\u2581\u6bd4\u5c14": 7171,
  "\u2581\u7406\u89e3": 7172,
  "\u2581\u8bed\u8a00": 7173,
  "\u2581\u8fd9\u53ea": 7174,
  "\u4e00\u534a\u7684": 7175,
  "\u4e0d\u4ec5\u662f": 7176,
  "\u4e24\u4ef6\u4e8b": 7177,
  "\u4e5f\u540c\u6837": 7178,
  "\u4ff1\u4e50\u90e8": 7179,
  "\u505c\u8f66\u573a": 7180,
  "\u56fa\u5b9a\u7684": 7181,
  "\u57c3\u535a\u62c9": 7182,
  "\u5927\u7206\u70b8": 7183,
  "\u5e2e\u52a9\u6211": 7184,
  "\u6211\u771f\u7684": 7185,
  "\u6df1\u523b\u7684": 7186,
  "\u72ec\u4e00\u65e0": 7187,
  "\u80fd\u591f\u5728": 7188,
  "\u8868\u9762\u4e0a": 7189,
  "\u9a6c\u62c9\u677e": 7190,
  "\u9ec4\u8272\u7684": 7191,
  "avid": 7192,
  "\u2581\u4e0d\u540c\u7684": 7193,
  "\u2581\u4e0d\u77e5\u9053": 7194,
  "\u2581\u4eba\u4eec\u5728": 7195,
  "\u2581\u4f60\u4e5f\u8bb8": 7196,
  "\u2581\u6211\u4eec\u518d": 7197,
  "\u2581\u7136\u540e\u662f": 7198,
  "\u4e00\u7cfb\u5217\u7684": 7199,
  "\u5144\u5f1f\u59d0\u59b9": 7200,
  "\u5de5\u4e1a\u9769\u547d": 7201,
  "\u6211\u4eec\u4eba\u7c7b": 7202,
  "\u7684\u4e16\u754c\u91cc": 7203,
  "\u7684\u5b69\u5b50\u4eec": 7204,
  "\u8fd9\u4e9b\u7167\u7247": 7205,
  "\u8fd9\u662f\u4ec0\u4e48": 7206,
  "\u91c7\u53d6\u884c\u52a8": 7207,
  "\u662f\u4e00\u4e2a\u975e\u5e38": 7208,
  "\u2581\u6211\u4eec\u53ef\u4ee5\u770b\u5230": 7209,
  "\u2581m": 7210,
  "\u2581\u627e": 7211,
  "\u4e09\u5929": 7212,
  "\u4e0d\u7740": 7213,
  "\u4e1a\u4f59": 7214,
  "\u4ed6\u5c31": 7215,
  "\u5170\u7ecf": 7216,
  "\u517b\u6b96": 7217,
  "\u51b0\u7bb1": 7218,
  "\u5361\u5c14": 7219,
  "\u53ef\u4e0d": 7220,
  "\u547d\u540d": 7221,
  "\u5c04\u51fb": 7222,
  "\u5c14\u7279": 7223,
  "\u5e26\u7ed9": 7224,
  "\u5f15\u4eba": 7225,
  "\u6076\u52a3": 7226,
  "\u6559\u79d1": 7227,
  "\u6587\u672c": 7228,
  "\u65c5\u9986": 7229,
  "\u663e\u73b0": 7230,
  "\u677f\u7403": 7231,
  "\u6b7b\u5211": 7232,
  "\u6bd4\u6211": 7233,
  "\u6cbc\u6cfd": 7234,
  "\u6ed1\u677f": 7235,
  "\u72ee\u5b50": 7236,
  "\u7ea6\u675f": 7237,
  "\u7f16\u7ec7": 7238,
  "\u8352\u8c2c": 7239,
  "\u86cb\u7cd5": 7240,
  "\u89c5\u98df": 7241,
  "\u8f6c\u52a8": 7242,
  "\u8f93\u51fa": 7243,
  "\u8fd4\u56de": 7244,
  "\u9009\u9879": 7245,
  "\u964d\u5230": 7246,
  "Mar": 7247,
  "ers": 7248,
  "\u2581St": 7249,
  "\u2581\u4ed6\u88ab": 7250,
  "\u2581\u5750\u5728": 7251,
  "\u2581\u5b83\u88ab": 7252,
  "\u2581\u6211\u731c": 7253,
  "\u2581\u7167\u7247": 7254,
  "\u2581\u7ecf\u5e38": 7255,
  "\u2581\u8fde\u63a5": 7256,
  "\u2581\u9a6c\u514b": 7257,
  "\u4f60\u5c31\u80fd": 7258,
  "\u533a\u57df\u7684": 7259,
  "\u53ef\u4ee5\u662f": 7260,
  "\u5728\u90a3\u4e2a": 7261,
  "\u5efa\u7acb\u8d77": 7262,
  "\u6218\u4e89\u7684": 7263,
  "\u6570\u636e\u7684": 7264,
  "\u663e\u793a\u4e86": 7265,
  "\u6700\u521d\u7684": 7266,
  "\u767d\u8272\u7684": 7267,
  "\u79f0\u5b83\u4e3a": 7268,
  "\u7b80\u5355\u5730": 7269,
  "\u7ed3\u675f\u540e": 7270,
  "\u81ea\u7531\u7684": 7271,
  "\u82f1\u683c\u5170": 7272,
  "\u8981\u505a\u7684": 7273,
  "\u98df\u7269\u94fe": 7274,
  "\u2581\u4e00\u4e2a\u4eba": 7275,
  "\u2581\u4e0b\u4e00\u4e2a": 7276,
  "\u2581\u53ea\u9700\u8981": 7277,
  "\u2581\u6700\u5927\u7684": 7278,
  "\u53d1\u751f\u7684\u4e8b": 7279,
  "\u6211\u4eec\u60f3\u8981": 7280,
  "\u7814\u7a76\u4eba\u5458": 7281,
  "\u2581\u5c31\u662f\u8fd9\u4e2a": 7282,
  "\u5230\u5e95\u662f\u4ec0\u4e48": 7283,
  "CA": 7284,
  "aw": 7285,
  "\u2581\u2013": 7286,
  "\u2581\u53e4": 7287,
  "\u300d\u3002": 7288,
  "\u4e0d\u582a": 7289,
  "\u4e0d\u5df2": 7290,
  "\u4e0d\u826f": 7291,
  "\u5149\u7684": 7292,
  "\u5251\u6865": 7293,
  "\u53d7\u8fc7": 7294,
  "\u5750\u4e0b": 7295,
  "\u5931\u4e1a": 7296,
  "\u5973\u5b50": 7297,
  "\u5bf9\u5e94": 7298,
  "\u5e72\u65f1": 7299,
  "\u5fae\u535a": 7300,
  "\u603b\u4f1a": 7301,
  "\u6355\u635e": 7302,
  "\u63d0\u793a": 7303,
  "\u660e\u5e74": 7304,
  "\u6709\u5f88": 7305,
  "\u6b64\u7c7b": 7306,
  "\u6d17\u8863": 7307,
  "\u6e29\u548c": 7308,
  "\u7406\u667a": 7309,
  "\u7535\u6d41": 7310,
  "\u7559\u8a00": 7311,
  "\u770b\u4f3c": 7312,
  "\u771f\u7a7a": 7313,
  "\u7a7a\u767d": 7314,
  "\u8036\u7a23": 7315,
  "\u80a4\u8272": 7316,
  "\u810a\u690e": 7317,
  "\u8425\u5229": 7318,
  "\u8499\u7279": 7319,
  "\u878d\u5316": 7320,
  "\u8f6c\u6298": 7321,
  "\u9065\u63a7": 7322,
  "\u91cc\u514b": 7323,
  "\u95ee\u9053": 7324,
  "\u97f3\u7b26": 7325,
  "\u9a6c\u8fbe": 7326,
  "ack": 7327,
  "\u2581\u4e00\u8fb9": 7328,
  "\u2581\u51e0\u5e74": 7329,
  "\u2581\u5bb6\u5ead": 7330,
  "\u2581\u5f80\u5f80": 7331,
  "\u2581\u6309\u7167": 7332,
  "\u2581\u662f\u4ece": 7333,
  "\u2581\u786e\u4fdd": 7334,
  "\u2581\u8bb0\u4f4f": 7335,
  "\u2581\u8fd0\u7528": 7336,
  "\u4e24\u4e2a\u6708": 7337,
  "\u4f60\u60f3\u8981": 7338,
  "\u5168\u7403\u6027": 7339,
  "\u51fa\u8272\u7684": 7340,
  "\u53bb\u4e86\u89e3": 7341,
  "\u53d1\u73b0\u5728": 7342,
  "\u5c0f\u884c\u661f": 7343,
  "\u5c31\u6709\u4e86": 7344,
  "\u5de5\u4f5c\u5ba4": 7345,
  "\u5f15\u8d77\u4e86": 7346,
  "\u6211\u53bb\u4e86": 7347,
  "\u6545\u4e8b\u7684": 7348,
  "\u662f\u5426\u6709": 7349,
  "\u673a\u6784\u7684": 7350,
  "\u6765\u8bf4\u662f": 7351,
  "\u6f14\u8bb2\u8005": 7352,
  "\u7406\u89e3\u7684": 7353,
  "\u7684\u51b3\u5b9a": 7354,
  "\u7684\u51e0\u7387": 7355,
  "\u7f51\u7edc\u7684": 7356,
  "\u89d2\u5ea6\u770b": 7357,
  "\u8fd9\u4e9b\u662f": 7358,
  "\u90fd\u662f\u5728": 7359,
  "\u2581\u4ed6\u4eec\u8fd8": 7360,
  "\u2581\u5973\u58eb\u4eec": 7361,
  "\u2581\u5f88\u663e\u7136": 7362,
  "\u2581\u800c\u90a3\u4e9b": 7363,
  "\u2581\u8fd9\u5176\u5b9e": 7364,
  "\u2581\u8fd9\u6b63\u662f": 7365,
  "\u521a\u521a\u5f00\u59cb": 7366,
  "\u5230\u53e6\u4e00\u4e2a": 7367,
  "\u58a8\u897f\u54e5\u6e7e": 7368,
  "\u6211\u7684\u540c\u4e8b": 7369,
  "\u751f\u4ea7\u603b\u503c": 7370,
  "\u7684\u673a\u5668\u4eba": 7371,
  "\u2581\u8fd9\u4e9b\u4e1c\u897f": 7372,
  "\u2581\u8fd9\u4e5f\u662f\u4e3a\u4ec0\u4e48": 7373,
  "48": 7374,
  "\u2581\u4f0a": 7375,
  "\u2581\u5fc3": 7376,
  "\u2581\u8d1d": 7377,
  "\u4e0a\u8bf4": 7378,
  "\u4e1b\u6797": 7379,
  "\u4e3b\u4eba": 7380,
  "\u4e66\u7684": 7381,
  "\u4e8b\u52a1": 7382,
  "\u4e9a\u5f53": 7383,
  "\u5206\u6570": 7384,
  "\u53d9\u8ff0": 7385,
  "\u53ef\u89c6": 7386,
  "\u542c\u542c": 7387,
  "\u5668\u7684": 7388,
  "\u5728\u54ea": 7389,
  "\u5728\u5bb6": 7390,
  "\u58f0\u79f0": 7391,
  "\u5bb6\u4eec": 7392,
  "\u5bf9\u5176": 7393,
  "\u5e26\u56de": 7394,
  "\u5e94\u4ed8": 7395,
  "\u6076\u5316": 7396,
  "\u6258\u90a6": 7397,
  "\u635f\u5bb3": 7398,
  "\u641e\u7b11": 7399,
  "\u652f\u51fa": 7400,
  "\u66f4\u5c11": 7401,
  "\u6b8b\u9177": 7402,
  "\u6ce1\u6ce1": 7403,
  "\u6d77\u5730": 7404,
  "\u7535\u6781": 7405,
  "\u753b\u753b": 7406,
  "\u78c1\u573a": 7407,
  "\u80a9\u8180": 7408,
  "\u8981\u7528": 7409,
  "\u89e3\u5256": 7410,
  "\u89e6\u53ca": 7411,
  "\u8bf1\u60d1": 7412,
  "\u8de8\u56fd": 7413,
  "\u8def\u5f84": 7414,
  "\u94a5\u5319": 7415,
  "\u9aa8\u67b6": 7416,
  "195": 7417,
  "\u258125": 7418,
  "\u2581\u63d0\u9ad8": 7419,
  "\u2581\u795e\u7ecf": 7420,
  "\u2581\u7edd\u5bf9": 7421,
  "\u4e0b\u4e00\u6b65": 7422,
  "\u4e86\u4e00\u9879": 7423,
  "\u4f60\u4eec\u90fd": 7424,
  "\u5236\u9020\u51fa": 7425,
  "\u5341\u5e74\u91cc": 7426,
  "\u5b8c\u5168\u4e0d": 7427,
  "\u5c31\u5728\u4e8e": 7428,
  "\u666e\u901a\u4eba": 7429,
  "\u6ca1\u95ee\u9898": 7430,
  "\u764c\u7ec6\u80de": 7431,
  "\u7684\u5973\u5b69": 7432,
  "\u7684\u5bb6\u4f19": 7433,
  "\u7684\u7406\u5ff5": 7434,
  "\u7684\u7535\u5f71": 7435,
  "\u7684\u77e5\u8bc6": 7436,
  "\u7684\u80fd\u6e90": 7437,
  "\u7ecf\u6d4e\u7684": 7438,
  "\u8054\u7cfb\u7684": 7439,
  "\u8ba4\u4e3a\u8fd9": 7440,
  "\u8bb2\u7684\u662f": 7441,
  "\u8fd9\u4e24\u79cd": 7442,
  "\u9ea6\u514b\u98ce": 7443,
  "\u2581the": 7444,
  "\u2581\u56e0\u4e3a\u90a3": 7445,
  "\u2581\u6211\u662f\u4e2a": 7446,
  "\u2581\u751f\u6d3b\u5728": 7447,
  "\u2581\u8ba9\u4eba\u4eec": 7448,
  "\u2581\u8fd9\u4ef6\u4e8b": 7449,
  "\u4ed6\u4eec\u6ca1\u6709": 7450,
  "\u4f60\u77e5\u9053\u7684": 7451,
  "\u505a\u5f97\u66f4\u597d": 7452,
  "\u56fd\u5bb6\u5b89\u5168": 7453,
  "\u5728\u6211\u770b\u6765": 7454,
  "\u5927\u90e8\u5206\u4eba": 7455,
  "\u5b97\u6559\u4fe1\u4ef0": 7456,
  "\u6700\u57fa\u672c\u7684": 7457,
  "\u6709\u66f4\u591a\u7684": 7458,
  "\u6709\u8fd9\u6837\u7684": 7459,
  "\u7ec4\u6210\u90e8\u5206": 7460,
  "\u7ed9\u4e86\u6211\u4eec": 7461,
  "\u2581\u6240\u4ee5\u5982\u679c": 7462,
  "\u2581\u6240\u6709\u4eba\u90fd": 7463,
  "\u2581\u8fd8\u6709\u4e00\u4e9b": 7464,
  "\u2581\u6700\u91cd\u8981\u7684\u662f": 7465,
  "\u2581\u5982\u679c\u6211\u4eec\u53ef\u4ee5": 7466,
  "-3": 7467,
  "In": 7468,
  "\u2581\u4f20": 7469,
  "\u2581\u5f17": 7470,
  "\u2581\u6069": 7471,
  "\u4e00\u5c42": 7472,
  "\u4e24\u6761": 7473,
  "\u4e3e\u52a8": 7474,
  "\u4e5f\u8981": 7475,
  "\u4e66\u4e2d": 7476,
  "\u4ea4\u54cd": 7477,
  "\u4ed8\u8bf8": 7478,
  "\u4f5c\u66f2": 7479,
  "\u503e\u659c": 7480,
  "\u5170\u514b": 7481,
  "\u5199\u4e0b": 7482,
  "\u51fa\u81ea": 7483,
  "\u5229\u4e8e": 7484,
  "\u52a0\u5f3a": 7485,
  "\u5341\u4e07": 7486,
  "\u53c8\u4f1a": 7487,
  "\u548c\u5979": 7488,
  "\u5706\u5f62": 7489,
  "\u591a\u5fb7": 7490,
  "\u59a5\u534f": 7491,
  "\u5b69\u7ae5": 7492,
  "\u5ba3\u79f0": 7493,
  "\u5c31\u6b64": 7494,
  "\u5c3d\u529b": 7495,
  "\u5c9b\u5c7f": 7496,
  "\u5e10\u7bf7": 7497,
  "\u5e9e\u5927": 7498,
  "\u5e9f\u7269": 7499,
  "\u5f81\u670d": 7500,
  "\u60a3\u4e0a": 7501,
  "\u62b5\u8fbe": 7502,
  "\u62c7\u6307": 7503,
  "\u63a5\u5230": 7504,
[...]
