<unk>	0
<s>	0
</s>	0
我们	-0
▁这	-1
一个	-2
▁我	-3
▁我们	-4
他们	-5
可以	-6
▁但	-7
▁在	-8
这个	-9
▁你	-10
就是	-11
什么	-12
因为	-13
这些	-14
▁而	-15
如果	-16
▁所	-17
没有	-18
▁他们	-19
现在	-20
▁它	-21
▁那	-22
知道	-23
问题	-24
▁所以	-25
的人	-26
不是	-27
▁这是	-28
▁因为	-29
世界	-30
自己	-31
▁当	-32
▁但是	-33
非常	-34
开始	-35
这样	-36
一些	-37
▁他	-38
的时	-39
▁是	-40
需要	-41
▁如果	-42
我的	-43
看到	-44
可能	-45
然后	-46
00	-47
的是	-48
▁有	-49
你们	-50
--	-51
▁不	-52
一种	-53
已经	-54
很多	-55
工作	-56
我们的	-57
人们	-58
东西	-59
▁然后	-60
▁并	-61
的时候	-62
的事	-63
▁“	-64
它们	-65
认为	-66
——	-67
▁也	-68
▁就	-69
发现	-70
所有	-71
▁这些	-72
那些	-73
▁现在	-74
或者	-75
研究	-76
发生	-77
▁这个	-78
大的	-79
国家	-80
一样	-81
孩子	-82
到了	-83
不同	-84
如何	-85
。”	-86
其他	-87
生活	-88
还有	-89
重要	-90
的一	-91
▁和	-92
大家	-93
地方	-94
▁一	-95
你的	-96
起来	-97
美国	-98
通过	-99
这是	-100
▁对	-101
这种	-102
好的	-103
都是	-104
告诉	-105
▁以	-106
改变	-107
▁她	-108
..	-109
部分	-110
设计	-111
能够	-112
方式	-113
▁从	-114
任何	-115
人的	-116
为什么	-117
使用	-118
▁来	-119
中的	-120
▁让	-121
关于	-122
人类	-123
只是	-124
这里	-125
系统	-126
故事	-127
▁而且	-128
事实	-129
▁一个	-130
不会	-131
怎么	-132
时间	-133
▁最	-134
进行	-135
一下	-136
应该	-137
技术	-138
数据	-139
因此	-140
一起	-141
希望	-142
社会	-143
觉得	-144
是一个	-145
科学	-146
必须	-147
来的	-148
上的	-149
来说	-150
▁它们	-151
实际	-152
他们的	-153
成为	-154
这样的	-155
正在	-156
不能	-157
这一	-158
自己的	-159
个人	-160
信息	-161
还是	-162
一次	-163
的事情	-164
到的	-165
▁我想	-166
▁因此	-167
生物	-168
方法	-169
样的	-170
创造	-171
▁并且	-172
真的	-173
的东西	-174
▁比	-175
今天	-176
▁如果你	-177
我想	-178
喜欢	-179
▁或者	-180
公司	-181
▁每	-182
发展	-183
完全	-184
存在	-185
做的	-186
▁那么	-187
新的	-188
20	-189
谢谢	-190
甚至	-191
同时	-192
了一个	-193
▁就是	-194
生命	-195
了一	-196
这么	-197
那个	-198
更多	-199
大脑	-200
之后	-201
▁其	-202
影响	-203
事实上	-204
▁这就是	-205
解决	-206
作为	-207
他的	-208
经济	-209
▁我的	-210
帮助	-211
实际上	-212
真正	-213
▁第	-214
了解	-215
的问题	-216
决定	-217
情况	-218
▁都	-219
,“	-220
城市	-221
的地方	-222
结果	-223
机器	-224
为了	-225
实验	-226
有一个	-227
也是	-228
▁还有	-229
简单	-230
:“	-231
▁大	-232
如此	-233
过去	-234
选择	-235
▁你们	-236
得到	-237
许多	-238
想法	-239
意识	-240
看看	-241
动物	-242
组织	-243
是在	-244
那里	-245
不同的	-246
两个	-247
相信	-248
时候	-249
一直	-250
19	-251
事情	-252
仅仅	-253
▁以及	-254
环境	-255
过程	-256
之前	-257
整个	-258
只有	-259
项目	-260
性的	-261
产生	-262
政府	-263
照片	-264
感觉	-265
变得	-266
年前	-267
细胞	-268
就会	-269
原因	-270
不知道	-271
▁的	-272
拥有	-273
想象	-274
来自	-275
方面	-276
10	-277
想要	-278
▁--	-279
?”	-280
于是	-281
地球	-282
艺术	-283
全球	-284
下来	-285
之间	-286
的话	-287
▁你可以	-288
出来	-289
自然	-290
之一	-291
▁或	-292
无法	-293
一点	-294
朋友	-295
理解	-296
例子	-297
er	-298
网络	-299
能力	-300
我在	-301
找到	-302
▁谢谢	-303
变化	-304
展示	-305
教育	-306
提供	-307
那么	-308
▁可以	-309
▁去	-310
里的	-311
变成	-312
学习	-313
运动	-314
建筑	-315
▁好	-316
它的	-317
▁比如	-318
▁于是	-319
是什么	-320
▁用	-321
▁人们	-322
▁当然	-323
200	-324
行为	-325
对于	-326
并不	-327
非洲	-328
是个	-329
学生	-330
成功	-331
an	-332
关系	-333
计算	-334
▁事实上	-335
▁把	-336
音乐	-337
基本	-338
有一	-339
▁我们的	-340
学家	-341
意思	-342
▁要	-343
基因	-344
如果你	-345
▁这种	-346
▁这样	-347
的方式	-348
思考	-349
电脑	-350
美元	-351
学校	-352
是一	-353
▁那些	-354
科技	-355
出现	-356
声音	-357
▁会	-358
经历	-359
安全	-360
▁将	-361
历史	-362
空间	-363
▁就像	-364
让我	-365
意义	-366
控制	-367
意味	-368
身体	-369
50	-370
女性	-371
利用	-372
机会	-373
演讲	-374
▁没有	-375
有趣	-376
怎样	-377
的一个	-378
件事	-379
就像	-380
另一个	-381
的时间	-382
未来	-383
以及	-384
建立	-385
印度	-386
各种	-387
▁很	-388
▁与	-389
世纪	-390
令人	-391
特别	-392
意味着	-393
我们可以	-394
复杂	-395
所有的	-396
健康	-397
其实	-398
完成	-399
最后	-400
其中	-401
是否	-402
在一起	-403
▁(	-404
制造	-405
让我们	-406
▁这里	-407
确实	-408
尝试	-409
▁♫	-410
保护	-411
宇宙	-412
游戏	-413
▁我们可以	-414
感到	-415
多少	-416
做了	-417
▁所有	-418
主义	-419
文化	-420
有些	-421
说的	-422
医生	-423
当时	-424
▁我认为	-425
重要的	-426
把它	-427
合作	-428
神经	-429
参与	-430
年的	-431
▁正	-432
活动	-433
语言	-434
进入	-435
意识到	-436
我们在	-437
▁所以我	-438
地区	-439
多数	-440
几个	-441
食物	-442
▁即	-443
目标	-444
获得	-445
计划	-446
继续	-447
中国	-448
注意	-449
你可以	-450
也许	-451
中心	-452
▁为什么	-453
另一	-454
小时	-455
政治	-456
▁通过	-457
ar	-458
将会	-459
第一	-460
另外	-461
所以	-462
模式	-463
▁不过	-464
世界上	-465
接受	-466
才能	-467
市场	-468
大学	-469
联系	-470
更加	-471
▁只	-472
有人	-473
看起来	-474
▁这是一个	-475
作用	-476
治疗	-477
解释	-478
疾病	-479
叫做	-480
▁而是	-481
in	-482
▁到	-483
然而	-484
小的	-485
家庭	-486
▁我在	-487
努力	-488
工具	-489
价值	-490
几乎	-491
▁但我	-492
年轻	-493
重新	-494
量的	-495
▁同时	-496
000	-497
ED	-498
三个	-499
首先	-500
领域	-501
实现	-502
电影	-503
▁如果我们	-504
生产	-505
机器人	-506
是我们	-507
回到	-508
▁然而	-509
on	-510
出了	-511
十分	-512
死亡	-513
▁所以我们	-514
▁非常	-515
我要	-516
▁接	-517
看到的	-518
”。	-519
年代	-520
同样	-521
并不是	-522
里面	-523
关注	-524
反应	-525
社区	-526
数字	-527
答案	-528
包括	-529
讨论	-530
就可以	-531
曾经	-532
观察	-533
▁再	-534
作品	-535
就能	-536
30	-537
处理	-538
▁被	-539
产品	-540
▁对于	-541
都有	-542
都会	-543
太阳	-544
TED	-545
持续	-546
孩子们	-547
▁更	-548
更多的	-549
感谢	-550
分享	-551
▁你会	-552
现实	-553
一定	-554
过的	-555
她的	-556
▁还	-557
分钟	-558
挑战	-559
相当	-560
自由	-561
▁也许	-562
区域	-563
▁最后	-564
容易	-565
百万	-566
是我	-567
有点	-568
▁当我	-569
▁实际上	-570
结构	-571
准备	-572
不可	-573
有了	-574
汽车	-575
出的	-576
认识	-577
▁无	-578
▁能	-579
成的	-580
▁为	-581
超过	-582
▁甚至	-583
服务	-584
在这	-585
制作	-586
某种	-587
资源	-588
在这里	-589
观众	-590
....	-591
▁像	-592
行动	-593
显示	-594
力量	-595
色的	-596
主要	-597
15	-598
视频	-599
代表	-600
兴趣	-601
▁可	-602
的故事	-603
战争	-604
▁当你	-605
模型	-606
▁让我们	-607
根本	-608
的大	-609
带来	-610
总是	-611
程度	-612
唯一	-613
我说	-614
直到	-615
巨大的	-616
分子	-617
支持	-618
发生了	-619
去了	-620
增长	-621
明白	-622
那样	-623
的方法	-624
这个问题	-625
可能会	-626
当然	-627
越来	-628
类似	-629
寻找	-630
理论	-631
▁看	-632
不到	-633
精神	-634
越来越	-635
比较	-636
真实	-637
▁也就是	-638
病毒	-639
海洋	-640
考虑	-641
发明	-642
基础	-643
知识	-644
第二	-645
科学家	-646
都在	-647
目前	-648
成了	-649
观点	-650
多的	-651
▁我们在	-652
力的	-653
化的	-654
虽然	-655
工程	-656
是因为	-657
办法	-658
女孩	-659
通常	-660
电话	-661
上面	-662
不断	-663
每个	-664
机构	-665
▁使	-666
纽约	-667
的人们	-668
的小	-669
一个人	-670
的工作	-671
尽管	-672
▁关于	-673
▁C	-674
以前	-675
结束	-676
但是	-677
听到	-678
同样的	-679
她们	-680
投资	-681
▁其实	-682
▁我们需要	-683
有关	-684
很多人	-685
病人	-686
在一个	-687
每个人	-688
传统	-689
概念	-690
身上	-691
▁S	-692
做出	-693
哪里	-694
母亲	-695
自我	-696
计算机	-697
”,	-698
材料	-699
离开	-700
记录	-701
en	-702
一切	-703
▁如	-704
清楚	-705
最终	-706
能源	-707
并且	-708
有的	-709
▁说	-710
第一个	-711
▁那就是	-712
测试	-713
做到	-714
第一次	-715
一位	-716
大概	-717
愿意	-718
百分	-719
▁其中	-720
NA	-721
手机	-722
用的	-723
媒体	-724
英国	-725
角度	-726
仅仅是	-727
▁给	-728
100	-729
▁B	-730
医疗	-731
记得	-732
实验室	-733
速度	-734
▁不是	-735
▁作为	-736
也不	-737
就在	-738
物质	-739
受到	-740
▁当我们	-741
得不	-742
仍然	-743
别人	-744
关键	-745
领导	-746
世界的	-747
充满	-748
移动	-749
错误	-750
▁今天	-751
▁他说	-752
谈论	-753
定的	-754
当你	-755
等等	-756
名字	-757
有个	-758
飞行	-759
▁大家	-760
回答	-761
这就是	-762
你会	-763
▁为了	-764
试图	-765
▁由	-766
一天	-767
图片	-768
大约	-769
导致	-770
证明	-771
后来	-772
有效	-773
正确	-774
有很多	-775
男人	-776
数学	-777
电视	-778
每天	-779
在这个	-780
应用	-781
女人	-782
相关	-783
父母	-784
管理	-785
而言	-786
设备	-787
面对	-788
保持	-789
大多数	-790
人口	-791
植物	-792
的世界	-793
足够	-794
并没有	-795
连接	-796
电子	-797
▁因为我	-798
▁"	-799
父亲	-800
不可能	-801
一样的	-802
增加	-803
直接	-804
看见	-805
至少	-806
or	-807
下的	-808
很好	-809
是如何	-810
12	-811
也会	-812
做什么	-813
我们所	-814
le	-815
内容	-816
民主	-817
利亚	-818
探索	-819
物种	-820
简单的	-821
你知道	-822
交流	-823
例如	-824
共同	-825
气候	-826
老师	-827
建造	-828
放在	-829
儿童	-830
想到	-831
而且	-832
达到	-833
具有	-834
真正的	-835
▁我不	-836
▁首先	-837
十年	-838
用来	-839
▁我说	-840
了我	-841
在我	-842
物理	-843
现象	-844
18	-845
互联	-846
药物	-847
创新	-848
随着	-849
方向	-850
范围	-851
时代	-852
也有	-853
减少	-854
让人	-855
更好	-856
本身	-857
网站	-858
癌症	-859
▁第二	-860
。“	-861
功能	-862
▁而不是	-863
的情况	-864
能量	-865
40	-866
▁A	-867
给你们	-868
明显	-869
看着	-870
表现	-871
上去	-872
企业	-873
到底	-874
团队	-875
▁我要	-876
我认为	-877
▁M	-878
给我	-879
的一部分	-880
我不	-881
最大的	-882
形式	-883
某些	-884
▁我是	-885
是一种	-886
刚刚	-887
之间的	-888
了这个	-889
▁因为我们	-890
样子	-891
者的	-892
▁当时	-893
体的	-894
告诉你	-895
危险	-896
我是	-897
突然	-898
▁一些	-899
的原因	-900
分析	-901
欧洲	-902
永远	-903
我会	-904
基本上	-905
斯坦	-906
一张	-907
一步	-908
开发	-909
很难	-910
飞机	-911
▁我觉得	-912
我就	-913
进化	-914
60	-915
人员	-916
其它	-917
面的	-918
会有	-919
商业	-920
公共	-921
坐在	-922
很有	-923
数量	-924
经常	-925
规模	-926
▁已经	-927
互联网	-928
▁想	-929
周围	-930
▁让我	-931
困难	-932
来看	-933
ic	-934
▁你的	-935
心理	-936
▁有些	-937
▁但我们	-938
以后	-939
地图	-940
▁尽管	-941
百分之	-942
▁我会	-943
不要	-944
位置	-945
难以	-946
相同	-947
预测	-948
人都	-949
型的	-950
▁你知道	-951
表达	-952
▁虽然	-953
个月	-954
▁即使	-955
告诉我	-956
▁除	-957
地的	-958
DNA	-959
如果我们	-960
11	-961
不再	-962
消息	-963
▁下	-964
严重	-965
方案	-966
手术	-967
尼亚	-968
过来	-969
让你	-970
调查	-971
加入	-972
程序	-973
有着	-974
其他的	-975
上帝	-976
给你	-977
▁美国	-978
快乐	-979
梦想	-980
...	-981
根据	-982
收入	-983
大部分	-984
最好的	-985
各位	-986
▁可能	-987
▁能够	-988
也可以	-989
来到	-990
更好的	-991
要求	-992
眼睛	-993
全世界	-994
▁在我	-995
对我	-996
拍摄	-997
在于	-998
行的	-999
当我	-1000
担心	-1001
▁它是	-1002
▁请	-1003
事物	-1004
传播	-1005
国际	-1006
▁他们的	-1007
el	-1008
▁那是	-1009
▁却	-1010
确定	-1011
肯定	-1012
发生在	-1013
at	-1014
▁直到	-1015
状态	-1016
石油	-1017
妈妈	-1018
体验	-1019
▁-	-1020
只能	-1021
它是	-1022
形成	-1023
现代	-1024
过程中	-1025
这一点	-1026
称为	-1027
经过	-1028
道德	-1029
那种	-1030
定义	-1031
住在	-1032
医院	-1033
提高	-1034
法律	-1035
软件	-1036
它们的	-1037
问题是	-1038
面临	-1039
人类的	-1040
参加	-1041
▁结果	-1042
国家的	-1043
过去的	-1044
我们需要	-1045
子的	-1046
系列	-1047
▁还是	-1048
一年	-1049
任务	-1050
你在	-1051
信号	-1052
宗教	-1053
有什么	-1054
出来的	-1055
25	-1056
似乎	-1057
▁都是	-1058
▁”	-1059
化学	-1060
描述	-1061
相互	-1062
is	-1063
暴力	-1064
正常	-1065
生活在	-1066
平均	-1067
思想	-1068
比如	-1069
生的	-1070
▁我知道	-1071
最近	-1072
试着	-1073
长的	-1074
从来	-1075
其他人	-1076
一段	-1077
子里	-1078
▁只有	-1079
事件	-1080
目的	-1081
▁在这个	-1082
多么	-1083
好像	-1084
▁例如	-1085
▁—	-1086
发现了	-1087
感兴趣	-1088
尤其	-1089
幸福	-1090
生存	-1091
感受	-1092
是很	-1093
风险	-1094
发生的	-1095
it	-1096
一条	-1097
阶段	-1098
▁♪	-1099
奇怪	-1100
收集	-1101
带着	-1102
▁无论	-1103
值得	-1104
行星	-1105
不需要	-1106
了我们	-1107
全部	-1108
和我	-1109
很快	-1110
聪明	-1111
的孩子	-1112
▁我希望	-1113
标准	-1114
我们要	-1115
完美	-1116
里斯	-1117
你能	-1118
新闻	-1119
▁但是我	-1120
我们有	-1121
本书	-1122
房间	-1123
效果	-1124
森林	-1125
说过	-1126
生态	-1127
训练	-1128
▁做	-1129
试验	-1130
普通	-1131
这张	-1132
革命	-1133
美丽	-1134
意思是	-1135
看到了	-1136
兴奋	-1137
后的	-1138
因素	-1139
▁一种	-1140
80	-1141
失败	-1142
水平	-1143
▁人	-1144
不仅	-1145
专家	-1146
打开	-1147
经验	-1148
表演	-1149
我们能	-1150
▁但这	-1151
用于	-1152
在那	-1153
以为	-1154
不过	-1155
自身	-1156
得到了	-1157
问题的	-1158
▁又	-1159
一只	-1160
回来	-1161
妇女	-1162
恐怖	-1163
是有	-1164
▁假	-1165
好了	-1166
▁J	-1167
吸引	-1168
恐惧	-1169
每一个	-1170
图像	-1171
政策	-1172
绝对	-1173
我们就	-1174
的研究	-1175
我所	-1176
▁接着	-1177
了很多	-1178
会议	-1179
记忆	-1180
是的	-1181
英尺	-1182
视觉	-1183
▁我们有	-1184
糟糕	-1185
▁我们要	-1186
星期	-1187
需求	-1188
告诉我们	-1189
当我们	-1190
重要的是	-1191
▁只是	-1192
oo	-1193
▁R	-1194
高的	-1195
▁如何	-1196
不起	-1197
消失	-1198
这是一个	-1199
下去	-1200
开放	-1201
运作	-1202
介绍	-1203
句话	-1204
显然	-1205
▁很多	-1206
▁D	-1207
危机	-1208
两种	-1209
都不	-1210
的一切	-1211
al	-1212
心的	-1213
的最	-1214
很重要	-1215
上了	-1216
允许	-1217
表明	-1218
这项	-1219
▁P	-1220
鼓掌	-1221
是怎么	-1222
以来	-1223
星球	-1224
伟大的	-1225
,”	-1226
am	-1227
结合	-1228
▁我们必须	-1229
某个	-1230
神奇	-1231
责任	-1232
▁另外	-1233
▁它的	-1234
不错	-1235
基于	-1236
▁我也	-1237
▁他的	-1238
的数据	-1239
▁我可以	-1240
es	-1241
中间	-1242
改变了	-1243
一名	-1244
空气	-1245
说明	-1246
▁她们	-1247
▁看看	-1248
时的	-1249
▁那个	-1250
成本	-1251
▁这就	-1252
不多	-1253
细菌	-1254
距离	-1255
90	-1256
进步	-1257
▁开始	-1258
70	-1259
到达	-1260
或许	-1261
复杂的	-1262
男孩	-1263
边的	-1264
▁我们也	-1265
会说	-1266
运用	-1267
▁不管	-1268
都知道	-1269
平等	-1270
心脏	-1271
几年	-1272
权利	-1273
联合	-1274
一件	-1275
动作	-1276
接触	-1277
▁但是我们	-1278
土地	-1279
正是	-1280
可能是	-1281
创作	-1282
医学	-1283
之为	-1284
真是	-1285
这样做	-1286
先生	-1287
类的	-1288
英里	-1289
在那里	-1290
艺术家	-1291
感染	-1292
规则	-1293
消费	-1294
些什么	-1295
il	-1296
▁G	-1297
一般	-1298
▁或是	-1299
▁克	-1300
▁19	-1301
▁最终	-1302
称之为	-1303
动的	-1304
工业	-1305
▁人类	-1306
有一些	-1307
压力	-1308
▁我们会	-1309
去做	-1310
婴儿	-1311
有多	-1312
监狱	-1313
还没有	-1314
办公	-1315
女士	-1316
幸运	-1317
投入	-1318
智慧	-1319
给大家	-1320
给我们	-1321
不用	-1322
种族	-1323
不得不	-1324
的信息	-1325
花费	-1326
▁正如	-1327
这么做	-1328
▁相	-1329
提出	-1330
状况	-1331
西方	-1332
的生活	-1333
▁T	-1334
体系	-1335
转变	-1336
银行	-1337
▁只要	-1338
在我们	-1339
处于	-1340
▁没	-1341
的想法	-1342
▁这是个	-1343
▁我们现在	-1344
ac	-1345
表面	-1346
很好的	-1347
▁因为他们	-1348
建议	-1349
条件	-1350
取得	-1351
艾滋	-1352
装置	-1353
工作的	-1354
之中	-1355
或是	-1356
特殊	-1357
威胁	-1358
形状	-1359
一直在	-1360
没有人	-1361
公民	-1362
当地	-1363
彼此	-1364
▁跟	-1365
同事	-1366
▁我们能	-1367
男性	-1368
还在	-1369
都能	-1370
未来的	-1371
让他们	-1372
告诉你们	-1373
对吧	-1374
角色	-1375
设计的	-1376
情绪	-1377
这一切	-1378
......	-1379
动力	-1380
▁你能	-1381
我可以	-1382
表示	-1383
降低	-1384
了一些	-1385
的国家	-1386
▁自	-1387
期的	-1388
每年	-1389
还要	-1390
ou	-1391
世界各	-1392
生命的	-1393
▁然后我们	-1394
大量的	-1395
我也	-1396
痛苦	-1397
那时	-1398
所有人	-1399
专业	-1400
总统	-1401
患者	-1402
▁之后	-1403
▁那时	-1404
找到了	-1405
从未	-1406
你所	-1407
▁我们就	-1408
把它们	-1409
▁1	-1410
交通	-1411
晚上	-1412
见的	-1413
▁好吧	-1414
思维	-1415
▁后来	-1416
学会	-1417
很大	-1418
房子	-1419
高兴	-1420
▁非常感谢	-1421
不想	-1422
出去	-1423
刚才	-1424
小孩	-1425
是最	-1426
▁来自	-1427
的照片	-1428
as	-1429
内部	-1430
的那	-1431
▁我就	-1432
情况下	-1433
塑料	-1434
避免	-1435
▁这是我	-1436
站在	-1437
很大的	-1438
属于	-1439
▁包括	-1440
可以看到	-1441
害怕	-1442
质量	-1443
名的	-1444
这件事	-1445
别的	-1446
大量	-1447
蛋白	-1448
其中的	-1449
这些人	-1450
使得	-1451
冲突	-1452
颜色	-1453
是非常	-1454
的影响	-1455
的能力	-1456
回家	-1457
讲述	-1458
想象一下	-1459
对话	-1460
差不多	-1461
是不	-1462
独立	-1463
积极	-1464
他人	-1465
和平	-1466
▁然后我	-1467
你要	-1468
资金	-1469
出生	-1470
所在	-1471
知的	-1472
竞争	-1473
学的	-1474
屏幕	-1475
当中	-1476
爱的	-1477
相似	-1478
年轻人	-1479
我觉得	-1480
设计师	-1481
保证	-1482
博物	-1483
▁在这	-1484
我能	-1485
对此	-1486
文章	-1487
疯狂	-1488
组成	-1489
下来的	-1490
▁L	-1491
互相	-1492
关心	-1493
基金	-1494
▁这一	-1495
博物馆	-1496
地球上	-1497
et	-1498
快速	-1499
测量	-1500
绿色	-1501
阅读	-1502
▁需要	-1503
得到的	-1504
有可能	-1505
二十	-1506
价格	-1507
▁或许	-1508
只要	-1509
四个	-1510
适应	-1511
▁任何	-1512
停止	-1513
可怕	-1514
毫无	-1515
▁上	-1516
太空	-1517
职业	-1518
外的	-1519
家伙	-1520
花了	-1521
限制	-1522
他们在	-1523
▁两	-1524
操作	-1525
变成了	-1526
把这些	-1527
美国人	-1528
▁总	-1529
不在	-1530
▁这样的	-1531
警察	-1532
有趣的	-1533
▁我们已经	-1534
▁K	-1535
广告	-1536
程度上	-1537
杂志	-1538
阿拉	-1539
▁尤其	-1540
什么是	-1541
设施	-1542
证据	-1543
▁我很	-1544
▁而这	-1545
他说	-1546
信仰	-1547
下降	-1548
集中	-1549
分之一	-1550
发表	-1551
失去	-1552
度的	-1553
逐渐	-1554
儿子	-1555
哪些	-1556
负责	-1557
造成	-1558
那是	-1559
你们的	-1560
而不是	-1561
▁多	-1562
巨大	-1563
引起	-1564
火星	-1565
的主	-1566
过了	-1567
邀请	-1568
阻止	-1569
神经元	-1570
珊瑚	-1571
的结果	-1572
时刻	-1573
行业	-1574
▁有人	-1575
▁第一	-1576
也没有	-1577
▁我们还	-1578
本质	-1579
看来	-1580
太多	-1581
模拟	-1582
武器	-1583
理由	-1584
破坏	-1585
背景	-1586
利益	-1587
很棒	-1588
▁我们将	-1589
▁现在我们	-1590
年龄	-1591
漂亮	-1592
▁如今	-1593
给他们	-1594
成长	-1595
教授	-1596
课程	-1597
▁每个	-1598
都可以	-1599
呼吸	-1600
用了	-1601
的确	-1602
办公室	-1603
生活中	-1604
你就	-1605
是由	-1606
▁特别	-1607
▁那里	-1608
生长	-1609
财富	-1610
▁接下来	-1611
▁此	-1612
同情	-1613
接近	-1614
带来的	-1615
注意到	-1616
▁他们会	-1617
千万	-1618
垃圾	-1619
老鼠	-1620
并非	-1621
情感	-1622
统计	-1623
听起来	-1624
都没有	-1625
实在	-1626
社交	-1627
我们会	-1628
一场	-1629
怎么样	-1630
的声音	-1631
惊讶	-1632
放到	-1633
物体	-1634
年里	-1635
拯救	-1636
这样一个	-1637
▁几	-1638
习惯	-1639
结论	-1640
部门	-1641
▁从而	-1642
正确的	-1643
▁比如说	-1644
有多少	-1645
re	-1646
之处	-1647
差异	-1648
成员	-1649
搜索	-1650
的新	-1651
假设	-1652
恢复	-1653
比亚	-1654
面前	-1655
是不是	-1656
生活的	-1657
▁这不是	-1658
互动	-1659
疫苗	-1660
▁——	-1661
的事物	-1662
▁如果我	-1663
▁我们知道	-1664
仔细	-1665
工程师	-1666
卫生	-1667
所谓	-1668
智能	-1669
犯罪	-1670
马上	-1671
对我们	-1672
常常	-1673
思议	-1674
文字	-1675
爆炸	-1676
鼓励	-1677
时期	-1678
亿美元	-1679
平衡	-1680
才是	-1681
蚂蚁	-1682
可以在	-1683
的例子	-1684
▁我相信	-1685
▁而我	-1686
我们现在	-1687
放弃	-1688
▁大约	-1689
一项	-1690
特的	-1691
▁是的	-1692
▁H	-1693
岁的	-1694
英语	-1695
身份	-1696
公开	-1697
家人	-1698
报道	-1699
遇到	-1700
▁这也是	-1701
即使	-1702
改善	-1703
日本	-1704
记住	-1705
可能性	-1706
没有任何	-1707
一代	-1708
是从	-1709
温度	-1710
家里	-1711
来了	-1712
氧化	-1713
那儿	-1714
存在的	-1715
成功的	-1716
所做的	-1717
▁因为它	-1718
旅行	-1719
来源	-1720
群体	-1721
太阳能	-1722
我来说	-1723
依赖	-1724
卫星	-1725
循环	-1726
燃料	-1727
诊断	-1728
把这个	-1729
摄影	-1730
文明	-1731
理念	-1732
▁加	-1733
不了	-1734
公园	-1735
想想	-1736
星系	-1737
针对	-1738
▁正在	-1739
om	-1740
原始	-1741
好吧	-1742
建设	-1743
承认	-1744
排放	-1745
演奏	-1746
▁目前	-1747
▁我开始	-1748
!”	-1749
必要	-1750
成果	-1751
打算	-1752
资本	-1753
艾滋病	-1754
做的事情	-1755
我们已经	-1756
了这	-1757
同意	-1758
多样	-1759
产生的	-1760
▁200	-1761
发生了什么	-1762
ha	-1763
免费	-1764
再次	-1765
女儿	-1766
学院	-1767
的环境	-1768
将要	-1769
熟悉	-1770
终于	-1771
谷歌	-1772
在美国	-1773
▁另一个	-1774
享受	-1775
网上	-1776
而是	-1777
贫困	-1778
驾驶	-1779
我们对	-1780
▁我不知道	-1781
人民	-1782
运行	-1783
500	-1784
▁同样	-1785
▁大概	-1786
富汗	-1787
猩猩	-1788
认知	-1789
食品	-1790
的力量	-1791
阿富汗	-1792
▁2	-1793
体内	-1794
拉克	-1795
谈谈	-1796
长大	-1797
▁20	-1798
▁好的	-1799
▁许多	-1800
成为了	-1801
下面	-1802
包含	-1803
培养	-1804
说话	-1805
贫穷	-1806
都很	-1807
交易	-1808
像是	-1809
原则	-1810
发出	-1811
年后	-1812
报告	-1813
检测	-1814
见过	-1815
我知道	-1816
%。	-1817
ed	-1818
▁向	-1819
会在	-1820
信任	-1821
观念	-1822
也就是	-1823
人们的	-1824
▁小	-1825
上升	-1826
巴西	-1827
污染	-1828
重复	-1829
▁完全	-1830
▁整个	-1831
来自于	-1832
真实的	-1833
▁你可以看到	-1834
各个	-1835
式的	-1836
▁我还	-1837
之外	-1838
你是	-1839
博士	-1840
安德	-1841
确保	-1842
障碍	-1843
▁这张	-1844
比赛	-1845
路上	-1846
采取	-1847
▁这意味着	-1848
左右	-1849
节目	-1850
看上去	-1851
▁而我们	-1852
一家	-1853
创建	-1854
扫描	-1855
看待	-1856
看法	-1857
面包	-1858
▁就在	-1859
的社会	-1860
气候变化	-1861
▁3	-1862
找出	-1863
究竟	-1864
置信	-1865
咖啡	-1866
坚持	-1867
对的	-1868
之所以	-1869
不可思议	-1870
这个世界	-1871
不管	-1872
位于	-1873
做得	-1874
好处	-1875
电池	-1876
帮助我们	-1877
14	-1878
16	-1879
年来	-1880
了这些	-1881
一块	-1882
器官	-1883
消耗	-1884
理想	-1885
的过程	-1886
核心	-1887
▁世界	-1888
作为一个	-1889
今年	-1890
元素	-1891
农业	-1892
肿瘤	-1893
▁进行	-1894
▁第一个	-1895
os	-1896
▁谁	-1897
工厂	-1898
▁于是我	-1899
是这样的	-1900
he	-1901
▁F	-1902
至于	-1903
走进	-1904
部的	-1905
▁但在	-1906
下一个	-1907
的技术	-1908
▁他们在	-1909
创意	-1910
复制	-1911
第三	-1912
出现在	-1913
发展中	-1914
▁马	-1915
这儿	-1916
会发生	-1917
的感觉	-1918
无论	-1919
笑声	-1920
超级	-1921
喜欢的	-1922
▁是一个	-1923
我们必须	-1924
上万	-1925
妻子	-1926
满足	-1927
而已	-1928
不仅仅是	-1929
▁谢谢大家	-1930
▁三	-1931
往往	-1932
成就	-1933
援助	-1934
居住	-1935
漫画	-1936
细节	-1937
▁反	-1938
昆虫	-1939
比例	-1940
存在于	-1941
难以置信	-1942
克斯	-1943
变革	-1944
得以	-1945
性恋	-1946
打印	-1947
早上	-1948
附近	-1949
▁也是	-1950
那样的	-1951
▁每个人	-1952
贡献	-1953
身边	-1954
▁几乎	-1955
▁我对	-1956
相同的	-1957
▁我们发现	-1958
层面	-1959
ter	-1960
▁是因为	-1961
这些东西	-1962
成千	-1963
权力	-1964
沟通	-1965
英雄	-1966
▁在我们	-1967
区别	-1968
罗斯	-1969
▁我和	-1970
了我的	-1971
使用的	-1972
▁我现在	-1973
▁全	-1974
会被	-1975
皮肤	-1976
美好	-1977
另一种	-1978
进一步	-1979
阿拉伯	-1980
也能	-1981
伦敦	-1982
原子	-1983
展现	-1984
德国	-1985
约翰	-1986
获取	-1987
微生物	-1988
,"	-1989
自动	-1990
话题	-1991
资料	-1992
做的是	-1993
一半	-1994
对待	-1995
我很	-1996
有所	-1997
深入	-1998
追求	-1999
什么呢	-2000
也在	-2001
准确	-2002
自行	-2003
让它	-2004
可持续	-2005
怎么做	-2006
接下来	-2007
联合国	-2008
▁嗯	-2009
人在	-2010
十亿	-2011
恐龙	-2012
的水	-2013
除了	-2014
依然	-2015
密码	-2016
平台	-2017
攻击	-2018
记者	-2019
邮件	-2020
▁你就	-2021
▁研究	-2022
几个月	-2023
看到的是	-2024
ol	-2025
伤害	-2026
在座	-2027
摄像	-2028
由于	-2029
美金	-2030
▁不要	-2031
▁她说	-2032
▁我将	-2033
蛋白质	-2034
▁有一个	-2035
成为一个	-2036
制度	-2037
得多	-2038
提到	-2039
相反	-2040
的一些	-2041
范围内	-2042
▁所有的	-2043
ad	-2044
ch	-2045
慢慢	-2046
斯特	-2047
普遍	-2048
用户	-2049
秘密	-2050
▁有时	-2051
▁通常	-2052
▁高	-2053
检查	-2054
迅速	-2055
足够的	-2056
妙的	-2057
完整	-2058
激励	-2059
现场	-2060
购买	-2061
▁希望	-2062
一部分	-2063
强大的	-2064
灭绝	-2065
二氧化	-2066
变得更	-2067
和其他	-2068
这个词	-2069
▁也就是说	-2070
人生	-2071
彻底	-2072
很长	-2073
早期	-2074
的高	-2075
给予	-2076
这次	-2077
这类	-2078
途径	-2079
一个小	-2080
▁随	-2081
不够	-2082
员工	-2083
态度	-2084
毕业	-2085
特征	-2086
基因组	-2087
我们是	-2088
说的是	-2089
▁海	-2090
兄弟	-2091
如今	-2092
日常	-2093
法国	-2094
灾难	-2095
问我	-2096
怎样的	-2097
方面的	-2098
所有这些	-2099
us	-2100
收到	-2101
机制	-2102
翻译	-2103
蜜蜂	-2104
见到	-2105
释放	-2106
▁由于	-2107
出现了	-2108
我想要	-2109
的设计	-2110
▁我们都	-2111
▁这是我们	-2112
17	-2113
ot	-2114
▁举	-2115
原理	-2116
广泛	-2117
流行	-2118
爸爸	-2119
说法	-2120
▁你要	-2121
▁除了	-2122
▁或者是	-2123
下了	-2124
后面	-2125
我对	-2126
▁使用	-2127
▁创造	-2128
需要的	-2129
2000	-2130
▁新	-2131
旅程	-2132
趋势	-2133
进去	-2134
错了	-2135
▁一旦	-2136
▁假如	-2137
的地	-2138
▁我从	-2139
▁每天	-2140
▁并不是	-2141
13	-2142
个体	-2143
技能	-2144
金融	-2145
▁全球	-2146
▁它会	-2147
有意思	-2148
▁基本上	-2149
成千上万	-2150
▁W	-2151
墨西	-2152
穿过	-2153
墨西哥	-2154
这是个	-2155
中有	-2156
博客	-2157
图书	-2158
州的	-2159
提醒	-2160
蓝色	-2161
虚拟	-2162
不仅仅	-2163
很容易	-2164
丰富	-2165
公众	-2166
分布	-2167
利的	-2168
我有	-2169
公司的	-2170
二氧化碳	-2171
他在	-2172
内心	-2173
案例	-2174
看不	-2175
现在的	-2176
▁E	-2177
为止	-2178
怀疑	-2179
掌握	-2180
浪费	-2181
组合	-2182
辩论	-2183
的发展	-2184
这条	-2185
▁可是	-2186
历史上	-2187
▁他们说	-2188
▁有时候	-2189
另外一个	-2190
▁换	-2191
写的	-2192
刺激	-2193
机械	-2194
欢迎	-2195
真的是	-2196
强烈	-2197
极端	-2198
▁什么	-2199
他们会	-2200
生物学	-2201
5%	-2202
一群	-2203
伊斯	-2204
启发	-2205
执行	-2206
相对	-2207
相机	-2208
缺乏	-2209
衣服	-2210
▁他是	-2211
▁看到	-2212
▁至少	-2213
的人口	-2214
性别	-2215
能在	-2216
▁另一	-2217
主义者	-2218
不太	-2219
优秀	-2220
取决	-2221
期间	-2222
等待	-2223
简直	-2224
重点	-2225
199	-2226
世界各地	-2227
岁的时候	-2228
应对	-2229
开心	-2230
播放	-2231
给了	-2232
选举	-2233
难民	-2234
▁中国	-2235
▁我有	-2236
个小时	-2237
孩子的	-2238
的人生	-2239
▁克里斯	-2240
▁我的意思是	-2241
反对	-2242
拒绝	-2243
期待	-2244
激动	-2245
还能	-2246
来看看	-2247
解决方案	-2248
一旦	-2249
在你	-2250
热情	-2251
聚集	-2252
走了	-2253
适合	-2254
▁不仅	-2255
▁不同	-2256
▁但它	-2257
▁在这里	-2258
从来没有	-2259
非常重要	-2260
名为	-2261
恒星	-2262
改革	-2263
来做	-2264
没人	-2265
舞台	-2266
输入	-2267
黑人	-2268
伊拉克	-2269
的时刻	-2270
认识到	-2271
▁我们对	-2272
发挥	-2273
玩具	-2274
者们	-2275
部落	-2276
黑暗	-2277
各种各	-2278
▁他们是	-2279
军队	-2280
判断	-2281
我将	-2282
按照	-2283
最好	-2284
望远	-2285
血管	-2286
走到	-2287
做的事	-2288
系统的	-2289
▁大多数	-2290
这个项目	-2291
合理	-2292
团体	-2293
地说	-2294
道路	-2295
▁他在	-2296
伊斯兰	-2297
出一个	-2298
大脑的	-2299
想知道	-2300
ra	-2301
从事	-2302
传递	-2303
红色	-2304
▁你看	-2305
我们都	-2306
是这样	-2307
望远镜	-2308
伊朗	-2309
很少	-2310
苹果	-2311
面积	-2312
取决于	-2313
我自己	-2314
的机会	-2315
第二个	-2316
▁我发现	-2317
做过	-2318
去年	-2319
合适	-2320
学到	-2321
维持	-2322
进来	-2323
麻烦	-2324
▁就会	-2325
一些人	-2326
同性恋	-2327
便宜	-2328
寿命	-2329
脆弱	-2330
走向	-2331
▁社会	-2332
相当于	-2333
我们应该	-2334
▁N	-2335
万人	-2336
手段	-2337
报纸	-2338
涉及	-2339
▁好了	-2340
一系列	-2341
感觉到	-2342
所谓的	-2343
有一天	-2344
错误的	-2345
出版	-2346
把这	-2347
版本	-2348
玻璃	-2349
粒子	-2350
采用	-2351
▁才能	-2352
▁第三	-2353
产生了	-2354
使我们	-2355
做一个	-2356
我开始	-2357
有些人	-2358
美国的	-2359
?“	-2360
呈现	-2361
就有	-2362
画面	-2363
遗传	-2364
间的	-2365
也不会	-2366
这不是	-2367
▁尤其是	-2368
世界上最	-2369
每个人都	-2370
id	-2371
。"	-2372
从中	-2373
做法	-2374
大众	-2375
期望	-2376
每次	-2377
色列	-2378
在哪里	-2379
失去了	-2380
这么多	-2381
▁我当时	-2382
▁于是我们	-2383
▁这就是为什么	-2384
▁天	-2385
供应	-2386
哪个	-2387
回事	-2388
大气	-2389
幻灯	-2390
旁边	-2391
极其	-2392
海岸	-2393
▁她的	-2394
▁根据	-2395
发展的	-2396
我已经	-2397
没什么	-2398
的情况下	-2399
24	-2400
▁年	-2401
具体	-2402
到处	-2403
士兵	-2404
居民	-2405
渴望	-2406
相比	-2407
顺便	-2408
慈善	-2409
沙漠	-2410
超越	-2411
1000	-2412
一片	-2413
不好	-2414
将来	-2415
我和	-2416
斯林	-2417
潜水	-2418
物品	-2419
袭击	-2420
他们是	-2421
对我来说	-2422
曲线	-2423
气体	-2424
混合	-2425
今天的	-2426
件事情	-2427
同一个	-2428
的时代	-2429
真的很	-2430
穆斯林	-2431
伟大	-2432
强大	-2433
接着	-2434
无线	-2435
有时	-2436
▁一直	-2437
只需要	-2438
可能的	-2439
那就是	-2440
丈夫	-2441
你想	-2442
探测	-2443
症状	-2444
隐藏	-2445
我们不	-2446
▁在一个	-2447
▁我喜欢	-2448
▁才	-2449
一份	-2450
了吗	-2451
长期	-2452
把他们	-2453
的学生	-2454
一个问题	-2455
这些问题	-2456
农民	-2457
则是	-2458
同一	-2459
标志	-2460
电力	-2461
评论	-2462
闭症	-2463
▁仅仅	-2464
的速度	-2465
▁我们不	-2466
主意	-2467
图表	-2468
着的	-2469
设想	-2470
远的	-2471
逻辑	-2472
发现的	-2473
惊人的	-2474
▁《	-2475
全国	-2476
古老	-2477
好奇	-2478
对象	-2479
个例子	-2480
应该是	-2481
有效的	-2482
的行为	-2483
临床	-2484
乐观	-2485
后果	-2486
字母	-2487
我还	-2488
教学	-2489
用它	-2490
看了	-2491
调整	-2492
▁随着	-2493
了不起	-2494
我们将	-2495
注意力	-2496
▁想象一下	-2497
共享	-2498
前面	-2499
名叫	-2500
回去	-2501
带到	-2502
忘记	-2503
毒品	-2504
稳定	-2505
如果我	-2506
▁但他们	-2507
▁我们应该	-2508
▁开	-2509
▁爱	-2510
▁阿	-2511
估计	-2512
效率	-2513
角落	-2514
都要	-2515
▁最近	-2516
感知	-2517
技巧	-2518
识别	-2519
说服	-2520
▁突然	-2521
▁过去	-2522
全新的	-2523
基本的	-2524
美丽的	-2525
黑猩猩	-2526
不幸	-2527
在的	-2528
把我	-2529
生意	-2530
纳米	-2531
致力	-2532
▁成为	-2533
不一样	-2534
动物的	-2535
所说的	-2536
自行车	-2537
某种程度上	-2538
公平	-2539
哪儿	-2540
客户	-2541
死了	-2542
演示	-2543
策略	-2544
行走	-2545
覆盖	-2546
ing	-2547
我希望	-2548
段时间	-2549
让人们	-2550
▁在那里	-2551
这些数据	-2552
▁对我来说	-2553
交谈	-2554
发布	-2555
就要	-2556
得了	-2557
照顾	-2558
矛盾	-2559
▁下面	-2560
基金会	-2561
的项目	-2562
21	-2563
▁放	-2564
一边	-2565
指数	-2566
教堂	-2567
最初	-2568
的书	-2569
说是	-2570
起了	-2571
边缘	-2572
透明	-2573
▁CA	-2574
告诉他们	-2575
ur	-2576
伙伴	-2577
依靠	-2578
实践	-2579
提升	-2580
更有	-2581
疑问	-2582
震惊	-2583
我们自己	-2584
▁作为一个	-2585
▁I	-2586
倾向	-2587
前进	-2588
我们也	-2589
▁我们把	-2590
▁我是说	-2591
合法	-2592
回应	-2593
外面	-2594
死去	-2595
送到	-2596
▁是否	-2597
▁观众	-2598
任何人	-2599
创造力	-2600
有没有	-2601
▁很多人	-2602
▁这是一种	-2603
不停	-2604
两年	-2605
会儿	-2606
启动	-2607
富有	-2608
左边	-2609
深刻	-2610
综合	-2611
转移	-2612
▁使得	-2613
不只是	-2614
在这些	-2615
的重要	-2616
斗争	-2617
标记	-2618
这点	-2619
▁这也	-2620
在我的	-2621
▁你需要	-2622
▁我们从	-2623
▁而这些	-2624
▁让他们	-2625
▁这些是	-2626
hr	-2627
▁数	-2628
一致	-2629
代码	-2630
投票	-2631
改进	-2632
瞬间	-2633
谈话	-2634
▁一位	-2635
一件事	-2636
传统的	-2637
▁因为这	-2638
一台	-2639
印象	-2640
特定	-2641
赋予	-2642
转化	-2643
的概念	-2644
▁大部分	-2645
基础设施	-2646
一生	-2647
人和	-2648
决策	-2649
教师	-2650
穿着	-2651
紧张	-2652
艰难	-2653
街道	-2654
象征	-2655
▁其他	-2656
唯一的	-2657
很简单	-2658
▁「	-2659
受害	-2660
婚姻	-2661
强调	-2662
形态	-2663
领袖	-2664
▁发现	-2665
▁提供	-2666
向你们	-2667
幻灯片	-2668
,000	-2669
每一个人	-2670
ay	-2671
人工	-2672
商品	-2673
尊重	-2674
文件	-2675
样本	-2676
规划	-2677
重大	-2678
▁是在	-2679
▁每年	-2680
就开始	-2681
是关于	-2682
自然的	-2683
不足	-2684
埃及	-2685
总结	-2686
活跃	-2687
真相	-2688
种植	-2689
高中	-2690
充满了	-2691
听说过	-2692
相关的	-2693
致力于	-2694
去看	-2695
右边	-2696
寻常	-2697
很久	-2698
成立	-2699
手指	-2700
措施	-2701
有机	-2702
玩耍	-2703
算法	-2704
这位	-2705
都被	-2706
你自己	-2707
的事实	-2708
的角度	-2709
知道的	-2710
▁我们所	-2711
?"	-2712
将其	-2713
少年	-2714
演员	-2715
着手	-2716
肌肉	-2717
重建	-2718
创造了	-2719
完美的	-2720
小小的	-2721
非洲的	-2722
发展中国家	-2723
im	-2724
人群	-2725
传染	-2726
化石	-2727
南非	-2728
奖励	-2729
寻求	-2730
愤怒	-2731
推动	-2732
特性	-2733
移民	-2734
必须要	-2735
的生物	-2736
研究的	-2737
进行了	-2738
▁因为在	-2739
▁在美国	-2740
▁然后你	-2741
主题	-2742
开车	-2743
效应	-2744
流感	-2745
视角	-2746
进展	-2747
邻居	-2748
他们说	-2749
感受到	-2750
是我的	-2751
类似的	-2752
一刻	-2753
上有	-2754
严肃	-2755
动机	-2756
围绕	-2757
一开始	-2758
到一个	-2759
的部分	-2760
▁这些都是	-2761
▁,	-2762
华盛	-2763
录像	-2764
是谁	-2765
没法	-2766
轨道	-2767
▁叫做	-2768
事业	-2769
关联	-2770
存活	-2771
无人	-2772
金属	-2773
▁在那	-2774
▁政府	-2775
华盛顿	-2776
打电话	-2777
朋友们	-2778
的第一	-2779
被称为	-2780
没有什么	-2781
▁我们希望	-2782
ub	-2783
▁亚	-2784
人士	-2785
地上	-2786
意见	-2787
明确	-2788
睡眠	-2789
精确	-2790
舞蹈	-2791
血液	-2792
预防	-2793
安德森	-2794
生态系统	-2795
这个故事	-2796
专注	-2797
灵感	-2798
看过	-2799
美洲	-2800
300	-2801
ill	-2802
▁帮助	-2803
▁我能	-2804
因斯坦	-2805
怎么办	-2806
还可以	-2807
▁但是在	-2808
un	-2809
单词	-2810
所需	-2811
杉矶	-2812
片段	-2813
环保	-2814
了解到	-2815
大规模	-2816
洛杉矶	-2817
的所有	-2818
自闭症	-2819
就是这样	-2820
最重要的	-2821
作家	-2822
对方	-2823
抑郁	-2824
村庄	-2825
费用	-2826
时间的	-2827
非常有	-2828
▁这是一	-2829
我们能够	-2830
专利	-2831
在了	-2832
尼日	-2833
德里	-2834
承诺	-2835
旋转	-2836
来讲	-2837
死于	-2838
直觉	-2839
谈到	-2840
转换	-2841
销售	-2842
gle	-2843
▁正是	-2844
一点点	-2845
以色列	-2846
和我们	-2847
的一点	-2848
组织的	-2849
肯尼亚	-2850
飞行器	-2851
▁这些人	-2852
▁我们认为	-2853
eb	-2854
便是	-2855
分裂	-2856
前的	-2857
地下	-2858
培训	-2859
成年	-2860
无所	-2861
清晰	-2862
猴子	-2863
至今	-2864
葡萄	-2865
▁拥有	-2866
对我说	-2867
干细胞	-2868
很有趣	-2869
▁我们是	-2870
iP	-2871
两者	-2872
展开	-2873
布鲁	-2874
符合	-2875
还会	-2876
阳光	-2877
▁而在	-2878
造成的	-2879
▁现在我	-2880
人体	-2881
仪器	-2882
地位	-2883
拿着	-2884
本来	-2885
流动	-2886
混乱	-2887
私人	-2888
衡量	-2889
跟我	-2890
陌生	-2891
城市的	-2892
特别的	-2893
▁当他们	-2894
▁我已经	-2895
处在	-2896
它会	-2897
律师	-2898
损失	-2899
放大	-2900
犹太	-2901
笔记	-2902
背后	-2903
采访	-2904
▁自己	-2905
做一些	-2906
像这样	-2907
的人类	-2908
▁特别是	-2909
优势	-2910
发射	-2911
差别	-2912
影片	-2913
志愿	-2914
忽略	-2915
抓住	-2916
祖先	-2917
▁想想	-2918
▁改变	-2919
万美元	-2920
特定的	-2921
的位置	-2922
接下来的	-2923
▁我们正在	-2924
一百	-2925
不对	-2926
为此	-2927
再生	-2928
大型	-2929
子上	-2930
打破	-2931
称作	-2932
观看	-2933
世纪的	-2934
年轻的	-2935
▁该	-2936
之内	-2937
地点	-2938
宣传	-2939
展览	-2940
得更	-2941
才会	-2942
是你	-2943
模仿	-2944
营养	-2945
量子	-2946
地球的	-2947
那么多	-2948
非常的	-2949
▁这是在	-2950
什么时候	-2951
为何	-2952
充分	-2953
听说	-2954
平方	-2955
愿望	-2956
结婚	-2957
进了	-2958
道理	-2959
金钱	-2960
陷入	-2961
难道	-2962
▁确实	-2963
图书馆	-2964
建筑师	-2965
提到的	-2966
▁世界上	-2967
▁你可能	-2968
▁因为你	-2969
做些什么	-2970
▁你会发现	-2971
▁哦	-2972
变的	-2973
情形	-2974
数的	-2975
正如	-2976
给他	-2977
高度	-2978
企业家	-2979
技术的	-2980
是怎样	-2981
更大的	-2982
社会的	-2983
组成的	-2984
▁我们想	-2985
你可以看到	-2986
%,	-2987
45	-2988
图案	-2989
地理	-2990
场景	-2991
好事	-2992
应当	-2993
指出	-2994
提取	-2995
摆脱	-2996
极了	-2997
现状	-2998
400	-2999
▁印度	-3000
在这儿	-3001
我现在	-3002
拥有的	-3003
让你们	-3004
▁看起来	-3005
专门	-3006
争论	-3007
倾听	-3008
制定	-3009
加州	-3010
奇迹	-3011
引发	-3012
改造	-3013
达尔	-3014
是一名	-3015
▁它可以	-3016
▁我们用	-3017
▁我记得	-3018
大多数人	-3019
ir	-3020
▁[	-3021
▁艾	-3022
人物	-3023
保留	-3024
即将	-3025
尔的	-3026
老年	-3027
健康的	-3028
多样性	-3029
完成的	-3030
的这个	-3031
▁我们开始	-3032
ia	-3033
一遍	-3034
上学	-3035
修复	-3036
最大	-3037
澳大	-3038
贵的	-3039
---	-3040
▁去年	-3041
不喜欢	-3042
带来了	-3043
的变化	-3044
▁我不是	-3045
oogle	-3046
ob	-3047
产业	-3048
出发	-3049
将它	-3050
当作	-3051
得很	-3052
扮演	-3053
疟疾	-3054
神秘	-3055
宇宙的	-3056
告诉大家	-3057
解决问题	-3058
99	-3059
ow	-3060
▁前	-3061
企鹅	-3062
冒险	-3063
加速	-3064
大陆	-3065
天的	-3066
拿到	-3067
整体	-3068
标签	-3069
短信	-3070
秒钟	-3071
联邦	-3072
▁10	-3073
▁大脑	-3074
▁就能	-3075
听到的	-3076
大学的	-3077
开始的	-3078
此同时	-3079
的城市	-3080
▁你必须	-3081
▁有些人	-3082
我们如何	-3083
澳大利亚	-3084
ul	-3085
制的	-3086
年了	-3087
引擎	-3088
稍微	-3089
精彩	-3090
练习	-3091
难题	-3092
黑客	-3093
价值观	-3094
十年代	-3095
其中一个	-3096
尼日利亚	-3097
五个	-3098
像我	-3099
地面	-3100
场的	-3101
大小	-3102
成分	-3103
氧气	-3104
空中	-3105
突破	-3106
马拉	-3107
▁顺便	-3108
严重的	-3109
也不是	-3110
的关系	-3111
▁因为他	-3112
我们知道	-3113
▁但是他们	-3114
你有	-3115
公里	-3116
合成	-3117
头脑	-3118
对吗	-3119
层的	-3120
岁时	-3121
诞生	-3122
靠近	-3123
预算	-3124
▁上面	-3125
▁但你	-3126
▁利用	-3127
▁应该	-3128
▁有着	-3129
为我们	-3130
这个人	-3131
中央	-3132
作出	-3133
多了	-3134
天然	-3135
患有	-3136
惊奇	-3137
所能	-3138
研发	-3139
级的	-3140
致命	-3141
达成	-3142
▁事实	-3143
▁我把	-3144
做这个	-3145
句话说	-3146
的内容	-3147
▁水	-3148
争议	-3149
加上	-3150
意大	-3151
浏览	-3152
立刻	-3153
符号	-3154
腐败	-3155
这段	-3156
远远	-3157
因为我	-3158
心脏病	-3159
美好的	-3160
▁在过去的	-3161
▁所以他们	-3162
代价	-3163
如同	-3164
实施	-3165
层次	-3166
很小	-3167
留下	-3168
▁建立	-3169
▁显然	-3170
其实是	-3171
好消息	-3172
很多的	-3173
ik	-3174
▁先	-3175
上千	-3176
不知	-3177
分离	-3178
奴隶	-3179
平面	-3180
我去	-3181
热爱	-3182
的呢	-3183
禁止	-3184
说到	-3185
还没	-3186
遭受	-3187
▁将会	-3188
死亡率	-3189
看不到	-3190
各种各样的	-3191
中东	-3192
中最	-3193
反馈	-3194
发光	-3195
回报	-3196
少的	-3197
带有	-3198
火箭	-3199
穿越	-3200
追踪	-3201
雕塑	-3202
▁经济	-3203
▁每一个	-3204
这张照片	-3205
发电	-3206
吃惊	-3207
屋顶	-3208
教室	-3209
最高	-3210
▁真的	-3211
发明了	-3212
学生们	-3213
完成了	-3214
已经被	-3215
是为了	-3216
的空间	-3217
的经济	-3218
许多人	-3219
在我们的	-3220
保健	-3221
信念	-3222
商店	-3223
希腊	-3224
想的	-3225
手臂	-3226
支付	-3227
规律	-3228
随机	-3229
集体	-3230
饮食	-3231
著名的	-3232
▁问题是	-3233
的问题是	-3234
▁所有这些	-3235
保存	-3236
承担	-3237
掉了	-3238
敏感	-3239
移植	-3240
纤维	-3241
蚊子	-3242
都没	-3243
and	-3244
你需要	-3245
是可以	-3246
▁我想要	-3247
."	-3248
塑造	-3249
工人	-3250
开展	-3251
形象	-3252
得出	-3253
激发	-3254
点子	-3255
看出	-3256
着迷	-3257
▁设计	-3258
▁除非	-3259
别人的	-3260
原因是	-3261
展示了	-3262
是如此	-3263
这两个	-3264
▁或者说	-3265
ab	-3266
▁等	-3267
一小	-3268
不久	-3269
加拿	-3270
南极	-3271
夏天	-3272
构建	-3273
沮丧	-3274
激情	-3275
紧密	-3276
俄罗斯	-3277
安全的	-3278
特殊的	-3279
的一种	-3280
▁孩子们	-3281
任何一个	-3282
给你们看	-3283
▁t	-3284
▁听	-3285
一辆	-3286
回收	-3287
回顾	-3288
奇妙	-3289
无限	-3290
显著	-3291
玩笑	-3292
的前	-3293
纪录	-3294
表情	-3295
这场	-3296
驱动	-3297
▁两个	-3298
▁真正	-3299
消费者	-3300
的样子	-3301
的那些	-3302
获得了	-3303
部电影	-3304
了个	-3305
五年	-3306
以下	-3307
传感	-3308
光线	-3309
哺乳	-3310
所未	-3311
着我	-3312
运输	-3313
重视	-3314
▁必须	-3315
非常非常	-3316
免疫	-3317
分开	-3318
北极	-3319
娱乐	-3320
它在	-3321
对称	-3322
尔夫	-3323
影像	-3324
忽视	-3325
感情	-3326
潜力	-3327
班牙	-3328
生理	-3329
论文	-3330
首歌	-3331
麦克	-3332
son	-3333
▁你在	-3334
很明显	-3335
西班牙	-3336
一段时间	-3337
我不知道	-3338
▁理	-3339
家的	-3340
小说	-3341
成绩	-3342
推广	-3343
擅长	-3344
数以	-3345
沿着	-3346
洞穴	-3347
起源	-3348
奇怪的	-3349
运动员	-3350
te	-3351
▁您	-3352
国会	-3353
土壤	-3354
意外	-3355
懂得	-3356
更为	-3357
格兰	-3358
毕竟	-3359
贸易	-3360
这只	-3361
▁一切	-3362
不平等	-3363
意义的	-3364
有一种	-3365
这里的	-3366
他们可以	-3367
ie	-3368
之下	-3369
变暖	-3370
品牌	-3371
想像	-3372
构造	-3373
点击	-3374
繁殖	-3375
编辑	-3376
肥胖	-3377
▁但他	-3378
▁超过	-3379
▁问题	-3380
主义的	-3381
做到的	-3382
意义上	-3383
有两个	-3384
科医生	-3385
能看到	-3386
什么样的	-3387
做的就是	-3388
.5	-3389
▁四	-3390
促进	-3391
动画	-3392
取代	-3393
形的	-3394
民族	-3395
穷人	-3396
评估	-3397
高速	-3398
黑洞	-3399
▁变成	-3400
▁每次	-3401
▁科学	-3402
▁经过	-3403
▁他们都	-3404
发生的事情	-3405
几天	-3406
少数	-3407
巴基	-3408
扩大	-3409
指导	-3410
步骤	-3411
气球	-3412
脑海	-3413
贷款	-3414
鲨鱼	-3415
▁主要	-3416
▁女性	-3417
▁用来	-3418
▁重新	-3419
的数量	-3420
为什么要	-3421
了我们的	-3422
他们自己的	-3423
SA	-3424
使我	-3425
分配	-3426
发达	-3427
基督	-3428
安装	-3429
延伸	-3430
景象	-3431
每一	-3432
民众	-3433
注射	-3434
融合	-3435
街上	-3436
▁这项	-3437
受害者	-3438
的动物	-3439
的女性	-3440
的观点	-3441
▁但是这	-3442
▁所以你	-3443
最喜欢的	-3444
▁因此我们	-3445
▁过	-3446
个性	-3447
五十	-3448
安排	-3449
小组	-3450
异常	-3451
引导	-3452
更高	-3453
海豚	-3454
礼物	-3455
节奏	-3456
▁想象	-3457
的演讲	-3458
▁但是你	-3459
▁在这些	-3460
▁我只是	-3461
单一	-3462
吸收	-3463
尔斯	-3464
差距	-3465
当今	-3466
愚蠢	-3467
探讨	-3468
申请	-3469
药品	-3470
诊所	-3471
里有	-3472
克里斯	-3473
学到的	-3474
有能力	-3475
的工具	-3476
认为是	-3477
面临的	-3478
▁所以说	-3479
▁他们可以	-3480
也很	-3481
几百	-3482
原本	-3483
反映	-3484
国的	-3485
天文	-3486
崩溃	-3487
感官	-3488
昨天	-3489
杀死	-3490
腺癌	-3491
贝尔	-3492
连续	-3493
▁到了	-3494
不断地	-3495
可怕的	-3496
的公司	-3497
经历了	-3498
进行的	-3499
▁没有人	-3500
我的工作	-3501
生物学家	-3502
▁其中一个	-3503
▁5	-3504
三十	-3505
受伤	-3506
房屋	-3507
欣赏	-3508
石头	-3509
▁不能	-3510
个国家	-3511
已经在	-3512
当地的	-3513
有时候	-3514
疾病的	-3515
的话题	-3516
看一下	-3517
因为我们	-3518
巴基斯坦	-3519
▁写	-3520
不少	-3521
可是	-3522
快的	-3523
描绘	-3524
教会	-3525
特点	-3526
贫民	-3527
▁怎么	-3528
或者是	-3529
达尔文	-3530
领导者	-3531
▁第二个	-3532
单位	-3533
原来	-3534
替代	-3535
的外	-3536
种类	-3537
one	-3538
▁我问	-3539
▁答案	-3540
一定要	-3541
个人的	-3542
传感器	-3543
有机会	-3544
▁我需要	-3545
中的一个	-3546
物理学家	-3547
三维	-3548
与人	-3549
体会	-3550
密度	-3551
局限	-3552
微笑	-3553
抽象	-3554
游泳	-3555
解放	-3556
认同	-3557
镜头	-3558
防止	-3559
198	-3560
不是吗	-3561
在座的	-3562
大家都	-3563
意大利	-3564
提供了	-3565
运动的	-3566
▁是我们	-3567
av	-3568
住了	-3569
保险	-3570
处的	-3571
定位	-3572
温室	-3573
讲的	-3574
资助	-3575
那天	-3576
频率	-3577
魔术	-3578
▁自然	-3579
在那儿	-3580
我们还	-3581
▁你就会	-3582
▁就可以	-3583
▁我今天	-3584
▁然后他	-3585
只是一个	-3586
▁外	-3587
▁长	-3588
亚洲	-3589
农场	-3590
分之	-3591
却是	-3592
和你	-3593
头发	-3594
拉斯	-3595
探险	-3596
清洁	-3597
爆发	-3598
生素	-3599
白人	-3600
马斯	-3601
▁不论	-3602
病人的	-3603
的未来	-3604
▁所以在	-3605
▁有很多	-3606
ag	-3607
不去	-3608
为你	-3609
学术	-3610
定律	-3611
恰恰	-3612
想过	-3613
战斗	-3614
护士	-3615
显微	-3616
灵魂	-3617
统治	-3618
芯片	-3619
跟踪	-3620
链接	-3621
骨骼	-3622
▁非洲	-3623
也许会	-3624
我们从	-3625
是一位	-3626
离开了	-3627
▁也可以	-3628
▁它们是	-3629
▁及	-3630
▁太	-3631
不安	-3632
勇气	-3633
去世	-3634
哈佛	-3635
携带	-3636
种子	-3637
美的	-3638
老人	-3639
讨厌	-3640
设置	-3641
进程	-3642
▁它在	-3643
▁认为	-3644
▁这对	-3645
不应该	-3646
他们所	-3647
开始了	-3648
成一个	-3649
变得更加	-3650
的是什么	-3651
这个想法	-3652
▁然后他们	-3653
先进	-3654
内的	-3655
固定	-3656
对比	-3657
性和	-3658
我从	-3659
棒了	-3660
观的	-3661
辐射	-3662
这幅	-3663
▁不会	-3664
▁假设	-3665
▁里面	-3666
停下来	-3667
的食物	-3668
笔记本	-3669
不是一个	-3670
▁我们如何	-3671
▁我们能够	-3672
▁换句话说	-3673
仪式	-3674
写作	-3675
大楼	-3676
姐妹	-3677
对抗	-3678
广场	-3679
得知	-3680
承受	-3681
推特	-3682
植入	-3683
治愈	-3684
火车	-3685
盒子	-3686
课堂	-3687
骨头	-3688
ook	-3689
▁我被	-3690
▁把它	-3691
地区的	-3692
摄像机	-3693
起来的	-3694
▁我一直	-3695
▁既	-3696
交换	-3697
停车	-3698
公正	-3699
军事	-3700
协调	-3701
在一	-3702
更大	-3703
▁无法	-3704
▁笑声	-3705
我没有	-3706
政府的	-3707
更好地	-3708
消失了	-3709
hris	-3710
▁所以这	-3711
▁这一切	-3712
世上	-3713
乔治	-3714
交互	-3715
体现	-3716
保守	-3717
信心	-3718
分散	-3719
坚信	-3720
小心	-3721
庆祝	-3722
无聊	-3723
棒的	-3724
瑞典	-3725
用在	-3726
罪犯	-3727
而来	-3728
跨越	-3729
运转	-3730
远离	-3731
▁一起	-3732
之前的	-3733
几年前	-3734
同情心	-3735
这本书	-3736
▁我们没有	-3737
▁这就是我们	-3738
▁别	-3739
▁带	-3740
委员	-3741
家长	-3742
岩石	-3743
强的	-3744
整合	-3745
日子	-3746
查德	-3747
波士	-3748
满意	-3749
▁这位	-3750
当他们	-3751
▁同样的	-3752
这些事情	-3753
▁我意识到	-3754
35	-3755
举手	-3756
加哥	-3757
动态	-3758
天空	-3759
扩展	-3760
指挥	-3761
是被	-3762
疼痛	-3763
确信	-3764
编程	-3765
认真	-3766
走出	-3767
阿尔	-3768
▁回到	-3769
▁我曾	-3770
▁相反	-3771
▁这次	-3772
做到了	-3773
存在着	-3774
珊瑚礁	-3775
用一个	-3776
芝加哥	-3777
意味着什么	-3778
▁6	-3779
乐队	-3780
作业	-3781
厕所	-3782
各自	-3783
合物	-3784
她说	-3785
推进	-3786
无关	-3787
旧金	-3788
水中	-3789
法案	-3790
灵活	-3791
繁荣	-3792
脊髓	-3793
蜘蛛	-3794
You	-3795
▁学习	-3796
▁并不	-3797
▁找到	-3798
▁进入	-3799
典型的	-3800
在你的	-3801
女性的	-3802
宇宙中	-3803
旧金山	-3804
是这个	-3805
波士顿	-3806
独特的	-3807
的名字	-3808
科学的	-3809
这么说	-3810
▁我看到	-3811
所有人都	-3812
Google	-3813
ig	-3814
▁因	-3815
一句	-3816
一大	-3817
一座	-3818
众人	-3819
保罗	-3820
具备	-3821
树木	-3822
活着	-3823
舒服	-3824
越多	-3825
退休	-3826
▁医生	-3827
▁有趣	-3828
和一个	-3829
尽可能	-3830
的经历	-3831
▁在我的	-3832
▁就好像	-3833
非常感谢	-3834
▁但事实上	-3835
▁如果他们	-3836
▁这就是我	-3837
ap	-3838
付出	-3839
冰川	-3840
单独	-3841
史蒂	-3842
哲学	-3843
就被	-3844
接收	-3845
方便	-3846
法则	-3847
牺牲	-3848
疗法	-3849
粮食	-3850
诗歌	-3851
黄金	-3852
▁它能	-3853
▁有关	-3854
▁都在	-3855
创造出	-3856
太阳系	-3857
将这些	-3858
就像是	-3859
志愿者	-3860
想要的	-3861
um	-3862
▁发	-3863
两倍	-3864
听过	-3865
命运	-3866
团结	-3867
宣布	-3868
家族	-3869
祖母	-3870
马逊	-3871
▁令人	-3872
▁曾经	-3873
▁解决	-3874
之类的	-3875
你必须	-3876
大自然	-3877
形成的	-3878
漂亮的	-3879
的系统	-3880
青少年	-3881
▁有一天	-3882
一些东西	-3883
▁我们看到	-3884
▁9	-3885
▁斯	-3886
利润	-3887
墙上	-3888
帮我	-3889
忘了	-3890
戏剧	-3891
捕捉	-3892
方的	-3893
是用	-3894
栖息	-3895
没错	-3896
监控	-3897
精力	-3898
航空	-3899
ard	-3900
ick	-3901
▁地球	-3902
▁都会	-3903
有点像	-3904
有许多	-3905
的朋友	-3906
的目标	-3907
身体的	-3908
▁我没有	-3909
久的	-3910
他是	-3911
偏见	-3912
厨房	-3913
而易	-3914
自主	-3915
让他	-3916
赢得	-3917
过滤	-3918
采集	-3919
鱼类	-3920
▁这么	-3921
古老的	-3922
就这样	-3923
我相信	-3924
站起来	-3925
▁以至于	-3926
▁它们的	-3927
经济学家	-3928
▁已	-3929
亿人	-3930
听众	-3931
噪音	-3932
斯的	-3933
焦虑	-3934
视为	-3935
餐厅	-3936
饥饿	-3937
高效	-3938
▁我只	-3939
▁都有	-3940
学到了	-3941
工作者	-3942
幸的是	-3943
建筑物	-3944
我们想	-3945
星球上	-3946
显微镜	-3947
▁TED	-3948
▁但如果	-3949
三分之一	-3950
就是一个	-3951
变得越来越	-3952
op	-3953
▁二	-3954
▁同	-3955
▁打	-3956
▁罗	-3957
三角	-3958
人性	-3959
传达	-3960
后代	-3961
对你	-3962
干净	-3963
扩张	-3964
胜利	-3965
隐私	-3966
150	-3967
▁想要	-3968
▁感谢	-3969
从一个	-3970
刚开始	-3971
女士们	-3972
展示的	-3973
本质上	-3974
着我们	-3975
做了一个	-3976
▁但如果你	-3977
▁我们不能	-3978
:"	-3979
nd	-3980
▁真	-3981
不像	-3982
不止	-3983
书籍	-3984
分辨	-3985
午餐	-3986
掌控	-3987
框架	-3988
正义	-3989
热带	-3990
现今	-3991
生涯	-3992
自豪	-3993
至关	-3994
试试	-3995
起的	-3996
转向	-3997
风格	-3998
ube	-3999
▁知道	-4000
▁这儿	-4001
不会有	-4002
创造的	-4003
因为它	-4004
我需要	-4005
找到的	-4006
正常的	-4007
类型的	-4008
还有一个	-4009
:”	-4010
ip	-4011
▁4	-4012
▁仅	-4013
三种	-4014
作者	-4015
保障	-4016
北部	-4017
印刷	-4018
屠杀	-4019
强迫	-4020
战略	-4021
椅子	-4022
法官	-4023
目睹	-4024
经营	-4025
赚钱	-4026
非凡	-4027
▁导致	-4028
▁生命	-4029
环境中	-4030
的基础	-4031
▁这里是	-4032
创造一个	-4033
我们发现	-4034
我们的生活	-4035
▁问	-4036
一部	-4037
上来	-4038
以外	-4039
伯特	-4040
关闭	-4041
协议	-4042
燃烧	-4043
百科	-4044
蝙蝠	-4045
身处	-4046
部件	-4047
鸟类	-4048
art	-4049
▁要么	-4050
▁试图	-4051
加拿大	-4052
完整的	-4053
遇到了	-4054
▁我曾经	-4055
▁而这个	-4056
最后一个	-4057
越来越多	-4058
▁它是一个	-4059
ey	-4060
▁O	-4061
一本	-4062
三年	-4063
你不	-4064
劳动	-4065
含义	-4066
巴马	-4067
拿出	-4068
深深	-4069
睡觉	-4070
美妙	-4071
脑袋	-4072
花粉	-4073
野生	-4074
钢琴	-4075
▁那种	-4076
中的一	-4077
人们在	-4078
你就会	-4079
准备好	-4080
普通的	-4081
进化的	-4082
不可能的	-4083
我们开始	-4084
▁你可能会	-4085
众多	-4086
做好	-4087
共和	-4088
分类	-4089
回忆	-4090
大会	-4091
孤独	-4092
敌人	-4093
查看	-4094
歧视	-4095
河流	-4096
理工	-4097
网页	-4098
讲话	-4099
边界	-4100
部位	-4101
部队	-4102
ian	-4103
▁音乐	-4104
出现的	-4105
委员会	-4106
我一直	-4107
的就是	-4108
美元的	-4109
▁不仅仅是	-4110
▁这是我的	-4111
75	-4112
od	-4113
▁光	-4114
一想	-4115
安静	-4116
将是	-4117
心灵	-4118
悲剧	-4119
掌声	-4120
有限	-4121
本地	-4122
模糊	-4123
水的	-4124
液体	-4125
炸弹	-4126
爱情	-4127
的光	-4128
规定	-4129
证实	-4130
说了	-4131
质疑	-4132
跟你	-4133
这两	-4134
飞船	-4135
▁似乎	-4136
▁我来	-4137
▁相信	-4138
▁这时	-4139
可以用	-4140
和他们	-4141
和他的	-4142
困难的	-4143
大脑中	-4144
太棒了	-4145
把自己	-4146
时代的	-4147
的一面	-4148
第三个	-4149
▁我非常	-4150
现在我们	-4151
的过程中	-4152
▁你们知道	-4153
了的	-4154
事故	-4155
写了	-4156
周期	-4157
圣经	-4158
多久	-4159
界面	-4160
皮层	-4161
降落	-4162
▁我所	-4163
▁此外	-4164
不错的	-4165
优秀的	-4166
其它的	-4167
想象的	-4168
的历史	-4169
着一个	-4170
▁几年前	-4171
▁有一些	-4172
科学家们	-4173
▁五	-4174
▁埃	-4175
。。	-4176
万个	-4177
以上	-4178
会是	-4179
做些	-4180
否则	-4181
圣诞	-4182
学者	-4183
尺寸	-4184
放进	-4185
毁灭	-4186
生成	-4187
编码	-4188
花园	-4189
车的	-4190
雨林	-4191
非法	-4192
顺利	-4193
▁了解	-4194
▁得到	-4195
对这个	-4196
房间里	-4197
现有的	-4198
给我的	-4199
这是我	-4200
实际上是	-4201
建立一个	-4202
▁每个人都	-4203
▁中	-4204
▁出	-4205
▁重	-4206
加拉	-4207
告知	-4208
多种	-4209
惩罚	-4210
抗议	-4211
拉丁	-4212
有两	-4213
板上	-4214
渐渐	-4215
见了	-4216
通讯	-4217
顾客	-4218
▁在座	-4219
▁那就	-4220
信息的	-4221
先生们	-4222
前所未	-4223
实现的	-4224
的运动	-4225
的那个	-4226
因为他们	-4227
大家分享	-4228
联系起来	-4229
▁我是一个	-4230
▁所以我想	-4231
▁那么我们	-4232
DP	-4233
ak	-4234
▁卡	-4235
做成	-4236
反复	-4237
在想	-4238
大象	-4239
字典	-4240
序列	-4241
惊人	-4242
消除	-4243
深处	-4244
激素	-4245
玩家	-4246
的开	-4247
英文	-4248
要去	-4249
词汇	-4250
负担	-4251
跟着	-4252
重的	-4253
▁有点	-4254
事物的	-4255
危险的	-4256
和你们	-4257
我喜欢	-4258
把我们	-4259
只有一个	-4260
毫无疑问	-4261
▁如果你想	-4262
PS	-4263
▁受	-4264
▁奥	-4265
体制	-4266
区的	-4267
向前	-4268
场所	-4269
多年	-4270
天堂	-4271
天气	-4272
广播	-4273
心里	-4274
我被	-4275
沉默	-4276
理性	-4277
的几	-4278
竟然	-4279
雇佣	-4280
▁一般	-4281
▁城市	-4282
▁尝试	-4283
▁看着	-4284
下一代	-4285
不断的	-4286
世界里	-4287
你不能	-4288
倾向于	-4289
屏幕上	-4290
找不到	-4291
指的是	-4292
的作品	-4293
▁这只是	-4294
▁。	-4295
▁据	-4296
一千	-4297
为人	-4298
们的	-4299
体育	-4300
作物	-4301
利福	-4302
国内	-4303
在他	-4304
始终	-4305
威尔	-4306
学科	-4307
宝宝	-4308
就不	-4309
开了	-4310
明天	-4311
概率	-4312
海底	-4313
源于	-4314
眼镜	-4315
组装	-4316
缺陷	-4317
膨胀	-4318
莱坞	-4319
融入	-4320
街头	-4321
观测	-4322
讽刺	-4323
遵循	-4324
魅力	-4325
鲸鱼	-4326
▁随后	-4327
创新的	-4328
自身的	-4329
让大家	-4330
领域的	-4331
心理学家	-4332
改变世界	-4333
▁十	-4334
▁哪	-4335
令我	-4336
克服	-4337
克林	-4338
姆斯	-4339
干预	-4340
形容	-4341
成熟	-4342
染色	-4343
欺骗	-4344
的路	-4345
祈祷	-4346
立即	-4347
线上	-4348
追溯	-4349
▁在此	-4350
形成了	-4351
的反应	-4352
领导人	-4353
▁你不能	-4354
▁我必须	-4355
恐怖分子	-4356
还有很多	-4357
▁举个例子	-4358
▁这是因为	-4359
▁起	-4360
两次	-4361
前往	-4362
双手	-4363
完善	-4364
成像	-4365
整整	-4366
生日	-4367
相连	-4368
美分	-4369
脂肪	-4370
自信	-4371
走路	-4372
页面	-4373
鼓舞	-4374
▁即便	-4375
▁如此	-4376
▁有个	-4377
中心的	-4378
他们就	-4379
参与到	-4380
我发现	-4381
类似于	-4382
聪明的	-4383
陌生人	-4384
非常好	-4385
高尔夫	-4386
aceb	-4387
▁他们有	-4388
▁是关于	-4389
他们自己	-4390
经济增长	-4391
▁不幸的是	-4392
▁这张照片	-4393
acebook	-4394
)。	-4395
乐器	-4396
人心	-4397
外交	-4398
外星	-4399
所说	-4400
时报	-4401
点的	-4402
白色	-4403
绝望	-4404
耳朵	-4405
聊天	-4406
行了	-4407
设立	-4408
货币	-4409
过于	-4410
▁在你	-4411
世界中	-4412
他人的	-4413
是多么	-4414
糟糕的	-4415
说什么	-4416
任何地方	-4417
会发生什么	-4418
▁8	-4419
▁若	-4420
你看	-4421
剩下	-4422
发送	-4423
变为	-4424
司机	-4425
康复	-4426
感应	-4427
瑞士	-4428
统一	-4429
自杀	-4430
见证	-4431
遗憾	-4432
阻碍	-4433
随时	-4434
首次	-4435
ell	-4436
▁政治	-4437
▁网络	-4438
▁这在	-4439
不确定	-4440
个孩子	-4441
制作的	-4442
剩下的	-4443
它们是	-4444
物理学	-4445
用这个	-4446
的主题	-4447
自然界	-4448
▁他们也	-4449
▁因此我	-4450
▁而且我	-4451
▁而现在	-4452
▁要知道	-4453
我们没有	-4454
资本主义	-4455
是什么样的	-4456
难以置信的	-4457
▁且	-4458
▁主	-4459
▁叫	-4460
乐趣	-4461
使你	-4462
哈拉	-4463
困境	-4464
增强	-4465
幽默	-4466
度过	-4467
引用	-4468
挣扎	-4469
月份	-4470
权威	-4471
构成	-4472
正好	-4473
福利	-4474
算是	-4475
计的	-4476
遭遇	-4477
重量	-4478
集团	-4479
▁数据	-4480
▁生物	-4481
在印度	-4482
干什么	-4483
意识的	-4484
明白了	-4485
有意义	-4486
的区域	-4487
绿色的	-4488
讲故事	-4489
▁在过去	-4490
▁就这样	-4491
任何东西	-4492
世界各地的	-4493
▁分	-4494
上下	-4495
为我	-4496
共有	-4497
台上	-4498
在此	-4499
玩意	-4500
窗户	-4501
荧光	-4502
回到了	-4503
已经有	-4504
张照片	-4505
想象力	-4506
的一天	-4507
的事件	-4508
的人的	-4509
的方向	-4510
科技的	-4511
篇文章	-4512
蓝色的	-4513
跟你们	-4514
hone	-4515
》,	-4516
传输	-4517
偶然	-4518
公寓	-4519
刚果	-4520
南部	-4521
去过	-4522
反射	-4523
变异	-4524
在线	-4525
巴黎	-4526
悲伤	-4527
意料	-4528
抱怨	-4529
收获	-4530
是对	-4531
环绕	-4532
病的	-4533
眼前	-4534
管道	-4535
ber	-4536
▁也有	-4537
又一次	-4538
我们把	-4539
最重要	-4540
根本上	-4541
的不同	-4542
选择的	-4543
▁不仅仅	-4544
并不知道	-4545
我们认为	-4546
永远不会	-4547
解决这个问题	-4548
上一	-4549
仿佛	-4550
假如	-4551
储存	-4552
公路	-4553
农村	-4554
参观	-4555
四处	-4556
地震	-4557
媒介	-4558
家乡	-4559
底部	-4560
折叠	-4561
抱歉	-4562
有过	-4563
海报	-4564
灯泡	-4565
留在	-4566
监视	-4567
类型	-4568
结尾	-4569
航天	-4570
荷兰	-4571
遍布	-4572
错的	-4573
▁50	-4574
▁关键	-4575
▁故事	-4576
▁新的	-4577
专注于	-4578
到一起	-4579
它可以	-4580
微小的	-4581
比如说	-4582
的形式	-4583
谢谢你	-4584
那时候	-4585
▁也不是	-4586
▁然后再	-4587
一个非常	-4588
其他地方	-4589
▁与此同时	-4590
ve	-4591
▁男	-4592
产物	-4593
区分	-4594
即兴	-4595
可行	-4596
喜剧	-4597
好好	-4598
我得	-4599
气味	-4600
确认	-4601
老板	-4602
舒适	-4603
访问	-4604
足以	-4605
面部	-4606
80%	-4607
万年前	-4608
可行的	-4609
影响力	-4610
心理学	-4611
想一下	-4612
成功了	-4613
抗生素	-4614
的作用	-4615
系统中	-4616
这也是	-4617
伊斯兰教	-4618
我们正在	-4619
是我们的	-4620
22	-4621
ah	-4622
▁布	-4623
▁本	-4624
一幅	-4625
也没	-4626
乡村	-4627
借助	-4628
公布	-4629
几千	-4630
土耳	-4631
大了	-4632
天花	-4633
太平	-4634
实时	-4635
平常	-4636
按钮	-4637
收益	-4638
月球	-4639
独特	-4640
纪念	-4641
绘画	-4642
调节	-4643
酒店	-4644
革新	-4645
600	-4646
▁原因	-4647
▁宇宙	-4648
▁时间	-4649
▁用于	-4650
▁这会	-4651
使用了	-4652
土耳其	-4653
多少人	-4654
摄影师	-4655
数学家	-4656
精神病	-4657
良好的	-4658
▁然后在	-4659
哺乳动物	-4660
幸运的是	-4661
这样的人	-4662
ff	-4663
▁7	-4664
了它	-4665
体重	-4666
占据	-4667
可爱	-4668
失望	-4669
批评	-4670
捐赠	-4671
排列	-4672
摧毁	-4673
最佳	-4674
服用	-4675
机遇	-4676
独自	-4677
玉米	-4678
的手	-4679
的说	-4680
联盟	-4681
评价	-4682
详细	-4683
车祸	-4684
迈克	-4685
▁30	-4686
▁他会	-4687
▁继续	-4688
出来了	-4689
就没有	-4690
很可能	-4691
神奇的	-4692
适用于	-4693
▁并没有	-4694
▁第一次	-4695
一个新的	-4696
世界上的	-4697
65	-4698
▁简	-4699
一套	-4700
下午	-4701
之类	-4702
使命	-4703
创伤	-4704
势力	-4705
勇敢	-4706
囚犯	-4707
图形	-4708
巧克	-4709
年中	-4710
年间	-4711
很不	-4712
怀孕	-4713
我来	-4714
无比	-4715
机场	-4716
某人	-4717
种种	-4718
队伍	-4719
▁一天	-4720
▁你是	-4721
▁决定	-4722
▁怎样	-4723
▁生活	-4724
▁的确	-4725
▁英国	-4726
与我们	-4727
亚马逊	-4728
会怎样	-4729
全球化	-4730
减少了	-4731
同时也	-4732
庞大的	-4733
拍摄的	-4734
的大小	-4735
的存在	-4736
的结构	-4737
让自己	-4738
▁但现在	-4739
▁很明显	-4740
发生什么	-4741
爱因斯坦	-4742
▁有趣的是	-4743
是什么样子	-4744
0.	-4745
▁六	-4746
▁特	-4747
下载	-4748
与众	-4749
人数	-4750
何时	-4751
例外	-4752
做个	-4753
写着	-4754
原型	-4755
啤酒	-4756
好玩	-4757
抵抗	-4758
欲望	-4759
的钱	-4760
神话	-4761
隔离	-4762
风暴	-4763
▁不再	-4764
▁带着	-4765
▁未来	-4766
中国的	-4767
代表着	-4768
但是我	-4769
做这些	-4770
红色的	-4771
英里的	-4772
遇到的	-4773
▁这里有	-4774
▁这里的	-4775
▁顺便说	-4776
一个例子	-4777
一种新的	-4778
利福尼亚	-4779
的可能性	-4780
▁但是如果	-4781
越来越多的	-4782
▁则	-4783
▁噢	-4784
▁拿	-4785
一同	-4786
争取	-4787
又是	-4788
困扰	-4789
天才	-4790
对了	-4791
应的	-4792
我都	-4793
振奋	-4794
放入	-4795
数千	-4796
水下	-4797
法庭	-4798
电路	-4799
碰到	-4800
糖尿	-4801
聚会	-4802
▁以便	-4803
▁基于	-4804
▁并在	-4805
▁当他	-4806
▁没人	-4807
▁科技	-4808
的生命	-4809
结束了	-4810
长时间	-4811
3000	-4812
▁但是它	-4813
▁我真的	-4814
▁所以他	-4815
▁那时候	-4816
什么东西	-4817
很有意思	-4818
恐怖主义	-4819
找到一个	-4820
来到这里	-4821
的人来说	-4822
这些信息	-4823
非常重要的	-4824
st	-4825
ud	-4826
▁V	-4827
▁女	-4828
▁手	-4829
▁时	-4830
代谢	-4831
众笑	-4832
你也	-4833
创立	-4834
到来	-4835
帮忙	-4836
开启	-4837
打击	-4838
提议	-4839
无数	-4840
满了	-4841
演出	-4842
爱好	-4843
笑话	-4844
经典	-4845
荣幸	-4846
走上	-4847
▁今年	-4848
▁你得	-4849
▁其次	-4850
▁国家	-4851
▁平均	-4852
▁是我	-4853
▁是由	-4854
了下来	-4855
可以被	-4856
合适的	-4857
向大家	-4858
我还是	-4859
给了我	-4860
▁就像是	-4861
▁甚至是	-4862
实验室里	-4863
的重要性	-4864
给我们的	-4865
),	-4866
oh	-4867
。(	-4868
》。	-4869
一把	-4870
一来	-4871
亲密	-4872
今晚	-4873
休息	-4874
口袋	-4875
句子	-4876
只会	-4877
可见	-4878
向我	-4879
含有	-4880
尽量	-4881
我又	-4882
折磨	-4883
碎片	-4884
群岛	-4885
跳舞	-4886
轻松	-4887
鼻子	-4888
GDP	-4889
▁到底	-4890
▁在他	-4891
▁相比	-4892
一定会	-4893
就不会	-4894
教育的	-4895
显而易	-4896
的地区	-4897
的能量	-4898
研究中	-4899
贫民窟	-4900
▁我不会	-4901
年的时间	-4902
我们不能	-4903
▁在我们的	-4904
完全不同的	-4905
27	-4906
▁于	-4907
决心	-4908
凌晨	-4909
匹配	-4910
喜爱	-4911
夜晚	-4912
存储	-4913
它能	-4914
工资	-4915
意的	-4916
感激	-4917
拥抱	-4918
有用	-4919
残疾	-4920
猜测	-4921
用到	-4922
的不	-4923
童年	-4924
约会	-4925
缓慢	-4926
缩小	-4927
许可	-4928
过度	-4929
道的	-4930
部长	-4931
黄色	-4932
man	-4933
不是很	-4934
主要的	-4935
太平洋	-4936
年之后	-4937
想到的	-4938
更容易	-4939
的实验	-4940
的建筑	-4941
的科学	-4942
跟我说	-4943
运作的	-4944
2010	-4945
▁所以当	-4946
▁这个是	-4947
你知道吗	-4948
可以通过	-4949
▁我们甚至	-4950
ck	-4951
以往	-4952
依旧	-4953
多个	-4954
字体	-4955
学位	-4956
年级	-4957
情景	-4958
成人	-4959
搭建	-4960
数码	-4961
显得	-4962
格斯	-4963
桌子	-4964
演化	-4965
点是	-4966
用水	-4967
着陆	-4968
营销	-4969
90%	-4970
▁好像	-4971
▁工作	-4972
▁根本	-4973
免费的	-4974
和我的	-4975
哲学家	-4976
巧克力	-4977
极大的	-4978
比我们	-4979
的基因	-4980
的意义	-4981
的病人	-4982
证明了	-4983
你们知道	-4984
有多少人	-4985
▁因为它们	-4986
▁如果你们	-4987
▁那是一个	-4988
iPhone	-4989
▁直	-4990
一根	-4991
一看	-4992
代替	-4993
博拉	-4994
外界	-4995
幻想	-4996
幻觉	-4997
指标	-4998
操纵	-4999
新鲜	-5000
是吧	-5001
激进	-5002
视力	-5003
解答	-5004
认可	-5005
运营	-5006
醒来	-5007
集合	-5008
验证	-5009
▁制造	-5010
▁各种	-5011
▁技术	-5012
以一种	-5013
受欢迎	-5014
常见的	-5015
形式的	-5016
必要的	-5017
接受了	-5018
是一件	-5019
最喜欢	-5020
的人群	-5021
的另一	-5022
的同时	-5023
的组织	-5024
的角色	-5025
5000	-5026
▁是一种	-5027
▁因为这些	-5028
▁但是如果你	-5029
1.	-5030
▁老	-5031
不行	-5032
优雅	-5033
公交	-5034
厉害	-5035
去找	-5036
基地	-5037
多元	-5038
山脉	-5039
干扰	-5040
文学	-5041
是要	-5042
看作	-5043
确切	-5044
等于	-5045
罗马	-5046
聆听	-5047
视野	-5048
论者	-5049
诚实	-5050
通信	-5051
顶端	-5052
预期	-5053
额外	-5054
▁18	-5055
▁不用	-5056
▁对吧	-5057
亲爱的	-5058
保护区	-5059
几分钟	-5060
到这里	-5061
可不是	-5062
的土地	-5063
的活动	-5064
经历过	-5065
▁当时我	-5066
▁我们得	-5067
一起工作	-5068
有趣的是	-5069
上班	-5070
卡车	-5071
可靠	-5072
司法	-5073
和他	-5074
地表	-5075
大卫	-5076
实体	-5077
尴尬	-5078
微软	-5079
成百	-5080
注入	-5081
消灭	-5082
看的	-5083
祖父	-5084
精英	-5085
维基	-5086
维护	-5087
财政	-5088
这座	-5089
随之	-5090
▁一次	-5091
▁之前	-5092
▁你将	-5093
▁它也	-5094
▁寻找	-5095
▁总是	-5096
▁直接	-5097
▁而你	-5098
▁自从	-5099
参与者	-5100
只是在	-5101
学会了	-5102
小时候	-5103
就是在	-5104
数据库	-5105
数百万	-5106
生命中	-5107
稳定的	-5108
考虑到	-5109
造成了	-5110
▁我不想	-5111
▁无论是	-5112
的是一个	-5113
▁因为这是	-5114
▁这个问题	-5115
笔记本电脑	-5116
ma	-5117
▁d	-5118
。」	-5119
于此	-5120
人权	-5121
你将	-5122
做点	-5123
困惑	-5124
国王	-5125
坏了	-5126
宇航	-5127
完了	-5128
实质	-5129
审视	-5130
帝国	-5131
德拉	-5132
扩散	-5133
挖掘	-5134
撞击	-5135
无知	-5136
极度	-5137
灯光	-5138
牙齿	-5139
生气	-5140
的心	-5141
监管	-5142
能否	-5143
能让	-5144
说说	-5145
这份	-5146
▁15	-5147
▁你也	-5148
▁十分	-5149
▁它将	-5150
▁就算	-5151
▁很快	-5152
▁毕竟	-5153
为他们	-5154
几十年	-5155
化合物	-5156
增加了	-5157
她们的	-5158
实在是	-5159
对他们	-5160
对自己	-5161
小时的	-5162
改变的	-5163
文化的	-5164
明显的	-5165
的中心	-5166
研究所	-5167
那里的	-5168
▁什么是	-5169
▁我决定	-5170
▁这一点	-5171
看到这个	-5172
这种方式	-5173
▁·	-5174
从而	-5175
协作	-5176
去到	-5177
失明	-5178
实话	-5179
尼斯	-5180
引入	-5181
录音	-5182
惊叹	-5183
惊喜	-5184
我才	-5185
挪威	-5186
支撑	-5187
数目	-5188
档案	-5189
深海	-5190
清理	-5191
游行	-5192
特质	-5193
绘制	-5194
脱离	-5195
苏联	-5196
要在	-5197
透过	-5198
▁不断	-5199
▁是个	-5200
会这样	-5201
印度的	-5202
学校的	-5203
早期的	-5204
的状态	-5205
这些小	-5206
选择了	-5207
▁他们把	-5208
▁这两个	-5209
帮助他们	-5210
某种意义上	-5211
26	-5212
▁花	-5213
▁非	-5214
一万	-5215
之上	-5216
依据	-5217
准则	-5218
几周	-5219
出售	-5220
化了	-5221
单纯	-5222
尔兰	-5223
年内	-5224
意图	-5225
教训	-5226
方块	-5227
昂贵	-5228
更快	-5229
枪鱼	-5230
标题	-5231
活力	-5232
清单	-5233
激活	-5234
版权	-5235
男子	-5236
第四	-5237
色彩	-5238
萨斯	-5239
还不	-5240
阶级	-5241
雄性	-5242
青春	-5243
org	-5244
wit	-5245
▁更加	-5246
▁没错	-5247
▁男人	-5248
我们用	-5249
用这些	-5250
的使用	-5251
确实是	-5252
那个人	-5253
音乐家	-5254
▁你现在	-5255
像这样的	-5256
绝大多数	-5257
▁而且他们	-5258
23	-5259
th	-5260
一周	-5261
不通	-5262
九十	-5263
全身	-5264
剧院	-5265
哥伦	-5266
性质	-5267
手里	-5268
拜访	-5269
捕食	-5270
推测	-5271
教徒	-5272
旅游	-5273
此刻	-5274
温暖	-5275
的海	-5276
直升	-5277
积累	-5278
螺旋	-5279
被人	-5280
谈判	-5281
资产	-5282
身为	-5283
黑色	-5284
com	-5285
ich	-5286
▁也会	-5287
▁但却	-5288
▁唯一	-5289
▁感觉	-5290
▁这条	-5291
了所有	-5292
叙利亚	-5293
强烈的	-5294
我应该	-5295
最后的	-5296
的大脑	-5297
的资源	-5298
看不见	-5299
该如何	-5300
起作用	-5301
金枪鱼	-5302
▁但这些	-5303
▁当我在	-5304
▁这个人	-5305
你们可以	-5306
看到这些	-5307
这种情况	-5308
不可思议的	-5309
严格	-5310
向你	-5311
好吗	-5312
岁了	-5313
开源	-5314
我爱	-5315
把你	-5316
撒谎	-5317
整理	-5318
最有	-5319
歌曲	-5320
比喻	-5321
永恒	-5322
真理	-5323
考试	-5324
触摸	-5325
足球	-5326
首诗	-5327
▁Al	-5328
▁产生	-5329
▁否则	-5330
▁由此	-5331
不再是	-5332
不到的	-5333
了一点	-5334
了他们	-5335
史以来	-5336
史蒂夫	-5337
在纽约	-5338
太多的	-5339
疯狂的	-5340
病毒的	-5341
的产品	-5342
的核心	-5343
的模式	-5344
而来的	-5345
能做到	-5346
进入了	-5347
▁一个是	-5348
▁对我们	-5349
▁百分之	-5350
你会发现	-5351
化学物质	-5352
所看到的	-5353
▁这并不是	-5354
witter	-5355
▁巴	-5356
可乐	-5357
彗星	-5358
微型	-5359
抛弃	-5360
拍照	-5361
早晨	-5362
极限	-5363
果蝇	-5364
流程	-5365
爵士	-5366
的头	-5367
街区	-5368
西洋	-5369
诗人	-5370
请求	-5371
这会	-5372
这边	-5373
那位	-5374
▁你想	-5375
▁像是	-5376
乳腺癌	-5377
告诉他	-5378
大小的	-5379
我之前	-5380
的效果	-5381
▁全世界	-5382
一些事情	-5383
是什么呢	-5384
这项技术	-5385
加利福尼亚	-5386
生活在一个	-5387
RI	-5388
▁帕	-5389
交配	-5390
典型	-5391
分解	-5392
和谐	-5393
哈顿	-5394
官员	-5395
尾巴	-5396
抑制	-5397
捕鱼	-5398
无处	-5399
极为	-5400
棒球	-5401
照明	-5402
特网	-5403
读者	-5404
镜子	-5405
青年	-5406
麻省	-5407
▁我得	-5408
▁更多	-5409
一百万	-5410
不停地	-5411
向我们	-5412
学校里	-5413
年前的	-5414
开玩笑	-5415
弄清楚	-5416
我不能	-5417
的一半	-5418
的态度	-5419
都不会	-5420
▁同时也	-5421
很长时间	-5422
我自己的	-5423
生活方式	-5424
▁还有一个	-5425
"。	-5426
ri	-5427
一无	-5428
一颗	-5429
上网	-5430
下一	-5431
不必	-5432
举办	-5433
乐意	-5434
任意	-5435
像个	-5436
六个	-5437
出于	-5438
创业	-5439
咨询	-5440
它就	-5441
室内	-5442
将近	-5443
常规	-5444
打交	-5445
最多	-5446
浪漫	-5447
热的	-5448
的长	-5449
神圣	-5450
英寸	-5451
购物	-5452
轮椅	-5453
面上	-5454
韩国	-5455
20%	-5456
▁你有	-5457
▁她在	-5458
▁简单	-5459
▁这将	-5460
决定了	-5461
合理的	-5462
对这些	-5463
我必须	-5464
探测器	-5465
曼哈顿	-5466
栖息地	-5467
独立的	-5468
的人民	-5469
知道了	-5470
研究了	-5471
网络上	-5472
背后的	-5473
问自己	-5474
▁我不能	-5475
▁我甚至	-5476
▁而他们	-5477
▁让我来	-5478
是一样的	-5479
觉得自己	-5480
非常简单	-5481
▁你们可以	-5482
Al	-5483
EO	-5484
不出	-5485
人造	-5486
伴侣	-5487
你去	-5488
协会	-5489
味道	-5490
在做	-5491
富裕	-5492
布朗	-5493
很酷	-5494
想着	-5495
愉快	-5496
救援	-5497
案件	-5498
独裁	-5499
硬件	-5500
脑中	-5501
著名	-5502
超市	-5503
轨迹	-5504
邪恶	-5505
麻痹	-5506
▁以此	-5507
为自己	-5508
全球的	-5509
发生过	-5510
听到了	-5511
潜在的	-5512
环境的	-5513
的最后	-5514
的语言	-5515
社区的	-5516
美妙的	-5517
詹姆斯	-5518
还记得	-5519
岁的孩子	-5520
没有一个	-5521
▁而且我们	-5522
▁这就意味着	-5523
▁越	-5524
你得	-5525
共鸣	-5526
审查	-5527
开关	-5528
手的	-5529
根源	-5530
法院	-5531
激光	-5532
火山	-5533
生病	-5534
等着	-5535
肢体	-5536
蔬菜	-5537
蚊帐	-5538
表格	-5539
解读	-5540
这就	-5541
酒吧	-5542
顺序	-5543
骄傲	-5544
▁一定	-5545
▁我又	-5546
▁我用	-5547
▁终于	-5548
众人笑	-5549
你可能	-5550
到我们	-5551
在未来	-5552
我今天	-5553
打印机	-5554
收到了	-5555
政治家	-5556
有一点	-5557
目标是	-5558
诺贝尔	-5559
身上的	-5560
▁我们正	-5561
变成一个	-5562
电子游戏	-5563
非常好的	-5564
▁但实际上	-5565
▁这样我们	-5566
1%	-5567
▁安	-5568
▁离	-5569
▁讲	-5570
与之	-5571
包装	-5572
四十	-5573
国民	-5574
外部	-5575
家具	-5576
幸存	-5577
床上	-5578
心中	-5579
搜寻	-5580
时常	-5581
最为	-5582
来临	-5583
毫不	-5584
水里	-5585
沃尔	-5586
翅膀	-5587
般的	-5588
良好	-5589
蔓延	-5590
要做	-5591
设定	-5592
车辆	-5593
那边	-5594
餐馆	-5595
197	-5596
▁对此	-5597
丰富的	-5598
了他的	-5599
你们能	-5600
俄比亚	-5601
发出的	-5602
周围的	-5603
围绕着	-5604
大概是	-5605
希格斯	-5606
建筑的	-5607
我正在	-5608
提供的	-5609
撒哈拉	-5610
是通过	-5611
染色体	-5612
死亡的	-5613
的理解	-5614
的网络	-5615
经济学	-5616
起来了	-5617
▁他们不	-5618
▁他们就	-5619
准备好了	-5620
纽约时报	-5621
聚在一起	-5622
需要一个	-5623
▁如果你在	-5624
之间的关系	-5625
ry	-5626
▁万	-5627
▁性	-5628
▁查	-5629
▁近	-5630
主流	-5631
亲眼	-5632
入侵	-5633
全力	-5634
写道	-5635
包围	-5636
发起	-5637
姿势	-5638
家园	-5639
对着	-5640
小型	-5641
就业	-5642
底下	-5643
想去	-5644
想说	-5645
想起	-5646
把他	-5647
暗示	-5648
激烈	-5649
烹饪	-5650
用途	-5651
短的	-5652
而不	-5653
血压	-5654
西亚	-5655
▁只能	-5656
▁孩子	-5657
▁试着	-5658
不是在	-5659
了一场	-5660
他们有	-5661
加入了	-5662
坏消息	-5663
居住在	-5664
工作中	-5665
建立了	-5666
是否能	-5667
是没有	-5668
甚至是	-5669
的意思	-5670
的看法	-5671
给自己	-5672
诸如此	-5673
NASA	-5674
几个小时	-5675
塞俄比亚	-5676
已经开始	-5677
▁你可以在	-5678
向你们展示	-5679
──	-5680
▁w	-5681
▁左	-5682
▁转	-5683
一所	-5684
为之	-5685
主导	-5686
了他	-5687
伦理	-5688
医师	-5689
卢旺	-5690
同步	-5691
含量	-5692
地带	-5693
大多	-5694
尼克	-5695
屋子	-5696
强奸	-5697
当成	-5698
情报	-5699
打造	-5700
折纸	-5701
指令	-5702
收藏	-5703
武装	-5704
界限	-5705
紧急	-5706
纯粹	-5707
给出	-5708
说道	-5709
这片	-5710
▁海洋	-5711
▁视频	-5712
▁还要	-5713
▁难道	-5714
卢旺达	-5715
家公司	-5716
把你的	-5717
斯坦福	-5718
糖尿病	-5719
网站上	-5720
重大的	-5721
▁100	-5722
▁但我想	-5723
▁我父亲	-5724
为什么不	-5725
你就可以	-5726
做了什么	-5727
就是我们	-5728
温室气体	-5729
解释一下	-5730
▁我们就能	-5731
▁这是一张	-5732
我们自己的	-5733
▁这是我们的	-5734
qu	-5735
▁买	-5736
▁电	-5737
上百	-5738
似的	-5739
低的	-5740
刚好	-5741
大大	-5742
居然	-5743
想出	-5744
意愿	-5745
截然	-5746
手中	-5747
手工	-5748
操控	-5749
教导	-5750
树林	-5751
每周	-5752
消极	-5753
特里	-5754
的电	-5755
盯着	-5756
短期	-5757
群人	-5758
者和	-5759
脑部	-5760
读书	-5761
辈子	-5762
GPS	-5763
▁参与	-5764
▁艺术	-5765
▁获得	-5766
▁这很	-5767
三个月	-5768
不存在	-5769
了一下	-5770
他们能	-5771
副作用	-5772
劳动力	-5773
在过去	-5774
大约有	-5775
很棒的	-5776
德里克	-5777
成功地	-5778
我不会	-5779
提出了	-5780
的主要	-5781
的价值	-5782
的图片	-5783
的家庭	-5784
转化为	-5785
2008	-5786
我们希望	-5787
种不同的	-5788
▁你会看到	-5789
联系在一起	-5790
▁我们就可以	-5791
上传	-5792
为例	-5793
他会	-5794
内在	-5795
内战	-5796
再来	-5797
北美	-5798
原料	-5799
受益	-5800
外线	-5801
大海	-5802
带领	-5803
引力	-5804
往下	-5805
损伤	-5806
放射	-5807
核能	-5808
比尔	-5809
添加	-5810
目光	-5811
蚁群	-5812
装备	-5813
询问	-5814
越大	-5815
那就	-5816
震撼	-5817
鼠标	-5818
▁不久	-5819
▁声音	-5820
▁它有	-5821
▁约翰	-5822
▁那天	-5823
一分钟	-5824
一无所	-5825
上百万	-5826
了什么	-5827
了起来	-5828
依赖于	-5829
勒斯坦	-5830
却没有	-5831
在上面	-5832
在他们	-5833
城市里	-5834
大问题	-5835
将他们	-5836
棒极了	-5837
没办法	-5838
的一位	-5839
的事业	-5840
的改变	-5841
的文化	-5842
的时期	-5843
都不是	-5844
面对的	-5845
▁当人们	-5846
目前为止	-5847
精神疾病	-5848
那个时候	-5849
▁我们就会	-5850
ev	-5851
▁曾	-5852
买到	-5853
分成	-5854
十二	-5855
厌恶	-5856
可怜	-5857
名声	-5858
土星	-5859
头上	-5860
奥斯	-5861
好比	-5862
子和	-5863
导师	-5864
市长	-5865
年纪	-5866
扭曲	-5867
拍的	-5868
挑选	-5869
挽救	-5870
星星	-5871
某一	-5872
棵树	-5873
永久	-5874
牛奶	-5875
瘫痪	-5876
维度	-5877
苍蝇	-5878
要么	-5879
警告	-5880
谎言	-5881
负面	-5882
运算	-5883
长达	-5884
随便	-5885
马克	-5886
50%	-5887
▁发展	-5888
▁告诉	-5889
▁比起	-5890
一会儿	-5891
做任何	-5892
医学院	-5893
原来的	-5894
大气层	-5895
并不能	-5896
当时的	-5897
很小的	-5898
所需的	-5899
打交道	-5900
无线电	-5901
的增长	-5902
艺术品	-5903
▁和我们	-5904
不一样的	-5905
相互作用	-5906
解决方法	-5907
这个国家	-5908
▁这个项目	-5909
og	-5910
ut	-5911
▁西	-5912
主动	-5913
乌干	-5914
今日	-5915
公斤	-5916
吃的	-5917
季节	-5918
室里	-5919
岗位	-5920
护理	-5921
担忧	-5922
数百	-5923
整天	-5924
火虫	-5925
画的	-5926
经理	-5927
缺少	-5928
讲讲	-5929
说出	-5930
这件	-5931
遥远	-5932
里约	-5933
马里	-5934
10%	-5935
▁位于	-5936
▁总之	-5937
▁接受	-5938
▁显示	-5939
乌干达	-5940
了许多	-5941
六个月	-5942
把我的	-5943
的物种	-5944
类动物	-5945
萤火虫	-5946
▁也没有	-5947
▁在这种	-5948
▁是不是	-5949
一个故事	-5950
全球变暖	-5951
成为一名	-5952
电子邮件	-5953
的事情是	-5954
职业生涯	-5955
▁我们只是	-5956
▁你们可以看到	-5957
Facebook	-5958
8%	-5959
IT	-5960
▁拉	-5961
▁远	-5962
不上	-5963
事的	-5964
信用	-5965
储蓄	-5966
共振	-5967
半球	-5968
品质	-5969
在乎	-5970
大战	-5971
天赋	-5972
字塔	-5973
尔德	-5974
巨型	-5975
布什	-5976
带上	-5977
常见	-5978
很高	-5979
新生	-5980
方说	-5981
晚餐	-5982
汽油	-5983
漂浮	-5984
的好	-5985
短片	-5986
碰撞	-5987
秩序	-5988
立法	-5989
米的	-5990
给它	-5991
耐心	-5992
脸书	-5993
衰老	-5994
言论	-5995
赞助	-5996
走过	-5997
跑步	-5998
银河	-5999
随意	-6000
▁Br	-6001
▁仍然	-6002
▁具有	-6003
▁我去	-6004
▁所谓	-6005
▁放在	-6006
不过是	-6007
价值的	-6008
到这个	-6009
它们在	-6010
完全是	-6011
我决定	-6012
我是个	-6013
有力的	-6014
的目的	-6015
金字塔	-6016
非洲人	-6017
额外的	-6018
2007	-6019
▁不只是	-6020
全世界的	-6021
对我们的	-6022
很重要的	-6023
的一件事	-6024
这个数字	-6025
这个过程	-6026
这意味着	-6027
麻省理工	-6028
▁爱因斯坦	-6029
▁我们都知道	-6030
▁更重要的是	-6031
▁U	-6032
▁Z	-6033
业务	-6034
你好	-6035
列表	-6036
发育	-6037
只需	-6038
唱歌	-6039
她在	-6040
妹妹	-6041
当做	-6042
情境	-6043
战士	-6044
晶体	-6045
本能	-6046
杀害	-6047
格林	-6048
派对	-6049
海水	-6050
猜想	-6051
给她	-6052
要比	-6053
议题	-6054
谋杀	-6055
逃离	-6056
通道	-6057
零件	-6058
食用	-6059
▁12	-6060
▁教育	-6061
也一样	-6062
伴随着	-6063
和社会	-6064
大西洋	-6065
失败了	-6066
小孩子	-6067
成年人	-6068
是完全	-6069
的发现	-6070
的小孩	-6071
的理论	-6072
看着我	-6073
解决了	-6074
▁看上去	-6075
▁第三个	-6076
不可避免	-6077
你自己的	-6078
几个星期	-6079
发达国家	-6080
哥伦比亚	-6081
正是我们	-6082
▁我们想要	-6083
最重要的是	-6084
▁书	-6085
▁啊	-6086
▁试	-6087
三倍	-6088
上方	-6089
丧失	-6090
也就	-6091
亿个	-6092
众所	-6093
但我	-6094
使它	-6095
公式	-6096
匿名	-6097
反抗	-6098
发言	-6099
各地	-6100
坐着	-6101
坦白	-6102
声明	-6103
姐姐	-6104
封闭	-6105
尊严	-6106
开来	-6107
必然	-6108
所见	-6109
政客	-6110
更新	-6111
有益	-6112
物的	-6113
男女	-6114
终结	-6115
要素	-6116
见面	-6117
规范	-6118
讲座	-6119
轻易	-6120
遭到	-6121
196	-6122
ine	-6123
ion	-6124
▁事情	-6125
▁从来	-6126
▁永远	-6127
▁电脑	-6128
▁让人	-6129
你怎么	-6130
决定的	-6131
学生的	-6132
小部分	-6133
并不会	-6134
我们去	-6135
我而言	-6136
我说的	-6137
排放量	-6138
摄像头	-6139
爱尔兰	-6140
现实中	-6141
质量的	-6142
这句话	-6143
▁它们在	-6144
我的朋友	-6145
神经系统	-6146
▁你也可以	-6147
▁你就可以	-6148
▁因为如果	-6149
对我们来说	-6150
ee	-6151
“。	-6152
上述	-6153
两天	-6154
之地	-6155
交叉	-6156
交给	-6157
假装	-6158
冲击	-6159
向上	-6160
听见	-6161
呼吁	-6162
地铁	-6163
处境	-6164
它为	-6165
废弃	-6166
座椅	-6167
弯曲	-6168
当下	-6169
恐怕	-6170
旧的	-6171
检验	-6172
水源	-6173
潜在	-6174
理所	-6175
监测	-6176
蘑菇	-6177
装饰	-6178
议会	-6179
财产	-6180
路线	-6181
车上	-6182
阐述	-6183
青蛙	-6184
预料	-6185
▁但那	-6186
▁保护	-6187
▁大卫	-6188
▁控制	-6189
▁选择	-6190
一个新	-6191
一个月	-6192
从这个	-6193
做出的	-6194
共同的	-6195
取得了	-6196
坐下来	-6197
导致了	-6198
我刚才	-6199
的人数	-6200
的人物	-6201
真正地	-6202
研究生	-6203
细胞的	-6204
让它们	-6205
语言的	-6206
▁他们将	-6207
▁但同时	-6208
▁发生在	-6209
的时间里	-6210
▁他们认为	-6211
▁我们通过	-6212
不同的方式	-6213
3%	-6214
▁便	-6215
与我	-6216
之心	-6217
促使	-6218
俱乐	-6219
入了	-6220
场合	-6221
坏事	-6222
安慰	-6223
对付	-6224
强度	-6225
指示	-6226
放松	-6227
旅途	-6228
明智	-6229
未知	-6230
构想	-6231
欧盟	-6232
死的	-6233
深度	-6234
肥皂	-6235
脸上	-6236
花在	-6237
虐待	-6238
误解	-6239
课题	-6240
阴影	-6241
ent	-6242
han	-6243
▁做出	-6244
▁变得	-6245
▁影响	-6246
▁持续	-6247
▁面对	-6248
一切都	-6249
你已经	-6250
你现在	-6251
历史的	-6252
在非洲	-6253
复杂性	-6254
将它们	-6255
市场的	-6256
建立在	-6257
很喜欢	-6258
托马斯	-6259
无人机	-6260
涉及到	-6261
的一次	-6262
的细胞	-6263
社会中	-6264
Tube	-6265
▁和其他	-6266
▁是什么	-6267
▁计算机	-6268
这些都是	-6269
▁Chris	-6270
YouTube	-6271
29	-6272
▁单	-6273
▁杰	-6274
一组	-6275
中产	-6276
二的	-6277
出口	-6278
医药	-6279
对它	-6280
对手	-6281
市民	-6282
干嘛	-6283
意志	-6284
战场	-6285
曲子	-6286
替换	-6287
最早	-6288
每秒	-6289
的总	-6290
直线	-6291
科研	-6292
股票	-6293
▁再次	-6294
▁并非	-6295
▁建造	-6296
▁形成	-6297
▁很好	-6298
▁这幅	-6299
之一是	-6300
人们会	-6301
以上的	-6302
众所周	-6303
你是否	-6304
制造的	-6305
只是个	-6306
右边的	-6307
大概有	-6308
小女孩	-6309
层面上	-6310
的唯一	-6311
的疾病	-6312
的选择	-6313
的风险	-6314
目的是	-6315
第二天	-6316
解释了	-6317
认为的	-6318
面临着	-6319
▁你不会	-6320
▁它们会	-6321
▁那我们	-6322
令人兴奋	-6323
再生能源	-6324
就是这个	-6325
得到一个	-6326
我不得不	-6327
整个世界	-6328
无处不在	-6329
的方式来	-6330
结合起来	-6331
▁谢谢你们	-6332
▁这个故事	-6333
前所未有的	-6334
28	-6335
▁连	-6336
与你	-6337
业的	-6338
共识	-6339
关节	-6340
十字	-6341
危害	-6342
历山	-6343
回头	-6344
塞尔	-6345
射线	-6346
性格	-6347
性能	-6348
我只	-6349
把手	-6350
搜集	-6351
斯科	-6352
早就	-6353
权的	-6354
步行	-6355
消防	-6356
滑雪	-6357
特兰	-6358
玛丽	-6359
种群	-6360
竞赛	-6361
竞选	-6362
羞耻	-6363
而非	-6364
躺在	-6365
迁移	-6366
迹象	-6367
遇见	-6368
键盘	-6369
雌性	-6370
飓风	-6371
麻醉	-6372
ohn	-6373
▁和我	-6374
▁此时	-6375
▁真是	-6376
▁自由	-6377
一般的	-6378
了一条	-6379
再一次	-6380
写了一	-6381
受到了	-6382
可以让	-6383
大型的	-6384
尝试着	-6385
工作了	-6386
很高兴	-6387
我非常	-6388
提出的	-6389
来源于	-6390
每天都	-6391
的功能	-6392
的游戏	-6393
相似的	-6394
超过了	-6395
还不够	-6396
追溯到	-6397
项目的	-6398
▁但是他	-6399
▁你应该	-6400
▁意味着	-6401
▁我们被	-6402
▁我并不	-6403
▁这让我	-6404
医疗保健	-6405
完全不同	-6406
我们无法	-6407
机器人的	-6408
科学研究	-6409
这种方法	-6410
高尔夫球	-6411
▁他们需要	-6412
▁但我认为	-6413
▁但是现在	-6414
▁另一方面	-6415
yn	-6416
▁各	-6417
不受	-6418
乳房	-6419
五千	-6420
优先	-6421
冬天	-6422
加纳	-6423
助于	-6424
十五	-6425
协助	-6426
单元	-6427
参考	-6428
叔叔	-6429
叫它	-6430
号码	-6431
周边	-6432
善于	-6433
四周	-6434
回复	-6435
大声	-6436
夸张	-6437
密切	-6438
忍受	-6439
戈尔	-6440
我把	-6441
排除	-6442
效益	-6443
是以	-6444
更深	-6445
桌上	-6446
正式	-6447
殖民	-6448
牛津	-6449
痴呆	-6450
礼拜	-6451
线索	-6452
账户	-6453
辆车	-6454
避孕	-6455
队员	-6456
高级	-6457
▁以前	-6458
▁但当	-6459
▁国际	-6460
▁它就	-6461
▁老师	-6462
▁观察	-6463
▁那样	-6464
两个人	-6465
做出了	-6466
可以从	-6467
失败的	-6468
或者说	-6469
抑郁症	-6470
数量的	-6471
最近的	-6472
的这些	-6473
第二次	-6474
过去了	-6475
这方面	-6476
那些人	-6477
那些在	-6478
▁可能会	-6479
▁听起来	-6480
▁大家都	-6481
▁当然了	-6482
▁我感到	-6483
▁把它们	-6484
▁现在你	-6485
▁真正的	-6486
成百上千	-6487
放在一起	-6488
更多的人	-6489
正在发生	-6490
看起来很	-6491
▁你能看到	-6492
▁我不得不	-6493
更重要的是	-6494
",	-6495
▁走	-6496
万年	-6497
三明	-6498
事儿	-6499
仍在	-6500
以此	-6501
体积	-6502
做着	-6503
冠军	-6504
到我	-6505
包容	-6506
垂直	-6507
实用	-6508
寄生	-6509
尚未	-6510
尼尔	-6511
已有	-6512
当的	-6513
性地	-6514
战胜	-6515
斯拉	-6516
景观	-6517
沉浸	-6518
泡沫	-6519
热衷	-6520
白天	-6521
盲人	-6522
看得	-6523
短暂	-6524
突变	-6525
读到	-6526
追寻	-6527
问你	-6528
震动	-6529
顾问	-6530
预言	-6531
▁基因	-6532
▁现代	-6533
▁要是	-6534
▁让你	-6535
▁记录	-6536
▁都能	-6537
之后的	-6538
你应该	-6539
你没有	-6540
内心的	-6541
将会是	-6542
开始在	-6543
开放的	-6544
怎么说	-6545
我们又	-6546
我当时	-6547
的人都	-6548
的帮助	-6549
的视频	-6550
看这个	-6551
自己是	-6552
达到了	-6553
▁一开始	-6554
▁但这是	-6555
▁更多的	-6556
▁科学家	-6557
▁结果是	-6558
▁过去的	-6559
也是如此	-6560
巴勒斯坦	-6561
很感兴趣	-6562
的原因是	-6563
看到一个	-6564
这个系统	-6565
▁他们没有	-6566
▁我有一个	-6567
做到这一点	-6568
▁如果我们能	-6569
▁我们不知道	-6570
▁飞	-6571
一间	-6572
不大	-6573
中去	-6574
买了	-6575
代人	-6576
供给	-6577
全面	-6578
力学	-6579
压缩	-6580
及其	-6581
双方	-6582
发掘	-6583
味的	-6584
命令	-6585
回归	-6586
大厦	-6587
天哪	-6588
局的	-6589
彼得	-6590
拿起	-6591
教练	-6592
架构	-6593
柏林	-6594
校园	-6595
楼梯	-6596
汉堡	-6597
测序	-6598
滥用	-6599
灰质	-6600
点儿	-6601
生殖	-6602
病菌	-6603
知觉	-6604
讯息	-6605
边境	-6606
那一	-6607
里达	-6608
颠覆	-6609
40%	-6610
700	-6611
▁公司	-6612
▁如同	-6613
▁很难	-6614
▁有了	-6615
▁欧洲	-6616
一本书	-6617
三明治	-6618
了解的	-6619
人口的	-6620
反应堆	-6621
可以说	-6622
可能有	-6623
回来了	-6624
地图上	-6625
奇妙的	-6626
就是我	-6627
很清楚	-6628
想一想	-6629
想法是	-6630
是真的	-6631
理性的	-6632
理查德	-6633
的办法	-6634
的发生	-6635
的答案	-6636
磁共振	-6637
获得的	-6638
行不通	-6639
领导力	-6640
飞行员	-6641
▁他们被	-6642
▁其他的	-6643
▁并且在	-6644
▁我想说	-6645
▁我还是	-6646
▁那是在	-6647
地球上的	-6648
它是一个	-6649
开始思考	-6650
这么做了	-6651
▁另外一个	-6652
▁所以现在	-6653
▁没有任何	-6654
HI	-6655
pp	-6656
▁Y	-6657
▁后	-6658
▁得	-6659
不及	-6660
不如	-6661
介入	-6662
修建	-6663
修改	-6664
催产	-6665
克拉	-6666
减轻	-6667
初期	-6668
卡片	-6669
反而	-6670
周末	-6671
四种	-6672
奶奶	-6673
好几	-6674
孤儿	-6675
官方	-6676
帮你	-6677
思路	-6678
提问	-6679
摩托	-6680
牧师	-6681
生育	-6682
由此	-6683
男士	-6684
硅谷	-6685
脑子	-6686
要花	-6687
贩卖	-6688
车里	-6689
错觉	-6690
阴道	-6691
陆地	-6692
顶部	-6693
all	-6694
▁你不	-6695
▁民主	-6696
▁让它	-6697
什么的	-6698
处理器	-6699
好奇心	-6700
好莱坞	-6701
对我的	-6702
市中心	-6703
我想到	-6704
暗物质	-6705
最后一	-6706
玩意儿	-6707
环境下	-6708
用一种	-6709
的关键	-6710
结果是	-6711
而言之	-6712
觉得这	-6713
还需要	-6714
▁人类的	-6715
▁因为她	-6716
▁我们先	-6717
▁答案是	-6718
为什么会	-6719
了一系列	-6720
二十世纪	-6721
公共空间	-6722
另一方面	-6723
应用程序	-6724
至关重要	-6725
32	-6726
ro	-6727
ug	-6728
▁个	-6729
▁画	-6730
不住	-6731
两周	-6732
了吧	-6733
产量	-6734
代的	-6735
偶尔	-6736
到你	-6737
否认	-6738
底层	-6739
延长	-6740
开采	-6741
引领	-6742
慷慨	-6743
所作	-6744
提琴	-6745
揭示	-6746
暂时	-6747
海滩	-6748
电线	-6749
的有	-6750
相处	-6751
硬币	-6752
社群	-6753
西部	-6754
鞋子	-6755
风景	-6756
ind	-6757
▁但也	-6758
▁学校	-6759
▁我跟	-6760
他们也	-6761
催产素	-6762
孟加拉	-6763
想办法	-6764
服务器	-6765
的机器	-6766
的需求	-6767
的音乐	-6768
种类的	-6769
自己在	-6770
被称作	-6771
重要性	-6772
集中在	-6773
2009	-6774
▁And	-6775
▁在他们	-6776
▁然后把	-6777
▁这些都	-6778
举个例子	-6779
交通工具	-6780
我的演讲	-6781
社交媒体	-6782
这件事情	-6783
▁在我看来	-6784
▁如果没有	-6785
成千上万的	-6786
PA	-6787
一头	-6788
二战	-6789
候选	-6790
几何	-6791
北京	-6792
史上	-6793
吃了	-6794
吃饭	-6795
名单	-6796
因子	-6797
图画	-6798
复活	-6799
头的	-6800
姥鲨	-6801
尊敬	-6802
布拉	-6803
延续	-6804
强制	-6805
感恩	-6806
是指	-6807
没能	-6808
注册	-6809
潜能	-6810
特技	-6811
疯了	-6812
盖茨	-6813
看成	-6814
能为	-6815
航行	-6816
节约	-6817
西兰	-6818
要把	-6819
词语	-6820
这块	-6821
逮捕	-6822
高达	-6823
800	-6824
ran	-6825
▁保持	-6826
▁信息	-6827
▁制作	-6828
▁各位	-6829
▁媒体	-6830
▁既然	-6831
▁汽车	-6832
▁纽约	-6833
他们都	-6834
使用它	-6835
在他的	-6836
天然气	-6837
学习的	-6838
实现了	-6839
帮我们	-6840
很奇怪	-6841
接受的	-6842
方式来	-6843
最多的	-6844
有多大	-6845
的一生	-6846
的社区	-6847
表现出	-6848
非政府	-6849
▁DNA	-6850
▁不管是	-6851
▁仅仅是	-6852
▁他们想	-6853
▁是如何	-6854
▁机器人	-6855
▁这就像	-6856
任何时候	-6857
很有可能	-6858
我的生活	-6859
所带来的	-6860
拉丁美洲	-6861
这个话题	-6862
这是一种	-6863
▁作为一名	-6864
▁我们称之为	-6865
St	-6866
··	-6867
▁取	-6868
▁地	-6869
▁早	-6870
▁现	-6871
▁超	-6872
仿生	-6873
会上	-6874
卓越	-6875
印第	-6876
古怪	-6877
哥哥	-6878
塔利	-6879
察觉	-6880
尸体	-6881
市的	-6882
幼儿	-6883
慈悲	-6884
投影	-6885
方形	-6886
无穷	-6887
普及	-6888
智力	-6889
次的	-6890
正面	-6891
涂鸦	-6892
渠道	-6893
演唱	-6894
热量	-6895
简化	-6896
纸上	-6897
线路	-6898
结局	-6899
肉眼	-6900
膝盖	-6901
节省	-6902
荣誉	-6903
补充	-6904
议员	-6905
设法	-6906
访谈	-6907
诉讼	-6908
辅助	-6909
首席	-6910
120	-6911
amp	-6912
▁一只	-6913
▁但她	-6914
▁她是	-6915
▁有的	-6916
▁针对	-6917
不一定	-6918
不愿意	-6919
也不能	-6920
人心的	-6921
从这里	-6922
做不到	-6923
具体的	-6924
包含了	-6925
吸引力	-6926
太好了	-6927
女人的	-6928
年时间	-6929
弄明白	-6930
我只是	-6931
我父亲	-6932
数字化	-6933
新技术	-6934
最高的	-6935
条件下	-6936
每小时	-6937
犹太人	-6938
的美国	-6939
的那样	-6940
罗里达	-6941
舞台上	-6942
让这些	-6943
设计了	-6944
长大的	-6945
问他们	-6946
▁他们对	-6947
▁他们能	-6948
▁另一种	-6949
▁许多人	-6950
▁那里的	-6951
不幸的是	-6952
你会看到	-6953
全球性的	-6954
唯一一个	-6955
就是这么	-6956
看起来像	-6957
精神分裂	-6958
非常有趣	-6959
▁因为这个	-6960
▁所以我就	-6961
埃塞俄比亚	-6962
我们的大脑	-6963
47	-6964
▁约	-6965
不清	-6966
之路	-6967
乐团	-6968
也被	-6969
亲自	-6970
从没	-6971
低于	-6972
卡通	-6973
启示	-6974
培育	-6975
奋斗	-6976
当初	-6977
总值	-6978
拿走	-6979
新兴	-6980
暴露	-6981
极大	-6982
甲烷	-6983
监禁	-6984
立场	-6985
组建	-6986
终极	-6987
自私	-6988
通往	-6989
造就	-6990
雨水	-6991
风能	-6992
ert	-6993
ica	-6994
▁他就	-6995
▁代表	-6996
▁允许	-6997
▁基本	-6998
▁实际	-6999
▁当今	-7000
▁我爱	-7001
▁某些	-7002
▁说到	-7003
为基础	-7004
人们对	-7005
从来没	-7006
共同点	-7007
关键的	-7008
印第安	-7009
在很多	-7010
存在了	-7011
我想说	-7012
投资者	-7013
拥有了	-7014
更高的	-7015
来到了	-7016
来这里	-7017
核武器	-7018
的女人	-7019
的现象	-7020
经历的	-7021
给人们	-7022
苏格兰	-7023
见过的	-7024
跟我们	-7025
转移到	-7026
这个小	-7027
里面的	-7028
际关系	-7029
▁但它们	-7030
▁你看到	-7031
▁可能是	-7032
▁和一个	-7033
▁地球上	-7034
▁这并不	-7035
一个国家	-7036
做了一些	-7037
其他国家	-7038
各种各样	-7039
在过去的	-7040
工作人员	-7041
我们看到	-7042
所有东西	-7043
治疗方法	-7044
现在已经	-7045
理所当然	-7046
电视节目	-7047
▁这样一来	-7048
▁所以如果你	-7049
Twitter	-7050
▁哈	-7051
▁按	-7052
▁进	-7053
不论	-7054
中被	-7055
之旅	-7056
乘客	-7057
克的	-7058
全是	-7059
八十	-7060
分别	-7061
创办	-7062
前提	-7063
前景	-7064
向下	-7065
图上	-7066
好多	-7067
封信	-7068
封面	-7069
峡谷	-7070
得上	-7071
持有	-7072
提及	-7073
放置	-7074
文献	-7075
术语	-7076
氏度	-7077
深远	-7078
痕迹	-7079
称呼	-7080
简洁	-7081
粗糙	-7082
粪便	-7083
维亚	-7084
草原	-7085
这台	-7086
适用	-7087
通用	-7088
重力	-7089
阶层	-7090
har	-7091
▁女人	-7092
▁每当	-7093
▁注意	-7094
▁等等	-7095
▁达到	-7096
事实是	-7097
会产生	-7098
关注的	-7099
奥巴马	-7100
它们会	-7101
我不是	-7102
搞清楚	-7103
更喜欢	-7104
有用的	-7105
用它来	-7106
的价格	-7107
的开始	-7108
的科技	-7109
直升机	-7110
行为的	-7111
见到了	-7112
转变为	-7113
银河系	-7114
1960	-7115
4000	-7116
▁不需要	-7117
▁如果有	-7118
▁而且它	-7119
外科医生	-7120
对于我们	-7121
怎么可能	-7122
我是一个	-7123
显而易见	-7124
每个人的	-7125
生活中的	-7126
的大部分	-7127
站在这里	-7128
维基百科	-7129
该怎么办	-7130
野生动物	-7131
▁可以看到	-7132
▁幸运的是	-7133
▁我并不是	-7134
▁我第一次	-7135
▁所以这个	-7136
一支	-7137
两位	-7138
中所	-7139
你从	-7140
同学	-7141
大厅	-7142
始于	-7143
宝贝	-7144
审判	-7145
害的	-7146
寒冷	-7147
就算	-7148
岛上	-7149
廉价	-7150
异的	-7151
录制	-7152
得起	-7153
怀特	-7154
恶心	-7155
我曾	-7156
排序	-7157
方程	-7158
明星	-7159
有毒	-7160
橄榄	-7161
气泡	-7162
的车	-7163
行驶	-7164
语音	-7165
这也	-7166
零和	-7167
马丁	-7168
250	-7169
▁学生	-7170
▁比尔	-7171
▁理解	-7172
▁语言	-7173
▁这只	-7174
一半的	-7175
不仅是	-7176
两件事	-7177
也同样	-7178
俱乐部	-7179
停车场	-7180
固定的	-7181
埃博拉	-7182
大爆炸	-7183
帮助我	-7184
我真的	-7185
深刻的	-7186
独一无	-7187
能够在	-7188
表面上	-7189
马拉松	-7190
黄色的	-7191
avid	-7192
▁不同的	-7193
▁不知道	-7194
▁人们在	-7195
▁你也许	-7196
▁我们再	-7197
▁然后是	-7198
一系列的	-7199
兄弟姐妹	-7200
工业革命	-7201
我们人类	-7202
的世界里	-7203
的孩子们	-7204
这些照片	-7205
这是什么	-7206
采取行动	-7207
是一个非常	-7208
▁我们可以看到	-7209
▁m	-7210
▁找	-7211
三天	-7212
不着	-7213
业余	-7214
他就	-7215
兰经	-7216
养殖	-7217
冰箱	-7218
卡尔	-7219
可不	-7220
命名	-7221
射击	-7222
尔特	-7223
带给	-7224
引人	-7225
恶劣	-7226
教科	-7227
文本	-7228
旅馆	-7229
显现	-7230
板球	-7231
死刑	-7232
比我	-7233
沼泽	-7234
滑板	-7235
狮子	-7236
约束	-7237
编织	-7238
荒谬	-7239
蛋糕	-7240
觅食	-7241
转动	-7242
输出	-7243
返回	-7244
选项	-7245
降到	-7246
Mar	-7247
ers	-7248
▁St	-7249
▁他被	-7250
▁坐在	-7251
▁它被	-7252
▁我猜	-7253
▁照片	-7254
▁经常	-7255
▁连接	-7256
▁马克	-7257
你就能	-7258
区域的	-7259
可以是	-7260
在那个	-7261
建立起	-7262
战争的	-7263
数据的	-7264
显示了	-7265
最初的	-7266
白色的	-7267
称它为	-7268
简单地	-7269
结束后	-7270
自由的	-7271
英格兰	-7272
要做的	-7273
食物链	-7274
▁一个人	-7275
▁下一个	-7276
▁只需要	-7277
▁最大的	-7278
发生的事	-7279
我们想要	-7280
研究人员	-7281
▁就是这个	-7282
到底是什么	-7283
CA	-7284
aw	-7285
▁–	-7286
▁古	-7287
」。	-7288
不堪	-7289
不已	-7290
不良	-7291
光的	-7292
剑桥	-7293
受过	-7294
坐下	-7295
失业	-7296
女子	-7297
对应	-7298
干旱	-7299
微博	-7300
总会	-7301
捕捞	-7302
提示	-7303
明年	-7304
有很	-7305
此类	-7306
洗衣	-7307
温和	-7308
理智	-7309
电流	-7310
留言	-7311
看似	-7312
真空	-7313
空白	-7314
耶稣	-7315
肤色	-7316
脊椎	-7317
营利	-7318
蒙特	-7319
融化	-7320
转折	-7321
遥控	-7322
里克	-7323
问道	-7324
音符	-7325
马达	-7326
ack	-7327
▁一边	-7328
▁几年	-7329
▁家庭	-7330
▁往往	-7331
▁按照	-7332
▁是从	-7333
▁确保	-7334
▁记住	-7335
▁运用	-7336
两个月	-7337
你想要	-7338
全球性	-7339
出色的	-7340
去了解	-7341
发现在	-7342
小行星	-7343
就有了	-7344
工作室	-7345
引起了	-7346
我去了	-7347
故事的	-7348
是否有	-7349
机构的	-7350
来说是	-7351
演讲者	-7352
理解的	-7353
的决定	-7354
的几率	-7355
网络的	-7356
角度看	-7357
这些是	-7358
都是在	-7359
▁他们还	-7360
▁女士们	-7361
▁很显然	-7362
▁而那些	-7363
▁这其实	-7364
▁这正是	-7365
刚刚开始	-7366
到另一个	-7367
墨西哥湾	-7368
我的同事	-7369
生产总值	-7370
的机器人	-7371
▁这些东西	-7372
▁这也是为什么	-7373
48	-7374
▁伊	-7375
▁心	-7376
▁贝	-7377
上说	-7378
丛林	-7379
主人	-7380
书的	-7381
事务	-7382
亚当	-7383
分数	-7384
叙述	-7385
可视	-7386
听听	-7387
器的	-7388
在哪	-7389
在家	-7390
声称	-7391
家们	-7392
对其	-7393
带回	-7394
应付	-7395
恶化	-7396
托邦	-7397
损害	-7398
搞笑	-7399
支出	-7400
更少	-7401
残酷	-7402
泡泡	-7403
海地	-7404
电极	-7405
画画	-7406
磁场	-7407
肩膀	-7408
要用	-7409
解剖	-7410
触及	-7411
诱惑	-7412
跨国	-7413
路径	-7414
钥匙	-7415
骨架	-7416
195	-7417
▁25	-7418
▁提高	-7419
▁神经	-7420
▁绝对	-7421
下一步	-7422
了一项	-7423
你们都	-7424
制造出	-7425
十年里	-7426
完全不	-7427
就在于	-7428
普通人	-7429
没问题	-7430
癌细胞	-7431
的女孩	-7432
的家伙	-7433
的理念	-7434
的电影	-7435
的知识	-7436
的能源	-7437
经济的	-7438
联系的	-7439
认为这	-7440
讲的是	-7441
这两种	-7442
麦克风	-7443
▁the	-7444
▁因为那	-7445
▁我是个	-7446
▁生活在	-7447
▁让人们	-7448
▁这件事	-7449
他们没有	-7450
你知道的	-7451
做得更好	-7452
国家安全	-7453
在我看来	-7454
大部分人	-7455
宗教信仰	-7456
最基本的	-7457
有更多的	-7458
有这样的	-7459
组成部分	-7460
给了我们	-7461
▁所以如果	-7462
▁所有人都	-7463
▁还有一些	-7464
▁最重要的是	-7465
▁如果我们可以	-7466
-3	-7467
In	-7468
▁传	-7469
▁弗	-7470
▁恩	-7471
一层	-7472
两条	-7473
举动	-7474
也要	-7475
书中	-7476
交响	-7477
付诸	-7478
作曲	-7479
倾斜	-7480
兰克	-7481
写下	-7482
出自	-7483
利于	-7484
加强	-7485
十万	-7486
又会	-7487
和她	-7488
圆形	-7489
多德	-7490
妥协	-7491
孩童	-7492
宣称	-7493
就此	-7494
尽力	-7495
岛屿	-7496
帐篷	-7497
庞大	-7498
废物	-7499
征服	-7500
患上	-7501
抵达	-7502
拇指	-7503
接到	-7504
摩尔	-7505
故意	-7506
无需	-7507
既然	-7508
早已	-7509
桥梁	-7510
棉花	-7511
模块	-7512
演说	-7513
焦点	-7514
用作	-7515
用品	-7516
畏惧	-7517
相遇	-7518
穿上	-7519
经费	-7520
肝脏	-7521
藏在	-7522
蟑螂	-7523
行道	-7524
过头	-7525
遗产	-7526
首要	-7527
▁努力	-7528
▁建筑	-7529
▁当地	-7530
▁我为	-7531
▁西方	-7532
不好的	-7533
中国人	-7534
会不会	-7535
低成本	-7536
你觉得	-7537
原始的	-7538
可爱的	-7539
外星人	-7540
应用到	-7541
总是在	-7542
我们正	-7543
把所有	-7544
提一下	-7545
放弃了	-7546
最新的	-7547
有效地	-7548
此之外	-7549
没有被	-7550
生产力	-7551
癌症的	-7552
的儿童	-7553
的学校	-7554
的教育	-7555
的男人	-7556
空间的	-7557
脑海中	-7558
高科技	-7559
▁199	-7560
▁互联网	-7561
▁来自于	-7562
一无所知	-7563
与众不同	-7564
我在这里	-7565
拥有一个	-7566
解决办法	-7567
谢谢大家	-7568
这个东西	-7569
这个地方	-7570
erson	-7571
▁以及其他	-7572
▁我一直在	-7573
▁我们将会	-7574
▁我认为这	-7575
可再生能源	-7576
▁让我们看看	-7577
▁顺便说一下	-7578
2%	-7579
33	-7580
▁七	-7581
▁生	-7582
一对	-7583
不动	-7584
专辑	-7585
丢失	-7586
乌鸦	-7587
人道	-7588
何处	-7589
分为	-7590
加以	-7591
动手	-7592
发行	-7593
唱片	-7594
城镇	-7595
多大	-7596
够了	-7597
太太	-7598
夫妇	-7599
容忍	-7600
帽子	-7601
很像	-7602
必需	-7603
想让	-7604
成效	-7605
戴着	-7606
抉择	-7607
指责	-7608
排名	-7609
提前	-7610
斯顿	-7611
更像	-7612
水果	-7613
登上	-7614
笔钱	-7615
线条	-7616
细微	-7617
聚焦	-7618
车库	-7619
逆转	-7620
遵守	-7621
都市	-7622
问了	-7623
频繁	-7624
70%	-7625
▁共同	-7626
▁加上	-7627
▁动物	-7628
▁身体	-7629
一点儿	-7630
也知道	-7631
了一种	-7632
变化的	-7633
因特网	-7634
在英国	-7635
就已经	-7636
帮助你	-7637
年代的	-7638
有一位	-7639
来进行	-7640
目的地	-7641
观察到	-7642
▁一方面	-7643
▁之所以	-7644
▁你就能	-7645
▁再一次	-7646
▁在那个	-7647
▁突然间	-7648
▁这对于	-7649
从根本上	-7650
变得更好	-7651
合作伙伴	-7652
是怎样的	-7653
统计数据	-7654
这样一种	-7655
这样的事	-7656
远的地方	-7657
▁它是一种	-7658
▁我们怎么	-7659
▁而是因为	-7660
▁还有很多	-7661
▁这个世界	-7662
2.	-7663
iv	-7664
ne	-7665
▁s	-7666
▁八	-7667
▁卖	-7668
▁米	-7669
▁美	-7670
▁黑	-7671
一堆	-7672
一模	-7673
一面	-7674
不信	-7675
不得	-7676
临时	-7677
举行	-7678
人为	-7679
仍旧	-7680
从我	-7681
你对	-7682
借口	-7683
加快	-7684
十个	-7685
升级	-7686
发了	-7687
发的	-7688
同伴	-7689
听着	-7690
国防	-7691
多次	-7692
大胆	-7693
巴胺	-7694
弟弟	-7695
感的	-7696
愿景	-7697
我没	-7698
我用	-7699
挂在	-7700
授权	-7701
探究	-7702
接种	-7703
推荐	-7704
无可	-7705
明的	-7706
水母	-7707
消化	-7708
灵长	-7709
状的	-7710
率的	-7711
疫情	-7712
病例	-7713
盈利	-7714
等同	-7715
累积	-7716
被迫	-7717
路易	-7718
逐步	-7719
那条	-7720
防御	-7721
随后	-7722
,20	-7723
▁为此	-7724
▁也能	-7725
▁到处	-7726
▁布鲁	-7727
▁当它	-7728
▁环境	-7729
▁简直	-7730
▁要求	-7731
为一个	-7732
共和党	-7733
参加了	-7734
合作的	-7735
和你的	-7736
在家里	-7737
如此之	-7738
宇航员	-7739
已经是	-7740
希望的	-7741
开始做	-7742
成长的	-7743
提到了	-7744
是多少	-7745
是对的	-7746
玩游戏	-7747
现实的	-7748
男人的	-7749
的成功	-7750
的材料	-7751
科学和	-7752
积极的	-7753
第一步	-7754
能不能	-7755
这样说	-7756
这里有	-7757
青春期	-7758
▁好消息	-7759
▁就是说	-7760
▁我们只	-7761
▁然后就	-7762
▁现在是	-7763
一件事情	-7764
什么地方	-7765
就像这样	-7766
所有人的	-7767
有史以来	-7768
这个概念	-7769
这些孩子	-7770
▁我们相信	-7771
▁我在这里	-7772
▁在接下来的	-7773
,3	-7774
1,	-7775
▁教	-7776
▁红	-7777
▁达	-7778
。)	-7779
一篇	-7780
冰层	-7781
分支	-7782
发作	-7783
右手	-7784
善良	-7785
在意	-7786
地址	-7787
实地	-7788
实行	-7789
小学	-7790
总体	-7791
感动	-7792
摇滚	-7793
放下	-7794
救助	-7795
智商	-7796
机的	-7797
杀了	-7798
来回	-7799
法的	-7800
洗手	-7801
清醒	-7802
渔业	-7803
结核	-7804
置于	-7805
致的	-7806
船上	-7807
论点	-7808
诸如	-7809
货物	-7810
赢了	-7811
走廊	-7812
越南	-7813
远程	-7814
郊区	-7815
高于	-7816
▁KB	-7817
▁与其	-7818
▁发生	-7819
▁电子	-7820
▁至于	-7821
一定的	-7822
产品的	-7823
从来不	-7824
你不会	-7825
准确的	-7826
出生的	-7827
到现在	-7828
历山大	-7829
可以把	-7830
回答说	-7831
感到很	-7832
接触到	-7833
文化中	-7834
是来自	-7835
灰质炎	-7836
熟悉的	-7837
百万人	-7838
的一段	-7839
的不是	-7840
看到它	-7841
程度的	-7842
脑子里	-7843
自我的	-7844
花费了	-7845
这一个	-7846
▁你怎么	-7847
▁即使是	-7848
▁在座的	-7849
▁它不是	-7850
▁我正在	-7851
▁有没有	-7852
一个朋友	-7853
中的一些	-7854
之一就是	-7855
你的身体	-7856
参与其中	-7857
展示一下	-7858
我们今天	-7859
所需要的	-7860
角度来看	-7861
诸如此类	-7862
▁但是这些	-7863
脊髓灰质炎	-7864
问题的答案	-7865
非常简单的	-7866
BM	-7867
▁:	-7868
▁麦	-7869
万物	-7870
两千	-7871
人才	-7872
从头	-7873
分割	-7874
切的	-7875
制药	-7876
加仑	-7877
又有	-7878
品种	-7879
在上	-7880
坏的	-7881
复兴	-7882
外国	-7883
奇的	-7884
客观	-7885
尺度	-7886
崛起	-7887
广阔	-7888
当前	-7889
微小	-7890
无神	-7891
是吗	-7892
气的	-7893
泄漏	-7894
注视	-7895
牛顿	-7896
球员	-7897
直径	-7898
船只	-7899
要是	-7900
财务	-7901
足的	-7902
足迹	-7903
过后	-7904
造出	-7905
重塑	-7906
铁路	-7907
预计	-7908
鸿沟	-7909
ley	-7910
▁为何	-7911
▁人口	-7912
▁哪怕	-7913
▁左边	-7914
▁数学	-7915
个世纪	-7916
了出来	-7917
什么样	-7918
从哪里	-7919
十年前	-7920
发明的	-7921
名字是	-7922
向他们	-7923
和其它	-7924
实际的	-7925
对那些	-7926
就好像	-7927
工程学	-7928
建立的	-7929
方法是	-7930
昂贵的	-7931
是一只	-7932
暴力的	-7933
有人说	-7934
样东西	-7935
相应的	-7936
给你的	-7937
被发现	-7938
要知道	-7939
解决的	-7940
道德的	-7941
附近的	-7942
2006	-7943
▁Mar	-7944
▁事实是	-7945
▁但不是	-7946
▁但其实	-7947
▁但这个	-7948
▁差不多	-7949
▁我看着	-7950
▁这都是	-7951
▁那是我	-7952
做了很多	-7953
做什么呢	-7954
利用这些	-7955
到我们的	-7956
大规模的	-7957
怎么做呢	-7958
有不同的	-7959
知道如何	-7960
还有一些	-7961
这么一个	-7962
Chris	-7963
▁你知道吗	-7964
▁就是我们	-7965
▁我们一直	-7966
在座的各位	-7967
我们就可以	-7968
em	-7969
▁某	-7970
一道	-7971
不然	-7972
中文	-7973
乐高	-7974
人均	-7975
优化	-7976
充斥	-7977
党派	-7978
卡罗	-7979
后悔	-7980
天使	-7981
头痛	-7982
姑娘	-7983
对他	-7984
就越	-7985
带走	-7986
弹奏	-7987
当代	-7988
懂的	-7989
批准	-7990
推出	-7991
最低	-7992
朝着	-7993
束缚	-7994
毫米	-7995
爷爷	-7996
等到	-7997
线的	-7998
职责	-7999
肖像	-8000
花钱	-8001
说不	-8002
说起	-8003
谨慎	-8004
起到	-8005
过时	-8006
难度	-8007
▁60	-8008
▁儿童	-8009
▁完成	-8010
▁我真	-8011
▁某种	-8012
▁还能	-8013
一起来	-8014
下面的	-8015
个月后	-8016
为你们	-8017
人生的	-8018
你认为	-8019
到那里	-8020
在全球	-8021
在哪儿	-8022
塔利班	-8023
尤其是	-8024
年开始	-8025
很好地	-8026
战争中	-8027
构成的	-8028
流行病	-8029
纪录片	-8030
能找到	-8031
表面的	-8032
那些有	-8033
长期的	-8034
降低了	-8035
▁于是他	-8036
▁他是个	-8037
▁我以为	-8038
▁我们和	-8039
▁我们说	-8040
▁我总是	-8041
▁这使得	-8042
一个孩子	-8043
一样东西	-8044
临床试验	-8045
佛罗里达	-8046
使用这些	-8047
做的一切	-8048
其他人的	-8049
参与进来	-8050
怎样才能	-8051
无论如何	-8052
让我们的	-8053
这部电影	-8054
▁他们发现	-8055
▁所以这是	-8056
解决的问题	-8057
oy	-8058
“,	-8059
▁日	-8060
一路	-8061
不该	-8062
中来	-8063
举起	-8064
产出	-8065
人会	-8066
亿的	-8067
从前	-8068
以南	-8069
假肢	-8070
冷却	-8071
出色	-8072
切割	-8073
制品	-8074
加热	-8075
华尔	-8076
协同	-8077
变了	-8078
名词	-8079
和水	-8080
图的	-8081
地在	-8082
塔斯	-8083
威廉	-8084
巴拉	-8085
把握	-8086
推断	-8087
更长	-8088
木头	-8089
杀手	-8090
村子	-8091
树上	-8092
榜样	-8093
海啸	-8094
特律	-8095
男生	-8096
监督	-8097
科幻	-8098
等级	-8099
线性	-8100
苦难	-8101
质的	-8102
身于	-8103
过渡	-8104
雕像	-8105
顶尖	-8106
飞过	-8107
马路	-8108
▁一点	-8109
▁不可	-8110
▁他把	-8111
▁全部	-8112
▁公共	-8113
▁思考	-8114
▁支持	-8115
▁最初	-8116
▁讨论	-8117
一个大	-8118
之外的	-8119
也许是	-8120
了一切	-8121
些时候	-8122
以至于	-8123
传染病	-8124
分钟内	-8125
增长的	-8126
太多了	-8127
好朋友	-8128
对不对	-8129
屋子里	-8130
左边的	-8131
所以我	-8132
时期的	-8133
是否会	-8134
曼德拉	-8135
有一条	-8136
有点儿	-8137
每一天	-8138
痴呆症	-8139
的一项	-8140
的政治	-8141
的艺术	-8142
翻译成	-8143
这些事	-8144
难民营	-8145
非常棒	-8146
飞机上	-8147
2005	-8148
▁198	-8149
▁我们很	-8150
▁而这是	-8151
一种方法	-8152
了自己的	-8153
介绍一下	-8154
任何事情	-8155
众所周知	-8156
根本没有	-8157
还有其他	-8158
这样做了	-8159
这项工作	-8160
可持续发展	-8161
每个人都有	-8162
百分之九十	-8163
▁这就是我的	-8164
一人	-8165
五百	-8166
低估	-8167
住房	-8168
体型	-8169
作弊	-8170
侵蚀	-8171
充电	-8172
剥夺	-8173
动脉	-8174
占领	-8175
取出	-8176
合同	-8177
名人	-8178
后期	-8179
喜悦	-8180
国界	-8181
地去	-8182
填充	-8183
定了	-8184
实说	-8185
对照	-8186
导演	-8187
小镇	-8188
平凡	-8189
平静	-8190
德克	-8191
心态	-8192
恰好	-8193
患病	-8194
悬崖	-8195
愉悦	-8196
新型	-8197
时尚	-8198
春天	-8199
有三	-8200
朝鲜	-8201
根廷	-8202
横跨	-8203
此时	-8204
残忍	-8205
状物	-8206
琼斯	-8207
砍伐	-8208
研制	-8209
紧紧	-8210
终点	-8211
缺失	-8212
职位	-8213
胞胎	-8214
能用	-8215
脉冲	-8216
脚趾	-8217
认出	-8218
让她	-8219
起点	-8220
飞到	-8221
饼干	-8222
高峰	-8223
鲁士	-8224
HIV	-8225
ore	-8226
▁个人	-8227
▁关注	-8228
▁其它	-8229
▁刚刚	-8230
▁反而	-8231
▁在于	-8232
▁想像	-8233
▁掌声	-8234
▁石油	-8235
▁类似	-8236
▁而当	-8237
▁而非	-8238
▁这不	-8239
▁那儿	-8240
乌托邦	-8241
像我们	-8242
关系的	-8243
南极洲	-8244
听上去	-8245
基督教	-8246
就是个	-8247
年以来	-8248
影响了	-8249
我看到	-8250
扫描仪	-8251
投入到	-8252
是一项	-8253
杰出的	-8254
毕业生	-8255
活动的	-8256
海洋的	-8257
照相机	-8258
生存的	-8259
生物的	-8260
的来说	-8261
的现实	-8262
的联系	-8263
认真的	-8264
都不能	-8265
1500	-8266
▁从一个	-8267
▁但是当	-8268
▁你觉得	-8269
▁其实是	-8270
▁几个月	-8271
▁在非洲	-8272
▁我们为	-8273
▁联合国	-8274
▁这时候	-8275
▁这样做	-8276
一些问题	-8277
以及其他	-8278
大部分的	-8279
我意识到	-8280
我有一个	-8281
的环境中	-8282
这些地方	-8283
这是我的	-8284
▁他们正在	-8285
▁你们可能	-8286
▁我们把它	-8287
建立了一个	-8288
是什么意思	-8289
是很重要的	-8290
这样的事情	-8291
▁我们发现了	-8292
ce	-8293
if	-8294
」,	-8295
一架	-8296
三次	-8297
上角	-8298
中学	-8299
仅有	-8300
伯格	-8301
光谱	-8302
关乎	-8303
出乎	-8304
削减	-8305
加密	-8306
即时	-8307
厚的	-8308
原油	-8309
受损	-8310
可归	-8311
听觉	-8312
呆在	-8313
哪种	-8314
商人	-8315
啦啦	-8316
图中	-8317
圈子	-8318
圣战	-8319
在说	-8320
地狱	-8321
地质	-8322
复合	-8323
天啊	-8324
它有	-8325
实习	-8326
宠物	-8327
将在	-8328
开头	-8329
悲惨	-8330
所知	-8331
手提	-8332
报导	-8333
指向	-8334
搬到	-8335
月的	-8336
来找	-8337
林肯	-8338
洛克	-8339
漏洞	-8340
濒临	-8341
煤炭	-8342
照射	-8343
特权	-8344
现有	-8345
的的	-8346
直播	-8347
短短	-8348
碰巧	-8349
签署	-8350
而出	-8351
菲利	-8352
读了	-8353
读过	-8354
赛车	-8355
跟随	-8356
辅导	-8357
这很	-8358
追随	-8359
重组	-8360
静止	-8361
首都	-8362
911	-8363
CEO	-8364
”——	-8365
▁上帝	-8366
▁他还	-8367
▁传统	-8368
▁分享	-8369
▁创新	-8370
▁听到	-8371
▁太阳	-8372
▁实验	-8373
▁展示	-8374
▁成功	-8375
▁战争	-8376
▁来到	-8377
不那么	-8378
主要是	-8379
了一张	-8380
事情的	-8381
你们会	-8382
先进的	-8383
医院的	-8384
回到家	-8385
如此的	-8386
寻常的	-8387
工作时	-8388
把一个	-8389
控制的	-8390
数十亿	-8391
智慧的	-8392
每一位	-8393
现在是	-8394
的文章	-8395
立学校	-8396
紫外线	-8397
结束时	-8398
综合征	-8399
----	-8400
2003	-8401
2004	-8402
▁只不过	-8403
▁在他的	-8404
▁在很多	-8405
▁在这一	-8406
▁存在于	-8407
▁意思是	-8408
▁我感觉	-8409
▁是为了	-8410
▁甚至在	-8411
▁那里有	-8412
人们可以	-8413
令人惊讶	-8414
你看到的	-8415
做这件事	-8416
完全没有	-8417
意识形态	-8418
感到非常	-8419
我们一直	-8420
所有的人	-8421
这个实验	-8422
重新定义	-8423
▁但是它们	-8424
▁但是我想	-8425
▁它看起来	-8426
▁那是因为	-8427
改变我们的	-8428
非政府组织	-8429
▁我认为这是	-8430
很长一段时间	-8431
42	-8432
▁乔	-8433
▁成	-8434
▁绝	-8435
仍有	-8436
付钱	-8437
伸出	-8438
余的	-8439
全新	-8440
动词	-8441
变形	-8442
古典	-8443
叫声	-8444
吸烟	-8445
和人	-8446
响应	-8447
哭泣	-8448
坦桑	-8449
复苏	-8450
夏威	-8451
孤立	-8452
安置	-8453
宏观	-8454
实的	-8455
密集	-8456
巴嫩	-8457
年半	-8458
并未	-8459
强壮	-8460
得的	-8461
成一	-8462
持人	-8463
比特	-8464
比这	-8465
泄露	-8466
淡水	-8467
环节	-8468
白宫	-8469
眼光	-8470
窗口	-8471
罢了	-8472
考察	-8473
胰岛	-8474
蒂芬	-8475
要有	-8476
评级	-8477
隔绝	-8478
饥荒	-8479
ang	-8480
ord	-8481
▁一条	-8482
▁你所	-8483
▁加入	-8484
▁市场	-8485
▁带来	-8486
▁我先	-8487
▁我再	-8488
▁站在	-8489
▁系统	-8490
▁至今	-8491
▁这场	-8492
与他们	-8493
了一件	-8494
了一份	-8495
人民的	-8496
使他们	-8497
加起来	-8498
去理解	-8499
和美国	-8500
和那些	-8501
在网上	-8502
基础上	-8503
夏威夷	-8504
多少钱	-8505
完全的	-8506
幸存者	-8507
幸福的	-8508
幼儿园	-8509
底特律	-8510
开发的	-8511
患者的	-8512
我们得	-8513
或其他	-8514
有关的	-8515
演讲的	-8516
生产的	-8517
电视台	-8518
的人会	-8519
的出现	-8520
的来源	-8521
的死亡	-8522
答案是	-8523
英国的	-8524
葡萄牙	-8525
达到的	-8526
重点是	-8527
黎巴嫩	-8528
▁其他人	-8529
▁我们又	-8530
▁我们让	-8531
▁有一次	-8532
▁第二天	-8533
▁这可能	-8534
令人惊叹	-8535
你的大脑	-8536
办公室里	-8537
化石燃料	-8538
恐怖袭击	-8539
更进一步	-8540
最伟大的	-8541
行动起来	-8542
这个目标	-8543
这么做的	-8544
阿拉伯语	-8545
▁他们开始	-8546
▁但是这个	-8547
▁如果你是	-8548
▁它们可以	-8549
▁我们决定	-8550
▁我们无法	-8551
▁我们真的	-8552
▁我的工作	-8553
▁现在我想	-8554
太阳能电池	-8555
我们的孩子	-8556
,「	-8557
ky	-8558
▁内	-8559
▁回	-8560
▁深	-8561
不懂	-8562
不被	-8563
与其	-8564
中期	-8565
义务	-8566
买卖	-8567
会的	-8568
倍的	-8569
光明	-8570
前行	-8571
北方	-8572
去的	-8573
在她	-8574
天生	-8575
头部	-8576
奶酪	-8577
子孙	-8578
子弹	-8579
对立	-8580
属性	-8581
山顶	-8582
干燥	-8583
年到	-8584
我再	-8585
找寻	-8586
捕获	-8587
收缩	-8588
政权	-8589
时光	-8590
暂停	-8591
歌颂	-8592
比起	-8593
注重	-8594
深的	-8595
立方	-8596
而被	-8597
能从	-8598
英镑	-8599
落在	-8600
要多	-8601
言语	-8602
诸位	-8603
越好	-8604
跳伞	-8605
适宜	-8606
门口	-8607
限于	-8608
随处	-8609
音频	-8610
▁准备	-8611
▁别人	-8612
▁哪些	-8613
▁我才	-8614
▁收集	-8615
▁某个	-8616
▁相当	-8617
▁记得	-8618
一个更	-8619
下降了	-8620
不舒服	-8621
件事是	-8622
传播的	-8623
例来说	-8624
做过的	-8625
几乎是	-8626
分之二	-8627
家可归	-8628
很快地	-8629
很长的	-8630
忽略了	-8631
我曾经	-8632
显示出	-8633
有兴趣	-8634
未知的	-8635
物种的	-8636
电视上	-8637
的确是	-8638
确定的	-8639
移动的	-8640
给那些	-8641
肯定会	-8642
肯定的	-8643
致命的	-8644
艺术的	-8645
英尺的	-8646
见到的	-8647
说明了	-8648
资源的	-8649
这只是	-8650
进化论	-8651
通常是	-8652
▁Ste	-8653
▁一些人	-8654
▁可以说	-8655
▁在未来	-8656
▁我无法	-8657
▁我自己	-8658
▁而是在	-8659
▁这其中	-8660
▁这可以	-8661
会怎么样	-8662
大脑皮层	-8663
就像一个	-8664
并非如此	-8665
意义上的	-8666
改变我们	-8667
被认为是	-8668
这样做的	-8669
连接起来	-8670
都不知道	-8671
▁毫无疑问	-8672
▁重要的是	-8673
是怎么回事	-8674
结合在一起	-8675
?」	-8676
Ar	-8677
SP	-8678
▁p	-8679
▁建	-8680
一的	-8681
你说	-8682
侵犯	-8683
入口	-8684
全都	-8685
冲浪	-8686
几种	-8687
包裹	-8688
卡路	-8689
历程	-8690
原谅	-8691
厨师	-8692
及时	-8693
嘲笑	-8694
土著	-8695
坐标	-8696
大幅	-8697
女生	-8698
子女	-8699
它将	-8700
尽快	-8701
开的	-8702
心情	-8703
手上	-8704
打个	-8705
抗争	-8706
推移	-8707
揭露	-8708
斯加	-8709
施加	-8710
曾是	-8711
根除	-8712
案子	-8713
次数	-8714
水面	-8715
沙特	-8716
波斯	-8717
测验	-8718
演变	-8719
灌输	-8720
瑞克	-8721
病情	-8722
的画	-8723
禁忌	-8724
繁衍	-8725
绳子	-8726
群众	-8727
考验	-8728
蒸汽	-8729
辨别	-8730
这将	-8731
违反	-8732
鳄鱼	-8733
30%	-8734
MIT	-8735
ana	-8736
▁21	-8737
▁也不	-8738
▁亚当	-8739
▁从中	-8740
▁刚才	-8741
▁因而	-8742
一个在	-8743
与他人	-8744
个性化	-8745
五分钟	-8746
他们想	-8747
使用者	-8748
几年里	-8749
名字叫	-8750
和大家	-8751
崭新的	-8752
应用于	-8753
快速的	-8754
我不想	-8755
是人类	-8756
更重要	-8757
汽车的	-8758
生物体	-8759
电脑上	-8760
电视机	-8761
留下了	-8762
的一员	-8763
的地图	-8764
的形状	-8765
的挑战	-8766
的最佳	-8767
的自由	-8768
的讨论	-8769
的非洲	-8770
胰岛素	-8771
脑海里	-8772
让我来	-8773
许许多	-8774
赢得了	-8775
运行的	-8776
那么大	-8777
问题了	-8778
2001	-8779
▁人们会	-8780
▁大量的	-8781
▁有一种	-8782
但是我们	-8783
创造力的	-8784
商业模式	-8785
坦桑尼亚	-8786
工作的人	-8787
我一直在	-8788
智能手机	-8789
注意到了	-8790
的一点是	-8791
给大家看	-8792
诺贝尔奖	-8793
这些国家	-8794
这并不是	-8795
▁他们只是	-8796
▁对于那些	-8797
了一段时间	-8798
变成了一个	-8799
我们有一个	-8800
我们称之为	-8801
6%	-8802
▁快	-8803
一副	-8804
一月	-8805
七个	-8806
享有	-8807
人是	-8808
份子	-8809
伤口	-8810
使人	-8811
修理	-8812
千年	-8813
升高	-8814
即便	-8815
友好	-8816
口号	-8817
呆了	-8818
墙壁	-8819
大使	-8820
失调	-8821
头条	-8822
头骨	-8823
女权	-8824
孟买	-8825
局面	-8826
带入	-8827
度假	-8828
影子	-8829
心智	-8830
所处	-8831
拉罕	-8832
支架	-8833
斯卡	-8834
服装	-8835
歌手	-8836
法规	-8837
海豹	-8838
海里	-8839
用处	-8840
管用	-8841
节点	-8842
花朵	-8843
要好	-8844
资讯	-8845
跑到	-8846
身后	-8847
连结	-8848
里士	-8849
问他	-8850
频道	-8851
▁BG	-8852
▁你还	-8853
▁具体	-8854
▁并把	-8855
▁打开	-8856
▁探索	-8857
▁电影	-8858
▁病人	-8859
▁细胞	-8860
▁这点	-8861
▁这真	-8862
一生中	-8863
了解了	-8864
互动的	-8865
人与人	-8866
人性的	-8867
亿美金	-8868
他们对	-8869
会导致	-8870
双胞胎	-8871
在其中	-8872
在里面	-8873
将我们	-8874
当然是	-8875
得不到	-8876
得非常	-8877
有三个	-8878
朋友的	-8879
用的是	-8880
留下的	-8881
的任务	-8882
的时光	-8883
的蚂蚁	-8884
结构的	-8885
肥胖症	-8886
花时间	-8887
转化成	-8888
迈克尔	-8889
这里是	-8890
都已经	-8891
银行家	-8892
音乐的	-8893
2011	-8894
▁他认为	-8895
▁它就会	-8896
▁我把它	-8897
▁理查德	-8898
▁相当于	-8899
不同的人	-8900
与此同时	-8901
了他们的	-8902
人工智能	-8903
亿美元的	-8904
你们可能	-8905
可持续性	-8906
和他们的	-8907
如果他们	-8908
如果你想	-8909
对他们的	-8910
年的时候	-8911
很多事情	-8912
我们有了	-8913
我们还是	-8914
我所说的	-8915
我的父亲	-8916
热带雨林	-8917
社交网络	-8918
这个观点	-8919
▁他们已经	-8920
▁我们不会	-8921
▁我们今天	-8922
▁我们可能	-8923
▁现在我要	-8924
▁这是关于	-8925
很大程度上	-8926
感兴趣的是	-8927
我的意思是	-8928
日常生活中	-8929
▁但是我认为	-8930
▁因为我们的	-8931
▁我们有一个	-8932
▁这里有一个	-8933
BC	-8934
CD	-8935
ph	-8936
▁学	-8937
▁整	-8938
不敢	-8939
主宰	-8940
主张	-8941
之时	-8942
亮的	-8943
人说	-8944
介意	-8945
使其	-8946
做事	-8947
储备	-8948
养活	-8949
分歧	-8950
前列	-8951
加工	-8952
变量	-8953
可笑	-8954
各国	-8955
同等	-8956
名言	-8957
在地	-8958
在大	-8959
大师	-8960
它也	-8961
它了	-8962
屁股	-8963
工艺	-8964
巧合	-8965
弹性	-8966
抚养	-8967
担任	-8968
提交	-8969
是无	-8970
期刊	-8971
枪支	-8972
概括	-8973
歌剧	-8974
歌唱	-8975
浓度	-8976
猜猜	-8977
疑惑	-8978
病房	-8979
眼神	-8980
穿梭	-8981
能把	-8982
色情	-8983
蛛丝	-8984
被问	-8985
触动	-8986
论坛	-8987
诸多	-8988
谁是	-8989
路德	-8990
身高	-8991
这颗	-8992
追逐	-8993
都将	-8994
配合	-8995
长寿	-8996
ess	-8997
int	-8998
ose	-8999
▁DH	-9000
▁会有	-9001
▁处理	-9002
▁婴儿	-9003
▁情况	-9004
▁我叫	-9005
▁自我	-9006
▁警察	-9007
▁这类	-9008
一定是	-9009
严肃的	-9010
以前的	-9011
制造商	-9012
女孩子	-9013
如何去	-9014
平等的	-9015
建造的	-9016
很好奇	-9017
持续了	-9018
描述的	-9019
时间里	-9020
是不可	-9021
来完成	-9022
查尔斯	-9023
永恒的	-9024
海洋中	-9025
现在在	-9026
的一年	-9027
的程度	-9028
监狱里	-9029
综合症	-9030
能力的	-9031
被认为	-9032
身体里	-9033
这东西	-9034
进入到	-9035
1990	-9036
▁他们从	-9037
▁在那些	-9038
▁我去了	-9039
▁我就是	-9040
▁我应该	-9041
▁给我们	-9042
了不起的	-9043
他们正在	-9044
他们需要	-9045
免疫系统	-9046
喜欢这个	-9047
对我而言	-9048
我们真的	-9049
有了一个	-9050
百分之一	-9051
知道这个	-9052
▁如果你的	-9053
▁这个想法	-9054
同样的事情	-9055
成为了一个	-9056
ct	-9057
la	-9058
sh	-9059
▁史	-9060
▁排	-9061
▁笑	-9062
▁装	-9063
上课	-9064
两只	-9065
中风	-9066
亲身	-9067
价钱	-9068
伤心	-9069
倡导	-9070
克兰	-9071
几次	-9072
分校	-9073
创始	-9074
加坡	-9075
卖淫	-9076
南方	-9077
占了	-9078
原先	-9079
只用	-9080
同行	-9081
外科	-9082
奇特	-9083
字胡	-9084
存的	-9085
容器	-9086
导航	-9087
少了	-9088
干的	-9089
息息	-9090
我为	-9091
持久	-9092
掉的	-9093
收音	-9094
效的	-9095
散步	-9096
旁白	-9097
旁观	-9098
有钱	-9099
木星	-9100
木材	-9101
棘手	-9102
注定	-9103
海藻	-9104
犯人	-9105
的三	-9106
的性	-9107
福特	-9108
箱子	-9109
给人	-9110
继承	-9111
表述	-9112
西斯	-9113
起诉	-9114
长久	-9115
雇主	-9116
雇员	-9117
雕刻	-9118
题目	-9119
黏液	-9120
ast	-9121
ins	-9122
▁一名	-9123
▁三个	-9124
▁他也	-9125
▁他想	-9126
▁原来	-9127
▁就如	-9128
▁找出	-9129
▁究竟	-9130
▁给予	-9131
▁这与	-9132
▁这段	-9133
。。。	-9134
不公平	-9135
不同于	-9136
不相信	-9137
亿人口	-9138
代表了	-9139
伯拉罕	-9140
做了个	-9141
健康和	-9142
半小时	-9143
华尔街	-9144
变得很	-9145
另一边	-9146
合法的	-9147
因为他	-9148
地发现	-9149
多巴胺	-9150
家庭的	-9151
家里的	-9152
小男孩	-9153
带到了	-9154
年以后	-9155
广泛的	-9156
影响到	-9157
所学校	-9158
是基于	-9159
来解决	-9160
某些人	-9161
清楚的	-9162
的最大	-9163
的高度	-9164
等同于	-9165
范围的	-9166
让我想	-9167
过这个	-9168
还不是	-9169
这么想	-9170
那以后	-9171
银行的	-9172
iPod	-9173
▁你认为	-9174
▁取决于	-9175
▁在印度	-9176
▁就如同	-9177
▁我们才	-9178
▁然后她	-9179
▁谢谢你	-9180
一小部分	-9181
一点也不	-9182
作为一名	-9183
四分之一	-9184
我们将会	-9185
我们就能	-9186
是正确的	-9187
的第一个	-9188
神经细胞	-9189
这一问题	-9190
▁为什么呢	-9191
▁他们甚至	-9192
▁你只需要	-9193
▁你知道的	-9194
▁大家知道	-9195
▁就是这样	-9196
中的很多人	-9197
什么都没有	-9198
很好的例子	-9199
▁现在让我们	-9200
37	-9201
Br	-9202
▁g	-9203
▁哇	-9204
▁圣	-9205
▁坐	-9206
▁至	-9207
▁萨	-9208
一整	-9209
一首	-9210
上瘾	-9211
不算	-9212
东部	-9213
义肢	-9214
乘坐	-9215
亲近	-9216
仓库	-9217
优点	-9218
传送	-9219
债务	-9220
停滞	-9221
光是	-9222
冷冻	-9223
前例	-9224
加油	-9225
口哨	-9226
天主	-9227
头顶	-9228
将军	-9229
尖叫	-9230
已被	-9231
平民	-9232
手表	-9233
才华	-9234
暴风	-9235
有种	-9236
杀人	-9237
条约	-9238
树枝	-9239
校长	-9240
橡皮	-9241
欺诈	-9242
水和	-9243
沙发	-9244
海湾	-9245
犯错	-9246
的和	-9247
真菌	-9248
破碎	-9249
空的	-9250
筹集	-9251
经前	-9252
群落	-9253
肯尼	-9254
艘船	-9255
苏丹	-9256
著作	-9257
行政	-9258
议程	-9259
迷人	-9260
逃避	-9261
那年	-9262
那张	-9263
除非	-9264
面孔	-9265
领悟	-9266
高潮	-9267
高等	-9268
魔法	-9269
黑帮	-9270
▁不知	-9271
▁充满	-9272
▁商业	-9273
▁女孩	-9274
▁我与	-9275
▁文化	-9276
▁游戏	-9277
▁组织	-9278
▁给我	-9279
▁而后	-9280
▁让他	-9281
▁谷歌	-9282
一些小	-9283
上一个	-9284
上帝的	-9285
不容易	-9286
与其他	-9287
专业的	-9288
了一只	-9289
你们中	-9290
你们在	-9291
力量的	-9292
口袋里	-9293
可以将	-9294
告诉她	-9295
和她的	-9296
在世界	-9297
在中国	-9298
好主意	-9299
它不是	-9300
安德特	-9301
寄生虫	-9302
对称性	-9303
导致的	-9304
幸福感	-9305
很不错	-9306
快乐的	-9307
持续的	-9308
提高了	-9309
教科书	-9310
方式的	-9311
有多么	-9312
理想的	-9313
百分比	-9314
碳排放	-9315
祖父母	-9316
第一位	-9317
纽约的	-9318
结论是	-9319
能得到	-9320
能量的	-9321
被告知	-9322
诞生了	-9323
跟大家	-9324
过一个	-9325
连接到	-9326
那一刻	-9327
都是由	-9328
降落伞	-9329
▁也不会	-9330
▁你们的	-9331
▁就是在	-9332
▁是非常	-9333
▁有许多	-9334
▁比方说	-9335
▁现在的	-9336
▁美国人	-9337
▁首先是	-9338
个不同的	-9339
互联网上	-9340
像我一样	-9341
几个例子	-9342
另外一种	-9343
尼安德特	-9344
是错误的	-9345
显示的是	-9346
核磁共振	-9347
花了很多	-9348
这个样子	-9349
里士多德	-9350
▁但问题是	-9351
▁最后一个	-9352
▁没有什么	-9353
▁还有其他	-9354
▁这是非常	-9355
▁这种情况	-9356
我们都知道	-9357
撒哈拉以南	-9358
有趣的事情	-9359
至关重要的	-9360
▁你可以想象	-9361
成千上万的人	-9362
!“	-9363
1/	-9364
ld	-9365
ux	-9366
▁诺	-9367
▁读	-9368
一度	-9369
下次	-9370
人脑	-9371
们在	-9372
会把	-9373
传授	-9374
何种	-9375
修正	-9376
假的	-9377
克利	-9378
冲动	-9379
切断	-9380
刑事	-9381
化疗	-9382
南亚	-9383
发声	-9384
可口	-9385
喂养	-9386
大于	-9387
大麻	-9388
学金	-9389
宪法	-9390
层楼	-9391
岛的	-9392
布斯	-9393
布莱	-9394
常识	-9395
开创	-9396
引进	-9397
形势	-9398
急剧	-9399
意想	-9400
我真	-9401
打败	-9402
抗体	-9403
拍了	-9404
指望	-9405
探寻	-9406
接纳	-9407
提炼	-9408
摄入	-9409
支配	-9410
故障	-9411
有谁	-9412
比率	-9413
汤姆	-9414
浮游	-9415
消亡	-9416
涵盖	-9417
淹没	-9418
熟练	-9419
爱上	-9420
琳达	-9421
电动	-9422
电梯	-9423
病症	-9424
的吗	-9425
看做	-9426
积分	-9427
突出	-9428
端的	-9429
美味	-9430
节能	-9431
虚构	-9432
触碰	-9433
话说	-9434
贯穿	-9435
走来	-9436
避难	-9437
那只	-9438
野外	-9439
金森	-9440
针头	-9441
间接	-9442
降雨	-9443
领先	-9444
鲍勃	-9445
25%	-9446
ann	-9447
▁一场	-9448
▁历史	-9449
▁帕特	-9450
▁提出	-9451
▁而他	-9452
▁记者	-9453
▁设想	-9454
▁说明	-9455
▁鼓励	-9456
了整个	-9457
例子中	-9458
保护的	-9459
去思考	-9460
和一些	-9461
因为你	-9462
市场上	-9463
很快就	-9464
我们和	-9465
我们很	-9466
拿出来	-9467
拿到了	-9468
收音机	-9469
新西兰	-9470
无前例	-9471
有任何	-9472
热衷于	-9473
的一条	-9474
的基本	-9475
的宇宙	-9476
的政府	-9477
着我的	-9478
程序员	-9479
经济体	-9480
脆弱的	-9481
观众笑	-9482
转换成	-9483
这是在	-9484
都非常	-9485
2050	-9486
▁他们要	-9487
▁你将会	-9488
▁假如你	-9489
▁只要你	-9490
▁如果是	-9491
▁我们来	-9492
▁这本书	-9493
▁这真是	-9494
▁那时我	-9495
亚历山大	-9496
到处都是	-9497
可以改变	-9498
坐在那里	-9499
实验室的	-9500
很久以前	-9501
很多东西	-9502
思维方式	-9503
我们不会	-9504
日常生活	-9505
更多的钱	-9506
某种方式	-9507
的美国人	-9508
裔美国人	-9509
这么认为	-9510
这些故事	-9511
都是这样	-9512
▁于是他们	-9513
▁于是我就	-9514
▁对我而言	-9515
▁我们并不	-9516
▁我们是否	-9517
▁我很高兴	-9518
▁我想知道	-9519
▁我的父亲	-9520
▁所以我的	-9521
▁所以这些	-9522
▁接下来的	-9523
▁这个过程	-9524
严重的问题	-9525
回答这个问题	-9526
BA	-9527
IM	-9528
▁X	-9529
▁吃	-9530
三点	-9531
不不	-9532
不见	-9533
与否	-9534
丹麦	-9535
为一	-9536
也将	-9537
乳腺	-9538
了呢	-9539
从此	-9540
你把	-9541
侵入	-9542
便会	-9543
信赖	-9544
关掉	-9545
冥想	-9546
列举	-9547
叙事	-9548
名称	-9549
回路	-9550
大人	-9551
天性	-9552
它被	-9553
宣言	-9554
山羊	-9555
巴布	-9556
建成	-9557
往上	-9558
忠诚	-9559
放慢	-9560
早餐	-9561
有权	-9562
标本	-9563
活在	-9564
流浪	-9565
海盗	-9566
涌现	-9567
特拉	-9568
现金	-9569
登陆	-9570
看清	-9571
矿物	-9572
破解	-9573
箭头	-9574
编写	-9575
羞辱	-9576
老化	-9577
而然	-9578
脚步	-9579
艾米	-9580
袋狼	-9581
见解	-9582
资格	-9583
超出	-9584
迎接	-9585
还很	-9586
这部	-9587
道歉	-9588
金斯	-9589
霍华	-9590
60%	-9591
enn	-9592
her	-9593
ott	-9594
ram	-9595
▁40	-9596
▁以上	-9597
▁会在	-9598
▁减少	-9599
▁安全	-9600
▁实现	-9601
▁开发	-9602
▁我刚	-9603
▁机器	-9604
▁火星	-9605
▁现实	-9606
▁生产	-9607
▁红色	-9608
▁讲述	-9609
▁造成	-9610
不清楚	-9611
不相同	-9612
也需要	-9613
亚特兰	-9614
像一个	-9615
关心的	-9616
几百万	-9617
化学家	-9618
去世了	-9619
可能在	-9620
命名为	-9621
基督徒	-9622
实实在	-9623
对不起	-9624
就是要	-9625
尽全力	-9626
当你在	-9627
快速地	-9628
时间内	-9629
明确的	-9630
是他们	-9631
有这种	-9632
欧洲的	-9633
演讲中	-9634
的定义	-9635
的支持	-9636
的数学	-9637
的设备	-9638
的领域	-9639
空间中	-9640
空间里	-9641
群体的	-9642
脑细胞	-9643
菲利普	-9644
觉得很	-9645
设计和	-9646
负责任	-9647
超越了	-9648
还是个	-9649
遥远的	-9650
那时起	-9651
阿根廷	-9652
陈代谢	-9653
预测的	-9654
颜色的	-9655
驱动的	-9656
▁但是她	-9657
▁在某些	-9658
▁我之前	-9659
▁我们与	-9660
▁把他们	-9661
▁都可以	-9662
任何人都	-9663
你能看到	-9664
做点什么	-9665
其中之一	-9666
几乎没有	-9667
变得非常	-9668
很有趣的	-9669
怎么回事	-9670
无家可归	-9671
的另一个	-9672
看看这个	-9673
经济发展	-9674
考虑一下	-9675
联邦调查	-9676
这个事实	-9677
都是如此	-9678
▁不仅如此	-9679
▁他们不会	-9680
▁如果你能	-9681
▁如果有人	-9682
▁而我们的	-9683
▁这个系统	-9684
▁除此之外	-9685
一次又一次	-9686
其中的一个	-9687
我们所做的	-9688
老年痴呆症	-9689
艺术博物馆	-9690
▁我们可以用	-9691
▁非常感谢大家	-9692
▁Anderson	-9693
-2	-9694
:「	-9695
AR	-9696
ov	-9697
▁格	-9698
▁玩	-9699
▁靠	-9700
一提	-9701
一日	-9702
下角	-9703
也门	-9704
二维	-9705
亨利	-9706
估算	-9707
住宅	-9708
克隆	-9709
关爱	-9710
养育	-9711
出租	-9712
前额	-9713
卧室	-9714
却不	-9715
去掉	-9716
去除	-9717
友善	-9718
双腿	-9719
古巴	-9720
召集	-9721
可用	-9722
吃掉	-9723
吉他	-9724
哈根	-9725
大致	-9726
天线	-9727
安娜	-9728
容纳	-9729
尽的	-9730
当劳	-9731
得通	-9732
微观	-9733
忽然	-9734
我最	-9735
所为	-9736
手册	-9737
批判	-9738
承载	-9739
把钱	-9740
抽烟	-9741
招募	-9742
捐助	-9743
授予	-9744
摩擦	-9745
无助	-9746
无形	-9747
日益	-9748
时不	-9749
暴乱	-9750
本人	-9751
林匹	-9752
样品	-9753
模样	-9754
沙丘	-9755
海军	-9756
液态	-9757
源自	-9758
片的	-9759
球鞋	-9760
理发	-9761
电台	-9762
电磁	-9763
画家	-9764
的两	-9765
眼中	-9766
社团	-9767
立体	-9768
章节	-9769
简短	-9770
篮球	-9771
粉丝	-9772
精准	-9773
精子	-9774
绑架	-9775
维尔	-9776
艰苦	-9777
起床	-9778
车子	-9779
过我	-9780
这事	-9781
这对	-9782
选票	-9783
钢铁	-9784
长度	-9785
阴茎	-9786
Ste	-9787
▁BF	-9788
▁PM	-9789
▁仿佛	-9790
▁到达	-9791
▁对了	-9792
▁常常	-9793
▁当她	-9794
▁我没	-9795
▁手机	-9796
▁正好	-9797
▁法律	-9798
▁计算	-9799
一个叫	-9800
一个有	-9801
一句话	-9802
上面的	-9803
了一位	-9804
会让你	-9805
参与了	-9806
另一只	-9807
和这些	-9808
地看到	-9809
奖学金	-9810
学院的	-9811
它已经	-9812
实在太	-9813
微不足	-9814
感染了	-9815
我并不	-9816
技术和	-9817
数以千	-9818
暗能量	-9819
更像是	-9820
案例中	-9821
洗衣机	-9822
熟知的	-9823
的人说	-9824
的医疗	-9825
的危险	-9826
的平均	-9827
的模型	-9828
的理由	-9829
的电脑	-9830
的经验	-9831
的药物	-9832
的观众	-9833
的说法	-9834
空气中	-9835
纽约市	-9836
赛鲁士	-9837
隐藏的	-9838
1950	-9839
▁从这个	-9840
▁你是否	-9841
▁当你在	-9842
▁斯蒂芬	-9843
▁而我的	-9844
▁那是个	-9845
也是一样	-9846
也是这样	-9847
你可能会	-9848
其他东西	-9849
国家公园	-9850
学习如何	-9851
它们可以	-9852
强有力的	-9853
恰恰相反	-9854
我的身体	-9855
某个地方	-9856
社会问题	-9857
这个游戏	-9858
量子力学	-9859
▁人们可以	-9860
▁他们想要	-9861
▁他们都是	-9862
▁实际上是	-9863
▁尤其是在	-9864
▁我们不是	-9865
▁我称之为	-9866
▁然后我就	-9867
他们的故事	-9868
▁但如果我们	-9869
▁我们也可以	-9870
▁这是另一个	-9871
令人难以置信	-9872
pe	-9873
▁信	-9874
▁富	-9875
一番	-9876
上周	-9877
上海	-9878
下雨	-9879
之年	-9880
书写	-9881
侵略	-9882
停下	-9883
偷偷	-9884
克莱	-9885
全书	-9886
公元	-9887
关怀	-9888
冰山	-9889
冷的	-9890
前后	-9891
十九	-9892
压迫	-9893
去买	-9894
去想	-9895
反思	-9896
发觉	-9897
取了	-9898
吉尔	-9899
后院	-9900
四点	-9901
图标	-9902
在内	-9903
声波	-9904
好人	-9905
婚礼	-9906
尔蒙	-9907
座位	-9908
开支	-9909
开着	-9910
往前	-9911
性感	-9912
情节	-9913
我刚	-9914
提起	-9915
无疑	-9916
无视	-9917
星际	-9918
是件	-9919
普林	-9920
智利	-9921
月亮	-9922
有力	-9923
未曾	-9924
杀虫	-9925
杰克	-9926
标识	-9927
核弹	-9928
橡胶	-9929
毒素	-9930
海上	-9931
游客	-9932
潮流	-9933
瓶子	-9934
着眼	-9935
离婚	-9936
私营	-9937
组件	-9938
花上	-9939
获益	-9940
衰退	-9941
费曼	-9942
里程	-9943
隐喻	-9944
驱使	-9945
魔力	-9946
RNA	-9947
The	-9948
ink	-9949
ric	-9950
▁他对	-9951
▁值得	-9952
▁受到	-9953
▁在它	-9954
▁日本	-9955
▁植物	-9956
▁比较	-9957
▁穿过	-9958
▁证明	-9959
▁这可	-9960
一个很	-9961
上世纪	-9962
二十年	-9963
八字胡	-9964
创造者	-9965
和人类	-9966
和科学	-9967
因此而	-9968
在那些	-9969
多年的	-9970
大城市	-9971
太阳的	-9972
媒体的	-9973
幸运的	-9974
性行为	-9975
慢慢地	-9976
慢慢的	-9977
我刚刚	-9978
房子里	-9979
收入的	-9980
时间和	-9981
时间来	-9982
晶体管	-9983
有效率	-9984
有超过	-9985
特别是	-9986
的主意	-9987
的医生	-9988
的图像	-9989
的比例	-9990
的状况	-9991
的那种	-9992
看一看	-9993
看了看	-9994
知识和	-9995
社区里	-9996
神秘的	-9997
纽约客	-9998
让你的	-9999
过来的	-10000
还要多	-10001
霍华德	-10002
魔术师	-10003
▁...	-10004
▁和一些	-10005
▁学生们	-10006
▁布鲁诺	-10007
▁我在想	-10008
▁我花了	-10009
▁每一次	-10010
▁而且这	-10011
▁达尔文	-10012
▁这才是	-10013
世界大战	-10014
中产阶级	-10015
他们想要	-10016
全球化的	-10017
和我们的	-10018
在座各位	-10019
展示的是	-10020
我们决定	-10021
我们对于	-10022
有很大的	-10023
的年轻人	-10024
西班牙语	-10025
这张图片	-10026
这种现象	-10027
问题就是	-10028
▁他们会说	-10029
▁你可以用	-10030
▁对于我们	-10031
▁我之所以	-10032
▁我们都是	-10033
▁无论如何	-10034
▁有多少人	-10035
▁这些问题	-10036
▁这是我在	-10037
为什么我们	-10038
我们所说的	-10039
精神分裂症	-10040
▁我们不需要	-10041
世界上最大的	-10042
4,	-10043
ET	-10044
cy	-10045
▁北	-10046
▁应	-10047
▁路	-10048
▁风	-10049
一封	-10050
不曾	-10051
丽莎	-10052
二进	-10053
交往	-10054
使之	-10055
偏远	-10056
元件	-10057
其为	-10058
写信	-10059
删除	-10060
千个	-10061
单单	-10062
厘米	-10063
双眼	-10064
口气	-10065
只在	-10066
听了	-10067
哥本	-10068
四年	-10069
国旗	-10070
在外	-10071
场地	-10072
壮大	-10073
多或	-10074
州立	-10075
平时	-10076
得好	-10077
思索	-10078
总理	-10079
我该	-10080
手法	-10081
族群	-10082
星盘	-10083
杯子	-10084
板块	-10085
柔软	-10086
标注	-10087
检察	-10088
泥土	-10089
流入	-10090
浮现	-10091
渗透	-10092
游击	-10093
火灾	-10094
点燃	-10095
甘地	-10096
生来	-10097
界的	-10098
留给	-10099
的我	-10100
管子	-10101
类比	-10102
纸片	-10103
耗费	-10104
肾脏	-10105
腿上	-10106
自问	-10107
莎士	-10108
葬礼	-10109
蕴含	-10110
认定	-10111
证书	-10112
起步	-10113
起飞	-10114
运气	-10115
还未	-10116
逃脱	-10117
透露	-10118
里亚	-10119
闭上	-10120
阿姆	-10121
饮料	-10122
鸡蛋	-10123
Rob	-10124
ach	-10125
ash	-10126
aul	-10127
▁你说	-10128
▁名叫	-10129
▁存在	-10130
▁最好	-10131
▁父母	-10132
▁现今	-10133
▁等待	-10134
▁部分	-10135
一下子	-10136
下一次	-10137
不怎么	-10138
与你们	-10139
也开始	-10140
也无法	-10141
事件的	-10142
从这些	-10143
以外的	-10144
会出现	-10145
候选人	-10146
出这些	-10147
分钟的	-10148
十年的	-10149
去看看	-10150
和政治	-10151
圣诞节	-10152
基因的	-10153
多样化	-10154
已知的	-10155
当我在	-10156
忘记了	-10157
打开了	-10158
捕食者	-10159
是十分	-10160
有一次	-10161
有人在	-10162
有机体	-10163
机器的	-10164
来解释	-10165
水平的	-10166
没关系	-10167
浏览器	-10168
理论上	-10169
男人们	-10170
的表面	-10171
的证据	-10172
的边缘	-10173
盒子里	-10174
看电视	-10175
看这些	-10176
等一下	-10177
被我们	-10178
计划的	-10179
课堂上	-10180
透明的	-10181
都需要	-10182
问题上	-10183
edia	-10184
▁以一种	-10185
▁出现在	-10186
▁即使在	-10187
▁又或者	-10188
▁可以在	-10189
▁和那些	-10190
▁当它们	-10191
▁当这些	-10192
▁我母亲	-10193
▁所以它	-10194
▁来帮助	-10195
▁然后又	-10196
▁然后用	-10197
▁然后说	-10198
▁还可以	-10199
▁这说明	-10200
之处在于	-10201
和我一起	-10202
哥本哈根	-10203
天文学家	-10204
如果你们	-10205
小的时候	-10206
布鲁克林	-10207
思考一下	-10208
我和我的	-10209
整个过程	-10210
有很多人	-10211
没有办法	-10212
艾滋病毒	-10213
莎士比亚	-10214
谢谢你们	-10215
这样的话	-10216
都有一个	-10217
▁他们知道	-10218
▁我们觉得	-10219
▁然后我说	-10220
▁科学家们	-10221
▁那个时候	-10222
我们的工作	-10223
结束的时候	-10224
▁因为如果你	-10225
你们可以看到	-10226
是非常重要的	-10227
4%	-10228
Sh	-10229
iz	-10230
▁f	-10231
▁【	-10232
▁另	-10233
一杯	-10234
两点	-10235
主角	-10236
了你	-10237
了她	-10238
事先	-10239
作战	-10240
便利	-10241
偏离	-10242
做饭	-10243
六十	-10244
减速	-10245
剧场	-10246
卡因	-10247
卡拉	-10248
原创	-10249
发音	-10250
受体	-10251
变老	-10252
叶子	-10253
回了	-10254
圆柱	-10255
堆积	-10256
处方	-10257
大堆	-10258
如下	-10259
实力	-10260
容量	-10261
小了	-10262
尔曼	-10263
尼古	-10264
展望	-10265
山上	-10266
差的	-10267
归功	-10268
很短	-10269
心想	-10270
总和	-10271
户外	-10272
打赌	-10273
找个	-10274
拥挤	-10275
拿来	-10276
旋律	-10277
时会	-10278
是他	-10279
是说	-10280
杰明	-10281
梅隆	-10282
水泥	-10283
活到	-10284
爱人	-10285
牛仔	-10286
物件	-10287
着它	-10288
稍后	-10289
空调	-10290
笑了	-10291
策划	-10292
纸张	-10293
罪恶	-10294
而又	-10295
胡子	-10296
西雅	-10297
视线	-10298
语法	-10299
调研	-10300
费城	-10301
赞美	-10302
走动	-10303
路口	-10304
输送	-10305
避开	-10306
降临	-10307
零售	-10308
霉菌	-10309
面向	-10310
面团	-10311
飞天	-10312
99%	-10313
ani	-10314
est	-10315
▁一件	-10316
▁中间	-10317
▁做了	-10318
▁参加	-10319
▁哪里	-10320
▁在她	-10321
▁对吗	-10322
▁并将	-10323
▁我敢	-10324
▁我都	-10325
▁种族	-10326
▁而那	-10327
▁都被	-10328
▁阿瑟	-10329
三角形	-10330
下来了	-10331
不在乎	-10332
他们将	-10333
他们要	-10334
会改变	-10335
你看到	-10336
供应链	-10337
便宜的	-10338
几秒钟	-10339
去寻找	-10340
反过来	-10341
另一半	-10342
喜爱的	-10343
在某些	-10344
实验中	-10345
对你的	-10346
搬到了	-10347
摄氏度	-10348
是一场	-10349
是不够	-10350
是美国	-10351
有不同	-10352
有助于	-10353
有更多	-10354
来看待	-10355
某个人	-10356
每一次	-10357
没那么	-10358
的人在	-10359
的市场	-10360
的计划	-10361
看到我	-10362
神圣的	-10363
莱斯特	-10364
讨论的	-10365
负责人	-10366
路易斯	-10367
还是会	-10368
这三个	-10369
这张图	-10370
这样想	-10371
这部分	-10372
这首歌	-10373
非凡的	-10374
食物的	-10375
黑暗中	-10376
2002	-10377
▁也许是	-10378
▁他们用	-10379
▁伟大的	-10380
▁原因是	-10381
▁因为当	-10382
▁它是由	-10383
▁最好的	-10384
▁自己的	-10385
▁这样就	-10386
▁这需要	-10387
也是一个	-10388
你也可以	-10389
使用这个	-10390
加州大学	-10391
德克萨斯	-10392
我的父母	-10393
所以我们	-10394
无人驾驶	-10395
研究这些	-10396
第二人生	-10397
西方国家	-10398
让我感到	-10399
这些动物	-10400
这方面的	-10401
高速公路	-10402
▁不管怎样	-10403
▁举例来说	-10404
▁同时也是	-10405
▁告诉我们	-10406
▁大多数人	-10407
▁帮助我们	-10408
▁我们还有	-10409
▁我并没有	-10410
▁这些数据	-10411
和你们分享	-10412
和大家分享	-10413
我们的世界	-10414
这样的东西	-10415
▁你可以看见	-10416
▁我们不得不	-10417
▁我们实际上	-10418
▁我想说的是	-10419
▁所以这就是	-10420
在某种程度上	-10421
36	-10422
72	-10423
ID	-10424
VD	-10425
du	-10426
ly	-10427
of	-10428
▁呃	-10429
▁极	-10430
▁盖	-10431
上次	-10432
下方	-10433
不愿	-10434
从不	-10435
代之	-10436
伙计	-10437
传承	-10438
住民	-10439
共产	-10440
兽医	-10441
写到	-10442
减缓	-10443
半个	-10444
卖给	-10445
古代	-10446
哪怕	-10447
四天	-10448
回想	-10449
圆圈	-10450
坏人	-10451
壁虎	-10452
天体	-10453
夫妻	-10454
孙子	-10455
巴士	-10456
彩票	-10457
很低	-10458
性欲	-10459
恐慌	-10460
慢性	-10461
打了	-10462
推销	-10463
提倡	-10464
时机	-10465
有幸	-10466
比利	-10467
民权	-10468
沙滩	-10469
泰国	-10470
洪水	-10471
派的	-10472
清真	-10473
潜艇	-10474
澳洲	-10475
热门	-10476
版的	-10477
电击	-10478
画像	-10479
相应	-10480
破产	-10481
示威	-10482
红杉	-10483
自愿	-10484
行程	-10485
谈及	-10486
质数	-10487
轻微	-10488
这太	-10489
邮箱	-10490
酒精	-10491
长远	-10492
顶峰	-10493
预先	-10494
鱼的	-10495
鸽子	-10496
ant	-10497
ith	-10498
osh	-10499
per	-10500
rat	-10501
▁专门	-10502
▁多么	-10503
▁巴西	-10504
▁描述	-10505
▁旁白	-10506
▁电话	-10507
▁癌症	-10508
▁要比	-10509
▁逐渐	-10510
不了解	-10511
不能再	-10512
为大家	-10513
为这个	-10514
也是个	-10515
亿年前	-10516
仍然在	-10517
仍然是	-10518
从我们	-10519
以来的	-10520
份工作	-10521
公交车	-10522
功能的	-10523
印度人	-10524
只不过	-10525
只有在	-10526
和朋友	-10527
国家都	-10528
在这种	-10529
奥林匹	-10530
它就会	-10531
就知道	-10532
引起的	-10533
归功于	-10534
很高的	-10535
愚蠢的	-10536
我们该	-10537
我怎么	-10538
我无法	-10539
报纸上	-10540
显示的	-10541
有哪些	-10542
本身的	-10543
杀虫剂	-10544
检察官	-10545
水资源	-10546
爱好者	-10547
的人性	-10548
的动作	-10549
的网站	-10550
的表现	-10551
的路上	-10552
研究员	-10553
绝对的	-10554
罗伯特	-10555
肯尼迪	-10556
设计出	-10557
跟他们	-10558
还不错	-10559
迷人的	-10560
问题时	-10561
饮用水	-10562
高血压	-10563
1980	-10564
2012	-10565
2020	-10566
John	-10567
▁他当时	-10568
▁发生了	-10569
▁我个人	-10570
▁我以前	-10571
▁我完全	-10572
▁把这些	-10573
▁看到了	-10574
一个关于	-10575
令人吃惊	-10576
令人惊奇	-10577
史无前例	-10578
在地球上	-10579
实在是太	-10580
我的想法	-10581
我的观点	-10582
正在进行	-10583
海洋生物	-10584
现实世界	-10585
看看这些	-10586
神经科学	-10587
虚拟现实	-10588
让孩子们	-10589
▁你不需要	-10590
▁因为人们	-10591
▁好消息是	-10592
他们的生活	-10593
创造了一个	-10594
发生的一切	-10595
经前综合征	-10596
ichard	-10597
▁所以我决定	-10598
▁如果我们能够	-10599
46	-10600
7%	-10601
Ge	-10602
az	-10603
ix	-10604
oc	-10605
▁b	-10606
▁占	-10607
▁科	-10608
▁翻	-10609
▁脑	-10610
▁选	-10611
▁顺	-10612
。♫	-10613
一眼	-10614
一谈	-10615
为他	-10616
他也	-10617
代理	-10618
伦斯	-10619
伴随	-10620
但却	-10621
你还	-10622
击败	-10623
利比	-10624
到过	-10625
制成	-10626
加贝	-10627
化和	-10628
取消	-10629
商场	-10630
土卫	-10631
在场	-10632
地里	-10633
她是	-10634
学业	-10635
富翁	-10636
少于	-10637
就得	-10638
待了	-10639
急诊	-10640
报酬	-10641
振动	-10642
捐款	-10643
捐献	-10644
排队	-10645
收费	-10646
无意	-10647
是为	-10648
更难	-10649
曾在	-10650
曾说	-10651
有利	-10652
杂货	-10653
村民	-10654
枪击	-10655
欢呼	-10656
死后	-10657
每人	-10658
波动	-10659
清除	-10660
漫步	-10661
漫长	-10662
灰色	-10663
灾害	-10664
爬行	-10665
王子	-10666
用手	-10667
画作	-10668
病原	-10669
的了	-10670
眼球	-10671
磅的	-10672
税收	-10673
等式	-10674
签名	-10675
紧要	-10676
级别	-10677
网膜	-10678
罗德	-10679
罪行	-10680
老虎	-10681
者是	-10682
耐克	-10683
耶路	-10684
聊聊	-10685
肥料	-10686
蒸发	-10687
藏着	-10688
血糖	-10689
裤子	-10690
载荷	-10691
过着	-10692
远处	-10693
配偶	-10694
钱的	-10695
铅笔	-10696
问问	-10697
非同	-10698
颤抖	-10699
香港	-10700
LED	-10701
ete	-10702
▁不像	-10703
▁从我	-10704
▁他将	-10705
▁右边	-10706
▁她会	-10707
▁将来	-10708
▁就有	-10709
▁治疗	-10710
▁绿色	-10711
▁肯定	-10712
▁这太	-10713
一点的	-10714
不允许	-10715
不同意	-10716
也可能	-10717
体现在	-10718
你们所	-10719
全面的	-10720
分辨率	-10721
到这些	-10722
原住民	-10723
发生时	-10724
吉尼亚	-10725
和这个	-10726
哪一个	-10727
地方的	-10728
大屠杀	-10729
尼西亚	-10730
应该被	-10731
当地人	-10732
影响的	-10733
很快的	-10734
得很好	-10735
我们说	-10736
杂志上	-10737
标准的	-10738
正是我	-10739
母亲的	-10740
然后再	-10741
用这种	-10742
的一家	-10743
的体验	-10744
的努力	-10745
的发明	-10746
的安全	-10747
的机构	-10748
目睹了	-10749
看出来	-10750
自然地	-10751
荷尔蒙	-10752
视网膜	-10753
视频中	-10754
认识的	-10755
让世界	-10756
身边的	-10757
还是有	-10758
通过了	-10759
那是个	-10760
那样做	-10761
隐藏在	-10762
预期的	-10763
100%	-10764
▁一旦你	-10765
▁但对于	-10766
▁你们会	-10767
▁在全球	-10768
▁大自然	-10769
▁它只是	-10770
▁安德森	-10771
▁有什么	-10772
▁未来的	-10773
▁真的是	-10774
▁这张图	-10775
一个人的	-10776
一张照片	-10777
你可以在	-10778
到了一个	-10779
和其他人	-10780
如果没有	-10781
完全可以	-10782
我的故事	-10783
把它放在	-10784
无神论者	-10785
百分之十	-10786
百科全书	-10787
的时间内	-10788
这些技术	-10789
重新设计	-10790
▁2000	-10791
▁今天我想	-10792
▁他们希望	-10793
▁并且我们	-10794
▁当然还有	-10795
▁特别是在	-10796
▁而是一个	-10797
▁而这就是	-10798
我们的身体	-10799
给你们展示	-10800
非常有趣的	-10801
▁大家都知道	-10802
▁我希望你们	-10803
发展中国家的	-10804
的事情发生了	-10805
▁所以我们需要	-10806
55	-10807
CO	-10808
af	-10809
▁乌	-10810
▁借	-10811
▁投	-10812
▁维	-10813
▁里	-10814
之久	-10815
人人	-10816
会去	-10817
倒了	-10818
停在	-10819
养分	-10820
厌倦	-10821
发动	-10822
吨的	-10823
坚定	-10824
塔尔	-10825
多于	-10826
天后	-10827
孤单	-10828
家中	-10829
尔顿	-10830
已知	-10831
巴斯	-10832
年在	-10833
店里	-10834
总共	-10835
我做	-10836
我问	-10837
撰写	-10838
无力	-10839
日期	-10840
是啊	-10841
是大	-10842
暗喻	-10843
本科	-10844
机率	-10845
杂耍	-10846
杰出	-10847
次方	-10848
歇尔	-10849
比方	-10850
水分	-10851
流通	-10852
流量	-10853
深信	-10854
混凝	-10855
滚动	-10856
爬上	-10857
爱滋	-10858
特尔	-10859
生机	-10860
用过	-10861
电缆	-10862
电网	-10863
画出	-10864
画廊	-10865
的信	-10866
皮质	-10867
盲目	-10868
睡着	-10869
研讨	-10870
第五	-10871
素材	-10872
终身	-10873
能被	-10874
芬奇	-10875
说唱	-10876
谷物	-10877
贝拉	-10878
这三	-10879
迷失	-10880
透了	-10881
途中	-10882
锁定	-10883
les	-10884
ust	-10885
▁Ar	-10886
▁一年	-10887
▁一张	-10888
▁也在	-10889
▁喜欢	-10890
▁宗教	-10891
▁测试	-10892
▁能源	-10893
▁表明	-10894
▁进而	-10895
▁远远	-10896
万美金	-10897
上大学	-10898
中找到	-10899
交流的	-10900
什么都	-10901
仔细看	-10902
他们为	-10903
会议上	-10904
你如何	-10905
公里的	-10906
卡路里	-10907
发表了	-10908
可以做	-10909
和经济	-10910
在地上	-10911
多大的	-10912
大约是	-10913
宝贵的	-10914
将这个	-10915
就会被	-10916
影响着	-10917
我的手	-10918
普遍的	-10919
最早的	-10920
有这个	-10921
极好的	-10922
清晰的	-10923
点什么	-10924
现代的	-10925
生命体	-10926
的可能	-10927
的战争	-10928
的消息	-10929
的范围	-10930
研究者	-10931
第一批	-10932
管理员	-10933
耶路撒	-10934
葡萄酒	-10935
谈一谈	-10936
谈到的	-10937
责任感	-10938
这并不	-10939
进监狱	-10940
部分是	-10941
领域中	-10942
驾驶员	-10943
▁你甚至	-10944
▁其中的	-10945
▁创造出	-10946
▁和他们	-10947
▁在那儿	-10948
▁我有个	-10949
▁我突然	-10950
▁有点像	-10951
▁美国的	-10952
▁而这种	-10953
▁这是他	-10954
一些关于	-10955
一模一样	-10956
一直以来	-10957
不好意思	-10958
世界银行	-10959
令人震惊	-10960
在自己的	-10961
基地组织	-10962
基本上是	-10963
已经成为	-10964
息息相关	-10965
把他们的	-10966
操作系统	-10967
数以百万	-10968
有自己的	-10969
的时候了	-10970
的那一刻	-10971
看到一些	-10972
美国政府	-10973
聪明的人	-10974
自然而然	-10975
足够多的	-10976
这么简单	-10977
那么多的	-10978
▁他们觉得	-10979
▁他是一个	-10980
▁我不认为	-10981
▁我们一起	-10982
▁我们喜欢	-10983
▁我和我的	-10984
▁所以当我	-10985
▁斯蒂芬尼	-10986
▁这个数字	-10987
人类历史上	-10988
开始的时候	-10989
解决问题的	-10990
▁我们可以在	-10991
▁我们来看看	-10992
▁某种程度上	-10993
49	-10994
▁亿	-10995
▁博	-10996
▁干	-10997
▁强	-10998
▁拍	-10999
▁指	-11000
▁梅	-11001
▁谢	-11002
一团	-11003
世代	-11004
东京	-11005
东尼	-11006
产卵	-11007
人力	-11008
体温	-11009
作了	-11010
兔子	-11011
冰岛	-11012
切实	-11013
助手	-11014
却在	-11015
吸入	-11016
因果	-11017
固的	-11018
国度	-11019
地毯	-11020
奉献	-11021
女王	-11022
定制	-11023
密斯	-11024
密的	-11025
对撞	-11026
导向	-11027
崇拜	-11028
巴尔	-11029
市旗	-11030
平的	-11031
开拓	-11032
徒步	-11033
得太	-11034
微弱	-11035
怜悯	-11036
怪兽	-11037
总部	-11038
悬浮	-11039
成真	-11040
打字	-11041
扔掉	-11042
抬头	-11043
排泄	-11044
插入	-11045
救护	-11046
旨在	-11047
更糟	-11048
最难	-11049
格雷	-11050
民间	-11051
沉迷	-11052
沙子	-11053
治理	-11054
波罗	-11055
流传	-11056
狂热	-11057
生俱	-11058
电源	-11059
的脸	-11060
祖国	-11061
站着	-11062
简易	-11063
精细	-11064
纳税	-11065
而上	-11066
自从	-11067
致敬	-11068
花生	-11069
薪水	-11070
藻类	-11071
虫的	-11072
解开	-11073
试者	-11074
转身	-11075
造型	-11076
造物	-11077
量化	-11078
降解	-11079
飞跃	-11080
ens	-11081
ett	-11082
ice	-11083
ike	-11084
▁不然	-11085
▁互相	-11086
▁但从	-11087
▁公民	-11088
▁发出	-11089
▁增加	-11090
▁多数	-11091
▁彼此	-11092
▁德国	-11093
▁我向	-11094
▁我最	-11095
▁整整	-11096
▁是有	-11097
▁晚上	-11098
▁男性	-11099
▁相互	-11100
▁而不	-11101
▁蜜蜂	-11102
▁这比	-11103
一回事	-11104
一大堆	-11105
一种新	-11106
上来说	-11107
不会被	-11108
习惯于	-11109
什么事	-11110
以一个	-11111
以下的	-11112
会变成	-11113
会成为	-11114
作品中	-11115
作用的	-11116
创建了	-11117
动物园	-11118
努力地	-11119
包括了	-11120
北极熊	-11121
同事们	-11122
和文化	-11123
和设计	-11124
城市中	-11125
多利亚	-11126
大脑里	-11127
小提琴	-11128
就会有	-11129
开始吧	-11130
很兴奋	-11131
得出的	-11132
我们再	-11133
房子的	-11134
新加坡	-11135
更安全	-11136
栋建筑	-11137
流行的	-11138
海平面	-11139
混凝土	-11140
漫长的	-11141
火星车	-11142
版本的	-11143
男性的	-11144
的收入	-11145
的母亲	-11146
相结合	-11147
知识的	-11148
管理局	-11149
老师们	-11150
老年人	-11151
而代之	-11152
自己说	-11153
许多的	-11154
谈的是	-11155
这一天	-11156
这个是	-11157
遗传学	-11158
都无法	-11159
陷入了	-11160
非营利	-11161
非零和	-11162
马斯克	-11163
▁一直到	-11164
▁他们所	-11165
▁刚开始	-11166
▁我妈妈	-11167
▁我是在	-11168
▁我经常	-11169
▁我说的	-11170
▁更好的	-11171
▁而且在	-11172
▁而且是	-11173
▁这一次	-11174
一开始就	-11175
不确定性	-11176
专业人士	-11177
了解这些	-11178
亚伯拉罕	-11179
可以说是	-11180
告诉人们	-11181
在一起的	-11182
尽可能的	-11183
很多地方	-11184
感兴趣的	-11185
我们不是	-11186
我们自身	-11187
我们这个	-11188
接下来要	-11189
知道这些	-11190
美国人的	-11191
认为自己	-11192
还有什么	-11193
这种感觉	-11194
那些我们	-11195
那是一个	-11196
非常大的	-11197
▁因为现在	-11198
▁我们确实	-11199
▁我的父母	-11200
▁第一个是	-11201
▁这样的话	-11202
之间的联系	-11203
工作的时候	-11204
我最喜欢的	-11205
截然不同的	-11206
独一无二的	-11207
联邦调查局	-11208
重要的事情	-11209
▁对于我来说	-11210
▁但是如果我们	-11211
Am	-11212
ib	-11213
”(	-11214
▁a	-11215
▁‘	-11216
▁低	-11217
▁家	-11218
▁莉	-11219
一阵	-11220
上是	-11221
上过	-11222
不变	-11223
不只	-11224
乐于	-11225
乘以	-11226
伙子	-11227
位数	-11228
先驱	-11229
全职	-11230
切尔	-11231
前沿	-11232
千人	-11233
千米	-11234
反正	-11235
吃一	-11236
合并	-11237
和大	-11238
嘴里	-11239
国外	-11240
外表	-11241
大事	-11242
大笑	-11243
奥尔	-11244
孕育	-11245
定居	-11246
宣扬	-11247
导弹	-11248
布尔	-11249
并没	-11250
微妙	-11251
忧虑	-11252
急救	-11253
情的	-11254
我一	-11255
护者	-11256
改良	-11257
教义	-11258
教的	-11259
普勒	-11260
服从	-11261
条例	-11262
某天	-11263
核聚	-11264
欢乐	-11265
气温	-11266
泽西	-11267
洛伊	-11268
流的	-11269
湿地	-11270
源头	-11271
王国	-11272
环形	-11273
电图	-11274
畅销	-11275
病患	-11276
皇家	-11277
相片	-11278
空军	-11279
空洞	-11280
突触	-11281
立马	-11282
管制	-11283
紫色	-11284
而去	-11285
自发	-11286
船长	-11287
芬兰	-11288
菌丝	-11289
裂缝	-11290
言之	-11291
讲了	-11292
说他	-11293
赞同	-11294
躲避	-11295
辛苦	-11296
边上	-11297
迷因	-11298
送上	-11299
逃跑	-11300
造影	-11301
造的	-11302
遗忘	-11303
问过	-11304
陈述	-11305
霍乱	-11306
颗粒	-11307
马尔	-11308
鸟儿	-11309
end	-11310
lex	-11311
mat	-11312
ory	-11313
▁TK	-11314
▁一群	-11315
▁他用	-11316
▁住在	-11317
▁农业	-11318
▁加贝	-11319
▁大型	-11320
▁妇女	-11321
▁很少	-11322
▁恐惧	-11323
▁沿着	-11324
▁演讲	-11325
▁进化	-11326
▁避免	-11327
两年前	-11328
了一名	-11329
了一段	-11330
了多少	-11331
任何的	-11332
你所见	-11333
克林顿	-11334
内部的	-11335
准确地	-11336
出一些	-11337
分子的	-11338
创始人	-11339
创造性	-11340
制造了	-11341
北部的	-11342
单一的	-11343
可卡因	-11344
各地的	-11345
在学校	-11346
安全套	-11347
对你们	-11348
对它们	-11349
岁大的	-11350
年以前	-11351
应用在	-11352
度过了	-11353
开始于	-11354
弦理论	-11355
当中的	-11356
得更好	-11357
怎么了	-11358
想法和	-11359
我个人	-11360
我们来	-11361
我就是	-11362
找一个	-11363
有几个	-11364
植物的	-11365
沃尔玛	-11366
清真寺	-11367
潜水器	-11368
的费用	-11369
相信我	-11370
相反的	-11371
美国和	-11372
让别人	-11373
转变成	-11374
转折点	-11375
过很多	-11376
都会有	-11377
音乐会	-11378
1998	-11379
2015	-11380
6000	-11381
inux	-11382
▁你们中	-11383
▁对不起	-11384
▁我们给	-11385
▁我最近	-11386
▁找到了	-11387
▁有多少	-11388
▁来解决	-11389
▁简单的	-11390
▁说实话	-11391
▁这将会	-11392
▁这是由	-11393
一点都不	-11394
不是这样	-11395
你的孩子	-11396
关注的是	-11397
十分之一	-11398
发现这些	-11399
可以成为	-11400
奇怪的是	-11401
它看起来	-11402
我的意思	-11403
所作所为	-11404
是不够的	-11405
最后一次	-11406
有意思的	-11407
看不到的	-11408
研究中心	-11409
这个领域	-11410
▁他们就会	-11411
▁他告诉我	-11412
▁众所周知	-11413
▁但这不是	-11414
▁大家可以	-11415
▁就像我们	-11416
▁并且他们	-11417
▁我们经常	-11418
▁我们能否	-11419
这样的地方	-11420
国内生产总值	-11421
▁所以我们可以	-11422
An	-11423
MA	-11424
MT	-11425
Sc	-11426
▁半	-11427
▁白	-11428
▁莫	-11429
▁莱	-11430
▁跳	-11431
七八	-11432
万亿	-11433
不满	-11434
两百	-11435
中了	-11436
习俗	-11437
产权	-11438
亲吻	-11439
从小	-11440
伐木	-11441
传到	-11442
传奇	-11443
伸展	-11444
何方	-11445
八个	-11446
再说	-11447
制片	-11448
削弱	-11449
剧本	-11450
助理	-11451
医保	-11452
发病	-11453
向外	-11454
吸毒	-11455
喜好	-11456
回馈	-11457
境界	-11458
夜间	-11459
夫人	-11460
奔跑	-11461
她会	-11462
学了	-11463
官僚	-11464
实例	-11465
小小	-11466
尼泊	-11467
尽头	-11468
展品	-11469
幻肢	-11470
开口	-11471
归属	-11472
德华	-11473
念头	-11474
怪异	-11475
恰当	-11476
恶魔	-11477
手腕	-11478
抱着	-11479
拉登	-11480
按下	-11481
排斥	-11482
接口	-11483
推理	-11484
敬畏	-11485
整套	-11486
斯基	-11487
曾被	-11488
最快	-11489
本土	-11490
机动	-11491
机能	-11492
极具	-11493
构思	-11494
某处	-11495
每月	-11496
毒性	-11497
比你	-11498
法语	-11499
清晨	-11500
烦恼	-11501
特例	-11502
生死	-11503
痴迷	-11504
的老	-11505
眼的	-11506
神的	-11507
稍稍	-11508
纳粹	-11509
绕着	-11510
缓解	-11511
网球	-11512
置疑	-11513
翻转	-11514
考古	-11515
肚子	-11516
菜单	-11517
蚁穴	-11518
要从	-11519
要问	-11520
见识	-11521
记载	-11522
话语	-11523
谈的	-11524
跑道	-11525
轰炸	-11526
迫使	-11527
适当	-11528
选手	-11529
通知	-11530
速率	-11531
那场	-11532
部份	-11533
重重	-11534
镜片	-11535
长得	-11536
骨髓	-11537
1.5	-11538
140	-11539
DVD	-11540
▁Mc	-11541
▁也就	-11542
▁他叫	-11543
▁你对	-11544
▁健康	-11545
▁分析	-11546
▁医疗	-11547
▁可惜	-11548
▁合作	-11549
▁我更	-11550
▁昨天	-11551
▁是对	-11552
▁是被	-11553
▁电视	-11554
▁觉得	-11555
▁谈论	-11556
▁起初	-11557
▁还在	-11558
▁采用	-11559
一群人	-11560
不能用	-11561
了超过	-11562
人行道	-11563
从我的	-11564
从没有	-11565
仔细地	-11566
作曲家	-11567
内在的	-11568
即使是	-11569
历史中	-11570
去那里	-11571
参与的	-11572
多年来	-11573
多或少	-11574
如何呢	-11575
对人类	-11576
局限于	-11577
很显然	-11578
很聪明	-11579
微积分	-11580
感应器	-11581
我妈妈	-11582
我是说	-11583
是由于	-11584
显著的	-11585
有一半	-11586
有一只	-11587
有两种	-11588
服务于	-11589
来说明	-11590
模式的	-11591
民主党	-11592
活动家	-11593
物体的	-11594
物质的	-11595
的梦想	-11596
的电话	-11597
的真实	-11598
看见的	-11599
站出来	-11600
英尺高	-11601
药物的	-11602
街道上	-11603
被诊断	-11604
说他们	-11605
请举手	-11606
采用了	-11607
非暴力	-11608
麦当劳	-11609
tube	-11610
▁今天我	-11611
▁发现了	-11612
▁告诉我	-11613
▁在你的	-11614
▁在英国	-11615
▁在许多	-11616
▁如果说	-11617
▁它们都	-11618
▁已经被	-11619
▁我刚刚	-11620
▁或者在	-11621
▁所谓的	-11622
▁本质上	-11623
▁致力于	-11624
▁这确实	-11625
▁那些在	-11626
一种方式	-11627
一起合作	-11628
也不知道	-11629
他们就会	-11630
作为一种	-11631
你是一个	-11632
做到这点	-11633
千万美元	-11634
因为这个	-11635
坐在一起	-11636
处在一个	-11637
多样性的	-11638
并不需要	-11639
我们怎么	-11640
整个国家	-11641
激动人心	-11642
的方式是	-11643
社会进步	-11644
给你一个	-11645
给你们讲	-11646
艺术家们	-11647
许许多多	-11648
需要的是	-11649
▁告诉他们	-11650
▁当我们在	-11651
▁我们尝试	-11652
▁这也就是	-11653
▁这听起来	-11654
▁这是一只	-11655
▁这里有个	-11656
与众不同的	-11657
他们的孩子	-11658
大家都知道	-11659
我们在这里	-11660
有意思的是	-11661
生物多样性	-11662
聚集在一起	-11663
都是一样的	-11664
▁我知道你们	-11665
▁所以我认为	-11666
越来越多的人	-11667
▁在某种程度上	-11668
,2	-11669
34	-11670
38	-11671
ex	-11672
ht	-11673
▁丹	-11674
▁库	-11675
▁往	-11676
▁树	-11677
▁索	-11678
▁难	-11679
上演	-11680
中部	-11681
之道	-11682
云彩	-11683
从业	-11684
会员	-11685
会更	-11686
依照	-11687
停留	-11688
养蜂	-11689
冷战	-11690
出路	-11691
分化	-11692
划分	-11693
升温	-11694
君子	-11695
周五	-11696
场上	-11697
块钱	-11698
增大	-11699
大洋	-11700
天真	-11701
失落	-11702
奥运	-11703
娜塔	-11704
实物	-11705
客厅	-11706
巨人	-11707
平板	-11708
平行	-11709
开会	-11710
开办	-11711
彩色	-11712
怀着	-11713
我与	-11714
我跟	-11715
截肢	-11716
把戏	-11717
拓展	-11718
指南	-11719
换个	-11720
收购	-11721
放映	-11722
新星	-11723
服役	-11724
杀掉	-11725
标语	-11726
桌面	-11727
气象	-11728
沉积	-11729
活生	-11730
活的	-11731
流向	-11732
牛肉	-11733
球的	-11734
留意	-11735
的歌	-11736
的热	-11737
目击	-11738
直立	-11739
直观	-11740
真主	-11741
磁铁	-11742
类别	-11743
纳州	-11744
绳索	-11745
罕见	-11746
美食	-11747
耳机	-11748
联结	-11749
菌落	-11750
落后	-11751
薄的	-11752
衰竭	-11753
被判	-11754
被动	-11755
误导	-11756
请你	-11757
赤道	-11758
走的	-11759
转到	-11760
转型	-11761
运送	-11762
违背	-11763
部署	-11764
闪光	-11765
问卷	-11766
限的	-11767
魔鬼	-11768
15%	-11769
190	-11770
Car	-11771
SPR	-11772
hah	-11773
▁11	-11774
▁70	-11775
▁80	-11776
▁to	-11777
▁从事	-11778
▁它还	-11779
▁愿意	-11780
▁我正	-11781
▁投资	-11782
▁有一	-11783
▁社区	-11784
▁这和	-11785
▁这跟	-11786
▁食物	-11787
不停的	-11788
不明白	-11789
不稳定	-11790
世纪末	-11791
也非常	-11792
人一样	-11793
人群中	-11794
他们被	-11795
付出的	-11796
任何事	-11797
伦敦的	-11798
做实验	-11799
充斥着	-11800
全部的	-11801
共和国	-11802
再也不	-11803
决定要	-11804
利比亚	-11805
医生们	-11806
医院里	-11807
十年来	-11808
去帮助	-11809
去探索	-11810
又一遍	-11811
和孩子	-11812
和工作	-11813
和技术	-11814
咖啡馆	-11815
声音的	-11816
多年前	-11817
大学里	-11818
大气中	-11819
天花板	-11820
它们能	-11821
安全带	-11822
富有的	-11823
层面的	-11824
居住的	-11825
希望能	-11826
带你们	-11827
平均值	-11828
弗兰克	-11829
当人们	-11830
思想的	-11831
恢复了	-11832
我们做	-11833
我总是	-11834
我感觉	-11835
或许会	-11836
才开始	-11837
把他的	-11838
掌握了	-11839
无论是	-11840
更多人	-11841
有一张	-11842
有创意	-11843
来实现	-11844
核聚变	-11845
椅子上	-11846
深深地	-11847
清楚地	-11848
游戏中	-11849
的一名	-11850
的做法	-11851
的合作	-11852
的恐惧	-11853
的父亲	-11854
知道他	-11855
第一天	-11856
西雅图	-11857
让一个	-11858
近距离	-11859
部分的	-11860
音乐厅	-11861
黑色的	-11862
▁他可以	-11863
▁以色列	-11864
▁变成了	-11865
▁在一些	-11866
▁在所有	-11867
▁如果在	-11868
▁它就是	-11869
▁它没有	-11870
▁应该是	-11871
▁我做了	-11872
▁我将要	-11873
▁我试着	-11874
▁我这里	-11875
▁给他们	-11876
▁能够在	-11877
▁越来越	-11878
▁这已经	-11879
不同寻常	-11880
不是为了	-11881
公共卫生	-11882
关于这个	-11883
大家可以	-11884
宇宙中的	-11885
已经有了	-11886
很多很多	-11887
成了一个	-11888
新的东西	-11889
新陈代谢	-11890
是如此的	-11891
有一定的	-11892
每天都在	-11893
研究表明	-11894
艺术作品	-11895
还不知道	-11896
这种技术	-11897
▁人们开始	-11898
▁但我觉得	-11899
▁你也许会	-11900
▁你能想象	-11901
▁因为它是	-11902
▁在这样的	-11903
▁如果你把	-11904
▁我们使用	-11905
▁我们拥有	-11906
▁我们通常	-11907
▁我看到了	-11908
▁然后他说	-11909
▁这项技术	-11910
你所看到的	-11911
我们不知道	-11912
自己的孩子	-11913
艾滋病病毒	-11914
▁对我们来说	-11915
▁我们还需要	-11916
3.	-11917
ox	-11918
▁吉	-11919
▁嗨	-11920
▁嘿	-11921
▁戴	-11922
一会	-11923
万的	-11924
中等	-11925
临终	-11926
了几	-11927
事会	-11928
仁慈	-11929
会计	-11930
但这	-11931
住的	-11932
你我	-11933
假期	-11934
做爱	-11935
光照	-11936
写出	-11937
冷静	-11938
出门	-11939
切地	-11940
切除	-11941
劳工	-11942
勃勃	-11943
十倍	-11944
午饭	-11945
号的	-11946
后退	-11947
地产	-11948
地平	-11949
地板	-11950
坚强	-11951
基石	-11952
境地	-11953
大选	-11954
失踪	-11955
家务	-11956
将被	-11957
小儿	-11958
就好	-11959
嵌入	-11960
市郊	-11961
广义	-11962
开设	-11963
强子	-11964
当他	-11965
快要	-11966
性爱	-11967
我正	-11968
手势	-11969
政党	-11970
文档	-11971
新奇	-11972
昨晚	-11973
最爱	-11974
有害	-11975
木偶	-11976
权衡	-11977
棕色	-11978
每日	-11979
泰勒	-11980
活性	-11981
浓缩	-11982
港口	-11983
特效	-11984
犯了	-11985
狗狗	-11986
登山	-11987
硫化	-11988
秘鲁	-11989
移除	-11990
索沃	-11991
纹身	-11992
羞愧	-11993
背上	-11994
胜过	-11995
荒唐	-11996
要说	-11997
认证	-11998
讲到	-11999
走在	-12000
起初	-12001
越过	-12002
踏上	-12003
车道	-12004
轮子	-12005
轻轻	-12006
还多	-12007
遍了	-12008
那段	-12009
重叠	-12010
队的	-12011
风力	-12012
飞翔	-12013
饲养	-12014
,10	-12015
350	-12016
Wik	-12017
ass	-12018
ock	-12019
▁Sh	-12020
▁人均	-12021
▁人的	-12022
▁他有	-12023
▁保罗	-12024
▁去做	-12025
▁只需	-12026
▁处于	-12027
▁大多	-12028
▁幸福	-12029
▁欢迎	-12030
▁正常	-12031
▁能在	-12032
▁莉莉	-12033
▁行为	-12034
▁请看	-12035
▁财富	-12036
▁身为	-12037
▁这让	-12038
▁阿尔	-12039
一代的	-12040
一方面	-12041
个体的	-12042
为人知	-12043
了一家	-12044
了你的	-12045
了自己	-12046
人人都	-12047
他可以	-12048
他自己	-12049
会带来	-12050
你能够	-12051
信用卡	-12052
关键是	-12053
制作了	-12054
制成的	-12055
努力的	-12056
发展到	-12057
土地上	-12058
塑料袋	-12059
大家的	-12060
就好了	-12061
就行了	-12062
工作和	-12063
很复杂	-12064
必须在	-12065
怎么会	-12066
我们最	-12067
我就能	-12068
摩托车	-12069
是好的	-12070
是这么	-12071
更小的	-12072
曾说过	-12073
朋友和	-12074
材料的	-12075
某一天	-12076
注射器	-12077
深远的	-12078
然后说	-12079
的一张	-12080
的建议	-12081
的权利	-12082
的标准	-12083
的空气	-12084
的规模	-12085
的质量	-12086
的途径	-12087
相对论	-12088
突然间	-12089
背景下	-12090
行得通	-12091
计算出	-12092
让这个	-12093
走出来	-12094
还是在	-12095
这一步	-12096
进行着	-12097
那么的	-12098
非常高	-12099
飞天车	-12100
飞行的	-12101
2030	-12102
▁---	-12103
▁他就是	-12104
▁对他们	-12105
▁想想看	-12106
▁我从没	-12107
▁我其实	-12108
▁我打算	-12109
▁我来自	-12110
▁有人说	-12111
▁有可能	-12112
不用担心	-12113
也是一种	-12114
人的生活	-12115
他们能够	-12116
会有什么	-12117
住在一个	-12118
创建一个	-12119
因为它们	-12120
在他们的	-12121
奥林匹克	-12122
就有一个	-12123
建造一个	-12124
我们一起	-12125
我们就会	-12126
把自己的	-12127
教育系统	-12128
早些时候	-12129
更重要的	-12130
有意义的	-12131
用自己的	-12132
的一个小	-12133
都是一个	-12134
问题所在	-12135
首席执行	-12136
黏液霉菌	-12137
10000	-12138
RISPR	-12139
▁2005	-12140
▁以及他们	-12141
▁因为这样	-12142
▁如果一个	-12143
▁尽管如此	-12144
▁我们不仅	-12145
▁我们人类	-12146
▁这是一件	-12147
▁这是一项	-12148
不可避免的	-12149
尼安德特人	-12150
所有的东西	-12151
提供了一个	-12152
每个人都能	-12153
百分之二十	-12154
面临的挑战	-12155
▁David	-12156
▁为什么我们	-12157
▁我们必须要	-12158
▁我们意识到	-12159
▁我们看到了	-12160
▁所以我们的	-12161
▁所以我开始	-12162
▁我不知道你们	-12163
▁我们可以通过	-12164
85	-12165
BI	-12166
IP	-12167
ew	-12168
▁c	-12169
▁刚	-12170
▁推	-12171
▁未	-12172
▁热	-12173
▁算	-12174
一共	-12175
一艘	-12176
不但	-12177
不自	-12178
中年	-12179
为主	-12180
举例	-12181
之家	-12182
五岁	-12183
人种	-12184
亿年	-12185
今后	-12186
促成	-12187
信奉	-12188
借鉴	-12189
假说	-12190
光学	-12191
共事	-12192
几率	-12193
凯文	-12194
初始	-12195
动员	-12196
华丽	-12197
只想	-12198
号召	-12199
周年	-12200
唤醒	-12201
器械	-12202
土豆	-12203
坚硬	-12204
夜里	-12205
大洲	-12206
太大	-12207
太高	-12208
姆琳	-12209
子宫	-12210
宏伟	-12211
寂静	-12212
屋里	-12213
岁月	-12214
带了	-12215
废料	-12216
强加	-12217
必定	-12218
总量	-12219
恋爱	-12220
感冒	-12221
战后	-12222
房里	-12223
把她	-12224
护照	-12225
授粉	-12226
摇晃	-12227
摔倒	-12228
斯托	-12229
普拉	-12230
更具	-12231
月经	-12232
有生	-12233
架上	-12234
氛围	-12235
水准	-12236
水域	-12237
汇聚	-12238
洛斯	-12239
流体	-12240
流失	-12241
灌木	-12242
烟雾	-12243
用电	-12244
的门	-12245
看它	-12246
石器	-12247
答应	-12248
纠正	-12249
网格	-12250
耳蜗	-12251
耻辱	-12252
致癌	-12253
舌头	-12254
草图	-12255
解析	-12256
评分	-12257
说谎	-12258
谁会	-12259
谜团	-12260
走神	-12261
越高	-12262
进口	-12263
迷惑	-12264
选民	-12265
配方	-12266
重现	-12267
音调	-12268
预知	-12269
食堂	-12270
鹅肝	-12271
900	-12272
95%	-12273
IBM	-12274
bed	-12275
our	-12276
ree	-12277
▁Ch	-12278
▁Sp	-12279
▁不如	-12280
▁估计	-12281
▁但要	-12282
▁像我	-12283
▁周围	-12284
▁坦白	-12285
▁埃隆	-12286
▁大量	-12287
▁将其	-12288
▁将它	-12289
▁打印	-12290
▁拍摄	-12291
▁数字	-12292
▁每周	-12293
▁看来	-12294
▁这两	-12295
▁这又	-12296
▁马上	-12297
一直到	-12298
一直都	-12299
不会再	-12300
不会是	-12301
了那些	-12302
二进制	-12303
今为止	-12304
会如何	-12305
做成的	-12306
停止了	-12307
分布在	-12308
利用它	-12309
到你的	-12310
到我的	-12311
到达了	-12312
十年后	-12313
发动机	-12314
台电脑	-12315
启动了	-12316
喜马拉	-12317
圣保罗	-12318
处理的	-12319
大学生	-12320
天然的	-12321
如何在	-12322
它就是	-12323
将自己	-12324
层次的	-12325
已有的	-12326
很有用	-12327
我们与	-12328
我就会	-12329
我感到	-12330
我所说	-12331
托姆琳	-12332
把那些	-12333
方法来	-12334
是用来	-12335
最基本	-12336
最棒的	-12337
有影响	-12338
来结束	-12339
橄榄球	-12340
民主的	-12341
污染物	-12342
火星上	-12343
的妇女	-12344
的成本	-12345
的汽车	-12346
的治疗	-12347
的认识	-12348
真是太	-12349
真正想	-12350
能为力	-12351
让我的	-12352
谈论的	-12353
过来了	-12354
这一刻	-12355
这么大	-12356
避难所	-12357
那不是	-12358
那么做	-12359
长大了	-12360
闻起来	-12361
1970	-12362
1999	-12363
arry	-12364
orge	-12365
▁不仅是	-12366
▁他已经	-12367
▁传统的	-12368
▁你无法	-12369
▁到现在	-12370
▁在整个	-12371
▁如果他	-12372
▁它已经	-12373
▁巨大的	-12374
▁已经有	-12375
▁很容易	-12376
▁得到了	-12377
▁我尝试	-12378
▁第一种	-12379
▁这似乎	-12380
▁这是很	-12381
亚特兰大	-12382
令人振奋	-12383
你的生活	-12384
其他一些	-12385
化学反应	-12386
发现自己	-12387
告诉我的	-12388
喜马拉雅	-12389
大多数的	-12390
对自己说	-12391
尽可能地	-12392
带给我们	-12393
很多人都	-12394
惊讶的是	-12395
意识到了	-12396
我们确实	-12397
所拥有的	-12398
所有事情	-12399
是什么样	-12400
来看一下	-12401
现在正在	-12402
生命中的	-12403
观众笑声	-12404
观察到的	-12405
这一切都	-12406
这个理论	-12407
阿姆斯特	-12408
非常兴奋	-12409
非洲国家	-12410
▁不是因为	-12411
▁为什么不	-12412
▁因为我想	-12413
▁如果你不	-12414
▁如果你去	-12415
▁如果这些	-12416
▁我们当时	-12417
▁我找到了	-12418
▁我觉得这	-12419
▁所以它们	-12420
▁所以当你	-12421
▁最重要的	-12422
▁有的时候	-12423
不同的地方	-12424
今天的演讲	-12425
做些什么呢	-12426
到目前为止	-12427
告诉我们的	-12428
如果我们能	-12429
有什么关系	-12430
的一小部分	-12431
这样的问题	-12432
首席执行官	-12433
ipedia	-12434
▁如果你想要	-12435
▁当我第一次	-12436
▁在这种情况下	-12437
,7	-12438
58	-12439
Em	-12440
▁'	-12441
▁l	-12442
▁右	-12443
▁塞	-12444
▁抗	-12445
▁紧	-12446
▁行	-12447
▁车	-12448
一页	-12449
下水	-12450
世了	-12451
东非	-12452
临界	-12453
主管	-12454
乐谱	-12455
买的	-12456
交汇	-12457
仇恨	-12458
他还	-12459
会从	-12460
住所	-12461
佛教	-12462
全的	-12463
内卢	-12464
写过	-12465
减弱	-12466
切片	-12467
刊登	-12468
利他	-12469
剧烈	-12470
协力	-12471
压抑	-12472
参照	-12473
又说	-12474
变性	-12475
口音	-12476
叫我	-12477
合唱	-12478
向他	-12479
向的	-12480
四肢	-12481
国务	-12482
声的	-12483
奖项	-12484
宝石	-12485
客人	-12486
就更	-12487
就说	-12488
山的	-12489
岩洞	-12490
州长	-12491
左手	-12492
巧妙	-12493
席卷	-12494
幅画	-12495
平和	-12496
年底	-12497
废水	-12498
开朗	-12499
很远	-12500
得分	-12501
德尔	-12502
恶性	-12503
情愿	-12504
抗拒	-12505
握手	-12506
放了	-12507
更小	-12508
机关	-12509
格拉	-12510
植被	-12511
浴室	-12512
海拔	-12513
温柔	-12514
点上	-12515
照料	-12516
特勒	-12517
甚么	-12518
生了	-12519
用法	-12520
盟友	-12521
移到	-12522
章鱼	-12523
筹款	-12524
缩短	-12525
联络	-12526
肉类	-12527
胸部	-12528
能的	-12529
腐烂	-12530
范例	-12531
草地	-12532
补贴	-12533
装满	-12534
西西	-12535
讲台	-12536
读取	-12537
贝卡	-12538
贫富	-12539
贾丝	-12540
路程	-12541
辨识	-12542
近期	-12543
退化	-12544
造福	-12545
酷的	-12546
重返	-12547
野蛮	-12548
附加	-12549
随身	-12550
面试	-12551
高层	-12552
ace	-12553
ole	-12554
pha	-12555
▁Be	-12556
▁世上	-12557
▁乔治	-12558
▁便是	-12559
▁全国	-12560
▁包含	-12561
▁年轻	-12562
▁男孩	-12563
▁管理	-12564
▁而它	-12565
▁这件	-12566
▁这还	-12567
▁那你	-12568
▁长期	-12569
▁黑人	-12570
一张纸	-12571
不了的	-12572
交响乐	-12573
人生中	-12574
他们不	-12575
他们去	-12576
令我们	-12577
但他们	-12578
低收入	-12579
体内的	-12580
允许我	-12581
关闭了	-12582
农作物	-12583
准备的	-12584
出生在	-12585
北卡罗	-12586
十分钟	-12587
占据了	-12588
去年的	-12589
反映了	-12590
发生着	-12591
取代了	-12592
另一端	-12593
回来的	-12594
国家里	-12595
土地的	-12596
在场的	-12597
增长率	-12598
好像是	-12599
娜塔莎	-12600
学家们	-12601
它没有	-12602
定义为	-12603
就是你	-12604
尼泊尔	-12605
年之前	-12606
年左右	-12607
当一个	-12608
提到过	-12609
支持者	-12610
是时候	-12611
最小的	-12612
有价值	-12613
来控制	-12614
来改变	-12615
来谈谈	-12616
活着的	-12617
激动的	-12618
烤面包	-12619
热内卢	-12620
环境里	-12621
瘾君子	-12622
的了解	-12623
的事儿	-12624
的思想	-12625
的感受	-12626
的数字	-12627
的症状	-12628
的精神	-12629
的身体	-12630
看到过	-12631
硫化氢	-12632
科学界	-12633
简短的	-12634
索马里	-12635
给你看	-12636
统计学	-12637
艰难的	-12638
英国人	-12639
被用来	-12640
计算器	-12641
走过来	-12642
过这些	-12643
运动中	-12644
运用到	-12645
还有个	-12646
这些都	-12647
道路上	-12648
eter	-12649
icha	-12650
▁一系列	-12651
▁他正在	-12652
▁同样地	-12653
▁在中国	-12654
▁它们有	-12655
▁它叫做	-12656
▁我们该	-12657
▁我会说	-12658
▁我认识	-12659
▁特斯拉	-12660
▁还记得	-12661
▁这两种	-12662
▁这个词	-12663
▁这也许	-12664
▁这是从	-12665
▁这简直	-12666
一个星期	-12667
为什么呢	-12668
什么都不	-12669
仔细想想	-12670
他们认为	-12671
做到这些	-12672
做的一个	-12673
其他地区	-12674
印第安人	-12675
可以帮助	-12676
同一时间	-12677
国家地理	-12678
在这方面	-12679
如果你在	-12680
如此多的	-12681
安全座椅	-12682
强子对撞	-12683
成为可能	-12684
我们可能	-12685
我们拥有	-12686
我们都是	-12687
我就可以	-12688
提醒我们	-12689
搜索引擎	-12690
搜索结果	-12691
摩尔定律	-12692
放在一个	-12693
有很多的	-12694
根本无法	-12695
段时间里	-12696
注意的是	-12697
的基础上	-12698
的方法是	-12699
的时间和	-12700
联邦政府	-12701
营养不良	-12702
角度来说	-12703
这项研究	-12704
通过这些	-12705
遗憾的是	-12706
那个地方	-12707
需要帮助	-12708
非常困难	-12709
▁2008	-12710
▁2009	-12711
▁事实证明	-12712
▁他们能够	-12713
▁但我知道	-12714
▁但是对于	-12715
▁你们现在	-12716
▁你可以从	-12717
▁你还可以	-12718
▁我们有了	-12719
▁我的朋友	-12720
▁这个方法	-12721
▁这是他们	-12722
▁那么现在	-12723
▁问题在于	-12724
时间的推移	-12725
没有意识到	-12726
没有足够的	-12727
里约热内卢	-12728
▁到目前为止	-12729
▁如果我们不	-12730
▁所以我们在	-12731
▁而且我认为	-12732
是如何工作的	-12733
▁女士们先生们	-12734
▁让我们来看看	-12735
,8	-12736
31	-12737
44	-12738
95	-12739
FO	-12740
▁亦	-12741
▁倒	-12742
▁少	-12743
▁尽	-12744
▁收	-12745
▁点	-12746
▁眼	-12747
▁经	-12748
▁苏	-12749
▁迪	-12750
一试	-12751
一门	-12752
三百	-12753
上而	-12754
两张	-12755
亲人	-12756
人家	-12757
人格	-12758
仁爱	-12759
会很	-12760
做完	-12761
充足	-12762
兴起	-12763
冒着	-12764
几位	-12765
前方	-12766
力和	-12767
勒比	-12768
十八	-12769
单身	-12770
又能	-12771
变换	-12772
启蒙	-12773
喷射	-12774
嘴巴	-12775
地亚	-12776
地形	-12777
基里	-12778
外出	-12779
大街	-12780
太过	-12781
失控	-12782
宁愿	-12783
小段	-12784
小额	-12785
就跟	-12786
带动	-12787
带我	-12788
建的	-12789
弗里	-12790
当年	-12791
待在	-12792
心跳	-12793
性交	-12794
想在	-12795
戈斯	-12796
我猜	-12797
所要	-12798
执法	-12799
抵制	-12800
拜托	-12801
指的	-12802
排在	-12803
掠夺	-12804
攀登	-12805
支柱	-12806
数值	-12807
断了	-12808
方达	-12809
无趣	-12810
时每	-12811
更能	-12812
村里	-12813
样式	-12814
根深	-12815
步伐	-12816
水池	-12817
汇集	-12818
流逝	-12819
渔民	-12820
片断	-12821
环顾	-12822
电邮	-12823
的上	-12824
的公	-12825
的内	-12826
的后	-12827
真诚	-12828
知情	-12829
短缺	-12830
示范	-12831
秋天	-12832
笛子	-12833
纳德	-12834
纷纷	-12835
蜂巢	-12836
被打	-12837
被送	-12838
触觉	-12839
议院	-12840
诱因	-12841
进攻	-12842
退出	-12843
选了	-12844
通风	-12845
那片	-12846
都说	-12847
鉴定	-12848
钻石	-12849
问她	-12850
颠倒	-12851
首相	-12852
麻木	-12853
130	-12854
ans	-12855
arr	-12856
ony	-12857
ton	-12858
▁RM	-12859
▁但对	-12860
▁但最	-12861
▁展现	-12862
▁我可	-12863
▁普通	-12864
▁真实	-12865
▁空气	-12866
▁穿越	-12867
▁细菌	-12868
▁自动	-12869
▁花了	-12870
▁解释	-12871
▁走进	-12872
▁过了	-12873
一些事	-12874
一旦你	-12875
下去了	-12876
不能被	-12877
两分钟	-12878
中间的	-12879
会发现	-12880
会看到	-12881
体会到	-12882
你的手	-12883
做决定	-12884
出一种	-12885
去改变	-12886
发明家	-12887
发表的	-12888
受教育	-12889
可以为	-12890
各自的	-12891
和女人	-12892
和教育	-12893
和服务	-12894
回答是	-12895
回答道	-12896
在欧洲	-12897
外太空	-12898
宗教的	-12899
将来的	-12900
就像在	-12901
帕金森	-12902
必须的	-12903
怎么能	-12904
恰恰是	-12905
想到了	-12906
我以前	-12907
我母亲	-12908
所在的	-12909
数据和	-12910
更健康	-12911
更少的	-12912
有问题	-12913
杂货店	-12914
来帮助	-12915
正式的	-12916
正方形	-12917
每一种	-12918
永久的	-12919
沉浸在	-12920
海洋里	-12921
潜意识	-12922
生态圈	-12923
生成的	-12924
生长的	-12925
用我的	-12926
的事是	-12927
的人才	-12928
的大气	-12929
的巨大	-12930
的广告	-12931
的投资	-12932
的表情	-12933
着这个	-12934
称其为	-12935
精彩的	-12936
精确的	-12937
给别人	-12938
规模的	-12939
设计者	-12940
贫民区	-12941
起源于	-12942
超新星	-12943
轨道上	-12944
迅速地	-12945
这家伙	-12946
适当的	-12947
那些被	-12948
震惊了	-12949
项目中	-12950
▁他开始	-12951
▁但我也	-12952
▁但最终	-12953
▁但没有	-12954
▁你会说	-12955
▁你开始	-12956
▁你真的	-12957
▁做一个	-12958
▁充满了	-12959
▁再看看	-12960
▁历史上	-12961
▁可以让	-12962
▁如果把	-12963
▁我想这	-12964
▁我那时	-12965
▁所以她	-12966
▁改变了	-12967
▁艾滋病	-12968
▁被称为	-12969
▁那么你	-12970
▁阿富汗	-12971
不是什么	-12972
中的一员	-12973
人道主义	-12974
你为什么	-12975
做好准备	-12976
出了一个	-12977
别的什么	-12978
发挥作用	-12979
发生变化	-12980
哈佛大学	-12981
大脑中的	-12982
大自然的	-12983
就在这里	-12984
很快就会	-12985
感到惊讶	-12986
我们做的	-12987
无关紧要	-12988
流感病毒	-12989
电子设备	-12990
的世界中	-12991
的大多数	-12992
的意思是	-12993
的环境下	-12994
科幻小说	-12995
第一件事	-12996
纳米比亚	-12997
给孩子们	-12998
维多利亚	-12999
通过一个	-13000
那是什么	-13001
▁世界上最	-13002
▁在他们的	-13003
▁它们都是	-13004
▁成为一个	-13005
▁我们还是	-13006
▁我是一名	-13007
▁所以你们	-13008
▁现在已经	-13009
▁现在这个	-13010
▁而且它们	-13011
▁而我认为	-13012
▁试想一下	-13013
▁这实际上	-13014
▁这看起来	-13015
▁这种方法	-13016
亚里士多德	-13017
同样的问题	-13018
大部分时间	-13019
巨大的影响	-13020
并不是一个	-13021
很大一部分	-13022
成立了一个	-13023
我们发现了	-13024
我们所有人	-13025
我们的社会	-13026
沙特阿拉伯	-13027
灵长类动物	-13028
这样的一个	-13029
▁我们一直在	-13030
▁我们为什么	-13031
▁我们所做的	-13032
▁这不是一个	-13033
▁这是我们在	-13034
▁顺便说一句	-13035
是什么样子的	-13036
▁这是一个非常	-13037
!"	-13038
MU	-13039
▁丽	-13040
▁冰	-13041
▁双	-13042
▁法	-13043
▁狗	-13044
▁身	-13045
一动	-13046
一夜	-13047
一类	-13048
三千	-13049
不复	-13050
与此	-13051
世贸	-13052
之人	-13053
之多	-13054
乌云	-13055
书里	-13056
产的	-13057
他能	-13058
会想	-13059
传粉	-13060
传说	-13061
保卫	-13062
修补	-13063
倡议	-13064
债券	-13065
做为	-13066
像素	-13067
先前	-13068
光了	-13069
养家	-13070
养老	-13071
军人	-13072
剪辑	-13073
功夫	-13074
化身	-13075
匹马	-13076
压制	-13077
厘岛	-13078
口味	-13079
口头	-13080
叫作	-13081
吸取	-13082
周日	-13083
哈德	-13084
喇嘛	-13085
堵塞	-13086
墨水	-13087
大奖	-13088
大片	-13089
奖金	-13090
女友	-13091
姓名	-13092
字符	-13093
定期	-13094
审美	-13095
害虫	-13096
对外	-13097
就很	-13098
就没	-13099
山谷	-13100
峰值	-13101
市政	-13102
常态	-13103
干了	-13104
幼虫	-13105
开销	-13106
弄清	-13107
弱势	-13108
得主	-13109
惯例	-13110
想做	-13111
想用	-13112
我了	-13113
才有	-13114
扭转	-13115
抵消	-13116
指引	-13117
挫折	-13118
收养	-13119
放回	-13120
无一	-13121
日光	-13122
明了	-13123
最先	-13124
最具	-13125
来吧	-13126
楼房	-13127
汇款	-13128
污水	-13129
没用	-13130
海外	-13131
涡轮	-13132
清洗	-13133
猎物	-13134
猪的	-13135
用药	-13136
由你	-13137
症的	-13138
的爱	-13139
盘子	-13140
福德	-13141
竞技	-13142
米尔	-13143
糖果	-13144
终止	-13145
绝佳	-13146
维修	-13147
老了	-13148
而死	-13149
致死	-13150
舞者	-13151
航班	-13152
药性	-13153
获利	-13154
虫子	-13155
蜗牛	-13156
要点	-13157
试过	-13158
说来	-13159
谈起	-13160
趋向	-13161
跳跃	-13162
躯体	-13163
车站	-13164
这时	-13165
这首	-13166
难过	-13167
靠着	-13168
音响	-13169
首领	-13170
马桶	-13171
高压	-13172
鸭子	-13173
160	-13174
And	-13175
Ver	-13176
ero	-13177
ist	-13178
▁一百	-13179
▁人民	-13180
▁从此	-13181
▁你从	-13182
▁你把	-13183
▁出现	-13184
▁复杂	-13185
▁大学	-13186
▁挑战	-13187
▁数以	-13188
▁新闻	-13189
▁早期	-13190
▁母亲	-13191
▁病毒	-13192
▁看见	-13193
▁穿着	-13194
▁经历	-13195
▁缺乏	-13196
▁肿瘤	-13197
▁视觉	-13198
▁负责	-13199
一瞬间	-13200
争议的	-13201
人性化	-13202
使它们	-13203
几十亿	-13204
出版社	-13205
分享的	-13206
原子弹	-13207
可见的	-13208
史密斯	-13209
合作者	-13210
吸引了	-13211
吸引人	-13212
回过头	-13213
在工作	-13214
女孩儿	-13215
孤儿院	-13216
尝试去	-13217
就能够	-13218
屋顶上	-13219
工作过	-13220
应有的	-13221
很开心	-13222
思考的	-13223
急诊室	-13224
意外的	-13225
我们只	-13226
放进去	-13227
教育和	-13228
是相当	-13229
有名的	-13230
有这些	-13231
权力的	-13232
来研究	-13233
根深蒂	-13234
法尼亚	-13235
活下来	-13236
照片中	-13237
特有的	-13238
的创新	-13239
的团队	-13240
的身份	-13241
的颜色	-13242
研究院	-13243
突尼斯	-13244
细小的	-13245
给一个	-13246
绝对是	-13247
网络中	-13248
观察了	-13249
视觉化	-13250
请大家	-13251
谈到了	-13252
这种事	-13253
透明度	-13254
集中营	-13255
非常大	-13256
bert	-13257
▁一部分	-13258
▁于是她	-13259
▁你想要	-13260
▁史蒂夫	-13261
▁因为有	-13262
▁大约有	-13263
▁想一想	-13264
▁每一天	-13265
▁直到我	-13266
▁相信我	-13267
▁而且你	-13268
▁而这一	-13269
▁艾瑞克	-13270
他们已经	-13271
值得我们	-13272
出乎意料	-13273
加拿大的	-13274
博士学位	-13275
可以用来	-13276
可口可乐	-13277
如何使用	-13278
对于一个	-13279
对自己的	-13280
就业机会	-13281
就开始了	-13282
就是一种	-13283
工作岗位	-13284
年轻女性	-13285
很简单的	-13286
我们使用	-13287
我们甚至	-13288
我的母亲	-13289
接受治疗	-13290
无能为力	-13291
是不同的	-13292
是巨大的	-13293
曾经说过	-13294
某些东西	-13295
的情况是	-13296
的科学家	-13297
相似之处	-13298
糟糕的是	-13299
致命武器	-13300
虚拟世界	-13301
讽刺的是	-13302
说的那样	-13303
运作方式	-13304
这个方向	-13305
这么大的	-13306
这是真的	-13307
这种想法	-13308
▁今天我要	-13309
▁他们必须	-13310
▁但我们的	-13311
▁像这样的	-13312
▁到处都是	-13313
▁因为我的	-13314
▁如果我能	-13315
▁就像一个	-13316
▁总的来说	-13317
▁我不是说	-13318
▁我们也在	-13319
▁我们也许	-13320
▁我们总是	-13321
▁我们自己	-13322
▁我们首先	-13323
▁我发现了	-13324
▁所以今天	-13325
▁看看这个	-13326
▁让我们从	-13327
▁这些就是	-13328
他们的工作	-13329
其中的一些	-13330
改变了我们	-13331
是因为我们	-13332
根本不知道	-13333
的生活方式	-13334
面临的问题	-13335
ichael	-13336
▁我从来没有	-13337
▁我们得到了	-13338
▁我认为我们	-13339
我们可以通过	-13340
▁大家可以看到	-13341
到底发生了什么	-13342
▁我们生活在一个	-13343
59	-13344
9%	-13345
AA	-13346
ER	-13347
di	-13348
ok	-13349
▁九	-13350
▁仍	-13351
▁供	-13352
▁南	-13353
▁朱	-13354
▁送	-13355
一倍	-13356
不让	-13357
东欧	-13358
主体	-13359
主权	-13360
书本	-13361
五种	-13362
介于	-13363
他所	-13364
他要	-13365
会面	-13366
伪装	-13367
你了	-13368
信件	-13369
先锋	-13370
光滑	-13371
关上	-13372
内瑞	-13373
再做	-13374
判决	-13375
十几	-13376
半岛	-13377
协商	-13378
参数	-13379
周遭	-13380
商务	-13381
四岁	-13382
地是	-13383
大道	-13384
失聪	-13385
奏效	-13386
奥秘	-13387
娃娃	-13388
学着	-13389
审核	-13390
害羞	-13391
将此	-13392
尖端	-13393
年时	-13394
并在	-13395
幻象	-13396
归根	-13397
当选	-13398
得越	-13399
德的	-13400
恰巧	-13401
您的	-13402
所欲	-13403
拖延	-13404
敌意	-13405
散布	-13406
最新	-13407
末日	-13408
树的	-13409
核电	-13410
格伦	-13411
求救	-13412
波兰	-13413
渴求	-13414
滑翔	-13415
满怀	-13416
激起	-13417
灰尘	-13418
照亮	-13419
牵涉	-13420
珍惜	-13421
珍贵	-13422
珠宝	-13423
理会	-13424
界线	-13425
益处	-13426
省下	-13427
着你	-13428
神殿	-13429
祷告	-13430
种的	-13431
第六	-13432
老的	-13433
而我	-13434
脸部	-13435
荣耀	-13436
药片	-13437
萨拉	-13438
蜂群	-13439
规矩	-13440
解码	-13441
评判	-13442
译者	-13443
课本	-13444
这门	-13445
通话	-13446
遍及	-13447
那次	-13448
金星	-13449
错过	-13450
长出	-13451
间断	-13452
附着	-13453
雷德	-13454
预见	-13455
香烟	-13456
黄蜂	-13457
,30	-13458
Ted	-13459
age	-13460
alk	-13461
itt	-13462
rew	-13463
”,“	-13464
”--	-13465
▁一样	-13466
▁他从	-13467
▁依然	-13468
▁埃及	-13469
▁她还	-13470
▁妈妈	-13471
▁彻底	-13472
▁拯救	-13473
▁暴力	-13474
▁死亡	-13475
▁移动	-13476
▁第四	-13477
▁表现	-13478
▁调查	-13479
▁这块	-13480
▁这片	-13481
▁道德	-13482
▁释放	-13483
▁飞机	-13484
一年前	-13485
一美元	-13486
一致的	-13487
万五千	-13488
三十年	-13489
也应该	-13490
他是个	-13491
会议员	-13492
你是谁	-13493
使人们	-13494
做很多	-13495
内瑞拉	-13496
出生于	-13497
分之三	-13498
前面的	-13499
单独的	-13500
后面的	-13501
和别人	-13502
和平的	-13503
因为她	-13504
地面上	-13505
多么的	-13506
天文学	-13507
太大了	-13508
失败者	-13509
奇特的	-13510
女朋友	-13511
将成为	-13512
小时内	-13513
工业化	-13514
带回家	-13515
应用的	-13516
延伸到	-13517
成立了	-13518
我听到	-13519
我如何	-13520
打破了	-13521
把整个	-13522
教室里	-13523
无数的	-13524
是一家	-13525
是一张	-13526
样子的	-13527
森林的	-13528
模型的	-13529
正在被	-13530
每个月	-13531
比其他	-13532
流动性	-13533
消防员	-13534
游戏的	-13535
灭绝了	-13536
爱的人	-13537
状态下	-13538
理解了	-13539
痛苦的	-13540
的区别	-13541
的最好	-13542
的节目	-13543
的观念	-13544
知道它	-13545
石油的	-13546
离我们	-13547
篇论文	-13548
结婚了	-13549
能做的	-13550
节目的	-13551
表达的	-13552
观点是	-13553
负面的	-13554
贫穷的	-13555
还是很	-13556
避免的	-13557
那一天	-13558
都是有	-13559
长大后	-13560
阿波罗	-13561
非常小	-13562
-2-3	-13563
2500	-13564
▁主持人	-13565
▁今天的	-13566
▁你一定	-13567
▁你们看	-13568
▁剩下的	-13569
▁可持续	-13570
▁后来我	-13571
▁因此在	-13572
▁大概有	-13573
▁如果它	-13574
▁如果这	-13575
▁就像你	-13576
▁并且它	-13577
▁成为了	-13578
▁我们便	-13579
▁换言之	-13580
▁正因为	-13581
▁相对于	-13582
▁而且还	-13583
▁让它们	-13584
▁请记住	-13585
▁这三个	-13586
▁这里面	-13587
▁这非常	-13588
不是那么	-13589
个这样的	-13590
为我们的	-13591
凌晨四点	-13592
创造一种	-13593
创造性的	-13594
到了这个	-13595
印象深刻	-13596
去的地方	-13597
只是为了	-13598
可以实现	-13599
委内瑞拉	-13600
小儿麻痹	-13601
就意味着	-13602
年的历史	-13603
很多时候	-13604
我们只是	-13605
我们把它	-13606
我们是否	-13607
我第一次	-13608
接受教育	-13609
改变了我	-13610
有足够的	-13611
没有得到	-13612
环境保护	-13613
生俱来的	-13614
的受害者	-13615
的时候就	-13616
联合起来	-13617
认为这是	-13618
设计一个	-13619
这一过程	-13620
这么多的	-13621
这些想法	-13622
需要我们	-13623
Linux	-13624
▁以及我们	-13625
▁你的大脑	-13626
▁因此他们	-13627
▁我们其实	-13628
▁我们的确	-13629
▁我很喜欢	-13630
▁气候变化	-13631
▁没有一个	-13632
▁研究人员	-13633
▁结果发现	-13634
▁而实际上	-13635
▁这个地方	-13636
▁这些孩子	-13637
与你们分享	-13638
举一个例子	-13639
国家安全局	-13640
巨大的挑战	-13641
意想不到的	-13642
的角度来看	-13643
给大家展示	-13644
自己的生活	-13645
让我们看看	-13646
这个世界的	-13647
这个星球上	-13648
非常复杂的	-13649
▁所以我们就	-13650
我们可以看到	-13651
是怎么做到的	-13652
▁Google	-13653
▁为什么会这样	-13654
Wikipedia	-13655
RA	-13656
Wh	-13657
eg	-13658
▁n	-13659
▁事	-13660
▁头	-13661
▁流	-13662
▁蓝	-13663
▁虽	-13664
一滴	-13665
上台	-13666
下个	-13667
专用	-13668
严谨	-13669
之于	-13670
他有	-13671
会让	-13672
偶像	-13673
光速	-13674
全美	-13675
凝聚	-13676
别处	-13677
剥削	-13678
力气	-13679
加尔	-13680
医护	-13681
双重	-13682
发给	-13683
变迁	-13684
可供	-13685
各类	-13686
同性	-13687
名义	-13688
吓人	-13689
听从	-13690
周后	-13691
和小	-13692
哈哈	-13693
唤起	-13694
四百	-13695
在不	-13696
填满	-13697
处女	-13698
大国	-13699
大地	-13700
奶牛	-13701
好友	-13702
好看	-13703
宝贵	-13704
家门	-13705
对她	-13706
就行	-13707
巢穴	-13708
巴克	-13709
市区	-13710
布兰	-13711
带你	-13712
建构	-13713
弥补	-13714
当局	-13715
快了	-13716
恒温	-13717
我可	-13718
我家	-13719
打动	-13720
抛开	-13721
抢劫	-13722
搞定	-13723
散播	-13724
斯蒂	-13725
时空	-13726
是把	-13727
普查	-13728
景色	-13729
有何	-13730
未被	-13731
本性	-13732
权益	-13733
条款	-13734
构架	-13735
林冠	-13736
枯燥	-13737
标示	-13738
格尔	-13739
棍子	-13740
毁了	-13741
氢气	-13742
海域	-13743
烤箱	-13744
珍珠	-13745
瓦特	-13746
瓦解	-13747
用心	-13748
甲壳	-13749
皮革	-13750
石灰	-13751
礼貌	-13752
积木	-13753
站立	-13754
等的	-13755
算出	-13756
精心	-13757
纠结	-13758
纳尔	-13759
职场	-13760
肺部	-13761
背包	-13762
自尊	-13763
芭蕾	-13764
获胜	-13765
蒙大	-13766
蜂鸟	-13767
行人	-13768
西藏	-13769
谁能	-13770
跨过	-13771
跳动	-13772
转过	-13773
轴上	-13774
过得	-13775
运河	-13776
这不	-13777
这群	-13778
进到	-13779
通向	-13780
都用	-13781
隐形	-13782
飞速	-13783
骚扰	-13784
高温	-13785
默默	-13786
75%	-13787
ark	-13788
eff	-13789
ure	-13790
▁13	-13791
▁de	-13792
▁一是	-13793
▁专家	-13794
▁以下	-13795
▁伊朗	-13796
▁内容	-13797
▁几天	-13798
▁哪个	-13799
▁图片	-13800
▁寻求	-13801
▁开放	-13802
▁感到	-13803
▁投入	-13804
▁放到	-13805
▁是你	-13806
▁本来	-13807
▁此刻	-13808
▁空间	-13809
▁英语	-13810
▁走向	-13811
▁远离	-13812
▁邀请	-13813
▁金融	-13814
一辆车	-13815
三百万	-13816
不太好	-13817
不足以	-13818
丽莎白	-13819
也包括	-13820
习惯了	-13821
了两个	-13822
了她的	-13823
他们还	-13824
会觉得	-13825
你真的	-13826
做不了	-13827
出生时	-13828
制作人	-13829
去做的	-13830
去参加	-13831
古希腊	-13832
可怜的	-13833
合成的	-13834
四个月	-13835
在一些	-13836
在空中	-13837
奴隶制	-13838
实验的	-13839
就变得	-13840
岁生日	-13841
岁的人	-13842
巴布韦	-13843
当然了	-13844
很神奇	-13845
心协力	-13846
我也是	-13847
我甚至	-13848
手机上	-13849
控制器	-13850
文明的	-13851
新泽西	-13852
时每刻	-13853
是你的	-13854
最终会	-13855
有希望	-13856
核心的	-13857
桌子上	-13858
森林里	-13859
比这个	-13860
活跃的	-13861
现在就	-13862
电脑的	-13863
病原体	-13864
的书籍	-13865
的人工	-13866
的信号	-13867
的大门	-13868
的女士	-13869
的新闻	-13870
的生产	-13871
的真正	-13872
目前的	-13873
直接的	-13874
看作是	-13875
破坏了	-13876
给孩子	-13877
给它们	-13878
罕见的	-13879
血管增	-13880
被邀请	-13881
要开始	-13882
视而不	-13883
训练的	-13884
记录下	-13885
走出去	-13886
这可能	-13887
连接体	-13888
通常会	-13889
都必须	-13890
1984	-13891
▁一个在	-13892
▁一切都	-13893
▁不得不	-13894
▁与我们	-13895
▁为我们	-13896
▁产生了	-13897
▁人们对	-13898
▁你已经	-13899
▁其中有	-13900
▁同性恋	-13901
▁在欧洲	-13902
▁在没有	-13903
▁它能够	-13904
▁就在那	-13905
▁当一个	-13906
▁我不再	-13907
▁我就想	-13908
▁我确信	-13909
▁所有人	-13910
▁是那些	-13911
▁没什么	-13912
▁现在有	-13913
▁而对于	-13914
▁那不是	-13915
▁都没有	-13916
七十年代	-13917
上的问题	-13918
个国家的	-13919
些什么呢	-13920
做出改变	-13921
健康状况	-13922
六十年代	-13923
几个月前	-13924
华盛顿特	-13925
可以得到	-13926
同样的事	-13927
团结起来	-13928
完成这个	-13929
市场营销	-13930
形成一个	-13931
性工作者	-13932
成为一种	-13933
成为什么	-13934
我们所知	-13935
我们还有	-13936
我的作品	-13937
或者其他	-13938
星球上的	-13939
有些东西	-13940
有趣的事	-13941
气候危机	-13942
没人知道	-13943
没有人会	-13944
津巴布韦	-13945
浮游生物	-13946
的一份子	-13947
的地方是	-13948
精神上的	-13949
自然选择	-13950
范围内的	-13951
达成一致	-13952
这个演讲	-13953
进行研究	-13954
面部表情	-13955
高质量的	-13956
▁从那时起	-13957
▁以及如何	-13958
▁但是当我	-13959
▁但是没有	-13960
▁你要知道	-13961
▁因为当你	-13962
▁如果人们	-13963
▁我指的是	-13964
▁我的母亲	-13965
▁谢谢各位	-13966
不同类型的	-13967
中的一些人	-13968
之类的东西	-13969
准备好了吗	-13970
向大家展示	-13971
就是这样的	-13972
强大的力量	-13973
我从来没有	-13974
我们还没有	-13975
是最重要的	-13976
显而易见的	-13977
最好的朋友	-13978
的工作原理	-13979
究竟是什么	-13980
▁于是我开始	-13981
▁但是我们的	-13982
▁因为我知道	-13983
▁因为我觉得	-13984
▁如果你看看	-13985
▁然后我们就	-13986
思考这个问题	-13987
解决这些问题	-13988
▁这就是我们的	-13989
39	-13990
68	-13991
AT	-13992
OL	-13993
up	-13994
▁欧	-13995
▁毛	-13996
▁游	-13997
一声	-13998
七十	-13999
七年	-14000
三位	-14001
上空	-14002
不定	-14003
世人	-14004
丢弃	-14005
主席	-14006
主持	-14007
争夺	-14008
传媒	-14009
但它	-14010
催化	-14011
克罗	-14012
兹勒	-14013
冷漠	-14014
出席	-14015
切换	-14016
初步	-14017
初级	-14018
利斯	-14019
升起	-14020
历经	-14021
及的	-14022
变动	-14023
可信	-14024
同胞	-14025
吻合	-14026
周前	-14027
和在	-14028
哈勃	-14029
哭了	-14030
喝酒	-14031
四轴	-14032
在最	-14033
地利	-14034
坦诚	-14035
大门	-14036
天上	-14037
它时	-14038
宽容	-14039
尖锐	-14040
就把	-14041
局势	-14042
展出	-14043
差点	-14044
年初	-14045
年起	-14046
并肩	-14047
建模	-14048
开端	-14049
式各	-14050
强暴	-14051
德斯	-14052
急需	-14053
恶意	-14054
悲观	-14055
成品	-14056
或缺	-14057
手套	-14058
才智	-14059
打扮	-14060
扔到	-14061
拼命	-14062
指控	-14063
搞砸	-14064
摸索	-14065
放上	-14066
救生	-14067
断裂	-14068
旗子	-14069
明亮	-14070
更低	-14071
步入	-14072
母语	-14073
每隔	-14074
比的	-14075
沃森	-14076
洞察	-14077
海绵	-14078
源泉	-14079
漆黑	-14080
濒危	-14081
玩的	-14082
环球	-14083
球体	-14084
的假	-14085
的反	-14086
的鱼	-14087
眼里	-14088
知晓	-14089
私有	-14090
答复	-14091
简历	-14092
粉色	-14093
紧迫	-14094
红酒	-14095
经受	-14096
缩写	-14097
网状	-14098
美人	-14099
美德	-14100
老兵	-14101
背面	-14102
能有	-14103
节拍	-14104
药剂	-14105
莫扎	-14106
落到	-14107
蓝图	-14108
衍生	-14109
被关	-14110
装有	-14111
警卫	-14112
警方	-14113
赖以	-14114
越是	-14115
辩护	-14116
过分	-14117
迈向	-14118
运到	-14119
近乎	-14120
还挺	-14121
迫切	-14122
迷宫	-14123
遗弃	-14124
阻挡	-14125
陪审	-14126
面貌	-14127
领养	-14128
驱逐	-14129
ETI	-14130
Jim	-14131
ity	-14132
lan	-14133
oug	-14134
ull	-14135
▁17	-14136
▁90	-14137
▁一家	-14138
▁不到	-14139
▁两种	-14140
▁医院	-14141
▁反之	-14142
▁发表	-14143
▁就要	-14144
▁就象	-14145
▁性别	-14146
▁手术	-14147
▁测量	-14148
▁用以	-14149
▁监狱	-14150
▁花费	-14151
▁表示	-14152
▁诺曼	-14153
▁这份	-14154
▁这座	-14155
▁这才	-14156
一直是	-14157
一辈子	-14158
三个人	-14159
三年前	-14160
不寻常	-14161
不是说	-14162
与这些	-14163
两百万	-14164
丧失了	-14165
中只有	-14166
事情是	-14167
五百万	-14168
他正在	-14169
作品的	-14170
俄克拉	-14171
公众的	-14172
几个人	-14173
创作的	-14174
到底在	-14175
加勒比	-14176
医生的	-14177
十一月	-14178
却不是	-14179
又一个	-14180
及利亚	-14181
取得的	-14182
古兰经	-14183
另一位	-14184
只是想	-14185
吃一惊	-14186
同意了	-14187
和印度	-14188
和政府	-14189
因如此	-14190
团体的	-14191
在它们	-14192
在现实	-14193
在自己	-14194
地下室	-14195
外面的	-14196
太空中	-14197
女人们	-14198
女孩们	-14199
如果有	-14200
孩子在	-14201
少量的	-14202
尝试过	-14203
就不能	-14204
就这么	-14205
怎么去	-14206
怎样做	-14207
想成为	-14208
我将会	-14209
我确实	-14210
接一个	-14211
收到的	-14212
新想法	-14213
更多地	-14214
有限的	-14215
本杰明	-14216
机会去	-14217
来决定	-14218
来学习	-14219
正面的	-14220
比现在	-14221
活动中	-14222
海岸线	-14223
灵活性	-14224
父母的	-14225
生产出	-14226
的传统	-14227
的前提	-14228
的商业	-14229
的大型	-14230
的对话	-14231
的情形	-14232
的情绪	-14233
的温度	-14234
的细节	-14235
的行动	-14236
目标的	-14237
看得到	-14238
真实性	-14239
社区中	-14240
空间站	-14241
竞争者	-14242
粒子的	-14243
而努力	-14244
被人们	-14245
被用于	-14246
认真地	-14247
讲一下	-14248
说一下	-14249
说的话	-14250
说过的	-14251
赖喇嘛	-14252
还有些	-14253
这两者	-14254
那里有	-14255
高效的	-14256
魅力的	-14257
ames	-14258
quot	-14259
▁197	-14260
▁500	-14261
▁不管你	-14262
▁不论是	-14263
▁也可能	-14264
▁他们为	-14265
▁他们只	-14266
▁但你们	-14267
▁你如何	-14268
▁你自己	-14269
▁使我们	-14270
▁再加上	-14271
▁右边的	-14272
▁和我的	-14273
▁唯一的	-14274
▁并开始	-14275
▁我从未	-14276
▁我几乎	-14277
▁我看见	-14278
▁我确实	-14279
▁我终于	-14280
▁是时候	-14281
▁有两个	-14282
▁查尔斯	-14283
▁神经元	-14284
▁第二种	-14285
▁老实说	-14286
▁这表明	-14287
▁那么这	-14288
万亿美元	-14289
三分之二	-14290
人的生命	-14291
人际关系	-14292
他自己的	-14293
你的眼睛	-14294
使用它们	-14295
充分利用	-14296
公立学校	-14297
别的地方	-14298
医疗服务	-14299
历史学家	-14300
原始细胞	-14301
可以让你	-14302
吃惊的是	-14303
回顾一下	-14304
在网络上	-14305
多长时间	-14306
就变成了	-14307
并不只是	-14308
并不存在	-14309
并不重要	-14310
感受到了	-14311
感受到的	-14312
慈善机构	-14313
我为什么	-14314
我们才能	-14315
我们是在	-14316
我想要的	-14317
所发生的	-14318
所造成的	-14319
整个系统	-14320
是一个很	-14321
是多么的	-14322
是最好的	-14323
普林斯顿	-14324
有个问题	-14325
波斯尼亚	-14326
用我们的	-14327
的一句话	-14328
看不见的	-14329
经历过的	-14330
绝大部分	-14331
耶路撒冷	-14332
苹果公司	-14333
设计师们	-14334
证据表明	-14335
越来越少	-14336
这台机器	-14337
这听起来	-14338
这座城市	-14339
问题在于	-14340
阿拉斯加	-14341
高等教育	-14342
athan	-14343
▁John	-14344
▁一个非常	-14345
▁不可思议	-14346
▁从那以后	-14347
▁他们不是	-14348
▁他们来自	-14349
▁你看到的	-14350
▁尼日利亚	-14351
▁我不确定	-14352
▁我最喜欢	-14353
▁然后我想	-14354
▁而事实上	-14355
▁这可不是	-14356
一定程度上	-14357
与大家分享	-14358
人类基因组	-14359
你们看到的	-14360
在接下来的	-14361
并没有什么	-14362
我们不得不	-14363
我们的城市	-14364
我们的文化	-14365
是因为他们	-14366
连接在一起	-14367
重要的东西	-14368
▁于是我决定	-14369
▁但是实际上	-14370
▁我们找到了	-14371
▁越来越多的	-14372
▁这就是一个	-14373
Youtube	-14374
▁因为如果我们	-14375
令人难以置信的	-14376
2,	-14377
43	-14378
CT	-14379
Fl	-14380
NG	-14381
Ph	-14382
SD	-14383
ps	-14384
uk	-14385
▁千	-14386
▁帮	-14387
▁玛	-14388
▁象	-14389
▁较	-14390
▁鱼	-14391
上市	-14392
下班	-14393
不容	-14394
世的	-14395
个小	-14396
中立	-14397
为观	-14398
争辩	-14399
二者	-14400
互助	-14401
人文	-14402
亿万	-14403
仰望	-14404
伏特	-14405
优越	-14406
会场	-14407
会对	-14408
但你	-14409
体外	-14410
侧面	-14411
保姆	-14412
信徒	-14413
先从	-14414
光亮	-14415
光年	-14416
光源	-14417
入狱	-14418
共生	-14419
典范	-14420
内亚	-14421
内基	-14422
再去	-14423
凭借	-14424
则会	-14425
别无	-14426
刻意	-14427
前线	-14428
动荡	-14429
化为	-14430
原地	-14431
原教	-14432
友情	-14433
可惜	-14434
台湾	-14435
和它	-14436
哥白	-14437
啊啊	-14438
喷气	-14439
固体	-14440
图景	-14441
埃尔	-14442
基层	-14443
奇异	-14444
好象	-14445
室外	-14446
富人	-14447
左侧	-14448
平流	-14449
幸好	-14450
开阔	-14451
异议	-14452
张力	-14453
当天	-14454
律宾	-14455
心存	-14456
忘掉	-14457
忧郁	-14458
快感	-14459
快餐	-14460
怪物	-14461
意粉	-14462
我叫	-14463
我已	-14464
房车	-14465
手稿	-14466
找来	-14467
披萨	-14468
抱负	-14469
抵御	-14470
拆除	-14471
拍下	-14472
招呼	-14473
拥堵	-14474
摆弄	-14475
改编	-14476
教条	-14477
早在	-14478
星体	-14479
朵花	-14480
条路	-14481
来过	-14482
杰作	-14483
树叶	-14484
格式	-14485
气氛	-14486
水族	-14487
洛因	-14488
海马	-14489
淋巴	-14490
湖泊	-14491
爬到	-14492
珍妮	-14493
甚少	-14494
用这	-14495
登录	-14496
百姓	-14497
益于	-14498
相近	-14499
真人	-14500
知之	-14501
称的	-14502
突发	-14503
类人	-14504
糊口	-14505
纳入	-14506
纸质	-14507
结晶	-14508
缺点	-14509
网民	-14510
置身	-14511
老爸	-14512
耗尽	-14513
联网	-14514
艰巨	-14515
艾伦	-14516
获奖	-14517
营地	-14518
薄膜	-14519
被困	-14520
要大	-14521
要的	-14522
触发	-14523
论证	-14524
说吧	-14525
请愿	-14526
诺登	-14527
象棋	-14528
贝多	-14529
负荷	-14530
走去	-14531
走私	-14532
身受	-14533
车鱼	-14534
迈出	-14535
这可	-14536
这间	-14537
进食	-14538
远古	-14539
连线	-14540
那你	-14541
金子	-14542
问到	-14543
闲置	-14544
雇用	-14545
零零	-14546
预示	-14547
饲料	-14548
黑白	-14549
180	-14550
eil	-14551
iam	-14552
ood	-14553
·11	-14554
▁An	-14555
▁二十	-14556
▁他要	-14557
▁企业	-14558
▁会被	-14559
▁使其	-14560
▁使它	-14561
▁借助	-14562
▁公开	-14563
▁再看	-14564
▁几个	-14565
▁创作	-14566
▁南非	-14567
▁压力	-14568
▁在一	-14569
▁它由	-14570
▁属于	-14571
▁明天	-14572
▁死于	-14573
▁每一	-14574
▁温度	-14575
▁称为	-14576
▁结合	-14577
▁考虑	-14578
▁而她	-14579
▁蓝色	-14580
▁表达	-14581
▁超越	-14582
▁距离	-14583
▁防止	-14584
一个个	-14585
一代人	-14586
不会在	-14587
严格的	-14588
个问题	-14589
了很久	-14590
今年的	-14591
会得到	-14592
传递给	-14593
体系的	-14594
保守派	-14595
公路上	-14596
出租车	-14597
分钟后	-14598
利用了	-14599
动物们	-14600
原子的	-14601
原教旨	-14602
原材料	-14603
去尝试	-14604
去研究	-14605
反应是	-14606
发电机	-14607
可视化	-14608
呈现出	-14609
告诉过	-14610
哥白尼	-14611
固有的	-14612
在街上	-14613
在这一	-14614
增长了	-14615
存活率	-14616
岁那年	-14617
应该在	-14618
很强的	-14619
想象成	-14620
我们却	-14621
我所知	-14622
我能够	-14623
抗抑郁	-14624
接着说	-14625
故事里	-14626
整体的	-14627
新事物	-14628
旁边的	-14629
无限的	-14630
是不会	-14631
曾经是	-14632
替代品	-14633
有一千	-14634
有一定	-14635
有一段	-14636
有关联	-14637
比以前	-14638
漫画家	-14639
潜水服	-14640
灭绝的	-14641
犹太教	-14642
电视剧	-14643
电路板	-14644
的一样	-14645
的人员	-14646
的人均	-14647
的人是	-14648
的威胁	-14649
的手机	-14650
的画面	-14651
相对于	-14652
着眼于	-14653
研讨会	-14654
社会里	-14655
私人的	-14656
纯粹的	-14657
给这些	-14658
能改变	-14659
能源的	-14660
自动化	-14661
菲律宾	-14662
观众席	-14663
记忆的	-14664
说出来	-14665
请你们	-14666
通用的	-14667
造物主	-14668
遥控器	-14669
都会被	-14670
都是从	-14671
集体的	-14672
颗恒星	-14673
骨骼肌	-14674
Bill	-14675
kype	-14676
▁下一步	-14677
▁主要是	-14678
▁他没有	-14679
▁但我的	-14680
▁但是却	-14681
▁你们都	-14682
▁你只能	-14683
▁俄罗斯	-14684
▁可以用	-14685
▁和他的	-14686
▁如果要	-14687
▁就是把	-14688
▁年轻人	-14689
▁得到的	-14690
▁意识到	-14691
▁我也不	-14692
▁我听到	-14693
▁我坚信	-14694
▁我马上	-14695
▁是通过	-14696
▁比如在	-14697
▁现在在	-14698
▁请注意	-14699
▁这不仅	-14700
▁这东西	-14701
▁这些小	-14702
▁这可是	-14703
▁这是你	-14704
▁这真的	-14705
▁那是一	-14706
世界人口	-14707
仍然可以	-14708
他们知道	-14709
做了这个	-14710
八十年代	-14711
内心深处	-14712
动物身上	-14713
告诉我说	-14714
在未来的	-14715
基础建设	-14716
大吃一惊	-14717
孩子们的	-14718
它的时候	-14719
家庭成员	-14720
就可以了	-14721
就是我的	-14722
帮助人们	-14723
年代中期	-14724
很多方面	-14725
怎么办呢	-14726
总结一下	-14727
我们相信	-14728
我找到了	-14729
我的一个	-14730
我的孩子	-14731
我的研究	-14732
所产生的	-14733
更美好的	-14734
最高法院	-14735
活生生的	-14736
的一系列	-14737
的方法来	-14738
看上去像	-14739
紧密相连	-14740
认识的人	-14741
过程中的	-14742
这个技术	-14743
这个方法	-14744
这个机会	-14745
重新思考	-14746
随处可见	-14747
David	-14748
▁2010	-14749
▁于是我想	-14750
▁但事实是	-14751
▁但当我们	-14752
▁但是当你	-14753
▁你不得不	-14754
▁你会得到	-14755
▁你可以把	-14756
▁你有没有	-14757
▁它实际上	-14758
▁我们不想	-14759
▁所以我在	-14760
▁澳大利亚	-14761
▁还有那些	-14762
▁这可能是	-14763
▁这很重要	-14764
一个简单的	-14765
不同的东西	-14766
不同的事情	-14767
中的一部分	-14768
发生了变化	-14769
各种不同的	-14770
告诉了我们	-14771
我们可以在	-14772
我们的国家	-14773
我们的目标	-14774
我们的祖先	-14775
我们看到的	-14776
所有的这些	-14777
改变世界的	-14778
正确的事情	-14779
的原因之一	-14780
的工作人员	-14781
给你们看看	-14782
自己的故事	-14783
解释为什么	-14784
设计了一个	-14785
非常不同的	-14786
▁你可以把它	-14787
▁如果我们想	-14788
▁我们不应该	-14789
▁我们之所以	-14790
▁我们并不是	-14791
▁每个人都有	-14792
花了很多时间	-14793
!」	-14794
,4	-14795
.”	-14796
2:	-14797
Ch	-14798
ST	-14799
io	-14800
~~	-14801
”?	-14802
▁交	-14803
▁常	-14804
▁穿	-14805
一圈	-14806
一股	-14807
万名	-14808
上涨	-14809
不利	-14810
不经	-14811
两到	-14812
两极	-14813
两组	-14814
主观	-14815
之际	-14816
书亚	-14817
买下	-14818
买加	-14819
事了	-14820
享用	-14821
人与	-14822
付费	-14823
会使	-14824
俄国	-14825
偏差	-14826
光纤	-14827
克鲁	-14828
免于	-14829
入手	-14830
再到	-14831
分工	-14832
利安	-14833
加罗	-14834
升华	-14835
印记	-14836
口语	-14837
同理	-14838
后续	-14839
听我	-14840
听闻	-14841
周刊	-14842
周游	-14843
呼叫	-14844
和有	-14845
四倍	-14846
地域	-14847
坚固	-14848
塞拉	-14849
复原	-14850
外来	-14851
奴役	-14852
学过	-14853
导体	-14854
将有	-14855
小事	-14856
就象	-14857
年我	-14858
应急	-14859
当它	-14860
心率	-14861
忙于	-14862
感同	-14863
戏法	-14864
我看	-14865
手可	-14866
打猎	-14867
执政	-14868
报复	-14869
拉里	-14870
捕猎	-14871
推向	-14872
推行	-14873
掩盖	-14874
携手	-14875
摆动	-14876
敏捷	-14877
救济	-14878
散发	-14879
文艺	-14880
时装	-14881
晚了	-14882
晚期	-14883
更换	-14884
最深	-14885
条腿	-14886
查理	-14887
毁掉	-14888
比伦	-14889
民意	-14890
水流	-14891
活儿	-14892
涌入	-14893
深奥	-14894
溪流	-14895
溶解	-14896
照相	-14897
片子	-14898
物资	-14899
疯子	-14900
疲力	-14901
破裂	-14902
祝福	-14903
神父	-14904
离子	-14905
窗外	-14906
米洛	-14907
纳斯	-14908
缘故	-14909
罗拉	-14910
肠道	-14911
股东	-14912
肺癌	-14913
茶壶	-14914
萨克	-14915
血流	-14916
行事	-14917
装上	-14918
要想	-14919
要走	-14920
警官	-14921
误会	-14922
说你	-14923
贴在	-14924
走近	-14925
赶紧	-14926
起伏	-14927
跟他	-14928
轮胎	-14929
软骨	-14930
这真	-14931
进出	-14932
连串	-14933
送去	-14934
逆流	-14935
选的	-14936
那块	-14937
链条	-14938
阴谋	-14939
集会	-14940
音量	-14941
顶级	-14942
食者	-14943
饱受	-14944
马萨	-14945
驾车	-14946
鲜花	-14947
默德	-14948
ive	-14949
old	-14950
▁享受	-14951
▁今晚	-14952
▁他很	-14953
▁传播	-14954
▁再到	-14955
▁反对	-14956
▁各个	-14957
▁和平	-14958
▁它与	-14959
▁它比	-14960
▁年龄	-14961
▁恐怕	-14962
▁我以	-14963
▁把我	-14964
▁效果	-14965
▁数量	-14966
▁是不	-14967
▁是很	-14968
▁更有	-14969
▁格林	-14970
▁渐渐	-14971
▁的人	-14972
▁直至	-14973
▁确定	-14974
▁赋予	-14975
▁超级	-14976
▁透过	-14977
▁重要	-14978
▁量子	-14979
▁随之	-14980
一年半	-14981
不同了	-14982
不在于	-14983
不过了	-14984
为观止	-14985
之前就	-14986
了一半	-14987
了一座	-14988
了一次	-14989
了这种	-14990
他已经	-14991
他没有	-14992
会影响	-14993
伯克利	-14994
伯利亚	-14995
体现了	-14996
作用于	-14997
偏头痛	-14998
做研究	-14999
儿童的	-15000
再看看	-15001
到底是	-15002
功能性	-15003
十年间	-15004
原因的	-15005
原子核	-15006
发展成	-15007
发短信	-15008
只能在	-15009
可以使	-15010
台机器	-15011
史蒂芬	-15012
同一种	-15013
听过的	-15014
喜欢它	-15015
喝咖啡	-15016
在整个	-15017
地看着	-15018
复杂了	-15019
多一点	-15020
她已经	-15021
威尼斯	-15022
安装了	-15023
家长们	-15024
容易的	-15025
对环境	-15026
小时后	-15027
已成为	-15028
年代末	-15029
年后的	-15030
建一个	-15031
开放式	-15032
引人注	-15033
形状的	-15034
必须得	-15035
情况是	-15036
感染率	-15037
感觉很	-15038
成熟的	-15039
我们为	-15040
我可能	-15041
所用的	-15042
把事情	-15043
搞明白	-15044
摄影机	-15045
放一个	-15046
放射性	-15047
政府和	-15048
政治上	-15049
新型的	-15050
新生儿	-15051
日本的	-15052
是值得	-15053
更有效	-15054
有关于	-15055
权利的	-15056
来创造	-15057
根本就	-15058
每件事	-15059
比方说	-15060
测量的	-15061
然后是	-15062
牙买加	-15063
独裁者	-15064
现代化	-15065
现成的	-15066
珊瑚虫	-15067
的专家	-15068
的场景	-15069
的思考	-15070
的患者	-15071
的植物	-15072
的水平	-15073
的自然	-15074
的试验	-15075
的那天	-15076
的长度	-15077
相关联	-15078
科索沃	-15079
组织和	-15080
绝妙的	-15081
聚合物	-15082
肺结核	-15083
至今日	-15084
航天器	-15085
虚拟的	-15086
解释的	-15087
达拉斯	-15088
过滤器	-15089
这幅图	-15090
这辈子	-15091
造一个	-15092
都来自	-15093
里面有	-15094
陪审团	-15095
需要有	-15096
非常快	-15097
iPad	-15098
▁Rob	-15099
▁and	-15100
▁一个叫	-15101
▁他们很	-15102
▁但后来	-15103
▁但当我	-15104
▁但是从	-15105
▁你只要	-15106
▁像这样	-15107
▁关键是	-15108
▁可以被	-15109
▁告诉你	-15110
▁大概是	-15111
▁大约在	-15112
▁大脑的	-15113
▁它们能	-15114
▁它是一	-15115
▁它需要	-15116
▁很高兴	-15117
▁我们去	-15118
▁我只想	-15119
▁我就能	-15120
▁我研究	-15121
▁是他们	-15122
▁有意思	-15123
▁来看看	-15124
▁然后它	-15125
▁而它们	-15126
▁自闭症	-15127
▁这个小	-15128
一些例子	-15129
一种叫做	-15130
为基础的	-15131
人们开始	-15132
人类文明	-15133
他的名字	-15134
会怎样呢	-15135
住的地方	-15136
健康问题	-15137
出了问题	-15138
利比里亚	-15139
努力工作	-15140
医疗系统	-15141
发现一些	-15142
叹为观止	-15143
吸引人的	-15144
国会议员	-15145
它是如何	-15146
实验室中	-15147
工程师们	-15148
希望你们	-15149
希格斯场	-15150
弗吉尼亚	-15151
想到的是	-15152
我们刚刚	-15153
找到答案	-15154
是因为它	-15155
每个国家	-15156
生活质量	-15157
生物学的	-15158
的是一种	-15159
知道自己	-15160
研究显示	-15161
美国国家	-15162
能让我们	-15163
西方世界	-15164
这个例子	-15165
非洲大陆	-15166
▁1000	-15167
▁世界各地	-15168
▁全世界的	-15169
▁另一个是	-15170
▁因为那些	-15171
▁就会发现	-15172
▁很多时候	-15173
▁总而言之	-15174
▁我们做了	-15175
▁我们过去	-15176
▁我现在要	-15177
▁我还记得	-15178
▁目前为止	-15179
▁还有就是	-15180
▁这样他们	-15181
▁那为什么	-15182
一个小小的	-15183
一个巨大的	-15184
三分之一的	-15185
他们的想法	-15186
儿童死亡率	-15187
其他的东西	-15188
创建了一个	-15189
可以让我们	-15190
对于我来说	-15191
心脏病发作	-15192
我想说的是	-15193
激动人心的	-15194
百分之八十	-15195
跟大家分享	-15196
这个问题上	-15197
▁但不幸的是	-15198
▁但是当我们	-15199
▁你们都知道	-15200
▁你可以通过	-15201
▁我们并没有	-15202
▁所以我们要	-15203
▁所以让我们	-15204
▁那么为什么	-15205
发生了什么事	-15206
可持续发展的	-15207
▁如果你是一个	-15208
▁所以我们必须	-15209
▁所以我们现在	-15210
▁所以这是一个	-15211
▁这样我们就能	-15212
".	-15213
,6	-15214
41	-15215
PC	-15216
gt	-15217
tt	-15218
▁图	-15219
▁扎	-15220
▁抑	-15221
▁死	-15222
▁种	-15223
丁堡	-15224
七千	-15225
万维	-15226
三到	-15227
下车	-15228
不做	-15229
中海	-15230
举措	-15231
之力	-15232
乐园	-15233
乙醇	-15234
也好	-15235
书呆	-15236
以便	-15237
侵害	-15238
信服	-15239
假定	-15240
六千	-15241
再看	-15242
冰块	-15243
冰盖	-15244
减排	-15245
出名	-15246
分形	-15247
制服	-15248
办事	-15249
加剧	-15250
半径	-15251
单个	-15252
又不	-15253
取的	-15254
召唤	-15255
同感	-15256
听力	-15257
启迪	-15258
哈利	-15259
哈尔	-15260
国土	-15261
在新	-15262
场面	-15263
基罗	-15264
填补	-15265
境内	-15266
外套	-15267
多人	-15268
多远	-15269
头疼	-15270
夸大	-15271
夺走	-15272
好转	-15273
姿态	-15274
字节	-15275
家和	-15276
密歇	-15277
富豪	-15278
对面	-15279
就如	-15280
就想	-15281
山地	-15282
巨星	-15283
布置	-15284
并无	-15285
弗朗	-15286
很早	-15287
很近	-15288
心地	-15289
快点	-15290
怪人	-15291
悄悄	-15292
情人	-15293
拍打	-15294
挤压	-15295
教书	-15296
无罪	-15297
日志	-15298
日记	-15299
时就	-15300
晚饭	-15301
最不	-15302
最棒	-15303
服刑	-15304
服饰	-15305
杂音	-15306
条纹	-15307
来得	-15308
查询	-15309
树立	-15310
死在	-15311
河岸	-15312
泰迪	-15313
消逝	-15314
淡化	-15315
深受	-15316
点亮	-15317
点钟	-15318
热烈	-15319
煤矿	-15320
牙医	-15321
瓦尔	-15322
电波	-15323
病理	-15324
的美	-15325
监听	-15326
目录	-15327
看下	-15328
矩阵	-15329
程式	-15330
竹子	-15331
等候	-15332
粉碎	-15333
约旦	-15334
纸板	-15335
罗毕	-15336
翻倍	-15337
而生	-15338
肺炎	-15339
脚下	-15340
血统	-15341
行进	-15342
衰落	-15343
被我	-15344
被捕	-15345
装着	-15346
视作	-15347
警报	-15348
诉说	-15349
词是	-15350
诱导	-15351
谋生	-15352
貌似	-15353
贪污	-15354
赚了	-15355
赞成	-15356
跳到	-15357
过多	-15358
通货	-15359
道具	-15360
都对	-15361
队友	-15362
陪伴	-15363
颜料	-15364
馆长	-15365
鲜明	-15366
麦片	-15367
/11	-15368
Cor	-15369
Net	-15370
ais	-15371
amb	-15372
att	-15373
idi	-15374
ina	-15375
off	-15376
▁My	-15377
▁从未	-15378
▁以致	-15379
▁克莱	-15380
▁再来	-15381
▁四个	-15382
▁失去	-15383
▁女士	-15384
▁快速	-15385
▁我却	-15386
▁才是	-15387
▁昆虫	-15388
▁明显	-15389
▁是他	-15390
▁是用	-15391
▁模拟	-15392
▁正确	-15393
▁相对	-15394
▁离开	-15395
▁速度	-15396
一年的	-15397
不出来	-15398
不认为	-15399
中看到	-15400
为世界	-15401
了那个	-15402
交易所	-15403
会有人	-15404
你会说	-15405
保持着	-15406
几年中	-15407
制片人	-15408
前额叶	-15409
加州的	-15410
加油站	-15411
医生和	-15412
单纯的	-15413
压力的	-15414
可以去	-15415
可行性	-15416
吃什么	-15417
在所有	-15418
城市化	-15419
天生的	-15420
奥尔良	-15421
完全被	-15422
完完全	-15423
实现它	-15424
密歇根	-15425
对他说	-15426
少数人	-15427
尼克斯	-15428
应该有	-15429
废弃物	-15430
开始时	-15431
彻底的	-15432
很多次	-15433
很熟悉	-15434
忍不住	-15435
我就想	-15436
我记得	-15437
我都会	-15438
手中的	-15439
才可以	-15440
把这种	-15441
推特上	-15442
救护车	-15443
日子里	-15444
星期前	-15445
是错的	-15446
显示器	-15447
更复杂	-15448
最快的	-15449
村子里	-15450
某一个	-15451
沼泽地	-15452
激烈的	-15453
灰色的	-15454
爵士乐	-15455
犯罪率	-15456
班加罗	-15457
留下来	-15458
疯狂了	-15459
的全部	-15460
的分子	-15461
的原则	-15462
的士兵	-15463
的好处	-15464
的希望	-15465
的年代	-15466
的手段	-15467
的政策	-15468
的旅程	-15469
的物质	-15470
的男孩	-15471
的痛苦	-15472
的神经	-15473
的记忆	-15474
的距离	-15475
的这种	-15476
相对的	-15477
看得见	-15478
社会上	-15479
系统里	-15480
而感到	-15481
聚集在	-15482
能看见	-15483
脑袋里	-15484
菲尔德	-15485
行动的	-15486
被要求	-15487
覆盖了	-15488
角度来	-15489
警察局	-15490
认知的	-15491
证实了	-15492
译者注	-15493
说实话	-15494
说我们	-15495
谈一下	-15496
身后的	-15497
这一代	-15498
违法的	-15499
适应性	-15500
那是我	-15501
阻止了	-15502
隐之心	-15503
黑暗的	-15504
1994	-15505
1995	-15506
1997	-15507
····	-15508
▁Car	-15509
▁不可能	-15510
▁也不能	-15511
▁他们正	-15512
▁但也许	-15513
▁但当你	-15514
▁即使你	-15515
▁大规模	-15516
▁就好比	-15517
▁很可能	-15518
▁我们向	-15519
▁我常常	-15520
▁我要说	-15521
▁我选择	-15522
▁所以从	-15523
▁提供了	-15524
▁有能力	-15525
▁用一种	-15526
▁还没有	-15527
▁这句话	-15528
▁这的确	-15529
▁那么在	-15530
▁都是由	-15531
一些数据	-15532
一台电脑	-15533
不是我的	-15534
仔细观察	-15535
他们如何	-15536
会有一个	-15537
你想要的	-15538
你的手机	-15539
做出决定	-15540
做出反应	-15541
别的东西	-15542
可以利用	-15543
告诉你的	-15544
基里巴斯	-15545
宇宙飞船	-15546
寻找一个	-15547
就在那里	-15548
开始着手	-15549
开朗基罗	-15550
微不足道	-15551
我们身边	-15552
我的人生	-15553
把所有的	-15554
文艺复兴	-15555
是重要的	-15556
有些事情	-15557
有所作为	-15558
此时此刻	-15559
浪费时间	-15560
灾难性的	-15561
物理定律	-15562
的人一样	-15563
的那个人	-15564
着我们的	-15565
短时间内	-15566
竞争对手	-15567
视而不见	-15568
记录下来	-15569
该做什么	-15570
这一事实	-15571
这个时代	-15572
这个计划	-15573
这些家伙	-15574
这种能力	-15575
那些没有	-15576
▁为什么要	-15577
▁从来没有	-15578
▁他们通过	-15579
▁十分感谢	-15580
▁取而代之	-15581
▁只有一个	-15582
▁因为它的	-15583
▁在全世界	-15584
▁如果你有	-15585
▁如果你要	-15586
▁如果它们	-15587
▁如果这个	-15588
▁想像一下	-15589
▁成千上万	-15590
▁我们在这	-15591
▁我们对此	-15592
▁我们怎样	-15593
▁我们曾经	-15594
▁比如这个	-15595
▁然后把它	-15596
▁现在你们	-15597
▁突然之间	-15598
▁而不只是	-15599
▁还有许多	-15600
▁这是真的	-15601
▁通过这些	-15602
▁那是我们	-15603
学到了什么	-15604
完全不知道	-15605
展示给你们	-15606
很长的时间	-15607
得到了一个	-15608
我们为什么	-15609
我们也可以	-15610
所有的事情	-15611
更好的生活	-15612
生态系统的	-15613
类似的东西	-15614
这里有一个	-15615
▁于是我们就	-15616
▁我们可以从	-15617
▁我想让你们	-15618
▁所以我们想	-15619
▁这是第一个	-15620
▁这正是我们	-15621
▁那么我们就	-15622
▁如果我们想要	-15623
▁所以如果我们	-15624
,1	-15625
,5	-15626
66	-15627
DA	-15628
au	-15629
eB	-15630
▁作	-15631
▁共	-15632
▁变	-15633
▁弄	-15634
▁核	-15635
一角	-15636
上看	-15637
上讲	-15638
不来	-15639
不计	-15640
两人	-15641
两岁	-15642
为她	-15643
为生	-15644
九月	-15645
也都	-15646
乡下	-15647
云层	-15648
亲手	-15649
会问	-15650
伤痛	-15651
住院	-15652
体上	-15653
侦测	-15654
借此	-15655
储藏	-15656
全息	-15657
公益	-15658
共处	-15659
其余	-15660
冷藏	-15661
准器	-15662
几张	-15663
分的	-15664
切开	-15665
初衷	-15666
利桑	-15667
剂量	-15668
加斯	-15669
加深	-15670
十六	-15671
半夜	-15672
卡特	-15673
印尼	-15674
参军	-15675
可言	-15676
同龄	-15677
告别	-15678
回避	-15679
在它	-15680
坦克	-15681
坦率	-15682
外观	-15683
女神	-15684
好地	-15685
孙女	-15686
它对	-15687
尤为	-15688
左脑	-15689
幅度	-15690
待遇	-15691
忙着	-15692
态的	-15693
恐吓	-15694
悉尼	-15695
悲痛	-15696
惊异	-15697
成型	-15698
抓取	-15699
抬起	-15700
损坏	-15701
接管	-15702
故乡	-15703
映射	-15704
是与	-15705
更远	-15706
机密	-15707
杂乱	-15708
村落	-15709
树脂	-15710
格子	-15711
梅尔	-15712
模因	-15713
次序	-15714
正规	-15715
每晚	-15716
毒的	-15717
毛发	-15718
毛病	-15719
水管	-15720
水质	-15721
永生	-15722
求助	-15723
沿海	-15724
洛蒙	-15725
海峡	-15726
深思	-15727
混蛋	-15728
满是	-15729
热点	-15730
牙利	-15731
牧羊	-15732
狄格	-15733
献给	-15734
电信	-15735
电能	-15736
画了	-15737
登革	-15738
的多	-15739
监护	-15740
直面	-15741
眼泪	-15742
知名	-15743
确诊	-15744
离我	-15745
给自	-15746
维斯	-15747
老婆	-15748
耕种	-15749
耶鲁	-15750
聚合	-15751
能使	-15752
能做	-15753
臭氧	-15754
表层	-15755
讲解	-15756
话短	-15757
诺顿	-15758
调控	-15759
责备	-15760
质子	-15761
赶上	-15762
辞职	-15763
边形	-15764
还原	-15765
还得	-15766
退役	-15767
选出	-15768
重心	-15769
重生	-15770
野心	-15771
长了	-15772
阶梯	-15773
随地	-15774
集成	-15775
雷达	-15776
顶上	-15777
预警	-15778
香水	-15779
鸡肉	-15780
龙头	-15781
2.5	-15782
App	-15783
CMU	-15784
ics	-15785
ino	-15786
ius	-15787
oll	-15788
ows	-15789
ros	-15790
ver	-15791
▁24	-15792
▁Am	-15793
▁两者	-15794
▁交通	-15795
▁人工	-15796
▁人生	-15797
▁伦敦	-15798
▁则是	-15799
▁塑料	-15800
▁多亏	-15801
▁它和	-15802
▁小孩	-15803
▁总结	-15804
▁患有	-15805
▁提升	-15806
▁无人	-15807
▁是吧	-15808
▁最为	-15809
▁来吧	-15810
▁现场	-15811
▁给你	-15812
▁美元	-15813
▁能让	-15814
▁要想	-15815
▁那位	-15816
▁鼓掌	-15817
一起去	-15818
不是个	-15819
不是我	-15820
不管是	-15821
不重要	-15822
个月的	-15823
为中心	-15824
之中的	-15825
也是最	-15826
众多的	-15827
你就是	-15828
你无法	-15829
信息和	-15830
公元前	-15831
公司和	-15832
几内亚	-15833
出现过	-15834
千万别	-15835
南部的	-15836
去工作	-15837
发现它	-15838
受到的	-15839
受试者	-15840
可兰经	-15841
可靠的	-15842
同样也	-15843
向人们	-15844
和女性	-15845
土卫六	-15846
在不同	-15847
在其他	-15848
大会上	-15849
大使馆	-15850
大街上	-15851
如果在	-15852
安全感	-15853
实质上	-15854
对他的	-15855
小型的	-15856
展现了	-15857
巴厘岛	-15858
年长的	-15859
开心的	-15860
引发了	-15861
当前的	-15862
很危险	-15863
很漂亮	-15864
很相似	-15865
得来的	-15866
心中的	-15867
性问题	-15868
恐龙的	-15869
我也不	-15870
我以为	-15871
我的心	-15872
担心的	-15873
挑战是	-15874
接受过	-15875
控制了	-15876
控制它	-15877
整个人	-15878
方方面	-15879
是无法	-15880
智慧和	-15881
最简单	-15882
有一项	-15883
服务的	-15884
本世纪	-15885
来描述	-15886
来表达	-15887
来说说	-15888
正处于	-15889
每平方	-15890
法律的	-15891
活下去	-15892
游泳池	-15893
爱德华	-15894
的一场	-15895
的两个	-15896
的事了	-15897
的各种	-15898
的开端	-15899
的房子	-15900
的报道	-15901
的最高	-15902
的本质	-15903
的管理	-15904
的解释	-15905
的资金	-15906
的都是	-15907
眼睛的	-15908
着这些	-15909
知道你	-15910
知道呢	-15911
纪念碑	-15912
线性的	-15913
绝不会	-15914
罗斯福	-15915
艺术节	-15916
要如何	-15917
记录了	-15918
许可证	-15919
该怎么	-15920
费洛蒙	-15921
超出了	-15922
跟你说	-15923
较大的	-15924
还会有	-15925
这是你	-15926
这确实	-15927
这类的	-15928
这都是	-15929
长长的	-15930
随机的	-15931
非盈利	-15932
马尼亚	-15933
Paul	-15934
▁一直在	-15935
▁两年前	-15936
▁但事实	-15937
▁但有时	-15938
▁你希望	-15939
▁在今天	-15940
▁在这儿	-15941
▁大家好	-15942
▁它其实	-15943
▁就像我	-15944
▁当你把	-15945
▁微生物	-15946
▁我们曾	-15947
▁我怎么	-15948
▁我想我	-15949
▁我能够	-15950
▁我试图	-15951
▁有一点	-15952
▁每一种	-15953
▁每当我	-15954
▁还有些	-15955
▁这是对	-15956
▁进行了	-15957
▁那也是	-15958
▁非洲的	-15959
一些信息	-15960
不管怎样	-15961
世界上有	-15962
世界公民	-15963
世界和平	-15964
临床实验	-15965
会告诉你	-15966
你不知道	-15967
共产主义	-15968
再也没有	-15969
北卡罗来	-15970
即兴表演	-15971
历史上的	-15972
发现他们	-15973
另一个人	-15974
可能会说	-15975
周围环境	-15976
因为这些	-15977
在了一起	-15978
在全世界	-15979
在我身上	-15980
地球上最	-15981
想要什么	-15982
感同身受	-15983
慈善事业	-15984
成为现实	-15985
我们觉得	-15986
我们通常	-15987
我们都会	-15988
我们都有	-15989
提供一个	-15990
教育体系	-15991
方法就是	-15992
是不可能	-15993
是在一个	-15994
是很好的	-15995
最简单的	-15996
来自哪里	-15997
正在做的	-15998
独一无二	-15999
现在开始	-16000
电话号码	-16001
百分之百	-16002
的帮助下	-16003
的第一天	-16004
研究结果	-16005
研究这个	-16006
种族隔离	-16007
竭尽全力	-16008
经济危机	-16009
继续下去	-16010
自然资源	-16011
西伯利亚	-16012
让人兴奋	-16013
让我们来	-16014
这么多人	-16015
这就是我	-16016
这是我们	-16017
这样认为	-16018
通货膨胀	-16019
那么简单	-16020
金融危机	-16021
鳍金枪鱼	-16022
黄金法则	-16023
▁任何人都	-16024
▁但我还是	-16025
▁其中一些	-16026
▁其中包括	-16027
▁就像这样	-16028
▁我们每天	-16029
▁绝大多数	-16030
▁而且这个	-16031
▁这个国家	-16032
▁这些照片	-16033
▁这是一些	-16034
▁这让我们	-16035
▁那我们就	-16036
中的大多数	-16037
了一个新的	-16038
人们的生活	-16039
他们的行为	-16040
任何一个人	-16041
向大家介绍	-16042
团结在一起	-16043
怎么做到的	-16044
恐怖主义的	-16045
更多的时间	-16046
真实的自己	-16047
类似的事情	-16048
自己的身体	-16049
诸如此类的	-16050
这个世界上	-16051
阿拉伯世界	-16052
CRISPR	-16053
▁因为我认为	-16054
▁我希望大家	-16055
▁顺便提一下	-16056
在这个世界上	-16057
女士们先生们	-16058
如果我们可以	-16059
▁我想告诉你们	-16060
▁这就是我们在	-16061
,9	-16062
ES	-16063
El	-16064
TM	-16065
”)	-16066
”、	-16067
▁精	-16068
▁纵	-16069
▁解	-16070
一款	-16071
三岁	-16072
下台	-16073
不适	-16074
东亚	-16075
丢掉	-16076
临近	-16077
为其	-16078
为零	-16079
争端	-16080
京都	-16081
从何	-16082
他想	-16083
代数	-16084
伊甸	-16085
优美	-16086
会用	-16087
低廉	-16088
你用	-16089
信条	-16090
信贷	-16091
倒塌	-16092
偏好	-16093
停顿	-16094
充实	-16095
兹堡	-16096
再现	-16097
写字	-16098
几点	-16099
出身	-16100
分隔	-16101
利昂	-16102
动了	-16103
十七	-16104
卖掉	-16105
占有	-16106
即可	-16107
去见	-16108
双臂	-16109
发放	-16110
发自	-16111
取样	-16112
右侧	-16113
名片	-16114
后就	-16115
和不	-16116
和对	-16117
品尝	-16118
圆点	-16119
在其	-16120
块的	-16121
塞塔	-16122
声响	-16123
处决	-16124
多重	-16125
夜空	-16126
大力	-16127
好笑	-16128
它又	-16129
定理	-16130
定罪	-16131
将之	-16132
将我	-16133
少女	-16134
就从	-16135
尼卡	-16136
屈服	-16137
带进	-16138
干脆	-16139
庆幸	-16140
底线	-16141
度量	-16142
开到	-16143
开罗	-16144
归类	-16145
归结	-16146
当她	-16147
总在	-16148
想问	-16149
战役	-16150
执照	-16151
技艺	-16152
把人	-16153
抵押	-16154
捷径	-16155
探访	-16156
推翻	-16157
提案	-16158
揭开	-16159
支援	-16160
敢于	-16161
族人	-16162
无止	-16163
日程	-16164
昏迷	-16165
更强	-16166
最小	-16167
未经	-16168
杀伤	-16169
材质	-16170
检视	-16171
橙色	-16172
死者	-16173
毒害	-16174
没了	-16175
波长	-16176
洞里	-16177
活得	-16178
流血	-16179
浪潮	-16180
游说	-16181
火柴	-16182
熟知	-16183
爱你	-16184
爱和	-16185
班级	-16186
电场	-16187
的下	-16188
的在	-16189
的每	-16190
的油	-16191
的词	-16192
相像	-16193
秒内	-16194
空虚	-16195
粉末	-16196
糖的	-16197
红线	-16198
继而	-16199
罗门	-16200
美学	-16201
美术	-16202
而战	-16203
脸谱	-16204
自下	-16205
航线	-16206
药的	-16207
菲尔	-16208
蓝光	-16209
蜂蜜	-16210
补助	-16211
装在	-16212
记号	-16213
讲起	-16214
说得	-16215
请看	-16216
谈过	-16217
赚到	-16218
赞扬	-16219
跑去	-16220
路边	-16221
辨认	-16222
边是	-16223
过往	-16224
违法	-16225
连锁	-16226
迷恋	-16227
透镜	-16228
道而	-16229
遗迹	-16230
都行	-16231
钱包	-16232
闪电	-16233
阐释	-16234
雄心	-16235
露出	-16236
露天	-16237
非得	-16238
韧性	-16239
音速	-16240
食谱	-16241
马车	-16242
骗子	-16243
MRI	-16244
She	-16245
ary	-16246
car	-16247
eld	-16248
ish	-16249
olf	-16250
omo	-16251
vel	-16252
▁16	-16253
▁99	-16254
▁一份	-16255
▁一路	-16256
▁不止	-16257
▁与之	-16258
▁人体	-16259
▁他问	-16260
▁但又	-16261
▁保证	-16262
▁军队	-16263
▁出于	-16264
▁名为	-16265
▁呈现	-16266
▁和在	-16267
▁应用	-16268
▁彼得	-16269
▁想法	-16270
▁我看	-16271
▁我给	-16272
▁抱歉	-16273
▁据说	-16274
▁提取	-16275
▁放弃	-16276
▁是为	-16277
▁气候	-16278
▁法国	-16279
▁能否	-16280
▁药物	-16281
▁购买	-16282
▁跨越	-16283
▁阅读	-16284
▁降低	-16285
▁领导	-16286
一生的	-16287
一种叫	-16288
上传到	-16289
上看到	-16290
不可以	-16291
世隔绝	-16292
东海岸	-16293
东西的	-16294
中得到	-16295
九个月	-16296
也是在	-16297
习以为	-16298
些东西	-16299
人体的	-16300
今天要	-16301
仍然有	-16302
他们很	-16303
例子是	-16304
做手术	-16305
全都是	-16306
公平的	-16307
关系到	-16308
再回到	-16309
冲突的	-16310
几百个	-16311
利桑那	-16312
卫生间	-16313
去上学	-16314
去解决	-16315
发展出	-16316
和时间	-16317
和电脑	-16318
和网络	-16319
国防部	-16320
在人类	-16321
在今天	-16322
在伦敦	-16323
地平线	-16324
地认为	-16325
坚定的	-16326
埃及人	-16327
外行星	-16328
大公司	-16329
大家庭	-16330
大数据	-16331
妇女和	-16332
学习了	-16333
密度的	-16334
对一个	-16335
将会被	-16336
就只有	-16337
就如同	-16338
就无法	-16339
就是他	-16340
岁左右	-16341
巧妙的	-16342
已经从	-16343
巴比伦	-16344
帕戈斯	-16345
开发了	-16346
归属感	-16347
录病毒	-16348
心血管	-16349
意粉酱	-16350
成这样	-16351
我们才	-16352
我将要	-16353
我打算	-16354
我经常	-16355
所有权	-16356
找到我	-16357
把东西	-16358
拍摄了	-16359
持久的	-16360
政客们	-16361
故事中	-16362
数据是	-16363
新科技	-16364
时间去	-16365
更有趣	-16366
最终的	-16367
有一台	-16368
本地的	-16369
杂志的	-16370
来临时	-16371
来制造	-16372
极高的	-16373
架飞机	-16374
根本不	-16375
残疾人	-16376
比以往	-16377
比较好	-16378
氧化氮	-16379
水中的	-16380
没想到	-16381
父亲的	-16382
现在有	-16383
生产商	-16384
男孩子	-16385
的一件	-16386
的一刻	-16387
的一步	-16388
的产物	-16389
的任何	-16390
的会议	-16391
的因素	-16392
的心态	-16393
的案例	-16394
的法律	-16395
的老师	-16396
的装置	-16397
的认知	-16398
的道路	-16399
的频率	-16400
种语言	-16401
第三方	-16402
红外线	-16403
网上的	-16404
而成的	-16405
而易举	-16406
自己做	-16407
自己去	-16408
被叫做	-16409
被视为	-16410
观众的	-16411
角色的	-16412
角落里	-16413
让学生	-16414
这世界	-16415
这已经	-16416
透明化	-16417
那个小	-16418
都一样	-16419
陆地上	-16420
障碍物	-16421
需要被	-16422
1945	-16423
anny	-16424
berg	-16425
shah	-16426
usan	-16427
▁但首先	-16428
▁因此他	-16429
▁在人类	-16430
▁如果不	-16431
▁它不会	-16432
▁它们也	-16433
▁将它们	-16434
▁左边的	-16435
▁德里克	-16436
▁我们已	-16437
▁我对此	-16438
▁我将会	-16439
▁我有幸	-16440
▁来实现	-16441
▁第一条	-16442
▁第二点	-16443
▁类似于	-16444
▁结果呢	-16445
▁考虑到	-16446
▁而当你	-16447
▁说真的	-16448
▁这有点	-16449
▁这首歌	-16450
▁里面有	-16451
一个叫做	-16452
一样的人	-16453
上个世纪	-16454
不信由你	-16455
两个小时	-16456
个人电脑	-16457
了所有的	-16458
任何一种	-16459
你不需要	-16460
你的工作	-16461
做任何事	-16462
做出来的	-16463
其他事情	-16464
其它地方	-16465
原因之一	-16466
可持续的	-16467
可能性的	-16468
和我一样	-16469
回收利用	-16470
在这里的	-16471
城市规划	-16472
如果有人	-16473
学会如何	-16474
学到很多	-16475
它们如何	-16476
屏幕上的	-16477
已经知道	-16478
得出结论	-16479
怎么样呢	-16480
我们喜欢	-16481
我们是谁	-16482
截然不同	-16483
找到这些	-16484
无线网络	-16485
是第一个	-16486
有一件事	-16487
正确的事	-16488
治疗方案	-16489
现代社会	-16490
用他们的	-16491
的一群人	-16492
知道我们	-16493
自我意识	-16494
自我组装	-16495
菲尼克斯	-16496
解放出来	-16497
让我觉得	-16498
该怎么做	-16499
谈论的是	-16500
轻而易举	-16501
还是一个	-16502
这一现象	-16503
这个时候	-16504
这个网站	-16505
这种事情	-16506
连在一起	-16507
长时间的	-16508
随着时间	-16509
需要做的	-16510
革命性的	-16511
ation	-16512
▁NASA	-16513
▁一个叫做	-16514
▁也是我们	-16515
▁于是我说	-16516
▁什么时候	-16517
▁什么样的	-16518
▁今天我们	-16519
▁他们喜欢	-16520
▁任何一个	-16521
▁你不可能	-16522
▁只有这样	-16523
▁因为我在	-16524
▁就是那些	-16525
▁成百上千	-16526
▁我们以为	-16527
▁我们只能	-16528
▁我们才能	-16529
▁我们最终	-16530
▁我们花了	-16531
▁我们都有	-16532
▁我的同事	-16533
▁或者一个	-16534
▁正是因为	-16535
▁然后开始	-16536
▁这不仅仅	-16537
▁这些事情	-16538
▁这些动物	-16539
▁这些故事	-16540
▁这是什么	-16541
▁这种现象	-16542
不同的方法	-16543
什么也没有	-16544
华盛顿特区	-16545
在世界各地	-16546
天文望远镜	-16547
我也不知道	-16548
我们的研究	-16549
数以千计的	-16550
是不可能的	-16551
生活在一起	-16552
自己的声音	-16553
要做的就是	-16554
这是我们的	-16555
非常有意思	-16556
▁我也不知道	-16557
▁我们可以把	-16558
▁而不仅仅是	-16559
会是什么样子	-16560
汽车安全座椅	-16561
这样一个问题	-16562
......”	-16563
Richard	-16564
▁我们需要一个	-16565
现代艺术博物馆	-16566
52	-16567
Ad	-16568
IC	-16569
Jo	-16570
ai	-16571
by	-16572
▁何	-16573
▁促	-16574
▁希	-16575
▁汤	-16576
▁胡	-16577
一一	-16578
一双	-16579
一处	-16580
一瓶	-16581
不开	-16582
不觉	-16583
与他	-16584
专栏	-16585
世俗	-16586
为它	-16587
之情	-16588
乏味	-16589
了两	-16590
伊曼	-16591
作的	-16592
便携	-16593
保加	-16594
修女	-16595
修饰	-16596
先知	-16597
克里	-16598
入睡	-16599
公主	-16600
共性	-16601
兼容	-16602
内存	-16603
净化	-16604
减肥	-16605
几十	-16606
出行	-16607
到这	-16608
前来	-16609
募集	-16610
医治	-16611
去吧	-16612
取向	-16613
可塑	-16614
和新	-16615
哈马	-16616
在两	-16617
在小	-16618
在看	-16619
地被	-16620
基质	-16621
塔拉	-16622
备受	-16623
多彩	-16624
大笔	-16625
奖赏	-16626
宁静	-16627
对策	-16628
小块	-16629
局部	-16630
布雷	-16631
广大	-16632
强化	-16633
惧怕	-16634
愈合	-16635
感性	-16636
所得	-16637
扇门	-16638
打扰	-16639
托弗	-16640
抽出	-16641
捕杀	-16642
搭配	-16643
撕裂	-16644
收取	-16645
敏锐	-16646
数十	-16647
是人	-16648
是可	-16649
是种	-16650
是能	-16651
更早	-16652
更近	-16653
机翼	-16654
格言	-16655
欧元	-16656
死人	-16657
流离	-16658
潜入	-16659
灭亡	-16660
点点	-16661
玩儿	-16662
瑟夫	-16663
瓶颈	-16664
生化	-16665
生肖	-16666
电报	-16667
登记	-16668
百年	-16669
祸首	-16670
科特	-16671
称赞	-16672
穆朗	-16673
穆罕	-16674
空地	-16675
空闲	-16676
穿行	-16677
笑脸	-16678
线虫	-16679
组的	-16680
编译	-16681
老龄	-16682
而成	-16683
胶带	-16684
自助	-16685
节食	-16686
花蜜	-16687
莱斯	-16688
营业	-16689
虚无	-16690
融资	-16691
行贿	-16692
装了	-16693
装箱	-16694
裸露	-16695
计数	-16696
证人	-16697
误差	-16698
谓的	-16699
谦卑	-16700
超人	-16701
跟她	-16702
跳过	-16703
较低	-16704
过上	-16705
这套	-16706
远见	-16707
逆向	-16708
遇上	-16709
道义	-16710
遗体	-16711
配对	-16712
配置	-16713
采纳	-16714
里尔	-16715
重申	-16716
阿基	-16717
限度	-16718
隔壁	-16719
零下	-16720
顺着	-16721
飞向	-16722
香味	-16723
骑行	-16724
骨折	-16725
鸟的	-16726
鸡尾	-16727
,15	-16728
,18	-16729
ata	-16730
ean	-16731
ite	-16732
ney	-16733
ong	-16734
und	-16735
▁14	-16736
▁JC	-16737
▁WK	-16738
▁一半	-16739
▁一项	-16740
▁不去	-16741
▁不错	-16742
▁与我	-16743
▁今日	-16744
▁以防	-16745
▁你好	-16746
▁依靠	-16747
▁准确	-16748
▁分别	-16749
▁加拿	-16750
▁单单	-16751
▁同情	-16752
▁在最	-16753
▁坚持	-16754
▁它从	-16755
▁它以	-16756
▁年代	-16757
▁年前	-16758
▁很久	-16759
▁很大	-16760
▁恢复	-16761
▁成本	-16762
▁我已	-16763
▁改善	-16764
▁早上	-16765
▁明白	-16766
▁是要	-16767
▁来看	-16768
▁极其	-16769
▁森林	-16770
▁海豚	-16771
▁疾病	-16772
▁禁止	-16773
▁规模	-16774
▁软件	-16775
▁迅速	-16776
▁那次	-16777
▁重复	-16778
▁长达	-16779
一小时	-16780
一整天	-16781
一次性	-16782
一英里	-16783
三件事	-16784
不久的	-16785
不是么	-16786
不用说	-16787
不能在	-16788
与世界	-16789
中发现	-16790
了一套	-16791
二十五	-16792
什么也	-16793
仔细的	-16794
他们从	-16795
伊朗人	-16796
伊甸园	-16797
你也许	-16798
供应商	-16799
做生意	-16800
儿子的	-16801
到美国	-16802
加入到	-16803
北半球	-16804
匹兹堡	-16805
区分开	-16806
友好的	-16807
只要你	-16808
和世界	-16809
和中国	-16810
和健康	-16811
和我在	-16812
和科技	-16813
和行为	-16814
唯一能	-16815
在你们	-16816
在这张	-16817
地亚哥	-16818
堪萨斯	-16819
复一年	-16820
复一日	-16821
多余的	-16822
多的人	-16823
安德鲁	-16824
实时的	-16825
对世界	-16826
尔的摩	-16827
巴拉克	-16828
布拉德	-16829
布莱恩	-16830
底层的	-16831
当你们	-16832
很擅长	-16833
很特别	-16834
怎么想	-16835
意识地	-16836
愿意去	-16837
我做的	-16838
我只能	-16839
我爸爸	-16840
或许是	-16841
房间的	-16842
所在地	-16843
拉斯维	-16844
指挥官	-16845
挑战性	-16846
排泄物	-16847
摧毁了	-16848
操作的	-16849
支持的	-16850
数以万	-16851
方向盘	-16852
无所谓	-16853
是一条	-16854
暴风雨	-16855
曾经在	-16856
最令人	-16857
有某种	-16858
有责任	-16859
本应该	-16860
死去的	-16861
没有了	-16862
活力的	-16863
混合物	-16864
潜水员	-16865
珍贵的	-16866
生命之	-16867
的后果	-16868
的味道	-16869
的大量	-16870
的学习	-16871
的形成	-16872
的思维	-16873
的景象	-16874
的条件	-16875
的病毒	-16876
的简单	-16877
的细菌	-16878
的象征	-16879
相当的	-16880
着他们	-16881
立方体	-16882
第二大	-16883
米特里	-16884
约翰逊	-16885
级别的	-16886
纳尔逊	-16887
细胞中	-16888
老鼠的	-16889
者之一	-16890
能通过	-16891
计的人	-16892
请记住	-16893
车的人	-16894
转过身	-16895
过时了	-16896
过时的	-16897
过的人	-16898
还不能	-16899
这个的	-16900
这条路	-16901
这真是	-16902
这笔钱	-16903
连接的	-16904
造就了	-16905
那一年	-16906
那些不	-16907
那部分	-16908
非常不	-16909
面对面	-16910
领袖们	-16911
风险的	-16912
马萨诸	-16913
麻烦了	-16914
eBay	-16915
ight	-16916
▁之间的	-16917
▁也无法	-16918
▁他只是	-16919
▁会发现	-16920
▁伴随着	-16921
▁你肯定	-16922
▁在纽约	-16923
▁墨西哥	-16924
▁多年来	-16925
▁它可能	-16926
▁它必须	-16927
▁它是个	-16928
▁就在我	-16929
▁我们做	-16930
▁我可能	-16931
▁我走进	-16932
▁我还要	-16933
▁接着我	-16934
▁是这些	-16935
▁梅琳达	-16936
▁比我们	-16937
▁现在它	-16938
▁相比于	-16939
▁而且也	-16940
▁艺术家	-16941
▁蛋白质	-16942
▁让这些	-16943
▁这位是	-16944
▁这完全	-16945
与我们的	-16946
个小时的	-16947
中东地区	-16948
为人知的	-16949
也有一些	-16950
习以为常	-16951
什么才是	-16952
什么都没	-16953
他们身上	-16954
任何问题	-16955
你们当中	-16956
保加利亚	-16957
做得很好	-16958
全球经济	-16959
其实就是	-16960
前列腺癌	-16961
卫生保健	-16962
卫生组织	-16963
可以做到	-16964
可以看出	-16965
司法系统	-16966
各不相同	-16967
坐在那儿	-16968
头脑风暴	-16969
如此重要	-16970
完全一样	-16971
将我们的	-16972
就是为了	-16973
就能看到	-16974
工作机会	-16975
布朗克斯	-16976
平均寿命	-16977
当我们在	-16978
很难想象	-16979
想象中的	-16980
我们之前	-16981
手提电脑	-16982
收集数据	-16983
政府部门	-16984
新的技术	-16985
无法理解	-16986
暴力事件	-16987
有一个人	-16988
有生之年	-16989
每天早上	-16990
治疗癌症	-16991
环境问题	-16992
现在这样	-16993
班加罗尔	-16994
生物燃料	-16995
用同样的	-16996
知道他们	-16997
石油泄漏	-16998
确实存在	-16999
种族屠杀	-17000
种族歧视	-17001
种族灭绝	-17002
科学技术	-17003
站在那里	-17004
绿色环保	-17005
网络罪犯	-17006
能源消耗	-17007
行不通的	-17008
计算机的	-17009
越来越大	-17010
这种东西	-17011
那么大的	-17012
那么重要	-17013
都是为了	-17014
阿拉巴马	-17015
非常容易	-17016
非常相似	-17017
duino	-17018
▁世界上的	-17019
▁从根本上	-17020
▁他们可能	-17021
▁他们就是	-17022
▁再来看看	-17023
▁和他们的	-17024
▁就在我们	-17025
▁我们就是	-17026
▁我们当然	-17027
▁我们真正	-17028
▁我只是想	-17029
▁我很幸运	-17030
▁我想我们	-17031
▁或者他们	-17032
▁每一个人	-17033
▁然后你就	-17034
▁简而言之	-17035
▁这个作品	-17036
▁这些信息	-17037
不是这样的	-17038
仅仅是一个	-17039
四轴飞行器	-17040
强子对撞机	-17041
我们的经济	-17042
我们需要的	-17043
所有的一切	-17044
扮演的角色	-17045
理所当然的	-17046
百分之三十	-17047
的一张照片	-17048
组合在一起	-17049
足够的时间	-17050
跟你们分享	-17051
还有另一个	-17052
这不是一个	-17053
这个机器人	-17054
阿姆斯特丹	-17055
illiam	-17056
▁他们不知道	-17057
▁他们实际上	-17058
▁因为我们在	-17059
▁我们的大脑	-17060
▁我最喜欢的	-17061
▁所以我觉得	-17062
人与人之间的	-17063
麻省理工学院	-17064
shahidi	-17065
正在发生的事情	-17066
▁这样我们就可以	-17067
▁Facebook	-17068
,(	-17069
64	-17070
97	-17071
:♪	-17072
?(	-17073
Sp	-17074
▁列	-17075
▁劳	-17076
▁合	-17077
▁照	-17078
▁祝	-17079
▁穷	-17080
▁赫	-17081
上加	-17082
不顾	-17083
丑闻	-17084
东方	-17085
丰田	-17086
之手	-17087
之歌	-17088
九个	-17089
也更	-17090
了么	-17091
争吵	-17092
二甲	-17093
他将	-17094
份额	-17095
休假	-17096
伪造	-17097
位的	-17098
作画	-17099
你和	-17100
你真	-17101
你被	-17102
供电	-17103
保密	-17104
健身	-17105
光一	-17106
六月	-17107
再见	-17108
冒犯	-17109
写在	-17110
减半	-17111
凝视	-17112
凯特	-17113
到那	-17114
制止	-17115
前途	-17116
剩余	-17117
力度	-17118
加索	-17119
动症	-17120
十月	-17121
卵巢	-17122
受精	-17123
可悲	-17124
同类	-17125
后者	-17126
周六	-17127
命中	-17128
哈里	-17129
喂食	-17130
四次	-17131
在用	-17132
地将	-17133
坐的	-17134
坠落	-17135
埋在	-17136
外形	-17137
多达	-17138
失误	-17139
头来	-17140
夸克	-17141
奥克	-17142
字面	-17143
它所	-17144
宗旨	-17145
室友	-17146
对这	-17147
小麦	-17148
尘埃	-17149
峰顶	-17150
工匠	-17151
带宽	-17152
幕后	-17153
延迟	-17154
往常	-17155
怀念	-17156
惊慌	-17157
意地	-17158
感触	-17159
成是	-17160
手掌	-17161
手无	-17162
找回	-17163
投放	-17164
拍卖	-17165
插座	-17166
收容	-17167
收拾	-17168
放心	-17169
教皇	-17170
斯尼	-17171
是会	-17172
是去	-17173
是非	-17174
暴龙	-17175
更是	-17176
望的	-17177
木板	-17178
木炭	-17179
来往	-17180
杰夫	-17181
极少	-17182
柱子	-17183
模特	-17184
欣喜	-17185
此事	-17186
毫秒	-17187
汉斯	-17188
没被	-17189
油画	-17190
波特	-17191
泪水	-17192
泰坦	-17193
海运	-17194
混搭	-17195
燃油	-17196
牢房	-17197
特意	-17198
王星	-17199
理疗	-17200
生于	-17201
电器	-17202
电气	-17203
留着	-17204
的纸	-17205
的西	-17206
皇后	-17207
看护	-17208
着他	-17209
着火	-17210
矿井	-17211
碳水	-17212
碳酸	-17213
穿的	-17214
粘土	-17215
精华	-17216
素的	-17217
纳西	-17218
终究	-17219
绘图	-17220
绩效	-17221
维和	-17222
羊毛	-17223
背叛	-17224
胎儿	-17225
脚的	-17226
荒漠	-17227
萨尼	-17228
落下	-17229
蓝鲸	-17230
行各	-17231
补偿	-17232
西尼	-17233
解脱	-17234
译注	-17235
诗意	-17236
诚的	-17237
读写	-17238
起因	-17239
躲在	-17240
车轮	-17241
这头	-17242
进度	-17243
都想	-17244
里兰	-17245
金额	-17246
阻力	-17247
阻塞	-17248
难忘	-17249
霍金	-17250
飞去	-17251
骗局	-17252
高出	-17253
110	-17254
Tom	-17255
hat	-17256
ier	-17257
ora	-17258
▁Bl	-17259
▁Ge	-17260
▁JA	-17261
▁一台	-17262
▁不好	-17263
▁不必	-17264
▁令我	-17265
▁停止	-17266
▁其一	-17267
▁原本	-17268
▁发明	-17269
▁取得	-17270
▁和对	-17271
▁回顾	-17272
▁多少	-17273
▁她把	-17274
▁它使	-17275
▁它叫	-17276
▁实在	-17277
▁并能	-17278
▁当作	-17279
▁快乐	-17280
▁总统	-17281
▁承认	-17282
▁把他	-17283
▁毫无	-17284
▁独立	-17285
▁维持	-17286
▁说道	-17287
▁足以	-17288
▁这本	-17289
▁遇到	-17290
▁那会	-17291
▁阻止	-17292
▁预测	-17293
▁马丁	-17294
▁高度	-17295
▁麦克	-17296
一切的	-17297
一块儿	-17298
不再有	-17299
不变的	-17300
不可知	-17301
不对劲	-17302
不希望	-17303
不是的	-17304
世界观	-17305
中获得	-17306
为这些	-17307
乐观的	-17308
了一遍	-17309
二甲酸	-17310
人类和	-17311
仅有的	-17312
他们把	-17313
他知道	-17314
仿生学	-17315
似乎是	-17316
但我们	-17317
你希望	-17318
你是个	-17319
保存在	-17320
做更多	-17321
再从业	-17322
农民们	-17323
决定性	-17324
几年后	-17325
出发点	-17326
制造者	-17327
卡内基	-17328
原有的	-17329
厨房里	-17330
去哪里	-17331
只剩下	-17332
可以有	-17333
可用的	-17334
各式各	-17335
同理心	-17336
向世界	-17337
吓坏了	-17338
听说了	-17339
和分析	-17340
回家了	-17341
固定在	-17342
在任何	-17343
在每个	-17344
在研究	-17345
地马拉	-17346
塑料瓶	-17347
增加到	-17348
士兵们	-17349
多样的	-17350
奥地利	-17351
好几个	-17352
妇女们	-17353
妻子的	-17354
它如何	-17355
宇航局	-17356
定决心	-17357
就需要	-17358
崩溃了	-17359
希腊人	-17360
平流层	-17361
底部的	-17362
建筑学	-17363
开源的	-17364
当时在	-17365
彼此的	-17366
得更快	-17367
微妙的	-17368
德国人	-17369
德里安	-17370
必不可	-17371
想想看	-17372
想法的	-17373
成人的	-17374
我会说	-17375
我这个	-17376
或者不	-17377
所吸引	-17378
所处的	-17379
拿一个	-17380
提供给	-17381
政策的	-17382
方程式	-17383
旅途中	-17384
时不时	-17385
时间了	-17386
是一些	-17387
是女性	-17388
是需要	-17389
暴露在	-17390
更糟糕	-17391
有一群	-17392
有个人	-17393
有关系	-17394
有其他	-17395
杀死了	-17396
来保护	-17397
来处理	-17398
来表示	-17399
没人会	-17400
深深的	-17401
照片上	-17402
珠穆朗	-17403
用你的	-17404
用它们	-17405
用来做	-17406
用电脑	-17407
的一代	-17408
的一座	-17409
的全球	-17410
的动机	-17411
的大楼	-17412
的小镇	-17413
的智慧	-17414
的森林	-17415
的海洋	-17416
的趋势	-17417
相信的	-17418
真的想	-17419
眼中的	-17420
着迷于	-17421
确实有	-17422
精神的	-17423
约书亚	-17424
群体中	-17425
翻车鱼	-17426
老师的	-17427
而改变	-17428
胰腺癌	-17429
自己能	-17430
至少有	-17431
藏起来	-17432
被使用	-17433
要花费	-17434
觉得它	-17435
让孩子	-17436
说服力	-17437
谈论它	-17438
象征着	-17439
还有人	-17440
这其中	-17441
选择性	-17442
那些小	-17443
都会说	-17444
1993	-17445
Abed	-17446
orld	-17447
rank	-17448
▁80%	-17449
▁不过这	-17450
▁丽贝卡	-17451
▁亚马逊	-17452
▁从这里	-17453
▁但只有	-17454
▁但是那	-17455
▁但真正	-17456
▁你或许	-17457
▁你能够	-17458
▁可以从	-17459
▁可以把	-17460
▁和她的	-17461
▁就像在	-17462
▁就已经	-17463
▁就是我	-17464
▁并将其	-17465
▁当地的	-17466
▁很简单	-17467
▁我仍然	-17468
▁我们却	-17469
▁我保证	-17470
▁我只能	-17471
▁我就会	-17472
▁我当然	-17473
▁我肯定	-17474
▁所以呢	-17475
▁把这个	-17476
▁目的是	-17477
▁能不能	-17478
▁这将是	-17479
▁那你就	-17480
▁那样的	-17481
一份工作	-17482
一样重要	-17483
不一样了	-17484
不再需要	-17485
不可或缺	-17486
也可能是	-17487
了一件事	-17488
五分之一	-17489
人类学家	-17490
他们开始	-17491
他们都是	-17492
作出反应	-17493
你在哪里	-17494
做什么的	-17495
共和党人	-17496
关于这些	-17497
去看医生	-17498
发现一个	-17499
发生的是	-17500
受欢迎的	-17501
变成现实	-17502
同时也是	-17503
告诉自己	-17504
周围的人	-17505
在做什么	-17506
如果你的	-17507
尼古拉斯	-17508
希望能够	-17509
年轻人的	-17510
开始使用	-17511
影响力的	-17512
很不一样	-17513
很多时间	-17514
得到什么	-17515
想要一个	-17516
我们国家	-17517
我们就是	-17518
我的学生	-17519
或多或少	-17520
找到一种	-17521
方方面面	-17522
是世界上	-17523
是另一个	-17524
更多的是	-17525
有一个小	-17526
有的时候	-17527
消费者的	-17528
游击队员	-17529
演示一下	-17530
珠穆朗玛	-17531
甚至可以	-17532
的事情了	-17533
的土地上	-17534
的问题上	-17535
相互联系	-17536
知识产权	-17537
矮黑猩猩	-17538
神经学家	-17539
继续前进	-17540
艾滋病的	-17541
讨论的是	-17542
身边的人	-17543
达赖喇嘛	-17544
还在继续	-17545
这个名字	-17546
这个城市	-17547
这个建筑	-17548
这个视频	-17549
进入一个	-17550
进化过程	-17551
那些东西	-17552
都不一样	-17553
需要一些	-17554
领导能力	-17555
马萨诸塞	-17556
onica	-17557
▁2007	-17558
▁他们不能	-17559
▁但是今天	-17560
▁只要我们	-17561
▁因为你们	-17562
▁因为这种	-17563
▁因为那是	-17564
▁它们没有	-17565
▁心理学家	-17566
▁我不需要	-17567
▁我们仍然	-17568
▁我们对于	-17569
▁我在那里	-17570
▁我注意到	-17571
▁无论是在	-17572
▁正如你们	-17573
▁现在大家	-17574
▁而且这些	-17575
▁而这正是	-17576
▁能让我们	-17577
▁虽然我们	-17578
▁让我们来	-17579
▁这就好像	-17580
▁这是其中	-17581
▁这真的是	-17582
▁那么这个	-17583
不久的将来	-17584
世界的方式	-17585
了这个项目	-17586
他们的父母	-17587
以某种方式	-17588
保护我们的	-17589
出来的时候	-17590
周围的环境	-17591
和我们一起	-17592
复杂的问题	-17593
大多数人都	-17594
女权主义者	-17595
学到的东西	-17596
实实在在的	-17597
展示给大家	-17598
巨大的变化	-17599
我们可以从	-17600
我们是如何	-17601
有一个问题	-17602
白色乌托邦	-17603
的事情之一	-17604
碳水化合物	-17605
资本主义的	-17606
这就是我们	-17607
▁如果你愿意	-17608
▁当我们开始	-17609
▁我们可能会	-17610
▁我们所有人	-17611
▁我们把这个	-17612
▁我开始思考	-17613
▁所以你可以	-17614
▁所有的这些	-17615
▁有意思的是	-17616
▁让我告诉你	-17617
▁这张照片是	-17618
▁这里有一些	-17619
发生了什么呢	-17620
在这个过程中	-17621
,,	-17622
54	-17623
67	-17624
76	-17625
94	-17626
NN	-17627
se	-17628
ue	-17629
▁伯	-17630
▁吸	-17631
▁普	-17632
▁船	-17633
▁跨	-17634
▁首	-17635
一亿	-17636
一分	-17637
一方	-17638
一笔	-17639
一顿	-17640
万一	-17641
上和	-17642
上所	-17643
下到	-17644
下周	-17645
不相	-17646
不胜	-17647
世间	-17648
个案	-17649
中也	-17650
了对	-17651
交织	-17652
从他	-17653
从你	-17654
他不	-17655
付款	-17656
代言	-17657
休闲	-17658
余生	-17659
例证	-17660
偷猎	-17661
偷窃	-17662
光片	-17663
全然	-17664
六岁	-17665
共通	-17666
农田	-17667
冻结	-17668
刚从	-17669
到有	-17670
到此	-17671
午夜	-17672
华纳	-17673
卷入	-17674
压根	-17675
去读	-17676
参赛	-17677
反响	-17678
受苦	-17679
受邀	-17680
台阶	-17681
向后	-17682
员的	-17683
和高	-17684
哥们	-17685
哥斯	-17686
喷发	-17687
回溯	-17688
园艺	-17689
在海	-17690
地做	-17691
地雷	-17692
坚决	-17693
城的	-17694
城里	-17695
填写	-17696
壮观	-17697
夏季	-17698
外包	-17699
多余	-17700
多尔	-17701
失效	-17702
头绪	-17703
她就	-17704
妨碍	-17705
威力	-17706
字幕	-17707
季候	-17708
学费	-17709
它不	-17710
完好	-17711
定时	-17712
宿主	-17713
寄钱	-17714
对准	-17715
巡逻	-17716
布局	-17717
布料	-17718
帮他	-17719
干涉	-17720
开枪	-17721
弄得	-17722
张开	-17723
弱点	-17724
录影	-17725
形体	-17726
征兆	-17727
很差	-17728
很强	-17729
得快	-17730
德尼	-17731
性命	-17732
总数	-17733
总有	-17734
患了	-17735
懂了	-17736
成堆	-17737
我给	-17738
战火	-17739
承包	-17740
抽取	-17741
拉德	-17742
招聘	-17743
排行	-17744
推文	-17745
提姆	-17746
收回	-17747
效力	-17748
数月	-17749
旅鸽	-17750
无情	-17751
日的	-17752
日语	-17753
易于	-17754
暗的	-17755
有名	-17756
本领	-17757
杰特	-17758
查找	-17759
横向	-17760
气息	-17761
深夜	-17762
渐冻	-17763
渡渡	-17764
灵敏	-17765
牛排	-17766
牛的	-17767
狗的	-17768
现存	-17769
生不	-17770
生动	-17771
生计	-17772
用以	-17773
甲虫	-17774
电荷	-17775
白种	-17776
百事	-17777
的图	-17778
着她	-17779
睁开	-17780
神灵	-17781
福音	-17782
稀奇	-17783
算术	-17784
篇章	-17785
粗略	-17786
精灵	-17787
精髓	-17788
紧凑	-17789
约有	-17790
纳森	-17791
纽带	-17792
绑在	-17793
美满	-17794
而后	-17795
耕作	-17796
胶片	-17797
能将	-17798
艰辛	-17799
芭比	-17800
若干	-17801
虚假	-17802
蚁后	-17803
表亲	-17804
表皮	-17805
装配	-17806
西非	-17807
觉醒	-17808
触角	-17809
警示	-17810
计时	-17811
论的	-17812
访者	-17813
识字	-17814
贴纸	-17815
贵族	-17816
踏入	-17817
遗留	-17818
里根	-17819
镜像	-17820
长到	-17821
间隙	-17822
闻到	-17823
难了	-17824
雨季	-17825
面具	-17826
顶层	-17827
领会	-17828
领土	-17829
饭店	-17830
马戏	-17831
马的	-17832
黎加	-17833
齿轮	-17834
IMS	-17835
anz	-17836
ara	-17837
mer	-17838
ort	-17839
red	-17840
rey	-17841
rot	-17842
une	-17843
ura	-17844
▁Re	-17845
▁一片	-17846
▁不停	-17847
▁他和	-17848
▁你可	-17849
▁依据	-17850
▁促使	-17851
▁免费	-17852
▁再说	-17853
▁前往	-17854
▁化学	-17855
▁地方	-17856
▁天然	-17857
▁带有	-17858
▁想到	-17859
▁我总	-17860
▁我这	-17861
▁挪威	-17862
▁提醒	-17863
▁摆脱	-17864
▁收入	-17865
▁明年	-17866
▁机械	-17867
▁物理	-17868
▁猜猜	-17869
▁疫苗	-17870
▁眼睛	-17871
▁网站	-17872
▁艾米	-17873
▁蚂蚁	-17874
▁蜘蛛	-17875
▁诗歌	-17876
▁谁会	-17877
▁运动	-17878
▁采取	-17879
▁项目	-17880
一小块	-17881
一首歌	-17882
不可见	-17883
不够的	-17884
与那些	-17885
中寻找	-17886
中没有	-17887
中的人	-17888
了一年	-17889
些时间	-17890
人们说	-17891
会一直	-17892
会变得	-17893
会更好	-17894
但不是	-17895
位置上	-17896
作出了	-17897
作出的	-17898
你将会	-17899
便开始	-17900
停留在	-17901
光合作	-17902
公园里	-17903
兰克林	-17904
分钟里	-17905
利益的	-17906
制定者	-17907
十年内	-17908
华氏度	-17909
南美洲	-17910
即使在	-17911
另一些	-17912
合唱团	-17913
和控制	-17914
在不断	-17915
在这片	-17916
地工作	-17917
地思考	-17918
地改变	-17919
基础的	-17920
多元化	-17921
大众的	-17922
太小了	-17923
好多了	-17924
好玩的	-17925
婴儿的	-17926
实用的	-17927
家人的	-17928
家庭中	-17929
密西西	-17930
对未来	-17931
将这种	-17932
尽所能	-17933
已经很	-17934
帮他们	-17935
开发商	-17936
异性恋	-17937
当下的	-17938
怀孕了	-17939
怎样去	-17940
性武器	-17941
性生活	-17942
我就要	-17943
我所能	-17944
我爱你	-17945
房地产	-17946
接触过	-17947
控制着	-17948
描述了	-17949
数十年	-17950
数据点	-17951
斯诺登	-17952
新方法	-17953
是这些	-17954
是那些	-17955
更快的	-17956
有一套	-17957
有一百	-17958
有人会	-17959
有很大	-17960
有必要	-17961
有生命	-17962
来参加	-17963
构成了	-17964
每一年	-17965
毕业后	-17966
沉迷于	-17967
泰迪熊	-17968
浪费了	-17969
清晰地	-17970
满足感	-17971
灵活的	-17972
点时间	-17973
热气球	-17974
然后你	-17975
爱上了	-17976
猜怎么	-17977
现在我	-17978
理解为	-17979
理解和	-17980
生态学	-17981
田纳西	-17982
的一间	-17983
的压力	-17984
的地下	-17985
的次数	-17986
的潜力	-17987
的父母	-17988
的物体	-17989
的英雄	-17990
的要求	-17991
的顶端	-17992
知道她	-17993
究竟是	-17994
紫色的	-17995
组成了	-17996
经济上	-17997
维度的	-17998
联系到	-17999
能产生	-18000
自以为	-18001
自己被	-18002
行走的	-18003
被允许	-18004
被动的	-18005
被逮捕	-18006
西方人	-18007
西海岸	-18008
让我很	-18009
讲台上	-18010
试试看	-18011
话短说	-18012
诞生的	-18013
贝多芬	-18014
赋予了	-18015
跟别人	-18016
还活着	-18017
迫不及	-18018
那么高	-18019
高中的	-18020
鸡尾酒	-18021
1996	-18022
2013	-18023
8000	-18024
ever	-18025
▁不是吗	-18026
▁也包括	-18027
▁也是我	-18028
▁但今天	-18029
▁你看见	-18030
▁却没有	-18031
▁坏消息	-18032
▁它将会	-18033
▁就是用	-18034
▁并且有	-18035
▁建筑师	-18036
▁当时的	-18037
▁我们看	-18038
▁我想到	-18039
▁我继续	-18040
▁我还在	-18041
▁我问她	-18042
▁所以就	-18043
▁是这个	-18044
▁然而在	-18045
▁的一个	-18046
▁第三点	-18047
▁经历了	-18048
▁而且他	-18049
▁请举手	-18050
▁这部分	-18051
▁那一刻	-18052
▁那时的	-18053
一个项目	-18054
一所学校	-18055
一直都在	-18056
万美元的	-18057
不会发生	-18058
不同的是	-18059
个性化的	-18060
为自己的	-18061
了一会儿	-18062
了解一下	-18063
亚利桑那	-18064
什么样子	-18065
他们必须	-18066
付诸行动	-18067
令人激动	-18068
伊拉克的	-18069
俄克拉何	-18070
做出选择	-18071
允许我们	-18072
其中一些	-18073
养家糊口	-18074
冰山一角	-18075
到处都有	-18076
医护人员	-18077
十分重要	-18078
博物馆里	-18079
各个方面	-18080
各个角落	-18081
同情心的	-18082
因为它是	-18083
在阿富汗	-18084
塞尔维亚	-18085
塞拉利昂	-18086
外科手术	-18087
如何才能	-18088
学到什么	-18089
对于那些	-18090
就会发现	-18091
就是如此	-18092
就是这些	-18093
影响我们	-18094
很了不起	-18095
想象力的	-18096
意思就是	-18097
我不喜欢	-18098
我们也会	-18099
我们经常	-18100
我们这些	-18101
我很高兴	-18102
我的国家	-18103
我看到了	-18104
所面临的	-18105
技术人员	-18106
指数增长	-18107
提供一些	-18108
整个宇宙	-18109
是存在的	-18110
更有可能	-18111
有一些人	-18112
来的时候	-18113
民权运动	-18114
燃料电池	-18115
甚至没有	-18116
生命周期	-18117
生物技术	-18118
用户界面	-18119
病人身上	-18120
相互关联	-18121
科学家和	-18122
移动电话	-18123
移动设备	-18124
移民汇款	-18125
给大家讲	-18126
能够改变	-18127
航空航天	-18128
讨论一下	-18129
贫富差距	-18130
这一代人	-18131
这个孩子	-18132
这个研究	-18133
这些数字	-18134
这是不是	-18135
这种行为	-18136
这种说法	-18137
里的一个	-18138
重新开始	-18139
长的时间	-18140
非常喜欢	-18141
非常多的	-18142
领导者的	-18143
骑自行车	-18144
Corps	-18145
Skype	-18146
▁2004	-18147
▁一个女人	-18148
▁为什么是	-18149
▁他们应该	-18150
▁他们真的	-18151
▁以及那些	-18152
▁但我相信	-18153
▁但是你们	-18154
▁几个星期	-18155
▁即使是在	-18156
▁同时我也	-18157
▁因为那里	-18158
▁在不同的	-18159
▁就是一个	-18160
▁尽管我们	-18161
▁并且可以	-18162
▁并且开始	-18163
▁当你看到	-18164
▁当我开始	-18165
▁当我看到	-18166
▁当我还是	-18167
▁我们做的	-18168
▁我们都在	-18169
▁我当时想	-18170
▁或者至少	-18171
▁有一件事	-18172
▁此时此刻	-18173
一遍又一遍	-18174
不同种类的	-18175
与生俱来的	-18176
像我这样的	-18177
发现了一个	-18178
可持续性的	-18179
向你们介绍	-18180
把这些东西	-18181
是怎么样的	-18182
有什么意义	-18183
有趣的东西	-18184
正在发生的	-18185
的一个项目	-18186
简单的问题	-18187
自闭症患者	-18188
超级计算机	-18189
这样的情况	-18190
这样的想法	-18191
▁Alpha	-18192
▁你就会发现	-18193
▁我们也需要	-18194
▁我们在这里	-18195
▁我们生活在	-18196
▁我们还可以	-18197
▁所以当我们	-18198
▁然后我开始	-18199
▁这对我来说	-18200
▁但更重要的是	-18201
▁克里斯安德森	-18202
▁所以我们决定	-18203
oryCorps	-18204
96	-18205
CP	-18206
▁依	-18207
▁停	-18208
▁旧	-18209
▁明	-18210
▁横	-18211
▁然	-18212
▁诚	-18213
▁跑	-18214
▁造	-18215
▁钱	-18216
一丝	-18217
一盘	-18218
万到	-18219
三周	-18220
下沉	-18221
不绝	-18222
东北	-18223
严厉	-18224
主妇	-18225
之事	-18226
之门	-18227
乐曲	-18228
也想	-18229
交集	-18230
他对	-18231
企图	-18232
但他	-18233
你都	-18234
佩戴	-18235
便便	-18236
假想	-18237
入学	-18238
公海	-18239
公约	-18240
公认	-18241
再也	-18242
写诗	-18243
军方	-18244
农夫	-18245
冬季	-18246
冰洋	-18247
冲破	-18248
出海	-18249
初次	-18250
剪刀	-18251
十足	-18252
协定	-18253
占用	-18254
反向	-18255
反弹	-18256
叛乱	-18257
只好	-18258
叫他	-18259
各处	-18260
吉姆	-18261
名是	-18262
向往	-18263
否定	-18264
听的	-18265
围栏	-18266
固执	-18267
固醇	-18268
圣母	-18269
地想	-18270
地把	-18271
埋葬	-18272
基准	-18273
基酸	-18274
堵墙	-18275
境的	-18276
士尼	-18277
外围	-18278
多伦	-18279
多岁	-18280
多阿	-18281
天呐	-18282
天覆	-18283
太久	-18284
夫斯	-18285
妮弗	-18286
存款	-18287
学上	-18288
完工	-18289
少量	-18290
山峰	-18291
布里	-18292
常理	-18293
常说	-18294
平原	-18295
年份	-18296
并发	-18297
底的	-18298
开个	-18299
开门	-18300
弥漫	-18301
强力	-18302
归纳	-18303
德州	-18304
心怀	-18305
心思	-18306
成群	-18307
打断	-18308
报警	-18309
抬高	-18310
拍手	-18311
拼图	-18312
拿了	-18313
掌管	-18314
排的	-18315
摇摆	-18316
攀爬	-18317
新药	-18318
无声	-18319
是和	-18320
是她	-18321
是将	-18322
是想	-18323
替身	-18324
有更	-18325
本该	-18326
杂交	-18327
杆菌	-18328
板的	-18329
枯竭	-18330
根基	-18331
格局	-18332
欣慰	-18333
歌词	-18334
每位	-18335
河中	-18336
河里	-18337
游牧	-18338
满满	-18339
火腿	-18340
火花	-18341
爱国	-18342
特色	-18343
猎人	-18344
猎杀	-18345
玛雅	-18346
理应	-18347
用上	-18348
画布	-18349
疗程	-18350
痛恨	-18351
白鲨	-18352
的分	-18353
的非	-18354
相传	-18355
祈求	-18356
稀缺	-18357
笨蛋	-18358
糊涂	-18359
维系	-18360
缓冲	-18361
缩减	-18362
而过	-18363
脏的	-18364
脱口	-18365
脱落	-18366
自家	-18367
航海	-18368
要让	-18369
观赏	-18370
规章	-18371
解救	-18372
谁在	-18373
调动	-18374
象牙	-18375
账单	-18376
贴片	-18377
赌注	-18378
走着	-18379
起草	-18380
跨度	-18381
身在	-18382
身材	-18383
载体	-18384
较为	-18385
较少	-18386
这家	-18387
远了	-18388
远方	-18389
迷你	-18390
通了	-18391
逼迫	-18392
道格	-18393
错综	-18394
镇压	-18395
长滩	-18396
长者	-18397
长颈	-18398
闻名	-18399
隐秘	-18400
隔热	-18401
震荡	-18402
静静	-18403
飞的	-18404
,12	-18405
360	-18406
ake	-18407
din	-18408
ech	-18409
eck	-18410
ern	-18411
reg	-18412
van	-18413
▁Jo	-18414
▁一对	-18415
▁一本	-18416
▁不但	-18417
▁世纪	-18418
▁产品	-18419
▁他曾	-18420
▁他正	-18421
▁全都	-18422
▁反正	-18423
▁培养	-18424
▁天哪	-18425
▁它对	-18426
▁它把	-18427
▁工业	-18428
▁带到	-18429
▁年的	-18430
▁引起	-18431
▁意识	-18432
▁感受	-18433
▁我一	-18434
▁我做	-18435
▁放进	-18436
▁教授	-18437
▁更为	-18438
▁朋友	-18439
▁来做	-18440
▁激励	-18441
▁皮肤	-18442
▁盖瑞	-18443
▁确切	-18444
▁精神	-18445
▁统计	-18446
▁获取	-18447
▁蝙蝠	-18448
▁行动	-18449
▁街道	-18450
▁计划	-18451
▁试想	-18452
▁说服	-18453
▁走到	-18454
▁足够	-18455
▁输入	-18456
▁这都	-18457
▁遍布	-18458
▁重建	-18459
▁集中	-18460
▁颜色	-18461
▁马可	-18462
一点是	-18463
万神殿	-18464
上学的	-18465
不管你	-18466
个星期	-18467
个月前	-18468
中世纪	-18469
中国菜	-18470
为一体	-18471
之上的	-18472
了一本	-18473
了新的	-18474
了解它	-18475
事件中	-18476
五年前	-18477
他开始	-18478
会议室	-18479
传播到	-18480
位女士	-18481
体验到	-18482
你所知	-18483
保持在	-18484
做事情	-18485
做准备	-18486
内容的	-18487
出版商	-18488
利用的	-18489
到哪里	-18490
加斯加	-18491
加速器	-18492
努力去	-18493
半部分	-18494
南非的	-18495
印刷机	-18496
厌倦了	-18497
发电站	-18498
各行各	-18499
和它们	-18500
和我说	-18501
和社区	-18502
四个人	-18503
回报率	-18504
团队的	-18505
在路上	-18506
复活节	-18507
大约在	-18508
大陆上	-18509
奥克兰	-18510
季候风	-18511
它们就	-18512
它们都	-18513
安全地	-18514
客观的	-18515
容易被	-18516
封闭的	-18517
将如何	-18518
巴西的	-18519
带回来	-18520
带大家	-18521
帮助的	-18522
平衡的	-18523
幸运地	-18524
当时我	-18525
很久了	-18526
很糟糕	-18527
得不错	-18528
得多的	-18529
性疾病	-18530
情形下	-18531
愉快的	-18532
感知的	-18533
我对此	-18534
我想象	-18535
我把它	-18536
我是否	-18537
我父母	-18538
我花了	-18539
所以你	-18540
拒绝了	-18541
提升了	-18542
携带者	-18543
收集了	-18544
改造成	-18545
教他们	-18546
斯科特	-18547
无尽的	-18548
无意中	-18549
明确地	-18550
是个很	-18551
有了个	-18552
有这样	-18553
本科生	-18554
本身就	-18555
来代替	-18556
来展示	-18557
棕色的	-18558
模拟器	-18559
殖民地	-18560
段视频	-18561
每分钟	-18562
每年有	-18563
比赛中	-18564
比起来	-18565
气体的	-18566
法国人	-18567
洗手间	-18568
海洛因	-18569
渐冻人	-18570
演化的	-18571
爱丁堡	-18572
牛仔裤	-18573
现存的	-18574
理念是	-18575
电影的	-18576
电影里	-18577
的一块	-18578
的产生	-18579
的其他	-18580
的原理	-18581
的差异	-18582
的情景	-18583
的成员	-18584
的时机	-18585
的标签	-18586
的眼睛	-18587
的组合	-18588
的话语	-18589
的限制	-18590
的需要	-18591
直观的	-18592
真的能	-18593
矿物质	-18594
神奇了	-18595
秘密的	-18596
移植到	-18597
竞争力	-18598
第四个	-18599
简直是	-18600
纳米管	-18601
经过了	-18602
经验的	-18603
给了他	-18604
给我看	-18605
置身于	-18606
美人鱼	-18607
美金的	-18608
考虑的	-18609
联想到	-18610
能力和	-18611
能真正	-18612
自上而	-18613
花了一	-18614
英尺长	-18615
莱杰特	-18616
行星上	-18617
要成为	-18618
觉得我	-18619
解释说	-18620
詹妮弗	-18621
让我在	-18622
讲到的	-18623
说这些	-18624
趋向于	-18625
转基因	-18626
运用在	-18627
这事儿	-18628
这幅画	-18629
这是很	-18630
这问题	-18631
逻辑的	-18632
那些最	-18633
邪恶的	-18634
都存在	-18635
里的人	-18636
银行业	-18637
问题呢	-18638
阶段的	-18639
非常地	-18640
领域里	-18641
驱动力	-18642
1800	-18643
7000	-18644
Mary	-18645
▁不久前	-18646
▁个人的	-18647
▁为了让	-18648
▁于是在	-18649
▁人们的	-18650
▁从这些	-18651
▁他发现	-18652
▁他说他	-18653
▁会产生	-18654
▁但至少	-18655
▁你们能	-18656
▁几年后	-18657
▁医生们	-18658
▁去理解	-18659
▁在当时	-18660
▁大家看	-18661
▁存在着	-18662
▁它们被	-18663
▁对这些	-18664
▁对那些	-18665
▁导致了	-18666
▁将这些	-18667
▁就必须	-18668
▁库尔特	-18669
▁建筑物	-18670
▁开始了	-18671
▁我们仍	-18672
▁我们以	-18673
▁我们称	-18674
▁我刚才	-18675
▁我妻子	-18676
▁我永远	-18677
▁我热爱	-18678
▁我特别	-18679
▁我还想	-18680
▁我还有	-18681
▁我问他	-18682
▁或是在	-18683
▁所以要	-18684
▁是人类	-18685
▁来进行	-18686
▁每年有	-18687
▁比如像	-18688
▁现如今	-18689
▁生命的	-18690
▁第二次	-18691
▁类似的	-18692
▁至少在	-18693
▁请大家	-18694
▁这些事	-18695
▁这使我	-18696
▁这当然	-18697
▁那个人	-18698
▁那么就	-18699
一个女人	-18700
一个小时	-18701
一个男人	-18702
一家公司	-18703
不是很好	-18704
两个星期	-18705
中看到的	-18706
主要原因	-18707
也不可能	-18708
也很重要	-18709
也有可能	-18710
也有很多	-18711
互联网的	-18712
交响乐团	-18713
他们不会	-18714
他们应该	-18715
你是不是	-18716
保持沉默	-18717
充满希望	-18718
几个世纪	-18719
别的事情	-18720
制药公司	-18721
医疗设备	-18722
十九世纪	-18723
博物馆的	-18724
四分之三	-18725
圣地亚哥	-18726
在世界上	-18727
在想什么	-18728
垃圾回收	-18729
大不相同	-18730
孟加拉国	-18731
它是一种	-18732
尝试一下	-18733
就在我们	-18734
就是那个	-18735
布鲁克斯	-18736
并不总是	-18737
建立联系	-18738
开始之前	-18739
开始考虑	-18740
当我开始	-18741
很多人的	-18742
得到一些	-18743
意义重大	-18744
意大利的	-18745
我们做了	-18746
我们将要	-18747
我们怎样	-18748
我们曾经	-18749
我并没有	-18750
我很喜欢	-18751
我的妻子	-18752
我称之为	-18753
指出的是	-18754
振奋人心	-18755
改变现状	-18756
新的想法	-18757
是可行的	-18758
是否可以	-18759
是有限的	-18760
显微镜下	-18761
暴力行为	-18762
有了这些	-18763
本身就是	-18764
根深蒂固	-18765
欧洲国家	-18766
每一件事	-18767
毫无意义	-18768
的一个人	-18769
的主题是	-18770
的时间来	-18771
真的很棒	-18772
知之甚少	-18773
纳米技术	-18774
绝对不会	-18775
聚到一起	-18776
聚集起来	-18777
肢体语言	-18778
肯尼亚的	-18779
自然灾害	-18780
觉得这是	-18781
跟我一起	-18782
跨国公司	-18783
这个家伙	-18784
这个现象	-18785
这些变化	-18786
这真的是	-18787
这篇文章	-18788
迫不及待	-18789
道德问题	-18790
那样的话	-18791
间的关系	-18792
马上就要	-18793
▁一旦我们	-18794
▁不好意思	-18795
▁他们现在	-18796
▁他们自己	-18797
▁你们也许	-18798
▁你可以说	-18799
▁因为她们	-18800
▁因为没有	-18801
▁在世界上	-18802
▁如果不是	-18803
▁如果你看	-18804
▁如果你问	-18805
▁它们不是	-18806
▁很有可能	-18807
▁感谢大家	-18808
▁我们目前	-18809
▁我们研究	-18810
▁我们试图	-18811
▁正因如此	-18812
▁然后它们	-18813
▁然后我会	-18814
▁现在他们	-18815
▁这其实是	-18816
▁这是一场	-18817
▁这是人类	-18818
▁这有点像	-18819
▁这真的很	-18820
一样的东西	-18821
他们的朋友	-18822
俄克拉何马	-18823
加拉帕戈斯	-18824
就是我们的	-18825
我们不需要	-18826
我们可以把	-18827
我的孩子们	-18828
斯坦福大学	-18829
百分之五十	-18830
的工作方式	-18831
简单的事情	-18832
这样的例子	-18833
这样的方式	-18834
olfram	-18835
▁但与此同时	-18836
▁你们看到的	-18837
▁在座的各位	-18838
▁如果我们把	-18839
▁如果我们要	-18840
▁我们有能力	-18841
▁我们每个人	-18842
加利福尼亚州	-18843
联系在一起的	-18844
Arduino	-18845
,《	-18846
5.	-18847
77	-18848
87	-18849
?)	-18850
Ed	-18851
PD	-18852
co	-18853
ka	-18854
▁&	-18855
▁.	-18856
▁乘	-18857
▁印	-18858
▁基	-18859
▁山	-18860
▁岁	-18861
▁弹	-18862
▁托	-18863
▁活	-18864
▁诗	-18865
一体	-18866
一号	-18867
一栋	-18868
三四	-18869
下山	-18870
下潜	-18871
下落	-18872
不丹	-18873
与她	-18874
两件	-18875
两样	-18876
两面	-18877
丧命	-18878
中和	-18879
乔丹	-18880
二号	-18881
二手	-18882
人来	-18883
从一	-18884
他又	-18885
他把	-18886
以内	-18887
传教	-18888
便捷	-18889
信封	-18890
修斯	-18891
倒退	-18892
傲慢	-18893
傻瓜	-18894
僵局	-18895
充气	-18896
全家	-18897
八千	-18898
六年	-18899
关押	-18900
典礼	-18901
内涵	-18902
再多	-18903
减小	-18904
几条	-18905
凶手	-18906
出错	-18907
击手	-18908
分半	-18909
到位	-18910
功课	-18911
化肥	-18912
升到	-18913
华达	-18914
卡斯	-18915
卫报	-18916
即是	-18917
取下	-18918
变大	-18919
口罩	-18920
召开	-18921
吃到	-18922
吉普	-18923
同盟	-18924
后台	-18925
和性	-18926
哥华	-18927
器材	-18928
围着	-18929
在以	-18930
在行	-18931
均衡	-18932
复印	-18933
外语	-18934
多米	-18935
大叫	-18936
大批	-18937
失所	-18938
威士	-18939
学徒	-18940
学期	-18941
安然	-18942
宝马	-18943
宣告	-18944
导电	-18945
封锁	-18946
将这	-18947
小于	-18948
小猫	-18949
屠宰	-18950
岁到	-18951
巨变	-18952
巨额	-18953
帮派	-18954
常数	-18955
平滑	-18956
年度	-18957
引向	-18958
张贴	-18959
微波	-18960
德黑	-18961
快地	-18962
感叹	-18963
慈悯	-18964
我先	-18965
战术	-18966
戴上	-18967
所用	-18968
找的	-18969
把水	-18970
抓狂	-18971
报名	-18972
担负	-18973
拆开	-18974
拼凑	-18975
指甲	-18976
指着	-18977
挫败	-18978
捉摸	-18979
授课	-18980
描写	-18981
播出	-18982
支票	-18983
放着	-18984
整齐	-18985
斯堡	-18986
无尽	-18987
时无	-18988
是好	-18989
晓得	-18990
朱丽	-18991
次了	-18992
毁坏	-18993
比对	-18994
气囊	-18995
气流	-18996
气管	-18997
汇总	-18998
沉重	-18999
沙粒	-19000
测定	-19001
测绘	-19002
海浪	-19003
海默	-19004
滥调	-19005
潮湿	-19006
激增	-19007
热水	-19008
照看	-19009
片刻	-19010
牌的	-19011
牙刷	-19012
狱警	-19013
猎豹	-19014
瓦的	-19015
瓷砖	-19016
生菜	-19017
电灯	-19018
的山	-19019
相差	-19020
看重	-19021
睡在	-19022
确是	-19023
离家	-19024
移居	-19025
空隙	-19026
童话	-19027
简称	-19028
粉笔	-19029
精巧	-19030
精通	-19031
素质	-19032
红点	-19033
细致	-19034
结底	-19035
维奇	-19036
翼翼	-19037
考量	-19038
联想	-19039
背部	-19040
脚踏	-19041
腹腔	-19042
自传	-19043
自学	-19044
船的	-19045
范式	-19046
螺丝	-19047
血缘	-19048
行李	-19049
街角	-19050
表象	-19051
西欧	-19052
西蒙	-19053
觉察	-19054
触控	-19055
讲完	-19056
讲过	-19057
证词	-19058
试管	-19059
话筒	-19060
诺斯	-19061
读出	-19062
谦虚	-19063
贝壳	-19064
账号	-19065
贴上	-19066
贴近	-19067
赤脚	-19068
赶到	-19069
越发	-19070
越少	-19071
足足	-19072
跑来	-19073
跳下	-19074
达荷	-19075
达菲	-19076
迈阿	-19077
还好	-19078
迪芬	-19079
郊外	-19080
鉴于	-19081
钢丝	-19082
销量	-19083
长途	-19084
阳性	-19085
阵子	-19086
阿瑟	-19087
陆军	-19088
集市	-19089
雷斯	-19090
露脊	-19091
页的	-19092
风车	-19093
骚乱	-19094
高地	-19095
默认	-19096
龙虾	-19097
,19	-19098
,40	-19099
ain	-19100
ama	-19101
erg	-19102
ham	-19103
ini	-19104
orn	-19105
ris	-19106
uno	-19107
▁Sm	-19108
▁in	-19109
▁一部	-19110
▁与此	-19111
▁也要	-19112
▁从小	-19113
▁价格	-19114
▁但愿	-19115
▁使你	-19116
▁前面	-19117
▁即将	-19118
▁只为	-19119
▁同意	-19120
▁和你	-19121
▁国会	-19122
▁她想	-19123
▁它不	-19124
▁完美	-19125
▁对你	-19126
▁就跟	-19127
▁就连	-19128
▁情感	-19129
▁慢慢	-19130
▁我请	-19131
▁或在	-19132
▁担心	-19133
▁接近	-19134
▁援助	-19135
▁无线	-19136
▁最早	-19137
▁有天	-19138
▁漫画	-19139
▁激发	-19140
▁爸爸	-19141
▁理论	-19142
▁琼斯	-19143
▁行星	-19144
▁要不	-19145
▁认识	-19146
▁诸如	-19147
▁谈到	-19148
▁贫穷	-19149
▁这使	-19150
▁这有	-19151
▁追求	-19152
▁遭受	-19153
▁重点	-19154
▁阳光	-19155
▁随便	-19156
▁难以	-19157
一首诗	-19158
三角洲	-19159
上升了	-19160
不要再	-19161
不适合	-19162
为那些	-19163
也随之	-19164
书呆子	-19165
买不起	-19166
买了一	-19167
了过来	-19168
人意料	-19169
但是它	-19170
你也会	-19171
你正在	-19172
做出来	-19173
做演讲	-19174
储存在	-19175
催化剂	-19176
光造影	-19177
全人类	-19178
公斤的	-19179
公正的	-19180
分布图	-19181
到最后	-19182
制作出	-19183
前教育	-19184
副产品	-19185
十亿人	-19186
卡梅隆	-19187
印度河	-19188
去学校	-19189
发光的	-19190
发邮件	-19191
句名言	-19192
叫什么	-19193
可塑性	-19194
可怕了	-19195
可能被	-19196
右手边	-19197
听我说	-19198
周边的	-19199
和发展	-19200
和它的	-19201
和环境	-19202
商学院	-19203
商店里	-19204
回家后	-19205
因为在	-19206
因为有	-19207
国家和	-19208
在发生	-19209
地使用	-19210
城市和	-19211
壮观的	-19212
外基质	-19213
多得多	-19214
大家伙	-19215
大拇指	-19216
太大的	-19217
奥运会	-19218
如果要	-19219
学习到	-19220
宇宙里	-19221
安东尼	-19222
对照组	-19223
将一个	-19224
小伙子	-19225
就在我	-19226
就在这	-19227
就成了	-19228
就越多	-19229
尼尔森	-19230
局限性	-19231
工人的	-19232
左上角	-19233
常用的	-19234
并不像	-19235
应得的	-19236
德黑兰	-19237
忽视了	-19238
忽视的	-19239
思想家	-19240
想象中	-19241
慈悲心	-19242
我们已	-19243
我们被	-19244
我做了	-19245
我到底	-19246
我是谁	-19247
所知的	-19248
扮演了	-19249
把椅子	-19250
投身于	-19251
抗药性	-19252
排放的	-19253
探测到	-19254
探险家	-19255
推出了	-19256
提醒你	-19257
收集到	-19258
政治的	-19259
新势力	-19260
旁观者	-19261
旅行者	-19262
无形的	-19263
昆虫的	-19264
是很难	-19265
更深入	-19266
更美好	-19267
最近才	-19268
有信心	-19269
有好处	-19270
有孩子	-19271
有过的	-19272
本拉登	-19273
来形容	-19274
来找我	-19275
来治疗	-19276
核战争	-19277
模型中	-19278
正常人	-19279
比赛的	-19280
流动的	-19281
海滩上	-19282
渡渡鸟	-19283
温哥华	-19284
源代码	-19285
灵光一	-19286
然后就	-19287
特拉津	-19288
理解它	-19289
生长在	-19290
由一个	-19291
的人中	-19292
的人呢	-19293
的作者	-19294
的地球	-19295
的实际	-19296
的对象	-19297
的总和	-19298
的愿望	-19299
的服务	-19300
的标志	-19301
的规则	-19302
的错误	-19303
的阶段	-19304
的飞机	-19305
目击者	-19306
看成是	-19307
真正在	-19308
短暂的	-19309
科技和	-19310
科罗拉	-19311
第一张	-19312
第一条	-19313
第三种	-19314
第二种	-19315
笼子里	-19316
糟透了	-19317
系统和	-19318
维生素	-19319
而上的	-19320
而且是	-19321
脱离了	-19322
自己所	-19323
自给自	-19324
色人种	-19325
莫扎特	-19326
莫斯科	-19327
融化的	-19328
表现得	-19329
表现的	-19330
让她们	-19331
设计中	-19332
试着去	-19333
走过去	-19334
路要走	-19335
过一些	-19336
还包括	-19337
这可以	-19338
远不止	-19339
遇到过	-19340
避孕套	-19341
那时的	-19342
部门的	-19343
里程碑	-19344
长颈鹿	-19345
面积的	-19346
食物和	-19347
马戏团	-19348
9·11	-19349
AIMS	-19350
Alex	-19351
anis	-19352
arth	-19353
ickr	-19354
▁Kat	-19355
▁一个有	-19356
▁也许你	-19357
▁从我的	-19358
▁他总是	-19359
▁他知道	-19360
▁你也会	-19361
▁你永远	-19362
▁使它们	-19363
▁做一些	-19364
▁参与到	-19365
▁史迪芬	-19366
▁在一次	-19367
▁在世界	-19368
▁在任何	-19369
▁在她的	-19370
▁在学校	-19371
▁失去了	-19372
▁奥巴马	-19373
▁它也是	-19374
▁展示了	-19375
▁工程师	-19376
▁并且是	-19377
▁我想用	-19378
▁我把这	-19379
▁我是指	-19380
▁我最后	-19381
▁我爸爸	-19382
▁有的人	-19383
▁消费者	-19384
▁生物学	-19385
▁用这些	-19386
▁相同的	-19387
▁看一下	-19388
▁真的很	-19389
▁而今天	-19390
▁而你们	-19391
▁而我也	-19392
▁詹姆斯	-19393
▁这两者	-19394
▁进一步	-19395
▁那些人	-19396
▁重点是	-19397
一个城市	-19398
一个想法	-19399
上的一个	-19400
下定决心	-19401
不仅可以	-19402
九十年代	-19403
也就是说	-19404
他们只是	-19405
以色列人	-19406
任何其他	-19407
任务就是	-19408
传递信息	-19409
你们中的	-19410
你可以用	-19411
你有没有	-19412
公共交通	-19413
其实不是	-19414
几个问题	-19415
利用这个	-19416
加入我们	-19417
化学成分	-19418
千年发展	-19419
原始数据	-19420
古典音乐	-19421
另一件事	-19422
可能会想	-19423
同性婚姻	-19424
听到这个	-19425
哪个国家	-19426
在美国的	-19427
处理这些	-19428
多样化的	-19429
大不了的	-19430
天覆地的	-19431
女孩子们	-19432
好消息是	-19433
如果你是	-19434
它的存在	-19435
就会出现	-19436
岁的儿子	-19437
州立大学	-19438
巴尔的摩	-19439
并不那么	-19440
建立起来	-19441
归根结底	-19442
很多其他	-19443
很多问题	-19444
我们只能	-19445
我发现了	-19446
我的声音	-19447
找到一些	-19448
把注意力	-19449
持续下去	-19450
换句话说	-19451
提供食物	-19452
是相同的	-19453
最糟糕的	-19454
有些时候	-19455
有价值的	-19456
有意识的	-19457
有所不同	-19458
标志性的	-19459
死亡人数	-19460
泰坦尼克	-19461
海洋中的	-19462
清洁能源	-19463
理解这个	-19464
生命危险	-19465
生命形式	-19466
电脑游戏	-19467
的一本书	-19468
的第一步	-19469
直升飞机	-19470
看到他们	-19471
着他们的	-19472
知道怎么	-19473
经常发生	-19474
自然界中	-19475
英尺高的	-19476
让我想起	-19477
许多其他	-19478
购物中心	-19479
这个事情	-19480
这个女孩	-19481
这种做法	-19482
这类事情	-19483
进入这个	-19484
逆流而上	-19485
通过这个	-19486
那些事情	-19487
需要什么	-19488
非同寻常	-19489
Steve	-19490
▁一个新的	-19491
▁三分之一	-19492
▁也许你会	-19493
▁他们通常	-19494
▁但并不是	-19495
▁但是后来	-19496
▁但是这种	-19497
▁你会觉得	-19498
▁和我们的	-19499
▁大部分的	-19500
▁完全没有	-19501
▁就是为了	-19502
▁帮助他们	-19503
▁我们也会	-19504
▁我们还要	-19505
▁我们都会	-19506
▁我收到了	-19507
▁我说的是	-19508
▁最后一点	-19509
▁有些时候	-19510
▁简单来说	-19511
▁这个就是	-19512
▁这个网站	-19513
▁这些国家	-19514
▁这些技术	-19515
▁这是一次	-19516
▁这种感觉	-19517
不可能的事	-19518
伊拉克战争	-19519
做任何事情	-19520
几乎所有的	-19521
出现的时候	-19522
[...]
